{
  "version": "1.0",
  "truncation": null,
  "padding": null,
  "added_tokens": [
    {
      "id": 0,
      "content": "[UNK]",
      "single_word": false,
      "lstrip": false,
      "rstrip": false,
      "normalized": false,
      "special": true
    },
    {
      "id": 1,
      "content": "[PAD]",
      "single_word": false,
      "lstrip": false,
      "rstrip": false,
      "normalized": false,
      "special": true
    }
  ],
  "normalizer": {
    "type": "Sequence",
    "normalizers": [
      {
        "type": "NFKC"
      }
    ]
  },
  "pre_tokenizer": {
    "type": "BertPreTokenizer"
  },
  "post_processor": null,
  "decoder": null,
  "model": {
    "type": "BPE",
    "dropout": null,
    "unk_token": "[UNK]",
    "continuing_subword_prefix": "##",
    "end_of_word_suffix": null,
    "fuse_unk": false,
    "byte_fallback": false,
    "ignore_merges": false,
    "vocab": {
      "[UNK]": 0,
      "[PAD]": 1,
      "\"": 2,
      "&": 3,
      "'": 4,
      "(": 5,
      ")": 6,
      "+": 7,
      ",": 8,
      "-": 9,
      ".": 10,
      "/": 11,
      "0": 12,
      "1": 13,
      "2": 14,
      "3": 15,
      "4": 16,
      "5": 17,
      "6": 18,
      "7": 19,
      "8": 20,
      "9": 21,
      ":": 22,
      ";": 23,
      "<": 24,
      ">": 25,
      "@": 26,
      "[": 27,
      "\\": 28,
      "]": 29,
      "_": 30,
      "`": 31,
      "a": 32,
      "b": 33,
      "c": 34,
      "d": 35,
      "e": 36,
      "f": 37,
      "g": 38,
      "h": 39,
      "i": 40,
      "j": 41,
      "k": 42,
      "l": 43,
      "m": 44,
      "n": 45,
      "o": 46,
      "p": 47,
      "q": 48,
      "r": 49,
      "s": 50,
      "t": 51,
      "u": 52,
      "v": 53,
      "w": 54,
      "x": 55,
      "y": 56,
      "z": 57,
      "{": 58,
      "|": 59,
      "}": 60,
      "á": 61,
      "ä": 62,
      "é": 63,
      "í": 64,
      "ó": 65,
      "ô": 66,
      "ú": 67,
      "ý": 68,
      "ą": 69,
      "ć": 70,
      "č": 71,
      "ď": 72,
      "ę": 73,
      "ě": 74,
      "ĺ": 75,
      "ľ": 76,
      "ł": 77,
      "ń": 78,
      "ň": 79,
      "ŕ": 80,
      "ř": 81,
      "ś": 82,
      "š": 83,
      "ť": 84,
      "ů": 85,
      "ź": 86,
      "ż": 87,
      "ž": 88,
      "̇": 89,
      "а": 90,
      "б": 91,
      "в": 92,
      "г": 93,
      "д": 94,
      "е": 95,
      "ж": 96,
      "з": 97,
      "и": 98,
      "й": 99,
      "к": 100,
      "л": 101,
      "м": 102,
      "н": 103,
      "о": 104,
      "п": 105,
      "р": 106,
      "с": 107,
      "т": 108,
      "у": 109,
      "ф": 110,
      "х": 111,
      "ц": 112,
      "ч": 113,
      "ш": 114,
      "щ": 115,
      "ъ": 116,
      "ы": 117,
      "ь": 118,
      "э": 119,
      "ю": 120,
      "я": 121,
      "ё": 122,
      "–": 123,
      "—": 124,
      "„": 125,
      "##m": 126,
      "##o": 127,
      "##s": 128,
      "##h": 129,
      "##e": 130,
      "##r": 131,
      "##8": 132,
      "##0": 133,
      "##7": 134,
      "##2": 135,
      "##z": 136,
      "##1": 137,
      "##5": 138,
      "##a": 139,
      "##v": 140,
      "##l": 141,
      "##c": 142,
      "##á": 143,
      "##x": 144,
      "##k": 145,
      "##i": 146,
      "##6": 147,
      "##n": 148,
      "##g": 149,
      "##9": 150,
      "##j": 151,
      "##d": 152,
      "##t": 153,
      "##p": 154,
      "##4": 155,
      "##u": 156,
      "##w": 157,
      "##f": 158,
      "##3": 159,
      "##b": 160,
      "##y": 161,
      "##ů": 162,
      "##ž": 163,
      "##í": 164,
      "##а": 165,
      "##с": 166,
      "##н": 167,
      "##б": 168,
      "##и": 169,
      "##т": 170,
      "##о": 171,
      "##ж": 172,
      "##е": 173,
      "##q": 174,
      "##ř": 175,
      "##л": 176,
      "##д": 177,
      "##я": 178,
      "##в": 179,
      "##ь": 180,
      "##ú": 181,
      "##у": 182,
      "##р": 183,
      "##ш": 184,
      "##п": 185,
      "##š": 186,
      "##ě": 187,
      "##ż": 188,
      "##г": 189,
      "##ť": 190,
      "##м": 191,
      "##й": 192,
      "##ń": 193,
      "##ý": 194,
      "##č": 195,
      "##к": 196,
      "##з": 197,
      "##х": 198,
      "##ś": 199,
      "##é": 200,
      "##ł": 201,
      "##ň": 202,
      "##ц": 203,
      "##ą": 204,
      "##ę": 205,
      "##щ": 206,
      "##ć": 207,
      "##ю": 208,
      "##ч": 209,
      "##ď": 210,
      "##ы": 211,
      "##ф": 212,
      "##ё": 213,
      "##ó": 214,
      "##ä": 215,
      "##э": 216,
      "##ź": 217,
      "##ĺ": 218,
      "##ľ": 219,
      "##ъ": 220,
      "##ô": 221,
      "##ŕ": 222,
      "##̇": 223,
      "##ov": 224,
      "##an": 225,
      "##st": 226,
      "##en": 227,
      "##ar": 228,
      "##la": 229,
      "##er": 230,
      "##ol": 231,
      "##ka": 232,
      "##ch": 233,
      "##or": 234,
      "##in": 235,
      "##ová": 236,
      "##ro": 237,
      "##te": 238,
      "##al": 239,
      "##ce": 240,
      "##on": 241,
      "##ra": 242,
      "##ik": 243,
      "##sk": 244,
      "sp": 245,
      "##vi": 246,
      "##ek": 247,
      "##da": 248,
      "##el": 249,
      "##ní": 250,
      "##om": 251,
      "##at": 252,
      "##ci": 253,
      "spol": 254,
      "##ej": 255,
      "##no": 256,
      "##et": 257,
      "##es": 258,
      "##il": 259,
      "##ova": 260,
      "##na": 261,
      "##ou": 262,
      "##ic": 263,
      "##ed": 264,
      "##ice": 265,
      "##ta": 266,
      "mar": 267,
      "##va": 268,
      "##eč": 269,
      "##em": 270,
      "##ru": 271,
      "##od": 272,
      "lik": 273,
      "##vida": 274,
      "pro": 275,
      "##ad": 276,
      "##vidaci": 277,
      "##ěj": 278,
      "##os": 279,
      "##ec": 280,
      "likvidaci": 281,
      "##it": 282,
      "##ší": 283,
      "an": 284,
      "##stv": 285,
      "##is": 286,
      "##ob": 287,
      "##ková": 288,
      "##ub": 289,
      "##as": 290,
      "##ut": 291,
      "##ia": 292,
      "společ": 293,
      "##us": 294,
      "in": 295,
      "##za": 296,
      "##ější": 297,
      "##im": 298,
      "vla": 299,
      "st": 300,
      "nej": 301,
      "ma": 302,
      "vy": 303,
      "##oz": 304,
      "##ul": 305,
      "##am": 306,
      "##ko": 307,
      "##ina": 308,
      "##dr": 309,
      "##av": 310,
      "##ho": 311,
      "##tel": 312,
      "##ska": 313,
      "##ni": 314,
      "##uj": 315,
      "##ot": 316,
      "##ir": 317,
      "##ur": 318,
      "##ník": 319,
      "vlast": 320,
      "##ana": 321,
      "##le": 322,
      "##ství": 323,
      "##li": 324,
      "##ов": 325,
      "##ani": 326,
      "##lav": 327,
      "společen": 328,
      "##ran": 329,
      "##ing": 330,
      "mi": 331,
      "##níků": 332,
      "##yn": 333,
      "##ma": 334,
      "společenství": 335,
      "##ent": 336,
      "##ys": 337,
      "od": 338,
      "##ří": 339,
      "##op": 340,
      "##ie": 341,
      "vlastníků": 342,
      "or": 343,
      "ch": 344,
      "##ud": 345,
      "##me": 346,
      "re": 347,
      "##ab": 348,
      "roz": 349,
      "##up": 350,
      "##ech": 351,
      "##ak": 352,
      "##на": 353,
      "##nější": 354,
      "kr": 355,
      "##ská": 356,
      "##ion": 357,
      "##ká": 358,
      "##ena": 359,
      "##ez": 360,
      "##sto": 361,
      "##ruž": 362,
      "##ow": 363,
      "##tek": 364,
      "##eb": 365,
      "##est": 366,
      "cz": 367,
      "al": 368,
      "##ha": 369,
      "##yk": 370,
      "##ski": 371,
      "##nost": 372,
      "##ev": 373,
      "dom": 374,
      "##og": 375,
      "##um": 376,
      "##ovice": 377,
      "org": 378,
      "ob": 379,
      "prom": 380,
      "##yt": 381,
      "kl": 382,
      "pra": 383,
      "##cz": 384,
      "##mi": 385,
      "lu": 386,
      "##rá": 387,
      "##zace": 388,
      "##ny": 389,
      "organi": 390,
      "##ok": 391,
      "##id": 392,
      "##oj": 393,
      "jed": 394,
      "pet": 395,
      "##ovan": 396,
      "př": 397,
      "##un": 398,
      "##lí": 399,
      "##ika": 400,
      "organizace": 401,
      "##rad": 402,
      "ar": 403,
      "and": 404,
      "##iv": 405,
      "##ně": 406,
      "##ský": 407,
      "jedno": 408,
      "##orp": 409,
      "##ig": 410,
      "##aw": 411,
      "os": 412,
      "##ep": 413,
      "##stvo": 414,
      "##ist": 415,
      "##ate": 416,
      "##oh": 417,
      "##lá": 418,
      "##vá": 419,
      "##ič": 420,
      "kar": 421,
      "##ná": 422,
      "jan": 423,
      "##ap": 424,
      "##ost": 425,
      "aut": 426,
      "##yna": 427,
      "pr": 428,
      "##bor": 429,
      "##yl": 430,
      "##ák": 431,
      "mart": 432,
      "##uk": 433,
      "inc": 434,
      "společnost": 435,
      "jednotek": 436,
      "##ení": 437,
      "ser": 438,
      "##ан": 439,
      "druž": 440,
      "mich": 441,
      "##ky": 442,
      "tom": 443,
      "##eš": 444,
      "##any": 445,
      "družstvo": 446,
      "##ac": 447,
      "##ské": 448,
      "bar": 449,
      "mě": 450,
      "##tě": 451,
      "##ew": 452,
      "##ich": 453,
      "##ев": 454,
      "##ry": 455,
      "pod": 456,
      "##ort": 457,
      "rad": 458,
      "na": 459,
      "##ова": 460,
      "mí": 461,
      "jar": 462,
      "##ný": 463,
      "##lad": 464,
      "sta": 465,
      "##iva": 466,
      "za": 467,
      "##ert": 468,
      "##ín": 469,
      "pav": 470,
      "promovan": 471,
      "##ter": 472,
      "##rand": 473,
      "lo": 474,
      "##ри": 475,
      "##and": 476,
      "##ner": 477,
      "br": 478,
      "##ela": 479,
      "adr": 480,
      "##ip": 481,
      "##ib": 482,
      "##kov": 483,
      "fir": 484,
      "ag": 485,
      "##ata": 486,
      "nad": 487,
      "##mu": 488,
      "zd": 489,
      "##kova": 490,
      "##ly": 491,
      "##esa": 492,
      "gro": 493,
      "##of": 494,
      "pl": 495,
      "##eta": 496,
      "##án": 497,
      "##re": 498,
      "##ali": 499,
      "th": 500,
      "brand": 501,
      "če": 502,
      "##oc": 503,
      "##vest": 504,
      "jm": 505,
      "##ya": 506,
      "mon": 507,
      "sk": 508,
      "as": 509,
      "el": 510,
      "##oba": 511,
      "město": 512,
      "##uz": 513,
      "##ům": 514,
      "mil": 515,
      "##uš": 516,
      "##ba": 517,
      "firma": 518,
      "op": 519,
      "##ne": 520,
      "##ite": 521,
      "##mb": 522,
      "##ové": 523,
      "##kace": 524,
      "##ych": 525,
      "group": 526,
      "##ли": 527,
      "##áš": 528,
      "praha": 529,
      "##usz": 530,
      "osoba": 531,
      "##iš": 532,
      "##ard": 533,
      "místo": 534,
      "##aj": 535,
      "##ian": 536,
      "##ál": 537,
      "už": 538,
      "servi": 539,
      "autor": 540,
      "##ros": 541,
      "##man": 542,
      "##ivatel": 543,
      "uživatel": 544,
      "adresa": 545,
      "lokace": 546,
      "##éno": 547,
      "dr": 548,
      "jméno": 549,
      "iv": 550,
      "ol": 551,
      "##oš": 552,
      "sv": 553,
      "##ick": 554,
      "##ym": 555,
      "##icz": 556,
      "ji": 557,
      "ve": 558,
      "con": 559,
      "domu": 560,
      "pa": 561,
      "klub": 562,
      "##ef": 563,
      "##rom": 564,
      "##ír": 565,
      "spolek": 566,
      "da": 567,
      "##ен": 568,
      "petr": 569,
      "##olog": 570,
      "sh": 571,
      "##lo": 572,
      "corp": 573,
      "##lu": 574,
      "##art": 575,
      "com": 576,
      "##yst": 577,
      "ll": 578,
      "##rz": 579,
      "##telnější": 580,
      "##nik": 581,
      "##io": 582,
      "##ust": 583,
      "##ation": 584,
      "invest": 585,
      "##ult": 586,
      "ne": 587,
      "##ga": 588,
      "##td": 589,
      "hor": 590,
      "##ар": 591,
      "stav": 592,
      "sd": 593,
      "##ат": 594,
      "##cy": 595,
      "##čí": 596,
      "##oval": 597,
      "##lová": 598,
      "lim": 599,
      "kam": 600,
      "##uch": 601,
      "ltd": 602,
      "do": 603,
      "sz": 604,
      "##ona": 605,
      "##ár": 606,
      "##sp": 607,
      "le": 608,
      "##ле": 609,
      "trad": 610,
      "##ла": 611,
      "##kow": 612,
      "ka": 613,
      "##kola": 614,
      "##ited": 615,
      "ad": 616,
      "andr": 617,
      "limited": 618,
      "##mbh": 619,
      "##sky": 620,
      "##ин": 621,
      "ver": 622,
      "gmbh": 623,
      "rom": 624,
      "##ль": 625,
      "##rav": 626,
      "mat": 627,
      "##ity": 628,
      "po": 629,
      "ter": 630,
      "ra": 631,
      "tr": 632,
      "##ated": 633,
      "llc": 634,
      "##uc": 635,
      "martin": 636,
      "##eni": 637,
      "##orpor": 638,
      "real": 639,
      "##ěl": 640,
      "##lava": 641,
      "##yd": 642,
      "##tor": 643,
      "incorpor": 644,
      "incorporated": 645,
      "##enka": 646,
      "sa": 647,
      "##ja": 648,
      "##né": 649,
      "##ław": 650,
      "ex": 651,
      "##ět": 652,
      "##eck": 653,
      "##sz": 654,
      "##iz": 655,
      "anna": 656,
      "sm": 657,
      "##ast": 658,
      "##nut": 659,
      "jana": 660,
      "hol": 661,
      "ro": 662,
      "at": 663,
      "##yb": 664,
      "micha": 665,
      "##yc": 666,
      "##gor": 667,
      "mal": 668,
      "##rov": 669,
      "##ина": 670,
      "sdruž": 671,
      "pi": 672,
      "sdružení": 673,
      "##ara": 674,
      "##islav": 675,
      "##eh": 676,
      "on": 677,
      "kat": 678,
      "##ex": 679,
      "pat": 680,
      "mate": 681,
      "byt": 682,
      "##by": 683,
      "##ový": 684,
      "ok": 685,
      "comp": 686,
      "##ер": 687,
      "##ess": 688,
      "##áv": 689,
      "##ola": 690,
      "##lou": 691,
      "vlad": 692,
      "dob": 693,
      "ba": 694,
      "##nice": 695,
      "##yp": 696,
      "##sko": 697,
      "nat": 698,
      "##cí": 699,
      "##vaz": 700,
      "jaros": 701,
      "jak": 702,
      "##oci": 703,
      "##ty": 704,
      "zák": 705,
      "promovaný": 706,
      "pavel": 707,
      "##erová": 708,
      "promovaná": 709,
      "##ик": 710,
      "michal": 711,
      "##dř": 712,
      "##ment": 713,
      "mor": 714,
      "##ńska": 715,
      "##ant": 716,
      "cent": 717,
      "##ura": 718,
      "##ance": 719,
      "med": 720,
      "tech": 721,
      "##ladní": 722,
      "##rum": 723,
      "##eme": 724,
      "pol": 725,
      "##nic": 726,
      "ale": 727,
      "základní": 728,
      "##zd": 729,
      "kon": 730,
      "mag": 731,
      "##vy": 732,
      "ren": 733,
      "svaz": 734,
      "##pl": 735,
      "##ier": 736,
      "miros": 737,
      "##ož": 738,
      "boh": 739,
      "##ea": 740,
      "czech": 741,
      "la": 742,
      "vý": 743,
      "sport": 744,
      "##vid": 745,
      "##liv": 746,
      "zb": 747,
      "dani": 748,
      "##ева": 749,
      "dům": 750,
      "cons": 751,
      "##tr": 752,
      "kra": 753,
      "škola": 754,
      "##ete": 755,
      "ph": 756,
      "##čková": 757,
      "sol": 758,
      "eu": 759,
      "##sc": 760,
      "##jí": 761,
      "mark": 762,
      "nejn": 763,
      "fil": 764,
      "##ěk": 765,
      "##oř": 766,
      "ada": 767,
      "fran": 768,
      "stan": 769,
      "service": 770,
      "##gu": 771,
      "##wa": 772,
      "##ví": 773,
      "ма": 774,
      "##ers": 775,
      "##pr": 776,
      "jakub": 777,
      "spolec": 778,
      "##nu": 779,
      "##ěji": 780,
      "##00": 781,
      "pří": 782,
      "##och": 783,
      "##yr": 784,
      "##ila": 785,
      "##ор": 786,
      "##esz": 787,
      "inter": 788,
      "##ine": 789,
      "##ace": 790,
      "tomáš": 791,
      "##iak": 792,
      "jiří": 793,
      "##ita": 794,
      "monika": 795,
      "##lov": 796,
      "##enější": 797,
      "##ček": 798,
      "##owska": 799,
      "trade": 800,
      "##ge": 801,
      "##ze": 802,
      "marek": 803,
      "##ка": 804,
      "##št": 805,
      "##ík": 806,
      "##end": 807,
      "consult": 808,
      "en": 809,
      "karol": 810,
      "šk": 811,
      "##cie": 812,
      "roman": 813,
      "##ysz": 814,
      "petra": 815,
      "##zi": 816,
      "ab": 817,
      "dar": 818,
      "sch": 819,
      "kom": 820,
      "##ený": 821,
      "##ck": 822,
      "am": 823,
      "adam": 824,
      "nik": 825,
      "##ler": 826,
      "##ous": 827,
      "hon": 828,
      "jos": 829,
      "##кс": 830,
      "kub": 831,
      "ste": 832,
      "##rat": 833,
      "##pa": 834,
      "##ční": 835,
      "##asz": 836,
      "##arz": 837,
      "##dal": 838,
      "##lub": 839,
      "spolecen": 840,
      "##tá": 841,
      "##ri": 842,
      "vel": 843,
      "##nov": 844,
      "lib": 845,
      "##řina": 846,
      "lenka": 847,
      "##та": 848,
      "##ра": 849,
      "rob": 850,
      "from": 851,
      "##ct": 852,
      "mik": 853,
      "dan": 854,
      "han": 855,
      "##ekt": 856,
      "##iew": 857,
      "servis": 858,
      "ha": 859,
      "##ко": 860,
      "##gorz": 861,
      "##им": 862,
      "##oč": 863,
      "čp": 864,
      "car": 865,
      "##ula": 866,
      "david": 867,
      "##áková": 868,
      "val": 869,
      "em": 870,
      "ed": 871,
      "##eny": 872,
      "##onika": 873,
      "ná": 874,
      "voj": 875,
      "##он": 876,
      "kate": 877,
      "##stvi": 878,
      "eva": 879,
      "##ton": 880,
      "ir": 881,
      "##th": 882,
      "##if": 883,
      "##vě": 884,
      "rod": 885,
      "##sa": 886,
      "kol": 887,
      "bro": 888,
      "prof": 889,
      "##rop": 890,
      "##zy": 891,
      "##val": 892,
      "company": 893,
      "##czyk": 894,
      "##eks": 895,
      "far": 896,
      "##mar": 897,
      "##ей": 898,
      "be": 899,
      "##fa": 900,
      "josef": 901,
      "##lan": 902,
      "##ond": 903,
      "##ński": 904,
      "zá": 905,
      "brno": 906,
      "##zak": 907,
      "lucie": 908,
      "gab": 909,
      "##ezd": 910,
      "tran": 911,
      "##ily": 912,
      "kor": 913,
      "##ím": 914,
      "fr": 915,
      "##niku": 916,
      "alex": 917,
      "zden": 918,
      "##lat": 919,
      "zuz": 920,
      "ks": 921,
      "dol": 922,
      "hel": 923,
      "##ičů": 924,
      "bor": 925,
      "spolecenstvi": 926,
      "sro": 927,
      "vl": 928,
      "##las": 929,
      "zp": 930,
      "##íš": 931,
      "daniel": 932,
      "##ická": 933,
      "zah": 934,
      "##cová": 935,
      "domin": 936,
      "vys": 937,
      "my": 938,
      "arch": 939,
      "jir": 940,
      "##otr": 941,
      "##bi": 942,
      "bu": 943,
      "ul": 944,
      "centrum": 945,
      "ан": 946,
      "##ují": 947,
      "vá": 948,
      "##rt": 949,
      "##eg": 950,
      "martina": 951,
      "ost": 952,
      "hana": 953,
      "##ební": 954,
      "##át": 955,
      "vlastniku": 956,
      "has": 957,
      "##qu": 958,
      "vladim": 959,
      "lab": 960,
      "##ecký": 961,
      "##ává": 962,
      "##ilo": 963,
      "##vis": 964,
      "##owski": 965,
      "bytové": 966,
      "krz": 967,
      "##ork": 968,
      "paw": 969,
      "##ding": 970,
      "rep": 971,
      "##čka": 972,
      "##lin": 973,
      "##ora": 974,
      "ber": 975,
      "zk": 976,
      "čer": 977,
      "den": 978,
      "##ła": 979,
      "krist": 980,
      "##řed": 981,
      "při": 982,
      "sr": 983,
      "##co": 984,
      "##ey": 985,
      "fin": 986,
      "##ář": 987,
      "##káš": 988,
      "##go": 989,
      "##ms": 990,
      "##ies": 991,
      "##gr": 992,
      "##to": 993,
      "české": 994,
      "jaroslav": 995,
      "##eno": 996,
      "##andra": 997,
      "stud": 998,
      "ta": 999,
      "miroslav": 1000,
      "##ili": 1001,
      "##ných": 1002,
      "rev": 1003,
      "##uka": 1004,
      "veronika": 1005,
      "um": 1006,
      "star": 1007,
      "ja": 1008,
      "ak": 1009,
      "##iusz": 1010,
      "er": 1011,
      "##chod": 1012,
      "##iewicz": 1013,
      "##lé": 1014,
      "##ež": 1015,
      "##rab": 1016,
      "##anna": 1017,
      "va": 1018,
      "lub": 1019,
      "##alová": 1020,
      "lukáš": 1021,
      "##aly": 1022,
      "dev": 1023,
      "lud": 1024,
      "##ff": 1025,
      "але": 1026,
      "##рина": 1027,
      "##ejme": 1028,
      "zm": 1029,
      "##lik": 1030,
      "##ích": 1031,
      "patr": 1032,
      "ev": 1033,
      "##era": 1034,
      "sbor": 1035,
      "milan": 1036,
      "##ii": 1037,
      "##ми": 1038,
      "plus": 1039,
      "kateřina": 1040,
      "yn": 1041,
      "##ejte": 1042,
      "##eszka": 1043,
      "consulting": 1044,
      "##cin": 1045,
      "art": 1046,
      "##hop": 1047,
      "##ron": 1048,
      "sim": 1049,
      "##12": 1050,
      "##ický": 1051,
      "ko": 1052,
      "##our": 1053,
      "##kowska": 1054,
      "##lova": 1055,
      "mys": 1056,
      "marce": 1057,
      "##ect": 1058,
      "##kovice": 1059,
      "##lic": 1060,
      "##ution": 1061,
      "##pert": 1062,
      "pop": 1063,
      "##nul": 1064,
      "##áz": 1065,
      "michaela": 1066,
      "zs": 1067,
      "mu": 1068,
      "par": 1069,
      "##ур": 1070,
      "##eva": 1071,
      "##ujme": 1072,
      "lad": 1073,
      "dra": 1074,
      "radek": 1075,
      "český": 1076,
      "##enko": 1077,
      "vos": 1078,
      "ps": 1079,
      "bi": 1080,
      "jo": 1081,
      "##yka": 1082,
      "##sta": 1083,
      "tř": 1084,
      "im": 1085,
      "##oun": 1086,
      "##ca": 1087,
      "gen": 1088,
      "##íková": 1089,
      "des": 1090,
      "##dě": 1091,
      "##elop": 1092,
      "ener": 1093,
      "##stav": 1094,
      "woj": 1095,
      "ku": 1096,
      "##uju": 1097,
      "10": 1098,
      "fa": 1099,
      "repub": 1100,
      "##ti": 1101,
      "kas": 1102,
      "bo": 1103,
      "lyk": 1104,
      "##ational": 1105,
      "robert": 1106,
      "##mat": 1107,
      "##ber": 1108,
      "##res": 1109,
      "##ička": 1110,
      "##vyda": 1111,
      "##ive": 1112,
      "ge": 1113,
      "li": 1114,
      "intern": 1115,
      "##per": 1116,
      "##ejší": 1117,
      "filip": 1118,
      "##ад": 1119,
      "##eza": 1120,
      "##iktor": 1121,
      "dobrov": 1122,
      "##ujete": 1123,
      "##yan": 1124,
      "grz": 1125,
      "##ewska": 1126,
      "co": 1127,
      "zh": 1128,
      "##ěv": 1129,
      "ivan": 1130,
      "##ital": 1131,
      "##dp": 1132,
      "##yz": 1133,
      "frant": 1134,
      "develop": 1135,
      "magdal": 1136,
      "vz": 1137,
      "##rb": 1138,
      "for": 1139,
      "##mo": 1140,
      "vol": 1141,
      "pe": 1142,
      "##ст": 1143,
      "marta": 1144,
      "mot": 1145,
      "bud": 1146,
      "##itelnější": 1147,
      "se": 1148,
      "##nou": 1149,
      "piotr": 1150,
      "alena": 1151,
      "##kon": 1152,
      "marie": 1153,
      "ap": 1154,
      "nejp": 1155,
      "##tof": 1156,
      "ops": 1157,
      "anton": 1158,
      "ben": 1159,
      "vác": 1160,
      "##roz": 1161,
      "##ště": 1162,
      "gra": 1163,
      "##mila": 1164,
      "uni": 1165,
      "hrad": 1166,
      "aleks": 1167,
      "##luž": 1168,
      "##gy": 1169,
      "te": 1170,
      "jul": 1171,
      "##yng": 1172,
      "dobrovol": 1173,
      "##vr": 1174,
      "bart": 1175,
      "алекс": 1176,
      "##rod": 1177,
      "##her": 1178,
      "om": 1179,
      "##ang": 1180,
      "karel": 1181,
      "##ujte": 1182,
      "##ий": 1183,
      "sl": 1184,
      "##nějšího": 1185,
      "##ška": 1186,
      "##ovy": 1187,
      "sportov": 1188,
      "##др": 1189,
      "rozp": 1190,
      "jit": 1191,
      "agni": 1192,
      "##ол": 1193,
      "##lep": 1194,
      "##ki": 1195,
      "natal": 1196,
      "##řská": 1197,
      "##rava": 1198,
      "##ovalo": 1199,
      "##čan": 1200,
      "dv": 1201,
      "tereza": 1202,
      "ví": 1203,
      "##ия": 1204,
      "ště": 1205,
      "##га": 1206,
      "##ood": 1207,
      "syst": 1208,
      "services": 1209,
      "gl": 1210,
      "renata": 1211,
      "##roj": 1212,
      "##ota": 1213,
      "škol": 1214,
      "katarz": 1215,
      "agnieszka": 1216,
      "techn": 1217,
      "##átel": 1218,
      "odbor": 1219,
      "##osz": 1220,
      "tru": 1221,
      "kř": 1222,
      "##let": 1223,
      "##tech": 1224,
      "zuzana": 1225,
      "##ča": 1226,
      "vě": 1227,
      "##ков": 1228,
      "prod": 1229,
      "morav": 1230,
      "##ет": 1231,
      "ac": 1232,
      "##něji": 1233,
      "##nějšímu": 1234,
      "##ир": 1235,
      "kal": 1236,
      "pla": 1237,
      "##int": 1238,
      "gal": 1239,
      "per": 1240,
      "eli": 1241,
      "kop": 1242,
      "zdeněk": 1243,
      "solution": 1244,
      "##ovali": 1245,
      "##ův": 1246,
      "pot": 1247,
      "##ována": 1248,
      "##ovala": 1249,
      "##chov": 1250,
      "##zej": 1251,
      "##sh": 1252,
      "club": 1253,
      "##eł": 1254,
      "proj": 1255,
      "##mě": 1256,
      "##eř": 1257,
      "##šk": 1258,
      "##iel": 1259,
      "bla": 1260,
      "##tová": 1261,
      "jin": 1262,
      "št": 1263,
      "12": 1264,
      "obec": 1265,
      "por": 1266,
      "magdalena": 1267,
      "mał": 1268,
      "sok": 1269,
      "##bal": 1270,
      "##ox": 1271,
      "mir": 1272,
      "11": 1273,
      "dor": 1274,
      "##ráv": 1275,
      "soci": 1276,
      "nejz": 1277,
      "přátel": 1278,
      "##my": 1279,
      "pan": 1280,
      "##ян": 1281,
      "václav": 1282,
      "##ruz": 1283,
      "##enice": 1284,
      "česká": 1285,
      "##íl": 1286,
      "international": 1287,
      "##ujeme": 1288,
      "##енко": 1289,
      "gr": 1290,
      "##osp": 1291,
      "##ujou": 1292,
      "##olf": 1293,
      "marcin": 1294,
      "##ína": 1295,
      "qu": 1296,
      "ot": 1297,
      "oh": 1298,
      "##nějších": 1299,
      "##ул": 1300,
      "##itel": 1301,
      "##ovaly": 1302,
      "##yg": 1303,
      "##čice": 1304,
      "est": 1305,
      "her": 1306,
      "##gorzata": 1307,
      "##eň": 1308,
      "horní": 1309,
      "##lice": 1310,
      "##dřej": 1311,
      "##iela": 1312,
      "hal": 1313,
      "holding": 1314,
      "syl": 1315,
      "jitka": 1316,
      "ivana": 1317,
      "##omír": 1318,
      "##ij": 1319,
      "il": 1320,
      "##old": 1321,
      "са": 1322,
      "##ých": 1323,
      "ondřej": 1324,
      "ec": 1325,
      "reality": 1326,
      "zo": 1327,
      "##ováni": 1328,
      "kryst": 1329,
      "ho": 1330,
      "van": 1331,
      "ва": 1332,
      "##ára": 1333,
      "vp": 1334,
      "bez": 1335,
      "de": 1336,
      "##ил": 1337,
      "min": 1338,
      "##hod": 1339,
      "##uje": 1340,
      "##ovská": 1341,
      "log": 1342,
      "##кова": 1343,
      "bur": 1344,
      "##uji": 1345,
      "ewa": 1346,
      "##iana": 1347,
      "##ign": 1348,
      "mysliv": 1349,
      "##ram": 1350,
      "mas": 1351,
      "##ás": 1352,
      "part": 1353,
      "##ovat": 1354,
      "##ováno": 1355,
      "##vice": 1356,
      "##ého": 1357,
      "##nějším": 1358,
      "##uč": 1359,
      "bř": 1360,
      "##ování": 1361,
      "##kowski": 1362,
      "cr": 1363,
      "##ského": 1364,
      "##ement": 1365,
      "up": 1366,
      "sokol": 1367,
      "les": 1368,
      "man": 1369,
      "kamil": 1370,
      "pob": 1371,
      "##owicz": 1372,
      "max": 1373,
      "##ouš": 1374,
      "zv": 1375,
      "##uješ": 1376,
      "bal": 1377,
      "##ence": 1378,
      "tomasz": 1379,
      "katarzyna": 1380,
      "bog": 1381,
      "##ht": 1382,
      "krzysz": 1383,
      "##czak": 1384,
      "##ix": 1385,
      "dobrovolných": 1386,
      "##há": 1387,
      "##isa": 1388,
      "top": 1389,
      "mych": 1390,
      "čms": 1391,
      "##ell": 1392,
      "##cl": 1393,
      "met": 1394,
      "##ku": 1395,
      "##bora": 1396,
      "občan": 1397,
      "lé": 1398,
      "kost": 1399,
      "prz": 1400,
      "##ován": 1401,
      "##rob": 1402,
      "rt": 1403,
      "##ary": 1404,
      "kla": 1405,
      "kos": 1406,
      "odp": 1407,
      "##ord": 1408,
      "pp": 1409,
      "ves": 1410,
      "sou": 1411,
      "sil": 1412,
      "##ovi": 1413,
      "marké": 1414,
      "hr": 1415,
      "paweł": 1416,
      "##kad": 1417,
      "##ма": 1418,
      "sam": 1419,
      "františ": 1420,
      "##dra": 1421,
      "andrea": 1422,
      "krzysztof": 1423,
      "##ill": 1424,
      "mr": 1425,
      "##cha": 1426,
      "investment": 1427,
      "ga": 1428,
      "aneta": 1429,
      "##ecka": 1430,
      "łuka": 1431,
      "##isz": 1432,
      "just": 1433,
      "gabr": 1434,
      "13": 1435,
      "mak": 1436,
      "et": 1437,
      "paul": 1438,
      "##ovány": 1439,
      "dolní": 1440,
      "##nějšími": 1441,
      "obchod": 1442,
      "##han": 1443,
      "##kiewicz": 1444,
      "##ém": 1445,
      "technolog": 1446,
      "hav": 1447,
      "wal": 1448,
      "##mon": 1449,
      "##ve": 1450,
      "##van": 1451,
      "##ikova": 1452,
      "vas": 1453,
      "joanna": 1454,
      "olga": 1455,
      "luka": 1456,
      "mateřská": 1457,
      "nem": 1458,
      "poz": 1459,
      "##oda": 1460,
      "system": 1461,
      "nikola": 1462,
      "maj": 1463,
      "##len": 1464,
      "sportovní": 1465,
      "koz": 1466,
      "mod": 1467,
      "##áč": 1468,
      "##ша": 1469,
      "##kop": 1470,
      "barbora": 1471,
      "karolina": 1472,
      "andrzej": 1473,
      "##ecká": 1474,
      "##andr": 1475,
      "cap": 1476,
      "markéta": 1477,
      "łukasz": 1478,
      "stra": 1479,
      "##itek": 1480,
      "##ium": 1481,
      "##port": 1482,
      "dam": 1483,
      "##ss": 1484,
      "zas": 1485,
      "kv": 1486,
      "helena": 1487,
      "##cích": 1488,
      "##ějším": 1489,
      "vr": 1490,
      "##ure": 1491,
      "##ewski": 1492,
      "##chová": 1493,
      "auto": 1494,
      "ing": 1495,
      "##ug": 1496,
      "##лина": 1497,
      "##ica": 1498,
      "##oup": 1499,
      "##icka": 1500,
      "nov": 1501,
      "zem": 1502,
      "elekt": 1503,
      "michał": 1504,
      "##zeň": 1505,
      "##ějšími": 1506,
      "development": 1507,
      "##да": 1508,
      "##10": 1509,
      "hasičů": 1510,
      "rud": 1511,
      "##lád": 1512,
      "##oslav": 1513,
      "tur": 1514,
      "pok": 1515,
      "##rád": 1516,
      "us": 1517,
      "##led": 1518,
      "kot": 1519,
      "dag": 1520,
      "##stru": 1521,
      "##oň": 1522,
      "maci": 1523,
      "maria": 1524,
      "barb": 1525,
      "##arová": 1526,
      "##ind": 1527,
      "##stí": 1528,
      "##inka": 1529,
      "##ýna": 1530,
      "małgorzata": 1531,
      "zak": 1532,
      "##kl": 1533,
      "zn": 1534,
      "ros": 1535,
      "dana": 1536,
      "net": 1537,
      "##sek": 1538,
      "marcela": 1539,
      "dop": 1540,
      "##ád": 1541,
      "reg": 1542,
      "lho": 1543,
      "gre": 1544,
      "##če": 1545,
      "ка": 1546,
      "vladimír": 1547,
      "##for": 1548,
      "kru": 1549,
      "solutions": 1550,
      "irena": 1551,
      "nová": 1552,
      "##iny": 1553,
      "pavla": 1554,
      "##něme": 1555,
      "lit": 1556,
      "##ějšímu": 1557,
      "##nová": 1558,
      "##raz": 1559,
      "seb": 1560,
      "##ис": 1561,
      "viktor": 1562,
      "##ус": 1563,
      "##alo": 1564,
      "it": 1565,
      "františek": 1566,
      "##ske": 1567,
      "##ovský": 1568,
      "##ory": 1569,
      "okres": 1570,
      "##dřich": 1571,
      "##lík": 1572,
      "gabriela": 1573,
      "##ash": 1574,
      "##uh": 1575,
      "služ": 1576,
      "europ": 1577,
      "grze": 1578,
      "nejne": 1579,
      "##ата": 1580,
      "##pt": 1581,
      "##ilová": 1582,
      "vyb": 1583,
      "přísp": 1584,
      "příspěv": 1585,
      "##rová": 1586,
      "nejv": 1587,
      "vod": 1588,
      "##are": 1589,
      "##íme": 1590,
      "kur": 1591,
      "sob": 1592,
      "šp": 1593,
      "štěp": 1594,
      "příspěvková": 1595,
      "trading": 1596,
      "##kat": 1597,
      "kap": 1598,
      "střed": 1599,
      "##ong": 1600,
      "##ám": 1601,
      "##und": 1602,
      "work": 1603,
      "propert": 1604,
      "##lý": 1605,
      "##ster": 1606,
      "team": 1607,
      "vyh": 1608,
      "py": 1609,
      "stavební": 1610,
      "##wi": 1611,
      "##iště": 1612,
      "pal": 1613,
      "##ožka": 1614,
      "mateusz": 1615,
      "##ом": 1616,
      "ryb": 1617,
      "##ke": 1618,
      "hom": 1619,
      "fond": 1620,
      "##gue": 1621,
      "vin": 1622,
      "zap": 1623,
      "##ore": 1624,
      "str": 1625,
      "zt": 1626,
      "čr": 1627,
      "trans": 1628,
      "jednota": 1629,
      "dominik": 1630,
      "##law": 1631,
      "##uta": 1632,
      "##zab": 1633,
      "ladislav": 1634,
      "##ih": 1635,
      "##ero": 1636,
      "bohem": 1637,
      "##ners": 1638,
      "##wia": 1639,
      "##uct": 1640,
      "14": 1641,
      "##oł": 1642,
      "##ish": 1643,
      "##íte": 1644,
      "##kař": 1645,
      "##fe": 1646,
      "ang": 1647,
      "kamila": 1648,
      "bus": 1649,
      "##iž": 1650,
      "##ld": 1651,
      "vyt": 1652,
      "##ien": 1653,
      "beata": 1654,
      "ms": 1655,
      "##po": 1656,
      "##yen": 1657,
      "stanislav": 1658,
      "15": 1659,
      "cho": 1660,
      "##yta": 1661,
      "##les": 1662,
      "##row": 1663,
      "##ické": 1664,
      "##íd": 1665,
      "svazu": 1666,
      "##obal": 1667,
      "##ья": 1668,
      "europe": 1669,
      "barbara": 1670,
      "kraj": 1671,
      "##řel": 1672,
      "iw": 1673,
      "##11": 1674,
      "##ima": 1675,
      "##one": 1676,
      "luc": 1677,
      "##bo": 1678,
      "##ějšího": 1679,
      "##mus": 1680,
      "nada": 1681,
      "##kal": 1682,
      "##cial": 1683,
      "lou": 1684,
      "##ove": 1685,
      "сер": 1686,
      "media": 1687,
      "stavby": 1688,
      "třeb": 1689,
      "##czy": 1690,
      "the": 1691,
      "he": 1692,
      "ass": 1693,
      "##arch": 1694,
      "##árka": 1695,
      "rodičů": 1696,
      "ly": 1697,
      "20": 1698,
      "sup": 1699,
      "grzegorz": 1700,
      "##řice": 1701,
      "##ger": 1702,
      "##ft": 1703,
      "prague": 1704,
      "sal": 1705,
      "lip": 1706,
      "blan": 1707,
      "##ха": 1708,
      "studio": 1709,
      "asoci": 1710,
      "du": 1711,
      "##cova": 1712,
      "sab": 1713,
      "##ел": 1714,
      "##jezd": 1715,
      "##ич": 1716,
      "pom": 1717,
      "mana": 1718,
      "##ба": 1719,
      "farma": 1720,
      "plzeň": 1721,
      "asociace": 1722,
      "natalia": 1723,
      "##ink": 1724,
      "gast": 1725,
      "##ye": 1726,
      "res": 1727,
      "##br": 1728,
      "16": 1729,
      "zam": 1730,
      "sed": 1731,
      "##istor": 1732,
      "fl": 1733,
      "##ise": 1734,
      "tomas": 1735,
      "jur": 1736,
      "##кая": 1737,
      "##děl": 1738,
      "rozk": 1739,
      "inst": 1740,
      "##lab": 1741,
      "##hy": 1742,
      "občanské": 1743,
      "17": 1744,
      "##ед": 1745,
      "psych": 1746,
      "га": 1747,
      "алексан": 1748,
      "myl": 1749,
      "##ver": 1750,
      "vyz": 1751,
      "##rus": 1752,
      "##lid": 1753,
      "estate": 1754,
      "dub": 1755,
      "euro": 1756,
      "štěpán": 1757,
      "##skova": 1758,
      "rich": 1759,
      "##nuto": 1760,
      "vi": 1761,
      "eng": 1762,
      "##ск": 1763,
      "ngu": 1764,
      "##ruš": 1765,
      "##lez": 1766,
      "##aty": 1767,
      "ct": 1768,
      "##anová": 1769,
      "ар": 1770,
      "##ální": 1771,
      "##gen": 1772,
      "##ouse": 1773,
      "vzd": 1774,
      "ca": 1775,
      "mach": 1776,
      "tra": 1777,
      "jy": 1778,
      "ната": 1779,
      "##mer": 1780,
      "och": 1781,
      "hub": 1782,
      "##áj": 1783,
      "chem": 1784,
      "mel": 1785,
      "daw": 1786,
      "iveta": 1787,
      "##ějších": 1788,
      "dp": 1789,
      "aleksandra": 1790,
      "##ány": 1791,
      "uk": 1792,
      "vit": 1793,
      "##tví": 1794,
      "ur": 1795,
      "bas": 1796,
      "har": 1797,
      "is": 1798,
      "##vo": 1799,
      "vyk": 1800,
      "král": 1801,
      "##20": 1802,
      "##uše": 1803,
      "##acek": 1804,
      "##oud": 1805,
      "##oub": 1806,
      "pavlí": 1807,
      "##ava": 1808,
      "##sport": 1809,
      "##vou": 1810,
      "dem": 1811,
      "dis": 1812,
      "##šek": 1813,
      "tj": 1814,
      "##vič": 1815,
      "##рий": 1816,
      "nejb": 1817,
      "##99": 1818,
      "radka": 1819,
      "market": 1820,
      "dorota": 1821,
      "sem": 1822,
      "sc": 1823,
      "patrik": 1824,
      "##за": 1825,
      "##ecz": 1826,
      "##13": 1827,
      "rozv": 1828,
      "agen": 1829,
      "##ińska": 1830,
      "##říz": 1831,
      "kul": 1832,
      "jr": 1833,
      "ба": 1834,
      "##itekt": 1835,
      "##ors": 1836,
      "dagmar": 1837,
      "##ovna": 1838,
      "kun": 1839,
      "##uf": 1840,
      "##lář": 1841,
      "šárka": 1842,
      "dig": 1843,
      "##dan": 1844,
      "bl": 1845,
      "ce": 1846,
      "jol": 1847,
      "##лья": 1848,
      "vyp": 1849,
      "##šová": 1850,
      "rozm": 1851,
      "##dy": 1852,
      "##ouc": 1853,
      "##лия": 1854,
      "##vat": 1855,
      "tel": 1856,
      "##ics": 1857,
      "aleš": 1858,
      "rafa": 1859,
      "##sob": 1860,
      "##рия": 1861,
      "vyst": 1862,
      "odk": 1863,
      "18": 1864,
      "##cek": 1865,
      "manag": 1866,
      "ми": 1867,
      "##iy": 1868,
      "##ycz": 1869,
      "nep": 1870,
      "##erova": 1871,
      "##íč": 1872,
      "iva": 1873,
      "fed": 1874,
      "bab": 1875,
      "lykvyda": 1876,
      "##iga": 1877,
      "sof": 1878,
      "me": 1879,
      "ju": 1880,
      "ра": 1881,
      "##ného": 1882,
      "##bieta": 1883,
      "##anta": 1884,
      "ew": 1885,
      "##neš": 1886,
      "##anov": 1887,
      "dět": 1888,
      "svob": 1889,
      "zal": 1890,
      "##inová": 1891,
      "global": 1892,
      "un": 1893,
      "wi": 1894,
      "mudr": 1895,
      "bel": 1896,
      "##anova": 1897,
      "labem": 1898,
      "##ide": 1899,
      "wor": 1900,
      "jer": 1901,
      "##elová": 1902,
      "ко": 1903,
      "##ering": 1904,
      "##hor": 1905,
      "nal": 1906,
      "lin": 1907,
      "##íř": 1908,
      "gam": 1909,
      "management": 1910,
      "##neme": 1911,
      "kristýna": 1912,
      "##gam": 1913,
      "jaroslava": 1914,
      "##sková": 1915,
      "mer": 1916,
      "##něte": 1917,
      "věra": 1918,
      "##tice": 1919,
      "##ráž": 1920,
      "##por": 1921,
      "oz": 1922,
      "ham": 1923,
      "šim": 1924,
      "##yně": 1925,
      "di": 1926,
      "##inska": 1927,
      "##šť": 1928,
      "##arova": 1929,
      "kh": 1930,
      "##rub": 1931,
      "##líž": 1932,
      "mariusz": 1933,
      "kov": 1934,
      "libor": 1935,
      "##oložka": 1936,
      "##nuta": 1937,
      "del": 1938,
      "společenstvo": 1939,
      "stanis": 1940,
      "##nictví": 1941,
      "likvyda": 1942,
      "##dová": 1943,
      "vojtě": 1944,
      "##out": 1945,
      "##nuti": 1946,
      "dm": 1947,
      "##ens": 1948,
      "agro": 1949,
      "histor": 1950,
      "##už": 1951,
      "product": 1952,
      "velk": 1953,
      "slav": 1954,
      "col": 1955,
      "sebast": 1956,
      "dominika": 1957,
      "kuba": 1958,
      "spe": 1959,
      "design": 1960,
      "##gl": 1961,
      "ana": 1962,
      "hu": 1963,
      "##elina": 1964,
      "poh": 1965,
      "instit": 1966,
      "úč": 1967,
      "elektro": 1968,
      "lhota": 1969,
      "těl": 1970,
      "wa": 1971,
      "##vidacy": 1972,
      "##jed": 1973,
      "##кина": 1974,
      "bit": 1975,
      "##šov": 1976,
      "ub": 1977,
      "vym": 1978,
      "honební": 1979,
      "##íra": 1980,
      "##од": 1981,
      "##ery": 1982,
      "##vin": 1983,
      "##ovatel": 1984,
      "lí": 1985,
      "ven": 1986,
      "odst": 1987,
      "##nerová": 1988,
      "rus": 1989,
      "si": 1990,
      "gar": 1991,
      "##tej": 1992,
      "olom": 1993,
      "vs": 1994,
      "##kt": 1995,
      "uz": 1996,
      "##ade": 1997,
      "honza": 1998,
      "##fan": 1999,
      "##ower": 2000,
      "##ven": 2001,
      "##анов": 2002,
      "##lejší": 2003,
      "kasia": 2004,
      "vyd": 2005,
      "simona": 2006,
      "rek": 2007,
      "##ělá": 2008,
      "##mann": 2009,
      "der": 2010,
      "##22": 2011,
      "##šín": 2012,
      "justyna": 2013,
      "thi": 2014,
      "bol": 2015,
      "zel": 2016,
      "klára": 2017,
      "##ysl": 2018,
      "##zer": 2019,
      "uh": 2020,
      "##yce": 2021,
      "rafał": 2022,
      "bohemia": 2023,
      "19": 2024,
      "matěj": 2025,
      "yv": 2026,
      "vac": 2027,
      "##iss": 2028,
      "finance": 2029,
      "agency": 2030,
      "##ock": 2031,
      "##yslav": 2032,
      "energy": 2033,
      "uměl": 2034,
      "przem": 2035,
      "##lín": 2036,
      "##lak": 2037,
      "lid": 2038,
      "nejd": 2039,
      "##xx": 2040,
      "##лад": 2041,
      "##telnějšího": 2042,
      "##ůr": 2043,
      "magda": 2044,
      "##ская": 2045,
      "artur": 2046,
      "myslivecký": 2047,
      "pard": 2048,
      "zat": 2049,
      "##ps": 2050,
      "##ino": 2051,
      "mari": 2052,
      "##áček": 2053,
      "##kář": 2054,
      "##čová": 2055,
      "tro": 2056,
      "##dag": 2057,
      "martyna": 2058,
      "##ем": 2059,
      "##ša": 2060,
      "##lex": 2061,
      "práv": 2062,
      "##ack": 2063,
      "##кин": 2064,
      "iwona": 2065,
      "nguyen": 2066,
      "на": 2067,
      "серг": 2068,
      "vojtěch": 2069,
      "##ců": 2070,
      "vyš": 2071,
      "##lon": 2072,
      "##ark": 2073,
      "pavlína": 2074,
      "world": 2075,
      "syn": 2076,
      "##rna": 2077,
      "ampl": 2078,
      "##rap": 2079,
      "##čík": 2080,
      "dav": 2081,
      "záv": 2082,
      "such": 2083,
      "medic": 2084,
      "radim": 2085,
      "paulina": 2086,
      "##ety": 2087,
      "zdrav": 2088,
      "##ovit": 2089,
      "##ána": 2090,
      "hod": 2091,
      "##nat": 2092,
      "nez": 2093,
      "##14": 2094,
      "hen": 2095,
      "mus": 2096,
      "ind": 2097,
      "zav": 2098,
      "ilona": 2099,
      "##min": 2100,
      "bed": 2101,
      "kob": 2102,
      "sw": 2103,
      "##hr": 2104,
      "přel": 2105,
      "obchodní": 2106,
      "##24": 2107,
      "emil": 2108,
      "martyn": 2109,
      "##via": 2110,
      "##rost": 2111,
      "##ва": 2112,
      "ek": 2113,
      "wer": 2114,
      "##nete": 2115,
      "##nout": 2116,
      "св": 2117,
      "##ит": 2118,
      "pardub": 2119,
      "mez": 2120,
      "jacek": 2121,
      "park": 2122,
      "rozt": 2123,
      "##eným": 2124,
      "##ryc": 2125,
      "of": 2126,
      "##iness": 2127,
      "vil": 2128,
      "##áno": 2129,
      "александр": 2130,
      "##ander": 2131,
      "##omir": 2132,
      "dawid": 2133,
      "24": 2134,
      "systems": 2135,
      "property": 2136,
      "ник": 2137,
      "rez": 2138,
      "daniela": 2139,
      "##ewicz": 2140,
      "##lož": 2141,
      "architekt": 2142,
      "jiri": 2143,
      "##ově": 2144,
      "##ute": 2145,
      "##ely": 2146,
      "ekon": 2147,
      "##лена": 2148,
      "##istr": 2149,
      "##ků": 2150,
      "##ight": 2151,
      "ania": 2152,
      "gastro": 2153,
      "capital": 2154,
      "amplmus": 2155,
      "##ана": 2156,
      "ostrava": 2157,
      "bob": 2158,
      "##15": 2159,
      "odb": 2160,
      "zab": 2161,
      "##etta": 2162,
      "##lam": 2163,
      "ml": 2164,
      "maciej": 2165,
      "lékař": 2166,
      "##ít": 2167,
      "##nuty": 2168,
      "##ových": 2169,
      "##ánek": 2170,
      "jab": 2171,
      "##uty": 2172,
      "cer": 2173,
      "ska": 2174,
      "romana": 2175,
      "nejroz": 2176,
      "##he": 2177,
      "mad": 2178,
      "##ons": 2179,
      "##ун": 2180,
      "mo": 2181,
      "##ěš": 2182,
      "kad": 2183,
      "mba": 2184,
      "##com": 2185,
      "##now": 2186,
      "##eli": 2187,
      "##kou": 2188,
      "klaud": 2189,
      "liber": 2190,
      "nav": 2191,
      "rost": 2192,
      "##yč": 2193,
      "##ůž": 2194,
      "##ets": 2195,
      "влад": 2196,
      "prov": 2197,
      "fot": 2198,
      "##sová": 2199,
      "csc": 2200,
      "vš": 2201,
      "engine": 2202,
      "##ních": 2203,
      "king": 2204,
      "tat": 2205,
      "svat": 2206,
      "agata": 2207,
      "denisa": 2208,
      "ban": 2209,
      "##ral": 2210,
      "##ecki": 2211,
      "myk": 2212,
      "##21": 2213,
      "##ach": 2214,
      "##ек": 2215,
      "kance": 2216,
      "ole": 2217,
      "business": 2218,
      "##bert": 2219,
      "##ěž": 2220,
      "##ля": 2221,
      "##ung": 2222,
      "kater": 2223,
      "##met": 2224,
      "##ction": 2225,
      "##34": 2226,
      "ynvest": 2227,
      "dum": 2228,
      "ев": 2229,
      "##si": 2230,
      "##líková": 2231,
      "##77": 2232,
      "nejnep": 2233,
      "##ид": 2234,
      "##mez": 2235,
      "##yj": 2236,
      "##áčková": 2237,
      "##áte": 2238,
      "patryk": 2239,
      "ана": 2240,
      "mac": 2241,
      "adé": 2242,
      "blanka": 2243,
      "dsc": 2244,
      "vdp": 2245,
      "joh": 2246,
      "adrian": 2247,
      "av": 2248,
      "##ře": 2249,
      "##ným": 2250,
      "##ont": 2251,
      "dě": 2252,
      "most": 2253,
      "eccl": 2254,
      "logist": 2255,
      "neod": 2256,
      "drsc": 2257,
      "kac": 2258,
      "tep": 2259,
      "pí": 2260,
      "sylwia": 2261,
      "##pro": 2262,
      "ut": 2263,
      "elż": 2264,
      "##то": 2265,
      "rd": 2266,
      "за": 2267,
      "##alova": 2268,
      "host": 2269,
      "bra": 2270,
      "ekonom": 2271,
      "##osof": 2272,
      "rok": 2273,
      "сергей": 2274,
      "post": 2275,
      "vldp": 2276,
      "chr": 2277,
      "marian": 2278,
      "ten": 2279,
      "##ро": 2280,
      "vend": 2281,
      "eliška": 2282,
      "sebastian": 2283,
      "##cil": 2284,
      "lukas": 2285,
      "hradec": 2286,
      "nadační": 2287,
      "poch": 2288,
      "##emy": 2289,
      "##ceut": 2290,
      "лю": 2291,
      "xx": 2292,
      "##nyk": 2293,
      "##vit": 2294,
      "ха": 2295,
      "duš": 2296,
      "##líd": 2297,
      "елена": 2298,
      "##ér": 2299,
      "az": 2300,
      "##ген": 2301,
      "kro": 2302,
      "olomouc": 2303,
      "##vp": 2304,
      "##ým": 2305,
      "ку": 2306,
      "bohum": 2307,
      "##ymon": 2308,
      "ud": 2309,
      "zdeň": 2310,
      "андр": 2311,
      "##last": 2312,
      "fer": 2313,
      "##ervis": 2314,
      "míst": 2315,
      "##rud": 2316,
      "služby": 2317,
      "##men": 2318,
      "##lana": 2319,
      "phar": 2320,
      "marz": 2321,
      "##cov": 2322,
      "republic": 2323,
      "##áž": 2324,
      "přeh": 2325,
      "##run": 2326,
      "vít": 2327,
      "rych": 2328,
      "##ition": 2329,
      "##tem": 2330,
      "##ového": 2331,
      "##omě": 2332,
      "autom": 2333,
      "zahrád": 2334,
      "##enz": 2335,
      "##33": 2336,
      "вик": 2337,
      "##18": 2338,
      "##řej": 2339,
      "ii": 2340,
      "##ruj": 2341,
      "krystyna": 2342,
      "##áh": 2343,
      "##yš": 2344,
      "sec": 2345,
      "##16": 2346,
      "rozs": 2347,
      "off": 2348,
      "##ts": 2349,
      "marcel": 2350,
      "corpor": 2351,
      "miroslava": 2352,
      "##jr": 2353,
      "proh": 2354,
      "##něž": 2355,
      "card": 2356,
      "##řík": 2357,
      "pap": 2358,
      "##19": 2359,
      "##anda": 2360,
      "akad": 2361,
      "production": 2362,
      "to": 2363,
      "jas": 2364,
      "##jan": 2365,
      "antonín": 2366,
      "##gi": 2367,
      "##cka": 2368,
      "##ława": 2369,
      "damian": 2370,
      "##se": 2371,
      "ludmila": 2372,
      "##17": 2373,
      "mlad": 2374,
      "richard": 2375,
      "##анова": 2376,
      "distr": 2377,
      "works": 2378,
      "pel": 2379,
      "##áni": 2380,
      "prem": 2381,
      "##vají": 2382,
      "jindřich": 2383,
      "25": 2384,
      "##ánková": 2385,
      "##inova": 2386,
      "kaz": 2387,
      "##23": 2388,
      "we": 2389,
      "##ник": 2390,
      "##nad": 2391,
      "organiza": 2392,
      "##yer": 2393,
      "nic": 2394,
      "wojci": 2395,
      "##nar": 2396,
      "oli": 2397,
      "pou": 2398,
      "advis": 2399,
      "zdeňka": 2400,
      "atel": 2401,
      "##fin": 2402,
      "transport": 2403,
      "##číková": 2404,
      "тат": 2405,
      "mycha": 2406,
      "san": 2407,
      "poj": 2408,
      "buil": 2409,
      "##25": 2410,
      "па": 2411,
      "##гор": 2412,
      "pře": 2413,
      "nejs": 2414,
      "hotel": 2415,
      "мар": 2416,
      "##der": 2417,
      "danuta": 2418,
      "angel": 2419,
      "##icja": 2420,
      "##sch": 2421,
      "##óz": 2422,
      "zr": 2423,
      "##lač": 2424,
      "lan": 2425,
      "##něn": 2426,
      "expert": 2427,
      "jolanta": 2428,
      "step": 2429,
      "##itní": 2430,
      "##med": 2431,
      "##íž": 2432,
      "nev": 2433,
      "war": 2434,
      "újezd": 2435,
      "##ívá": 2436,
      "##bek": 2437,
      "gor": 2438,
      "##са": 2439,
      "##ита": 2440,
      "lykvydacy": 2441,
      "##czuk": 2442,
      "var": 2443,
      "##ский": 2444,
      "##icki": 2445,
      "pas": 2446,
      "##ešová": 2447,
      "##tra": 2448,
      "tar": 2449,
      "peter": 2450,
      "igor": 2451,
      "ně": 2452,
      "##60": 2453,
      "sar": 2454,
      "chl": 2455,
      "jarmila": 2456,
      "pedag": 2457,
      "partners": 2458,
      "ned": 2459,
      "amb": 2460,
      "myros": 2461,
      "tu": 2462,
      "zes": 2463,
      "jih": 2464,
      "agent": 2465,
      "##ira": 2466,
      "##vys": 2467,
      "dz": 2468,
      "##akova": 2469,
      "svět": 2470,
      "smart": 2471,
      "nas": 2472,
      "##kem": 2473,
      "##inski": 2474,
      "mis": 2475,
      "dany": 2476,
      "##níková": 2477,
      "евген": 2478,
      "##čín": 2479,
      "##hal": 2480,
      "##ьяна": 2481,
      "slez": 2482,
      "klad": 2483,
      "cor": 2484,
      "ша": 2485,
      "cam": 2486,
      "břez": 2487,
      "##pal": 2488,
      "##kr": 2489,
      "sław": 2490,
      "##mel": 2491,
      "##ním": 2492,
      "sek": 2493,
      "měst": 2494,
      "szcz": 2495,
      "оль": 2496,
      "julia": 2497,
      "##pe": 2498,
      "druz": 2499,
      "maz": 2500,
      "##ovič": 2501,
      "##niak": 2502,
      "##dek": 2503,
      "##šková": 2504,
      "no": 2505,
      "vyf": 2506,
      "teresa": 2507,
      "pos": 2508,
      "wies": 2509,
      "wojciech": 2510,
      "michael": 2511,
      "##ýn": 2512,
      "lykvidaci": 2513,
      "ods": 2514,
      "trav": 2515,
      "dariusz": 2516,
      "##di": 2517,
      "##dz": 2518,
      "dok": 2519,
      "##lovice": 2520,
      "ger": 2521,
      "##řeb": 2522,
      "porad": 2523,
      "##ovec": 2524,
      "##sy": 2525,
      "drah": 2526,
      "kyn": 2527,
      "##áme": 2528,
      "##lie": 2529,
      "patryc": 2530,
      "power": 2531,
      "##aný": 2532,
      "##manová": 2533,
      "kancelář": 2534,
      "##řová": 2535,
      "kult": 2536,
      "house": 2537,
      "ny": 2538,
      "adéla": 2539,
      "pad": 2540,
      "sy": 2541,
      "cat": 2542,
      "nes": 2543,
      "shop": 2544,
      "likvydaci": 2545,
      "bou": 2546,
      "##de": 2547,
      "##telnějšímu": 2548,
      "##net": 2549,
      "hl": 2550,
      "fyz": 2551,
      "##ста": 2552,
      "##isko": 2553,
      "školy": 2554,
      "ondr": 2555,
      "es": 2556,
      "ewelina": 2557,
      "##osia": 2558,
      "sad": 2559,
      "elżbieta": 2560,
      "dy": 2561,
      "dia": 2562,
      "hosp": 2563,
      "##27": 2564,
      "tim": 2565,
      "jirka": 2566,
      "##ара": 2567,
      "klim": 2568,
      "##nika": 2569,
      "let": 2570,
      "##tex": 2571,
      "prost": 2572,
      "##лана": 2573,
      "hej": 2574,
      "##py": 2575,
      "##imil": 2576,
      "českého": 2577,
      "jezd": 2578,
      "##fr": 2579,
      "zad": 2580,
      "##ňová": 2581,
      "##ema": 2582,
      "##ěh": 2583,
      "##son": 2584,
      "28": 2585,
      "##tka": 2586,
      "sdruz": 2587,
      "##zabela": 2588,
      "##ło": 2589,
      "##ičt": 2590,
      "ola": 2591,
      "##ici": 2592,
      "food": 2593,
      "татьяна": 2594,
      "##лав": 2595,
      "##var": 2596,
      "mychal": 2597,
      "##ách": 2598,
      "ru": 2599,
      "##work": 2600,
      "sev": 2601,
      "projekt": 2602,
      "##66": 2603,
      "nový": 2604,
      "##lace": 2605,
      "likvidacy": 2606,
      "nové": 2607,
      "patrycja": 2608,
      "##ovaný": 2609,
      "аб": 2610,
      "##200": 2611,
      "##ness": 2612,
      "žel": 2613,
      "##osti": 2614,
      "šte": 2615,
      "luboš": 2616,
      "hus": 2617,
      "constru": 2618,
      "##líč": 2619,
      "##ук": 2620,
      "oč": 2621,
      "rec": 2622,
      "milena": 2623,
      "##vala": 2624,
      "tan": 2625,
      "##enějším": 2626,
      "ep": 2627,
      "pardubice": 2628,
      "##eo": 2629,
      "##dat": 2630,
      "sun": 2631,
      "hab": 2632,
      "urb": 2633,
      "tá": 2634,
      "ольга": 2635,
      "char": 2636,
      "##eček": 2637,
      "praž": 2638,
      "##drž": 2639,
      "gold": 2640,
      "ústí": 2641,
      "wiktor": 2642,
      "zš": 2643,
      "##car": 2644,
      "jam": 2645,
      "##iek": 2646,
      "наталья": 2647,
      "##ři": 2648,
      "##enská": 2649,
      "zdenek": 2650,
      "jad": 2651,
      "##ional": 2652,
      "pé": 2653,
      "technology": 2654,
      "aud": 2655,
      "##kar": 2656,
      "##ush": 2657,
      "##55": 2658,
      "##lar": 2659,
      "cre": 2660,
      "red": 2661,
      "karolína": 2662,
      "ал": 2663,
      "##íp": 2664,
      "karlov": 2665,
      "##cen": 2666,
      "##30": 2667,
      "##idence": 2668,
      "něm": 2669,
      "vladimir": 2670,
      "zahrádkář": 2671,
      "##říž": 2672,
      "home": 2673,
      "mary": 2674,
      "##all": 2675,
      "best": 2676,
      "##ením": 2677,
      "jaromír": 2678,
      "enter": 2679,
      "##ému": 2680,
      "##emi": 2681,
      "mikul": 2682,
      "přih": 2683,
      "##ečková": 2684,
      "vis": 2685,
      "андрей": 2686,
      "##be": 2687,
      "##dl": 2688,
      "##28": 2689,
      "web": 2690,
      "##дин": 2691,
      "##enějšího": 2692,
      "janusz": 2693,
      "##ial": 2694,
      "##telnějšími": 2695,
      "##ole": 2696,
      "##ель": 2697,
      "kut": 2698,
      "haj": 2699,
      "hyd": 2700,
      "##katol": 2701,
      "matemat": 2702,
      "omez": 2703,
      "green": 2704,
      "##ecké": 2705,
      "##uro": 2706,
      "##ysław": 2707,
      "nikol": 2708,
      "druzstvo": 2709,
      "##lavice": 2710,
      "##ei": 2711,
      "##лий": 2712,
      "свет": 2713,
      "acad": 2714,
      "##cia": 2715,
      "##iola": 2716,
      "##stas": 2717,
      "hud": 2718,
      "byst": 2719,
      "ст": 2720,
      "##nek": 2721,
      "ирина": 2722,
      "plan": 2723,
      "##slav": 2724,
      "##69": 2725,
      "čech": 2726,
      "elena": 2727,
      "##ате": 2728,
      "farnost": 2729,
      "##rac": 2730,
      "##uer": 2731,
      "now": 2732,
      "filosof": 2733,
      "živ": 2734,
      "zahrad": 2735,
      "##ologie": 2736,
      "rap": 2737,
      "doc": 2738,
      "##zl": 2739,
      "dos": 2740,
      "len": 2741,
      "marzena": 2742,
      "kan": 2743,
      "vt": 2744,
      "gym": 2745,
      "арт": 2746,
      "králové": 2747,
      "##ějovice": 2748,
      "##ес": 2749,
      "sen": 2750,
      "bon": 2751,
      "##lek": 2752,
      "pil": 2753,
      "miloš": 2754,
      "vyv": 2755,
      "ram": 2756,
      "země": 2757,
      "organy": 2758,
      "##skokatol": 2759,
      "farmaceut": 2760,
      "corporation": 2761,
      "##iński": 2762,
      "agentura": 2763,
      "rudolf": 2764,
      "##nulo": 2765,
      "finan": 2766,
      "buk": 2767,
      "expr": 2768,
      "cp": 2769,
      "ant": 2770,
      "feder": 2771,
      "##88": 2772,
      "katerina": 2773,
      "##leh": 2774,
      "##iska": 2775,
      "wil": 2776,
      "led": 2777,
      "##ená": 2778,
      "##raft": 2779,
      "##мит": 2780,
      "pov": 2781,
      "vlastimil": 2782,
      "##yal": 2783,
      "##lech": 2784,
      "##nická": 2785,
      "liberec": 2786,
      "tomek": 2787,
      "##29": 2788,
      "##67": 2789,
      "ast": 2790,
      "květ": 2791,
      "##elka": 2792,
      "travel": 2793,
      "##išť": 2794,
      "##oko": 2795,
      "ts": 2796,
      "##áta": 2797,
      "##áp": 2798,
      "##vět": 2799,
      "##ury": 2800,
      "##jem": 2801,
      "sdruzeni": 2802,
      "##áb": 2803,
      "souk": 2804,
      "##ph": 2805,
      "hoř": 2806,
      "tade": 2807,
      "##niew": 2808,
      "ivo": 2809,
      "##fer": 2810,
      "vasyl": 2811,
      "project": 2812,
      "##do": 2813,
      "##nil": 2814,
      "jen": 2815,
      "##ative": 2816,
      "##ňa": 2817,
      "##vání": 2818,
      "raj": 2819,
      "kou": 2820,
      "##lerová": 2821,
      "jyří": 2822,
      "energ": 2823,
      "vyč": 2824,
      "miloslav": 2825,
      "velké": 2826,
      "бо": 2827,
      "šum": 2828,
      "alicja": 2829,
      "макс": 2830,
      "##44": 2831,
      "##65": 2832,
      "##laz": 2833,
      "по": 2834,
      "##nit": 2835,
      "##czek": 2836,
      "pep": 2837,
      "klaudia": 2838,
      "##ool": 2839,
      "pon": 2840,
      "řím": 2841,
      "dř": 2842,
      "jes": 2843,
      "##vali": 2844,
      "zdenka": 2845,
      "indust": 2846,
      "##con": 2847,
      "##mun": 2848,
      "##сия": 2849,
      "rem": 2850,
      "27": 2851,
      "zaklad": 2852,
      "##aneta": 2853,
      "svobod": 2854,
      "oleks": 2855,
      "alfa": 2856,
      "zac": 2857,
      "##nými": 2858,
      "koc": 2859,
      "super": 2860,
      "##az": 2861,
      "zahrádkářského": 2862,
      "lev": 2863,
      "gu": 2864,
      "##ecky": 2865,
      "##oslava": 2866,
      "##tw": 2867,
      "##hoř": 2868,
      "##35": 2869,
      "eko": 2870,
      "##ynska": 2871,
      "kostel": 2872,
      "ner": 2873,
      "bran": 2874,
      "##лин": 2875,
      "graż": 2876,
      "##hot": 2877,
      "out": 2878,
      "anastas": 2879,
      "don": 2880,
      "rent": 2881,
      "##атерина": 2882,
      "brod": 2883,
      "dd": 2884,
      "lucy": 2885,
      "##zová": 2886,
      "dc": 2887,
      "monyka": 2888,
      "joz": 2889,
      "##nici": 2890,
      "##ovic": 2891,
      "bul": 2892,
      "##etín": 2893,
      "místní": 2894,
      "##ile": 2895,
      "vesel": 2896,
      "##37": 2897,
      "##laš": 2898,
      "##pol": 2899,
      "##řez": 2900,
      "оле": 2901,
      "##ťa": 2902,
      "leg": 2903,
      "závod": 2904,
      "алексей": 2905,
      "účet": 2906,
      "##98": 2907,
      "ther": 2908,
      "bartosz": 2909,
      "rodin": 2910,
      "cle": 2911,
      "izabela": 2912,
      "jon": 2913,
      "bartek": 2914,
      "gol": 2915,
      "vč": 2916,
      "дмит": 2917,
      "slož": 2918,
      "##ут": 2919,
      "##64": 2920,
      "##vol": 2921,
      "nak": 2922,
      "aqu": 2923,
      "rak": 2924,
      "mora": 2925,
      "##38": 2926,
      "##kům": 2927,
      "stří": 2928,
      "##iková": 2929,
      "poš": 2930,
      "szymon": 2931,
      "blu": 2932,
      "prá": 2933,
      "edyta": 2934,
      "та": 2935,
      "##ovatelů": 2936,
      "sandra": 2937,
      "dud": 2938,
      "##žený": 2939,
      "##leb": 2940,
      "##haz": 2941,
      "boż": 2942,
      "office": 2943,
      "да": 2944,
      "##raj": 2945,
      "##uba": 2946,
      "##erie": 2947,
      "##lada": 2948,
      "##mr": 2949,
      "sabina": 2950,
      "zeměděl": 2951,
      "##uška": 2952,
      "светлана": 2953,
      "facil": 2954,
      "##nosti": 2955,
      "##nému": 2956,
      "alexandr": 2957,
      "přez": 2958,
      "##telnějších": 2959,
      "fit": 2960,
      "##bu": 2961,
      "ni": 2962,
      "ti": 2963,
      "##04": 2964,
      "ruč": 2965,
      "česk": 2966,
      "zbig": 2967,
      "##lass": 2968,
      "##97": 2969,
      "##ilova": 2970,
      "nova": 2971,
      "arm": 2972,
      "inf": 2973,
      "##ух": 2974,
      "##not": 2975,
      "##imov": 2976,
      "fre": 2977,
      "##enství": 2978,
      "##ydl": 2979,
      "cest": 2980,
      "##lew": 2981,
      "mol": 2982,
      "fal": 2983,
      "hyp": 2984,
      "##ling": 2985,
      "nor": 2986,
      "ry": 2987,
      "ла": 2988,
      "by": 2989,
      "halina": 2990,
      "hora": 2991,
      "resta": 2992,
      "academy": 2993,
      "zbyn": 2994,
      "skola": 2995,
      "cs": 2996,
      "##68": 2997,
      "land": 2998,
      "center": 2999,
      "##уш": 3000,
      "##rodní": 3001,
      "##omi": 3002,
      "engineering": 3003,
      "ив": 3004,
      "ali": 3005,
      "##šovice": 3006,
      "son": 3007,
      "##90": 3008,
      "##tec": 3009,
      "ci": 3010,
      "##ag": 3011,
      "##íj": 3012,
      "анаста": 3013,
      "##ném": 3014,
      "láz": 3015,
      "##hm": 3016,
      "##ských": 3017,
      "zdravot": 3018,
      "##ierz": 3019,
      "hlav": 3020,
      "##eska": 3021,
      "##én": 3022,
      "past": 3023,
      "bet": 3024,
      "##hová": 3025,
      "ručením": 3026,
      "##ved": 3027,
      "##sana": 3028,
      "je": 3029,
      "lam": 3030,
      "wy": 3031,
      "omezeným": 3032,
      "odm": 3033,
      "přeb": 3034,
      "##rot": 3035,
      "##ini": 3036,
      "středisko": 3037,
      "##fi": 3038,
      "##islava": 3039,
      "loc": 3040,
      "vlasta": 3041,
      "##nuly": 3042,
      "##45": 3043,
      "fab": 3044,
      "##íz": 3045,
      "##ostí": 3046,
      "##zen": 3047,
      "nejnev": 3048,
      "##ari": 3049,
      "##enějšímu": 3050,
      "fry": 3051,
      "##tavou": 3052,
      "##mp": 3053,
      "ondra": 3054,
      "římskokatol": 3055,
      "##95": 3056,
      "sur": 3057,
      "##ori": 3058,
      "##ists": 3059,
      "dušan": 3060,
      "##fal": 3061,
      "ov": 3062,
      "##enějších": 3063,
      "jiřina": 3064,
      "kamen": 3065,
      "##je": 3066,
      "denis": 3067,
      "анастасия": 3068,
      "ton": 3069,
      "##loud": 3070,
      "lubomír": 3071,
      "su": 3072,
      "dent": 3073,
      "lom": 3074,
      "##enějšími": 3075,
      "lux": 3076,
      "facility": 3077,
      "##hov": 3078,
      "new": 3079,
      "vet": 3080,
      "nab": 3081,
      "exc": 3082,
      "boz": 3083,
      "marketing": 3084,
      "dep": 3085,
      "zakladni": 3086,
      "růž": 3087,
      "cos": 3088,
      "юлия": 3089,
      "##63": 3090,
      "##ór": 3091,
      "poč": 3092,
      "tw": 3093,
      "##ďa": 3094,
      "vzdělá": 3095,
      "svet": 3096,
      "davyd": 3097,
      "kow": 3098,
      "kuch": 3099,
      "##hon": 3100,
      "##ham": 3101,
      "##05": 3102,
      "##ký": 3103,
      "##hrad": 3104,
      "##úč": 3105,
      "nemovit": 3106,
      "bat": 3107,
      "##vie": 3108,
      "tam": 3109,
      "fut": 3110,
      "##lap": 3111,
      "kry": 3112,
      "##line": 3113,
      "##arek": 3114,
      "##ouch": 3115,
      "##trh": 3116,
      "rostislav": 3117,
      "##igh": 3118,
      "##anka": 3119,
      "smr": 3120,
      "##хм": 3121,
      "##maz": 3122,
      "bc": 3123,
      "organyzace": 3124,
      "##isek": 3125,
      "дмитрий": 3126,
      "zlín": 3127,
      "institut": 3128,
      "rs": 3129,
      "##nova": 3130,
      "##inec": 3131,
      "ulice": 3132,
      "bož": 3133,
      "daria": 3134,
      "##07": 3135,
      "zbigniew": 3136,
      "##имир": 3137,
      "republik": 3138,
      "##dem": 3139,
      "21": 3140,
      "##01": 3141,
      "##čen": 3142,
      "zno": 3143,
      "bron": 3144,
      "skup": 3145,
      "##olí": 3146,
      "ty": 3147,
      "##ass": 3148,
      "##šice": 3149,
      "voz": 3150,
      "анна": 3151,
      "##czyńska": 3152,
      "##bel": 3153,
      "##26": 3154,
      "##rán": 3155,
      "##ны": 3156,
      "##gar": 3157,
      "pub": 3158,
      "ек": 3159,
      "##řov": 3160,
      "oš": 3161,
      "associ": 3162,
      "nam": 3163,
      "##ešov": 3164,
      "##štěp": 3165,
      "sho": 3166,
      "##iev": 3167,
      "svi": 3168,
      "pac": 3169,
      "##ivad": 3170,
      "store": 3171,
      "bub": 3172,
      "##nička": 3173,
      "##ráva": 3174,
      "##cik": 3175,
      "##eslav": 3176,
      "##oletta": 3177,
      "##árna": 3178,
      "akadem": 3179,
      "maks": 3180,
      "##ras": 3181,
      "##invest": 3182,
      "##oo": 3183,
      "prů": 3184,
      "##vej": 3185,
      "kir": 3186,
      "eco": 3187,
      "enterpr": 3188,
      "##ván": 3189,
      "##ue": 3190,
      "ord": 3191,
      "##onal": 3192,
      "##esh": 3193,
      "pedagog": 3194,
      "##vyce": 3195,
      "##chuk": 3196,
      "složka": 3197,
      "##лан": 3198,
      "nah": 3199,
      "##loup": 3200,
      "##03": 3201,
      "doub": 3202,
      "soň": 3203,
      "koš": 3204,
      "veron": 3205,
      "zub": 3206,
      "vav": 3207,
      "##oma": 3208,
      "##ovska": 3209,
      "building": 3210,
      "##gon": 3211,
      "wit": 3212,
      "##tu": 3213,
      "##lery": 3214,
      "vo": 3215,
      "bożena": 3216,
      "##ks": 3217,
      "##еж": 3218,
      "bp": 3219,
      "##rych": 3220,
      "jozef": 3221,
      "čet": 3222,
      "##hav": 3223,
      "investments": 3224,
      "##szula": 3225,
      "##bě": 3226,
      "krej": 3227,
      "ša": 3228,
      "distrib": 3229,
      "ingarch": 3230,
      "master": 3231,
      "##ishop": 3232,
      "alexandra": 3233,
      "##94": 3234,
      "mv": 3235,
      "##ouk": 3236,
      "mirek": 3237,
      "alina": 3238,
      "fam": 3239,
      "serge": 3240,
      "марина": 3241,
      "lesz": 3242,
      "##78": 3243,
      "200": 3244,
      "##от": 3245,
      "##tory": 3246,
      "rezidence": 3247,
      "##ос": 3248,
      "##aliz": 3249,
      "вас": 3250,
      "maty": 3251,
      "iz": 3252,
      "vic": 3253,
      "mult": 3254,
      "##bl": 3255,
      "soňa": 3256,
      "jem": 3257,
      "ker": 3258,
      "rozd": 3259,
      "rej": 3260,
      "anal": 3261,
      "grażyna": 3262,
      "valent": 3263,
      "jerzy": 3264,
      "##cent": 3265,
      "##řyna": 3266,
      "##kin": 3267,
      "pek": 3268,
      "vendula": 3269,
      "péče": 3270,
      "technologies": 3271,
      "##mont": 3272,
      "##ee": 3273,
      "all": 3274,
      "##ního": 3275,
      "##říková": 3276,
      "##fil": 3277,
      "bil": 3278,
      "##vý": 3279,
      "luděk": 3280,
      "staveb": 3281,
      "bíl": 3282,
      "urszula": 3283,
      "odv": 3284,
      "##lej": 3285,
      "##emp": 3286,
      "divad": 3287,
      "stráž": 3288,
      "nejk": 3289,
      "tor": 3290,
      "екатерина": 3291,
      "nejod": 3292,
      "kristina": 3293,
      "renáta": 3294,
      "##řek": 3295,
      "bohus": 3296,
      "ota": 3297,
      "##host": 3298,
      "##que": 3299,
      "##etice": 3300,
      "jel": 3301,
      "rysz": 3302,
      "##hel": 3303,
      "dov": 3304,
      "arkad": 3305,
      "hydro": 3306,
      "zl": 3307,
      "roh": 3308,
      "##far": 3309,
      "adv": 3310,
      "##ěn": 3311,
      "vaclav": 3312,
      "kinga": 3313,
      "oldřich": 3314,
      "kacper": 3315,
      "motor": 3316,
      "##zar": 3317,
      "dmit": 3318,
      "##yne": 3319,
      "kral": 3320,
      "cl": 3321,
      "##ovýchov": 3322,
      "stroj": 3323,
      "construction": 3324,
      "von": 3325,
      "tělovýchov": 3326,
      "##ida": 3327,
      "ох": 3328,
      "brz": 3329,
      "sist": 3330,
      "stefan": 3331,
      "lucye": 3332,
      "piv": 3333,
      "bea": 3334,
      "##rd": 3335,
      "##ala": 3336,
      "city": 3337,
      "advo": 3338,
      "##31": 3339,
      "##plk": 3340,
      "psycholog": 3341,
      "sel": 3342,
      "zaz": 3343,
      "##ator": 3344,
      "##yla": 3345,
      "go": 3346,
      "##ických": 3347,
      "republiky": 3348,
      "hc": 3349,
      "střední": 3350,
      "opt": 3351,
      "win": 3352,
      "dřev": 3353,
      "##ulka": 3354,
      "дан": 3355,
      "##rů": 3356,
      "úk": 3357,
      "rada": 3358,
      "cars": 3359,
      "weronika": 3360,
      "jadw": 3361,
      "kladno": 3362,
      "vary": 3363,
      "diana": 3364,
      "##yle": 3365,
      "ondrej": 3366,
      "šm": 3367,
      "mit": 3368,
      "terez": 3369,
      "ле": 3370,
      "vk": 3371,
      "##уб": 3372,
      "##123": 3373,
      "##ола": 3374,
      "secur": 3375,
      "##ží": 3376,
      "vst": 3377,
      "##ůl": 3378,
      "hanna": 3379,
      "##ykova": 3380,
      "##can": 3381,
      "royal": 3382,
      "vrb": 3383,
      "wojtek": 3384,
      "dlou": 3385,
      "##že": 3386,
      "cry": 3387,
      "##57": 3388,
      "##itelnějšího": 3389,
      "domě": 3390,
      "рус": 3391,
      "odštěp": 3392,
      "##лов": 3393,
      "##yber": 3394,
      "bogdan": 3395,
      "ли": 3396,
      "##arska": 3397,
      "##atr": 3398,
      "##ůsob": 3399,
      "##žen": 3400,
      "point": 3401,
      "vent": 3402,
      "pavl": 3403,
      "tour": 3404,
      "ze": 3405,
      "domy": 3406,
      "##iya": 3407,
      "##08": 3408,
      "pen": 3409,
      "##iam": 3410,
      "##32": 3411,
      "nejm": 3412,
      "##ire": 3413,
      "##pla": 3414,
      "md": 3415,
      "##02": 3416,
      "atelier": 3417,
      "tělovýchovná": 3418,
      "arena": 3419,
      "##vad": 3420,
      "##ater": 3421,
      "kav": 3422,
      "rozvoj": 3423,
      "kovo": 3424,
      "fac": 3425,
      "vladislav": 3426,
      "rac": 3427,
      "organizační": 3428,
      "nejh": 3429,
      "##una": 3430,
      "##zni": 3431,
      "##36": 3432,
      "##vatel": 3433,
      "ela": 3434,
      "mc": 3435,
      "one": 3436,
      "jablon": 3437,
      "kup": 3438,
      "##54": 3439,
      "katka": 3440,
      "над": 3441,
      "##zb": 3442,
      "římskokatolická": 3443,
      "##orm": 3444,
      "##elo": 3445,
      "soch": 3446,
      "##uce": 3447,
      "rož": 3448,
      "владимир": 3449,
      "chod": 3450,
      "fol": 3451,
      "##form": 3452,
      "##ene": 3453,
      "##usová": 3454,
      "##уд": 3455,
      "##39": 3456,
      "nap": 3457,
      "myroslav": 3458,
      "ig": 3459,
      "leh": 3460,
      "##ans": 3461,
      "mš": 3462,
      "##álková": 3463,
      "##ýb": 3464,
      "bogus": 3465,
      "natá": 3466,
      "tábor": 3467,
      "##жа": 3468,
      "yr": 3469,
      "poradenství": 3470,
      "##ysh": 3471,
      "grand": 3472,
      "##čany": 3473,
      "servyce": 3474,
      "muz": 3475,
      "##berg": 3476,
      "zi": 3477,
      "lar": 3478,
      "servys": 3479,
      "ро": 3480,
      "али": 3481,
      "##łod": 3482,
      "##raš": 3483,
      "##62": 3484,
      "chud": 3485,
      "##osh": 3486,
      "##74": 3487,
      "zof": 3488,
      "##řiv": 3489,
      "cha": 3490,
      "chovatelů": 3491,
      "##oper": 3492,
      "jc": 3493,
      "##lax": 3494,
      "##valy": 3495,
      "##лен": 3496,
      "##sova": 3497,
      "##fl": 3498,
      "##yńska": 3499,
      "rol": 3500,
      "##tova": 3501,
      "hrab": 3502,
      "chro": 3503,
      "dvoř": 3504,
      "##icu": 3505,
      "skr": 3506,
      "##vař": 3507,
      "mykha": 3508,
      "central": 3509,
      "bezd": 3510,
      "##zk": 3511,
      "##íček": 3512,
      "kab": 3513,
      "lázně": 3514,
      "kuk": 3515,
      "sul": 3516,
      "##orek": 3517,
      "##nes": 3518,
      "okresní": 3519,
      "##rtm": 3520,
      "projek": 3521,
      "tob": 3522,
      "##има": 3523,
      "##rans": 3524,
      "edu": 3525,
      "##asa": 3526,
      "##inov": 3527,
      "kras": 3528,
      "##raf": 3529,
      "staré": 3530,
      "geolog": 3531,
      "dal": 3532,
      "zbyněk": 3533,
      "česko": 3534,
      "##oń": 3535,
      "##luk": 3536,
      "gru": 3537,
      "boj": 3538,
      "dzi": 3539,
      "##chenko": 3540,
      "##ура": 3541,
      "##vejme": 3542,
      "##mc": 3543,
      "sla": 3544,
      "fi": 3545,
      "миха": 3546,
      "voda": 3547,
      "compani": 3548,
      "##ella": 3549,
      "mont": 3550,
      "##lát": 3551,
      "moh": 3552,
      "##59": 3553,
      "heř": 3554,
      "vej": 3555,
      "marc": 3556,
      "uch": 3557,
      "vrch": 3558,
      "pit": 3559,
      "##hib": 3560,
      "##ývá": 3561,
      "##ло": 3562,
      "vg": 3563,
      "##teg": 3564,
      "zne": 3565,
      "##ovany": 3566,
      "##рин": 3567,
      "special": 3568,
      "pawel": 3569,
      "sko": 3570,
      "prap": 3571,
      "veřej": 3572,
      "hanka": 3573,
      "##ičková": 3574,
      "##yo": 3575,
      "##61": 3576,
      "poboč": 3577,
      "zaj": 3578,
      "##čák": 3579,
      "dot": 3580,
      "##léd": 3581,
      "ká": 3582,
      "wood": 3583,
      "ryszard": 3584,
      "kaj": 3585,
      "institute": 3586,
      "##ynek": 3587,
      "lif": 3588,
      "мария": 3589,
      "jarosław": 3590,
      "nejbez": 3591,
      "##ravy": 3592,
      "biolog": 3593,
      "вале": 3594,
      "nejza": 3595,
      "##lici": 3596,
      "sá": 3597,
      "fat": 3598,
      "##boř": 3599,
      "sub": 3600,
      "hof": 3601,
      "gaj": 3602,
      "stát": 3603,
      "##92": 3604,
      "##nan": 3605,
      "stř": 3606,
      "natali": 3607,
      "tv": 3608,
      "##ešk": 3609,
      "##сен": 3610,
      "##ánová": 3611,
      "yur": 3612,
      "mok": 3613,
      "##arczyk": 3614,
      "##tiv": 3615,
      "abd": 3616,
      "##50": 3617,
      "##álek": 3618,
      "frý": 3619,
      "hum": 3620,
      "##иев": 3621,
      "rub": 3622,
      "medical": 3623,
      "##ějov": 3624,
      "network": 3625,
      "krás": 3626,
      "##ран": 3627,
      "ng": 3628,
      "##47": 3629,
      "евгений": 3630,
      "##58": 3631,
      "##ah": 3632,
      "mirka": 3633,
      "##56": 3634,
      "apart": 3635,
      "##czik": 3636,
      "fyzik": 3637,
      "opava": 3638,
      "cb": 3639,
      "gallery": 3640,
      "##etr": 3641,
      "иван": 3642,
      "před": 3643,
      "vera": 3644,
      "##sl": 3645,
      "кри": 3646,
      "##org": 3647,
      "##anek": 3648,
      "##inal": 3649,
      "##řeh": 3650,
      "danyel": 3651,
      "kle": 3652,
      "mgr": 3653,
      "##ux": 3654,
      "partner": 3655,
      "karlovy": 3656,
      "##ynski": 3657,
      "koh": 3658,
      "##yak": 3659,
      "##lus": 3660,
      "##91": 3661,
      "kud": 3662,
      "kpt": 3663,
      "##ěř": 3664,
      "##48": 3665,
      "chal": 3666,
      "##pust": 3667,
      "bak": 3668,
      "tax": 3669,
      "jarek": 3670,
      "umělec": 3671,
      "chom": 3672,
      "##otice": 3673,
      "##ody": 3674,
      "chemik": 3675,
      "##cel": 3676,
      "##itect": 3677,
      "##nak": 3678,
      "metal": 3679,
      "digital": 3680,
      "rc": 3681,
      "dro": 3682,
      "##ovo": 3683,
      "##inh": 3684,
      "sky": 3685,
      "##ures": 3686,
      "smol": 3687,
      "##cer": 3688,
      "##čovice": 3689,
      "odd": 3690,
      "##ów": 3691,
      "##iec": 3692,
      "matematik": 3693,
      "ort": 3694,
      "##kát": 3695,
      "správa": 3696,
      "##řů": 3697,
      "##70": 3698,
      "ки": 3699,
      "##ste": 3700,
      "konrad": 3701,
      "##gamer": 3702,
      "sociolog": 3703,
      "vn": 3704,
      "##inace": 3705,
      "black": 3706,
      "##leč": 3707,
      "##zo": 3708,
      "##93": 3709,
      "##luč": 3710,
      "spr": 3711,
      "pharma": 3712,
      "rov": 3713,
      "##ění": 3714,
      "odštěpný": 3715,
      "##iko": 3716,
      "##har": 3717,
      "region": 3718,
      "tm": 3719,
      "znoj": 3720,
      "##rade": 3721,
      "právník": 3722,
      "historik": 3723,
      "morava": 3724,
      "##onín": 3725,
      "zám": 3726,
      "##96": 3727,
      "##inger": 3728,
      "veronyka": 3729,
      "##uni": 3730,
      "fel": 3731,
      "##vejte": 3732,
      "##42": 3733,
      "school": 3734,
      "prv": 3735,
      "nos": 3736,
      "##níš": 3737,
      "hubert": 3738,
      "##rova": 3739,
      "mater": 3740,
      "nejnes": 3741,
      "##telnějším": 3742,
      "běl": 3743,
      "##vrh": 3744,
      "##prom": 3745,
      "##uel": 3746,
      "##nuli": 3747,
      "elz": 3748,
      "nejnez": 3749,
      "hrd": 3750,
      "максим": 3751,
      "odborového": 3752,
      "абд": 3753,
      "irina": 3754,
      "##ец": 3755,
      "##níky": 3756,
      "mb": 3757,
      "men": 3758,
      "sb": 3759,
      "uc": 3760,
      "wol": 3761,
      "velká": 3762,
      "##06": 3763,
      "##ester": 3764,
      "##oss": 3765,
      "##kol": 3766,
      "nejob": 3767,
      "вер": 3768,
      "lada": 3769,
      "##chova": 3770,
      "##czyński": 3771,
      "fy": 3772,
      "bě": 3773,
      "soukrom": 3774,
      "##byt": 3775,
      "##nal": 3776,
      "profi": 3777,
      "bio": 3778,
      "bí": 3779,
      "profess": 3780,
      "##asy": 3781,
      "##ченко": 3782,
      "##бек": 3783,
      "kowal": 3784,
      "##87": 3785,
      "vladym": 3786,
      "##roba": 3787,
      "rené": 3788,
      "lis": 3789,
      "##dak": 3790,
      "krystian": 3791,
      "##act": 3792,
      "budějovice": 3793,
      "##uv": 3794,
      "nek": 3795,
      "sud": 3796,
      "ден": 3797,
      "spolecnost": 3798,
      "angelika": 3799,
      "##еп": 3800,
      "beč": 3801,
      "akademie": 3802,
      "volod": 3803,
      "##89": 3804,
      "##75": 3805,
      "##ovyce": 3806,
      "air": 3807,
      "##myla": 3808,
      "##ycka": 3809,
      "ром": 3810,
      "export": 3811,
      "##ther": 3812,
      "##ls": 3813,
      "##уль": 3814,
      "##tes": 3815,
      "##pi": 3816,
      "express": 3817,
      "zach": 3818,
      "##lena": 3819,
      "domov": 3820,
      "##skoč": 3821,
      "marketa": 3822,
      "asia": 3823,
      "mariola": 3824,
      "zen": 3825,
      "moj": 3826,
      "baj": 3827,
      "solar": 3828,
      "id": 3829,
      "##lec": 3830,
      "ай": 3831,
      "##rek": 3832,
      "linda": 3833,
      "##rač": 3834,
      "kel": 3835,
      "##ůvod": 3836,
      "##ženýr": 3837,
      "zlat": 3838,
      "háj": 3839,
      "##iška": 3840,
      "ard": 3841,
      "chlum": 3842,
      "leszek": 3843,
      "##vers": 3844,
      "kateřyna": 3845,
      "##cház": 3846,
      "##elia": 3847,
      "##84": 3848,
      "##76": 3849,
      "tem": 3850,
      "vor": 3851,
      "##sol": 3852,
      "lov": 3853,
      "kynolog": 3854,
      "##ených": 3855,
      "##ок": 3856,
      "##ng": 3857,
      "##ckova": 3858,
      "ax": 3859,
      "gy": 3860,
      "##drich": 3861,
      "mylan": 3862,
      "##alth": 3863,
      "##ants": 3864,
      "##tas": 3865,
      "##řich": 3866,
      "##ráš": 3867,
      "##iční": 3868,
      "jadwiga": 3869,
      "##85": 3870,
      "##ime": 3871,
      "yt": 3872,
      "##ict": 3873,
      "##cká": 3874,
      "rat": 3875,
      "##vize": 3876,
      "jura": 3877,
      "##mal": 3878,
      "##nicka": 3879,
      "darek": 3880,
      "##dor": 3881,
      "vid": 3882,
      "pam": 3883,
      "příb": 3884,
      "##zel": 3885,
      "tal": 3886,
      "dat": 3887,
      "jav": 3888,
      "zdr": 3889,
      "##vána": 3890,
      "##40": 3891,
      "##omer": 3892,
      "střel": 3893,
      "##ano": 3894,
      "##vrd": 3895,
      "uher": 3896,
      "##72": 3897,
      "exhib": 3898,
      "kultur": 3899,
      "ctp": 3900,
      "jič": 3901,
      "arkadiusz": 3902,
      "##nostem": 3903,
      "##orav": 3904,
      "##vitel": 3905,
      "##rh": 3906,
      "rh": 3907,
      "jk": 3908,
      "mlád": 3909,
      "gas": 3910,
      "ková": 3911,
      "lá": 3912,
      "##bit": 3913,
      "никола": 3914,
      "architect": 3915,
      "vad": 3916,
      "przemek": 3917,
      "##řen": 3918,
      "##lič": 3919,
      "cel": 3920,
      "##43": 3921,
      "##voj": 3922,
      "marina": 3923,
      "##51": 3924,
      "##ráb": 3925,
      "##vány": 3926,
      "##80": 3927,
      "##urk": 3928,
      "squ": 3929,
      "tet": 3930,
      "matej": 3931,
      "tadeusz": 3932,
      "##лова": 3933,
      "fast": 3934,
      "alice": 3935,
      "zj": 3936,
      "yul": 3937,
      "mychaela": 3938,
      "pě": 3939,
      "##ávána": 3940,
      "rozb": 3941,
      "úp": 3942,
      "##46": 3943,
      "##říčí": 3944,
      "##perk": 3945,
      "##obil": 3946,
      "##osa": 3947,
      "jud": 3948,
      "##ico": 3949,
      "##мила": 3950,
      "##71": 3951,
      "alexander": 3952,
      "##тон": 3953,
      "tich": 3954,
      "##važ": 3955,
      "##use": 3956,
      "clean": 3957,
      "šimon": 3958,
      "##rich": 3959,
      "##lika": 3960,
      "ordinace": 3961,
      "luk": 3962,
      "##kátní": 3963,
      "##lem": 3964,
      "moto": 3965,
      "##hu": 3966,
      "##ман": 3967,
      "##оро": 3968,
      "##táh": 3969,
      "wiktoria": 3970,
      "##ius": 3971,
      "trust": 3972,
      "##83": 3973,
      "vltavou": 3974,
      "##79": 3975,
      "stol": 3976,
      "##аров": 3977,
      "národní": 3978,
      "luž": 3979,
      "ret": 3980,
      "dali": 3981,
      "##orová": 3982,
      "##ady": 3983,
      "##ted": 3984,
      "##živ": 3985,
      "##nikova": 3986,
      "##ičky": 3987,
      "mk": 3988,
      "urban": 3989,
      "##bar": 3990,
      "innov": 3991,
      "lum": 3992,
      "gry": 3993,
      "import": 3994,
      "кон": 3995,
      "##cher": 3996,
      "##41": 3997,
      "commun": 3998,
      "##mit": 3999,
      "so": 4000,
      "##ami": 4001,
      "security": 4002,
      "graz": 4003,
      "##líb": 4004,
      "##we": 4005,
      "tě": 4006,
      "sara": 4007,
      "bytove": 4008,
      "vyc": 4009,
      "##řik": 4010,
      "pracov": 4011,
      "##cký": 4012,
      "##držba": 4013,
      "ambul": 4014,
      "##ření": 4015,
      "bau": 4016,
      "##hi": 4017,
      "šeb": 4018,
      "sáza": 4019,
      "natálie": 4020,
      "sever": 4021,
      "hoš": 4022,
      "##číme": 4023,
      "##owsky": 4024,
      "##ytka": 4025,
      "##stup": 4026,
      "##onice": 4027,
      "professional": 4028,
      "automot": 4029,
      "lap": 4030,
      "##49": 4031,
      "plk": 4032,
      "##mol": 4033,
      "advokátní": 4034,
      "sza": 4035,
      "vojta": 4036,
      "premium": 4037,
      "union": 4038,
      "##ářský": 4039,
      "lys": 4040,
      "bru": 4041,
      "##86": 4042,
      "nel": 4043,
      "##ňák": 4044,
      "inženýr": 4045,
      "##ound": 4046,
      "##81": 4047,
      "tab": 4048,
      "ster": 4049,
      "jezdecký": 4050,
      "sym": 4051,
      "##52": 4052,
      "##icky": 4053,
      "##těz": 4054,
      "окс": 4055,
      "##věd": 4056,
      "##zik": 4057,
      "rtm": 4058,
      "##hd": 4059,
      "##čov": 4060,
      "vladimíra": 4061,
      "##уз": 4062,
      "leon": 4063,
      "seni": 4064,
      "##cki": 4065,
      "association": 4066,
      "speed": 4067,
      "digi": 4068,
      "##ynka": 4069,
      "fc": 4070,
      "##nění": 4071,
      "ke": 4072,
      "23": 4073,
      "hem": 4074,
      "sop": 4075,
      "##raž": 4076,
      "sha": 4077,
      "rozh": 4078,
      "ped": 4079,
      "labs": 4080,
      "zar": 4081,
      "usk": 4082,
      "##edit": 4083,
      "doma": 4084,
      "hlub": 4085,
      "##esova": 4086,
      "##ouž": 4087,
      "bytů": 4088,
      "##mot": 4089,
      "##53": 4090,
      "mjr": 4091,
      "##nicí": 4092,
      "##něna": 4093,
      "##их": 4094,
      "##něny": 4095,
      "vítěz": 4096,
      "##ávis": 4097,
      "zka": 4098,
      "со": 4099,
      "stru": 4100,
      "##isk": 4101,
      "##íčková": 4102,
      "##tware": 4103,
      "komun": 4104,
      "игор": 4105,
      "##erov": 4106,
      "bydl": 4107,
      "abp": 4108,
      "odh": 4109,
      "pech": 4110,
      "bad": 4111,
      "hrub": 4112,
      "zone": 4113,
      "##ostav": 4114,
      "hip": 4115,
      "bytových": 4116,
      "nejst": 4117,
      "##ičová": 4118,
      "##ávala": 4119,
      "band": 4120,
      "moravský": 4121,
      "##nostmi": 4122,
      "saf": 4123,
      "vik": 4124,
      "##vil": 4125,
      "##ald": 4126,
      "##kám": 4127,
      "stanisław": 4128,
      "ynter": 4129,
      "rog": 4130,
      "kuz": 4131,
      "##юк": 4132,
      "pne": 4133,
      "22": 4134,
      "zpří": 4135,
      "ošk": 4136,
      "nis": 4137,
      "proz": 4138,
      "##exc": 4139,
      "##ns": 4140,
      "libuše": 4141,
      "##zz": 4142,
      "vrat": 4143,
      "##ovka": 4144,
      "##liš": 4145,
      "przemysław": 4146,
      "oleksandr": 4147,
      "nejch": 4148,
      "##82": 4149,
      "tenis": 4150,
      "##73": 4151,
      "stanislava": 4152,
      "##maj": 4153,
      "doz": 4154,
      "novot": 4155,
      "##ker": 4156,
      "##аня": 4157,
      "##asha": 4158,
      "sat": 4159,
      "św": 4160,
      "zofia": 4161,
      "first": 4162,
      "##rada": 4163,
      "##hol": 4164,
      "cool": 4165,
      "gosia": 4166,
      "##sen": 4167,
      "nar": 4168,
      "pozem": 4169,
      "fun": 4170,
      "##nia": 4171,
      "maja": 4172,
      "lor": 4173,
      "metro": 4174,
      "##lich": 4175,
      "lep": 4176,
      "##kyně": 4177,
      "##tejn": 4178,
      "##ump": 4179,
      "##hl": 4180,
      "пав": 4181,
      "mga": 4182,
      "svetlana": 4183,
      "##ule": 4184,
      "##ovsky": 4185,
      "##rát": 4186,
      "rtn": 4187,
      "dcn": 4188,
      "##řež": 4189,
      "šť": 4190,
      "##rý": 4191,
      "##iuk": 4192,
      "##lom": 4193,
      "##bc": 4194,
      "kok": 4195,
      "oc": 4196,
      "##ount": 4197,
      "##váš": 4198,
      "skupina": 4199,
      "##ůj": 4200,
      "##09": 4201,
      "zko": 4202,
      "викто": 4203,
      "##star": 4204,
      "phd": 4205,
      "bitové": 4206,
      "##łek": 4207,
      "##oměřice": 4208,
      "##peč": 4209,
      "malá": 4210,
      "##тин": 4211,
      "##ider": 4212,
      "krzys": 4213,
      "dalibor": 4214,
      "holub": 4215,
      "thd": 4216,
      "vitali": 4217,
      "##geni": 4218,
      "neb": 4219,
      "orlic": 4220,
      "##sku": 4221,
      "##ann": 4222,
      "##yty": 4223,
      "bca": 4224,
      "piet": 4225,
      "znojmo": 4226,
      "##мир": 4227,
      "sav": 4228,
      "care": 4229,
      "##yčů": 4230,
      "##rou": 4231,
      "##ada": 4232,
      "flor": 4233,
      "##emb": 4234,
      "люд": 4235,
      "##razi": 4236,
      "##skeho": 4237,
      "valer": 4238,
      "##ves": 4239,
      "alli": 4240,
      "bohumil": 4241,
      "вита": 4242,
      "оксана": 4243,
      "##erz": 4244,
      "rz": 4245,
      "ky": 4246,
      "##žní": 4247,
      "autod": 4248,
      "##бов": 4249,
      "##enský": 4250,
      "equ": 4251,
      "##ycká": 4252,
      "enterprise": 4253,
      "##ošová": 4254,
      "##sur": 4255,
      "##тор": 4256,
      "##lect": 4257,
      "rab": 4258,
      "##ryk": 4259,
      "ambulance": 4260,
      "##ylo": 4261,
      "jihlava": 4262,
      "jun": 4263,
      "виктория": 4264,
      "gard": 4265,
      "škole": 4266,
      "želez": 4267,
      "paj": 4268,
      "##éna": 4269,
      "##ior": 4270,
      "financial": 4271,
      "##éz": 4272,
      "praze": 4273,
      "##ical": 4274,
      "maciek": 4275,
      "moravia": 4276,
      "emilia": 4277,
      "aqua": 4278,
      "##ley": 4279,
      "km": 4280,
      "jizer": 4281,
      "józ": 4282,
      "роман": 4283,
      "data": 4284,
      "marián": 4285,
      "oksana": 4286,
      "nyk": 4287,
      "##мов": 4288,
      "cal": 4289,
      "těloc": 4290,
      "hap": 4291,
      "##lod": 4292,
      "koč": 4293,
      "llm": 4294,
      "##erg": 4295,
      "zná": 4296,
      "cy": 4297,
      "##irl": 4298,
      "##max": 4299,
      "##ся": 4300,
      "kož": 4301,
      "ah": 4302,
      "plast": 4303,
      "prakt": 4304,
      "##anovice": 4305,
      "##říd": 4306,
      "advisory": 4307,
      "##иль": 4308,
      "##omorav": 4309,
      "##liz": 4310,
      "brněn": 4311,
      "##lb": 4312,
      "žď": 4313,
      "christ": 4314,
      "tox": 4315,
      "##oly": 4316,
      "cheb": 4317,
      "anita": 4318,
      "dest": 4319,
      "##lít": 4320,
      "денис": 4321,
      "kw": 4322,
      "антон": 4323,
      "##lip": 4324,
      "##tav": 4325,
      "игорь": 4326,
      "##írá": 4327,
      "rot": 4328,
      "john": 4329,
      "zob": 4330,
      "##ňany": 4331,
      "zdz": 4332,
      "##ával": 4333,
      "##chovice": 4334,
      "01": 4335,
      "unie": 4336,
      "sławomir": 4337,
      "fur": 4338,
      "##vas": 4339,
      "jez": 4340,
      "##ations": 4341,
      "##ovaná": 4342,
      "##rowska": 4343,
      "kil": 4344,
      "lich": 4345,
      "las": 4346,
      "doprava": 4347,
      "nezávis": 4348,
      "##lás": 4349,
      "##trol": 4350,
      "##okoj": 4351,
      "##ream": 4352,
      "účetnictví": 4353,
      "mládež": 4354,
      "camp": 4355,
      "rados": 4356,
      "##luš": 4357,
      "##uska": 4358,
      "ely": 4359,
      "software": 4360,
      "úklid": 4361,
      "##taž": 4362,
      "##ysa": 4363,
      "##líz": 4364,
      "##vel": 4365,
      "myslivecké": 4366,
      "vu": 4367,
      "##inková": 4368,
      "ib": 4369,
      "bod": 4370,
      "wolf": 4371,
      "##číte": 4372,
      "##ěno": 4373,
      "postiž": 4374,
      "##ylová": 4375,
      "##ýr": 4376,
      "##fik": 4377,
      "jexc": 4378,
      "kn": 4379,
      "##demar": 4380,
      "advisors": 4381,
      "liga": 4382,
      "zkon": 4383,
      "troj": 4384,
      "janina": 4385,
      "##еев": 4386,
      "kre": 4387,
      "eduard": 4388,
      "well": 4389,
      "##cs": 4390,
      "николай": 4391,
      "včela": 4392,
      "zpr": 4393,
      "##bot": 4394,
      "##acon": 4395,
      "##enské": 4396,
      "fe": 4397,
      "ján": 4398,
      "##vor": 4399,
      "marye": 4400,
      "jež": 4401,
      "silvie": 4402,
      "##ńsky": 4403,
      "##lh": 4404,
      "tre": 4405,
      "exhibition": 4406,
      "##ínek": 4407,
      "##říš": 4408,
      "orlicí": 4409,
      "##room": 4410,
      "##enov": 4411,
      "##eth": 4412,
      "##тина": 4413,
      "##ešt": 4414,
      "komise": 4415,
      "natalya": 4416,
      "##ett": 4417,
      "##oklub": 4418,
      "class": 4419,
      "##du": 4420,
      "##oul": 4421,
      "energo": 4422,
      "brig": 4423,
      "##etail": 4424,
      "act": 4425,
      "basia": 4426,
      "show": 4427,
      "pu": 4428,
      "np": 4429,
      "людмила": 4430,
      "volodym": 4431,
      "##ony": 4432,
      "##ati": 4433,
      "laz": 4434,
      "hold": 4435,
      "##áčová": 4436,
      "##manova": 4437,
      "lucka": 4438,
      "##nis": 4439,
      "pho": 4440,
      "realitní": 4441,
      "dětí": 4442,
      "krup": 4443,
      "##či": 4444,
      "cuk": 4445,
      "##oy": 4446,
      "velký": 4447,
      "##cu": 4448,
      "chor": 4449,
      "##mannová": 4450,
      "##eko": 4451,
      "tes": 4452,
      "kazim": 4453,
      "##lék": 4454,
      "##zh": 4455,
      "##kater": 4456,
      "##nych": 4457,
      "##kán": 4458,
      "##berk": 4459,
      "collect": 4460,
      "dim": 4461,
      "##anh": 4462,
      "techno": 4463,
      "gabry": 4464,
      "prodej": 4465,
      "kaš": 4466,
      "rý": 4467,
      "##land": 4468,
      "##skar": 4469,
      "skal": 4470,
      "##iia": 4471,
      "outlet": 4472,
      "михаил": 4473,
      "##ght": 4474,
      "liv": 4475,
      "nisou": 4476,
      "##řim": 4477,
      "##ohrad": 4478,
      "pec": 4479,
      "##ris": 4480,
      "##nd": 4481,
      "dvůr": 4482,
      "big": 4483,
      "##skaya": 4484,
      "##íkov": 4485,
      "krum": 4486,
      "acc": 4487,
      "hra": 4488,
      "pobočný": 4489,
      "elzbieta": 4490,
      "##haj": 4491,
      "vzp": 4492,
      "nela": 4493,
      "##skov": 4494,
      "##zia": 4495,
      "jarda": 4496,
      "štěpánka": 4497,
      "##iro": 4498,
      "##otín": 4499,
      "олег": 4500,
      "##ten": 4501,
      "##ností": 4502,
      "##gan": 4503,
      "vzdělávání": 4504,
      "adriana": 4505,
      "zim": 4506,
      "pham": 4507,
      "##ovar": 4508,
      "##ises": 4509,
      "##ís": 4510,
      "##das": 4511,
      "spot": 4512,
      "námě": 4513,
      "catering": 4514,
      "nut": 4515,
      "##ét": 4516,
      "##icová": 4517,
      "pur": 4518,
      "fri": 4519,
      "bozena": 4520,
      "##ulová": 4521,
      "##níč": 4522,
      "bd": 4523,
      "míša": 4524,
      "##řes": 4525,
      "údržba": 4526,
      "pharm": 4527,
      "##str": 4528,
      "mirosław": 4529,
      "##iti": 4530,
      "bry": 4531,
      "vysok": 4532,
      "##ołaj": 4533,
      "gaw": 4534,
      "wareh": 4535,
      "cír": 4536,
      "přem": 4537,
      "##čáková": 4538,
      "dur": 4539,
      "victor": 4540,
      "pt": 4541,
      "andrej": 4542,
      "##nerova": 4543,
      "##łka": 4544,
      "záb": 4545,
      "##еева": 4546,
      "place": 4547,
      "thu": 4548,
      "##cni": 4549,
      "ras": 4550,
      "zma": 4551,
      "af": 4552,
      "frantisek": 4553,
      "steel": 4554,
      "##naj": 4555,
      "дар": 4556,
      "##yv": 4557,
      "##eum": 4558,
      "quick": 4559,
      "##lež": 4560,
      "##něni": 4561,
      "fra": 4562,
      "##kina": 4563,
      "clin": 4564,
      "##nož": 4565,
      "lil": 4566,
      "fyn": 4567,
      "pood": 4568,
      "##uda": 4569,
      "výbor": 4570,
      "##ета": 4571,
      "ин": 4572,
      "##los": 4573,
      "##elova": 4574,
      "waldemar": 4575,
      "##mid": 4576,
      "##ome": 4577,
      "sociální": 4578,
      "týn": 4579,
      "##omb": 4580,
      "##inská": 4581,
      "##стя": 4582,
      "##ínová": 4583,
      "##valo": 4584,
      "##ito": 4585,
      "##ег": 4586,
      "life": 4587,
      "##ull": 4588,
      "##nula": 4589,
      "řez": 4590,
      "##tov": 4591,
      "sn": 4592,
      "posp": 4593,
      "zre": 4594,
      "##káme": 4595,
      "mm": 4596,
      "##zka": 4597,
      "spv": 4598,
      "##zek": 4599,
      "надеж": 4600,
      "##gh": 4601,
      "##iér": 4602,
      "alliance": 4603,
      "prote": 4604,
      "iii": 4605,
      "##anská": 4606,
      "buch": 4607,
      "fak": 4608,
      "vaj": 4609,
      "edita": 4610,
      "odborová": 4611,
      "##lach": 4612,
      "tatiana": 4613,
      "##ďte": 4614,
      "##ťme": 4615,
      "crew": 4616,
      "##něno": 4617,
      "port": 4618,
      "##ěni": 4619,
      "mikołaj": 4620,
      "sí": 4621,
      "kni": 4622,
      "##táže": 4623,
      "rum": 4624,
      "nina": 4625,
      "přej": 4626,
      "stará": 4627,
      "##áváme": 4628,
      "bydlení": 4629,
      "zají": 4630,
      "##urová": 4631,
      "##kách": 4632,
      "odděl": 4633,
      "fair": 4634,
      "##ňuju": 4635,
      "##ostmi": 4636,
      "##ňková": 4637,
      "klin": 4638,
      "##še": 4639,
      "##ávám": 4640,
      "círk": 4641,
      "hlin": 4642,
      "##ilov": 4643,
      "##itelnějšímu": 4644,
      "sešk": 4645,
      "##ání": 4646,
      "tělocvič": 4647,
      "rn": 4648,
      "##iky": 4649,
      "gabri": 4650,
      "nejsp": 4651,
      "republika": 4652,
      "ple": 4653,
      "##pp": 4654,
      "##čer": 4655,
      "галина": 4656,
      "pm": 4657,
      "vydě": 4658,
      "##jon": 4659,
      "znep": 4660,
      "##никова": 4661,
      "pala": 4662,
      "##стина": 4663,
      "ož": 4664,
      "##pet": 4665,
      "##šík": 4666,
      "het": 4667,
      "##ęb": 4668,
      "##owa": 4669,
      "eg": 4670,
      "##атов": 4671,
      "##unka": 4672,
      "надежда": 4673,
      "specialists": 4674,
      "vep": 4675,
      "beta": 4676,
      "##ike": 4677,
      "##imp": 4678,
      "sergey": 4679,
      "##voz": 4680,
      "пет": 4681,
      "##bau": 4682,
      "std": 4683,
      "##árová": 4684,
      "volodymyr": 4685,
      "##ěny": 4686,
      "##sm": 4687,
      "##łowska": 4688,
      "##oft": 4689,
      "ulici": 4690,
      "##па": 4691,
      "jac": 4692,
      "##láv": 4693,
      "##ama": 4694,
      "beauty": 4695,
      "trp": 4696,
      "fyl": 4697,
      "##ěna": 4698,
      "##ářová": 4699,
      "simon": 4700,
      "yvana": 4701,
      "##ments": 4702,
      "dez": 4703,
      "##stvy": 4704,
      "##štejn": 4705,
      "##ias": 4706,
      "##tak": 4707,
      "##upy": 4708,
      "dvor": 4709,
      "##so": 4710,
      "sekce": 4711,
      "##ikov": 4712,
      "autos": 4713,
      "karla": 4714,
      "вален": 4715,
      "##inek": 4716,
      "##upa": 4717,
      "##eco": 4718,
      "život": 4719,
      "##иц": 4720,
      "##chal": 4721,
      "му": 4722,
      "radovan": 4723,
      "oleg": 4724,
      "##nie": 4725,
      "kristyna": 4726,
      "lykvydaci": 4727,
      "##ířov": 4728,
      "první": 4729,
      "cooper": 4730,
      "sos": 4731,
      "lidia": 4732,
      "##ětice": 4733,
      "yvan": 4734,
      "jcd": 4735,
      "pá": 4736,
      "##utov": 4737,
      "duch": 4738,
      "přich": 4739,
      "##anc": 4740,
      "##álová": 4741,
      "commer": 4742,
      "naz": 4743,
      "blaž": 4744,
      "červen": 4745,
      "leas": 4746,
      "golf": 4747,
      "vran": 4748,
      "lang": 4749,
      "##yon": 4750,
      "industri": 4751,
      "##ňovice": 4752,
      "experts": 4753,
      "wioletta": 4754,
      "grazyna": 4755,
      "##ečka": 4756,
      "not": 4757,
      "##éka": 4758,
      "síd": 4759,
      "##ining": 4760,
      "##eld": 4761,
      "klat": 4762,
      "hand": 4763,
      "kin": 4764,
      "had": 4765,
      "##kovská": 4766,
      "##hart": 4767,
      "regionální": 4768,
      "kynologický": 4769,
      "kříž": 4770,
      "boleslav": 4771,
      "##из": 4772,
      "gi": 4773,
      "brat": 4774,
      "gul": 4775,
      "mp": 4776,
      "##eník": 4777,
      "west": 4778,
      "ekater": 4779,
      "##jat": 4780,
      "turist": 4781,
      "##ordin": 4782,
      "sł": 4783,
      "komunitní": 4784,
      "andrey": 4785,
      "илья": 4786,
      "zla": 4787,
      "pul": 4788,
      "yl": 4789,
      "boř": 4790,
      "##ыр": 4791,
      "kolín": 4792,
      "myr": 4793,
      "##ents": 4794,
      "czer": 4795,
      "##ward": 4796,
      "consultyng": 4797,
      "bohdan": 4798,
      "workshop": 4799,
      "malgorzata": 4800,
      "##čr": 4801,
      "##ářství": 4802,
      "health": 4803,
      "##vak": 4804,
      "fotbal": 4805,
      "##těž": 4806,
      "koch": 4807,
      "stora": 4808,
      "žiž": 4809,
      "bartł": 4810,
      "milada": 4811,
      "pyotr": 4812,
      "fox": 4813,
      "mos": 4814,
      "investiční": 4815,
      "##řeš": 4816,
      "agny": 4817,
      "neum": 4818,
      "mykola": 4819,
      "logistics": 4820,
      "##gro": 4821,
      "karina": 4822,
      "masar": 4823,
      "dus": 4824,
      "likvydacy": 4825,
      "expo": 4826,
      "##tv": 4827,
      "žaneta": 4828,
      "##ели": 4829,
      "##ického": 4830,
      "lykvidacy": 4831,
      "ochran": 4832,
      "factory": 4833,
      "##ysia": 4834,
      "##din": 4835,
      "imp": 4836,
      "kryšt": 4837,
      "serg": 4838,
      "elite": 4839,
      "##eda": 4840,
      "##ato": 4841,
      "##dol": 4842,
      "##дра": 4843,
      "hradiště": 4844,
      "včelařů": 4845,
      "##nič": 4846,
      "##etka": 4847,
      "##itor": 4848,
      "info": 4849,
      "mur": 4850,
      "józef": 4851,
      "jytka": 4852,
      "online": 4853,
      "##omp": 4854,
      "##ocka": 4855,
      "##rk": 4856,
      "uny": 4857,
      "žďár": 4858,
      "##lit": 4859,
      "ski": 4860,
      "šv": 4861,
      "agnyeszka": 4862,
      "##tl": 4863,
      "vision": 4864,
      "stepan": 4865,
      "byty": 4866,
      "desig": 4867,
      "try": 4868,
      "##nor": 4869,
      "##ďme": 4870,
      "##ivi": 4871,
      "##nos": 4872,
      "##цева": 4873,
      "##arski": 4874,
      "sir": 4875,
      "##struk": 4876,
      "wh": 4877,
      "tex": 4878,
      "##евич": 4879,
      "lesní": 4880,
      "mvdr": 4881,
      "##nutel": 4882,
      "##ickova": 4883,
      "кат": 4884,
      "sázavou": 4885,
      "##omíra": 4886,
      "storage": 4887,
      "ales": 4888,
      "##roč": 4889,
      "fash": 4890,
      "showroom": 4891,
      "mlý": 4892,
      "div": 4893,
      "professionals": 4894,
      "worldw": 4895,
      "fk": 4896,
      "ote": 4897,
      "aj": 4898,
      "##stal": 4899,
      "job": 4900,
      "аль": 4901,
      "##řské": 4902,
      "ozv": 4903,
      "peš": 4904,
      "oly": 4905,
      "gł": 4906,
      "##enc": 4907,
      "family": 4908,
      "nex": 4909,
      "racing": 4910,
      "##ouč": 4911,
      "##ňovaly": 4912,
      "##isová": 4913,
      "thom": 4914,
      "para": 4915,
      "26": 4916,
      "nejvy": 4917,
      "příbram": 4918,
      "zašk": 4919,
      "##omat": 4920,
      "cher": 4921,
      "sin": 4922,
      "##hova": 4923,
      "žer": 4924,
      "kej": 4925,
      "##omiej": 4926,
      "##ович": 4927,
      "##ávejte": 4928,
      "alp": 4929,
      "кол": 4930,
      "ušk": 4931,
      "pros": 4932,
      "##itelnějších": 4933,
      "práce": 4934,
      "кар": 4935,
      "##rn": 4936,
      "cas": 4937,
      "rozš": 4938,
      "aw": 4939,
      "##ávejme": 4940,
      "og": 4941,
      "rozč": 4942,
      "##icích": 4943,
      "##jíž": 4944,
      "aga": 4945,
      "lucyna": 4946,
      "##itelnějším": 4947,
      "sylw": 4948,
      "nejned": 4949,
      "vyšk": 4950,
      "##ávat": 4951,
      "krzysiek": 4952,
      "kostelec": 4953,
      "žal": 4954,
      "##působ": 4955,
      "erik": 4956,
      "zu": 4957,
      "##ňováno": 4958,
      "vítězslav": 4959,
      "usp": 4960,
      "domyn": 4961,
      "mam": 4962,
      "##řad": 4963,
      "nejner": 4964,
      "##itelnějšími": 4965,
      "##ňujete": 4966,
      "kus": 4967,
      "blat": 4968,
      "##ум": 4969,
      "##ovych": 4970,
      "univers": 4971,
      "dita": 4972,
      "štefan": 4973,
      "##nam": 4974,
      "##enec": 4975,
      "##opa": 4976,
      "##ever": 4977,
      "vir": 4978,
      "chrud": 4979,
      "ostrov": 4980,
      "##ident": 4981,
      "lew": 4982,
      "dod": 4983,
      "robin": 4984,
      "sid": 4985,
      "hur": 4986,
      "kryštof": 4987,
      "kim": 4988,
      "##kan": 4989,
      "krá": 4990,
      "виктор": 4991,
      "future": 4992,
      "set": 4993,
      "society": 4994,
      "##esta": 4995,
      "hyper": 4996,
      "##dic": 4997,
      "maxim": 4998,
      "bohuslav": 4999,
      "vide": 5000,
      "##acka": 5001,
      "##ele": 5002,
      "дарья": 5003,
      "lena": 5004,
      "properties": 5005,
      "hk": 5006,
      "uč": 5007,
      "creative": 5008,
      "##forma": 5009,
      "prokop": 5010,
      "klara": 5011,
      "##leg": 5012,
      "poly": 5013,
      "dj": 5014,
      "ję": 5015,
      "krom": 5016,
      "insta": 5017,
      "hart": 5018,
      "radosław": 5019,
      "architects": 5020,
      "hy": 5021,
      "##чук": 5022,
      "##omí": 5023,
      "rapid": 5024,
      "ventures": 5025,
      "base": 5026,
      "##isch": 5027,
      "ис": 5028,
      "##enda": 5029,
      "hul": 5030,
      "##lím": 5031,
      "##lev": 5032,
      "cie": 5033,
      "##urace": 5034,
      "cyber": 5035,
      "##řín": 5036,
      "brun": 5037,
      "foto": 5038,
      "sap": 5039,
      "worldwide": 5040,
      "plat": 5041,
      "bła": 5042,
      "buj": 5043,
      "##rak": 5044,
      "restaur": 5045,
      "sped": 5046,
      "bos": 5047,
      "tyl": 5048,
      "spolecenstvy": 5049,
      "##ášová": 5050,
      "kněž": 5051,
      "##oli": 5052,
      "ala": 5053,
      "fitness": 5054,
      "rozst": 5055,
      "franty": 5056,
      "děčín": 5057,
      "##lerova": 5058,
      "саша": 5059,
      "pri": 5060,
      "baz": 5061,
      "##chy": 5062,
      "reh": 5063,
      "##řep": 5064,
      "##gnost": 5065,
      "artem": 5066,
      "consort": 5067,
      "##ere": 5068,
      "##enia": 5069,
      "lut": 5070,
      "henryk": 5071,
      "kod": 5072,
      "mt": 5073,
      "fund": 5074,
      "##ící": 5075,
      "resort": 5076,
      "postižených": 5077,
      "hous": 5078,
      "orl": 5079,
      "##го": 5080,
      "gymná": 5081,
      "was": 5082,
      "komora": 5083,
      "##omy": 5084,
      "kys": 5085,
      "##anský": 5086,
      "anastasia": 5087,
      "zaw": 5088,
      "myst": 5089,
      "lak": 5090,
      "охран": 5091,
      "pražský": 5092,
      "##gs": 5093,
      "yveta": 5094,
      "ксен": 5095,
      "bern": 5096,
      "##nyku": 5097,
      "##enta": 5098,
      "hospital": 5099,
      "hb": 5100,
      "cou": 5101,
      "kova": 5102,
      "beroun": 5103,
      "юрий": 5104,
      "##ichová": 5105,
      "gener": 5106,
      "alo": 5107,
      "dej": 5108,
      "blue": 5109,
      "##til": 5110,
      "červ": 5111,
      "##jak": 5112,
      "##vili": 5113,
      "krajský": 5114,
      "##váž": 5115,
      "кристина": 5116,
      "leona": 5117,
      "kač": 5118,
      "hut": 5119,
      "cza": 5120,
      "space": 5121,
      "teplice": 5122,
      "ki": 5123,
      "jola": 5124,
      "arek": 5125,
      "jednotka": 5126,
      "hoj": 5127,
      "##ůz": 5128,
      "павел": 5129,
      "good": 5130,
      "##zem": 5131,
      "##su": 5132,
      "##kost": 5133,
      "ox": 5134,
      "dark": 5135,
      "##ené": 5136,
      "lp": 5137,
      "zask": 5138,
      "slun": 5139,
      "##ох": 5140,
      "mech": 5141,
      "##níme": 5142,
      "automotive": 5143,
      "consortium": 5144,
      "podnik": 5145,
      "pers": 5146,
      "##arm": 5147,
      "alb": 5148,
      "##yti": 5149,
      "##cit": 5150,
      "эль": 5151,
      "##ěves": 5152,
      "hospod": 5153,
      "##kowiak": 5154,
      "##иева": 5155,
      "##ráp": 5156,
      "kit": 5157,
      "line": 5158,
      "starý": 5159,
      "##ňáková": 5160,
      "projekty": 5161,
      "##оч": 5162,
      "##vál": 5163,
      "strateg": 5164,
      "##eng": 5165,
      "kd": 5166,
      "##ární": 5167,
      "кор": 5168,
      "aa": 5169,
      "##hošť": 5170,
      "salon": 5171,
      "##větl": 5172,
      "serh": 5173,
      "##ез": 5174,
      "european": 5175,
      "##рил": 5176,
      "trut": 5177,
      "100": 5178,
      "##еч": 5179,
      "##nač": 5180,
      "##isp": 5181,
      "spa": 5182,
      "senior": 5183,
      "rafal": 5184,
      "ef": 5185,
      "ai": 5186,
      "hm": 5187,
      "galerie": 5188,
      "pratel": 5189,
      "čist": 5190,
      "##win": 5191,
      "pie": 5192,
      "lat": 5193,
      "##ěr": 5194,
      "##ějí": 5195,
      "šed": 5196,
      "ró": 5197,
      "výrob": 5198,
      "dž": 5199,
      "##cej": 5200,
      "##ářů": 5201,
      "##ďka": 5202,
      "čap": 5203,
      "čel": 5204,
      "##bur": 5205,
      "##eau": 5206,
      "hed": 5207,
      "divadlo": 5208,
      "delta": 5209,
      "jičín": 5210,
      "##ýhod": 5211,
      "naj": 5212,
      "nemovitosti": 5213,
      "##lawa": 5214,
      "##idl": 5215,
      "complex": 5216,
      "model": 5217,
      "lem": 5218,
      "marlena": 5219,
      "dmyt": 5220,
      "##ml": 5221,
      "##ener": 5222,
      "korn": 5223,
      "##ieva": 5224,
      "##mond": 5225,
      "##išová": 5226,
      "státní": 5227,
      "ruslan": 5228,
      "corner": 5229,
      "vasil": 5230,
      "ас": 5231,
      "##kalová": 5232,
      "##ale": 5233,
      "nejt": 5234,
      "##ými": 5235,
      "##oni": 5236,
      "sana": 5237,
      "##zav": 5238,
      "##nich": 5239,
      "dobr": 5240,
      "фа": 5241,
      "hruš": 5242,
      "##пов": 5243,
      "ip": 5244,
      "##ař": 5245,
      "mega": 5246,
      "lok": 5247,
      "##ников": 5248,
      "retail": 5249,
      "sma": 5250,
      "##ečná": 5251,
      "vlastnyku": 5252,
      "má": 5253,
      "katar": 5254,
      "##ávali": 5255,
      "##vih": 5256,
      "mira": 5257,
      "pre": 5258,
      "гри": 5259,
      "sf": 5260,
      "iza": 5261,
      "zdzis": 5262,
      "##luv": 5263,
      "exp": 5264,
      "hlad": 5265,
      "pin": 5266,
      "albert": 5267,
      "##kh": 5268,
      "kamyl": 5269,
      "bára": 5270,
      "##kává": 5271,
      "uká": 5272,
      "kola": 5273,
      "##ds": 5274,
      "dvoj": 5275,
      "##иш": 5276,
      "##ůst": 5277,
      "mons": 5278,
      "aug": 5279,
      "##íh": 5280,
      "hran": 5281,
      "agr": 5282,
      "##rč": 5283,
      "##арова": 5284,
      "cafe": 5285,
      "##pívá": 5286,
      "mh": 5287,
      "alž": 5288,
      "miluše": 5289,
      "laura": 5290,
      "##yński": 5291,
      "otr": 5292,
      "erika": 5293,
      "obcan": 5294,
      "##nilo": 5295,
      "collective": 5296,
      "##ěla": 5297,
      "ds": 5298,
      "smet": 5299,
      "matouš": 5300,
      "##ejších": 5301,
      "##onka": 5302,
      "##ith": 5303,
      "federal": 5304,
      "prag": 5305,
      "##děč": 5306,
      "koj": 5307,
      "никита": 5308,
      "##řím": 5309,
      "int": 5310,
      "ký": 5311,
      "jizerou": 5312,
      "clinic": 5313,
      "odmě": 5314,
      "##áváš": 5315,
      "##enzion": 5316,
      "##ucha": 5317,
      "dost": 5318,
      "zál": 5319,
      "##ser": 5320,
      "odep": 5321,
      "oliwia": 5322,
      "##eba": 5323,
      "##arter": 5324,
      "##rup": 5325,
      "krat": 5326,
      "##ислав": 5327,
      "руслан": 5328,
      "##štíp": 5329,
      "kryp": 5330,
      "##oká": 5331,
      "chrono": 5332,
      "##lish": 5333,
      "##uto": 5334,
      "##olová": 5335,
      "fu": 5336,
      "##pad": 5337,
      "zvě": 5338,
      "ксения": 5339,
      "jyr": 5340,
      "##nutí": 5341,
      "##king": 5342,
      "чер": 5343,
      "##řehled": 5344,
      "wo": 5345,
      "station": 5346,
      "##ewycz": 5347,
      "consultants": 5348,
      "sep": 5349,
      "geo": 5350,
      "##káte": 5351,
      "eth": 5352,
      "nykola": 5353,
      "##бе": 5354,
      "ran": 5355,
      "mezi": 5356,
      "##tain": 5357,
      "##кий": 5358,
      "bartłomiej": 5359,
      "##lum": 5360,
      "##kárna": 5361,
      "valaš": 5362,
      "kyj": 5363,
      "thanh": 5364,
      "rou": 5365,
      "##ren": 5366,
      "##rut": 5367,
      "cms": 5368,
      "##oprava": 5369,
      "##ott": 5370,
      "дима": 5371,
      "adela": 5372,
      "deb": 5373,
      "trutnov": 5374,
      "firm": 5375,
      "##fek": 5376,
      "##vín": 5377,
      "##pen": 5378,
      "##bet": 5379,
      "print": 5380,
      "miloslava": 5381,
      "##bou": 5382,
      "slan": 5383,
      "##mír": 5384,
      "##cem": 5385,
      "waw": 5386,
      "oskar": 5387,
      "pv": 5388,
      "chotě": 5389,
      "industry": 5390,
      "##ušková": 5391,
      "aleksander": 5392,
      "macro": 5393,
      "##lán": 5394,
      "leoš": 5395,
      "##ištění": 5396,
      "ekaterina": 5397,
      "##itz": 5398,
      "##ой": 5399,
      "##yma": 5400,
      "sva": 5401,
      "##nc": 5402,
      "##онов": 5403,
      "zoo": 5404,
      "nask": 5405,
      "paed": 5406,
      "##ovace": 5407,
      "lon": 5408,
      "29": 5409,
      "černá": 5410,
      "oleš": 5411,
      "##mová": 5412,
      "##ušice": 5413,
      "##yev": 5414,
      "##nt": 5415,
      "chra": 5416,
      "fve": 5417,
      "##lavou": 5418,
      "евгения": 5419,
      "##ира": 5420,
      "naděž": 5421,
      "##ěnice": 5422,
      "ultra": 5423,
      "rokyt": 5424,
      "petro": 5425,
      "##cept": 5426,
      "##rož": 5427,
      "hory": 5428,
      "district": 5429,
      "ri": 5430,
      "##láč": 5431,
      "evrop": 5432,
      "##mara": 5433,
      "##bishop": 5434,
      "##skyi": 5435,
      "designers": 5436,
      "chval": 5437,
      "##brech": 5438,
      "benešov": 5439,
      "##kowicz": 5440,
      "tele": 5441,
      "restaurace": 5442,
      "relax": 5443,
      "##kový": 5444,
      "kacz": 5445,
      "naděžda": 5446,
      "slat": 5447,
      "kuč": 5448,
      "yar": 5449,
      "##áň": 5450,
      "educ": 5451,
      "marcyn": 5452,
      "##ыш": 5453,
      "neh": 5454,
      "julie": 5455,
      "distribuce": 5456,
      "ron": 5457,
      "lukasz": 5458,
      "##its": 5459,
      "forest": 5460,
      "30": 5461,
      "##ešovice": 5462,
      "##mgr": 5463,
      "but": 5464,
      "##zim": 5465,
      "##iera": 5466,
      "sarka": 5467,
      "lyn": 5468,
      "ská": 5469,
      "logistic": 5470,
      "katarzina": 5471,
      "pavlina": 5472,
      "suk": 5473,
      "náv": 5474,
      "frantyšek": 5475,
      "##elková": 5476,
      "bělá": 5477,
      "vpl": 5478,
      "##alska": 5479,
      "lek": 5480,
      "##eder": 5481,
      "##yca": 5482,
      "legal": 5483,
      "ceska": 5484,
      "obd": 5485,
      "cryp": 5486,
      "města": 5487,
      "тим": 5488,
      "##ming": 5489,
      "дж": 5490,
      "krzy": 5491,
      "černo": 5492,
      "##šíková": 5493,
      "doprav": 5494,
      "plaza": 5495,
      "pracovníků": 5496,
      "draž": 5497,
      "##oka": 5498,
      "hro": 5499,
      "hok": 5500,
      "čerm": 5501,
      "##czewska": 5502,
      "##stant": 5503,
      "jarka": 5504,
      "##fy": 5505,
      "veter": 5506,
      "stup": 5507,
      "##бер": 5508,
      "local": 5509,
      "##říte": 5510,
      "##řství": 5511,
      "meg": 5512,
      "myt": 5513,
      "plzni": 5514,
      "##uměl": 5515,
      "cla": 5516,
      "vladymír": 5517,
      "##ští": 5518,
      "##ůvka": 5519,
      "алина": 5520,
      "ow": 5521,
      "radio": 5522,
      "bb": 5523,
      "##kom": 5524,
      "ди": 5525,
      "servyces": 5526,
      "krč": 5527,
      "##ret": 5528,
      "##гом": 5529,
      "dir": 5530,
      "svit": 5531,
      "fashion": 5532,
      "##kowsky": 5533,
      "##vald": 5534,
      "vět": 5535,
      "lípa": 5536,
      "##strukce": 5537,
      "školní": 5538,
      "##tyon": 5539,
      "slezský": 5540,
      "karp": 5541,
      "##iba": 5542,
      "##sled": 5543,
      "piotrek": 5544,
      "náměstí": 5545,
      "##odob": 5546,
      "##umi": 5547,
      "артем": 5548,
      "vina": 5549,
      "řeh": 5550,
      "##voř": 5551,
      "hru": 5552,
      "##unt": 5553,
      "##way": 5554,
      "##čit": 5555,
      "norbert": 5556,
      "dobro": 5557,
      "##uma": 5558,
      "multi": 5559,
      "иль": 5560,
      "##likova": 5561,
      "zy": 5562,
      "luci": 5563,
      "national": 5564,
      "##átová": 5565,
      "##oky": 5566,
      "investice": 5567,
      "cin": 5568,
      "##rozen": 5569,
      "pust": 5570,
      "##loub": 5571,
      "##szek": 5572,
      "##urek": 5573,
      "quarter": 5574,
      "##ика": 5575,
      "##mjr": 5576,
      "##mark": 5577,
      "classic": 5578,
      "bukov": 5579,
      "##ath": 5580,
      "radomír": 5581,
      "mlýn": 5582,
      "cartel": 5583,
      "kaw": 5584,
      "##lák": 5585,
      "cooperative": 5586,
      "via": 5587,
      "vita": 5588,
      "holdyng": 5589,
      "##olas": 5590,
      "rk": 5591,
      "##skovice": 5592,
      "##gg": 5593,
      "los": 5594,
      "elect": 5595,
      "pepa": 5596,
      "##kovský": 5597,
      "matyáš": 5598,
      "pik": 5599,
      "popl": 5600,
      "hala": 5601,
      "pastor": 5602,
      "мир": 5603,
      "##ťu": 5604,
      "##ipp": 5605,
      "grab": 5606,
      "městský": 5607,
      "boris": 5608,
      "sobě": 5609,
      "виталий": 5610,
      "engineers": 5611,
      "sci": 5612,
      "##ieg": 5613,
      "##иг": 5614,
      "##ój": 5615,
      "##zum": 5616,
      "soukromý": 5617,
      "cyk": 5618,
      "##par": 5619,
      "##ýk": 5620,
      "plav": 5621,
      "sławek": 5622,
      "andre": 5623,
      "heřman": 5624,
      "##alizace": 5625,
      "regina": 5626,
      "##anowska": 5627,
      "##árek": 5628,
      "lav": 5629,
      "##iller": 5630,
      "warehouse": 5631,
      "##ators": 5632,
      "jablonec": 5633,
      "##стан": 5634,
      "tym": 5635,
      "##inský": 5636,
      "##čím": 5637,
      "bezdě": 5638,
      "bezpeč": 5639,
      "##ism": 5640,
      "location": 5641,
      "##fo": 5642,
      "munici": 5643,
      "gabryela": 5644,
      "municipal": 5645,
      "##iová": 5646,
      "congl": 5647,
      "jp": 5648,
      "are": 5649,
      "mž": 5650,
      "##ásek": 5651,
      "restaurant": 5652,
      "neuro": 5653,
      "faj": 5654,
      "##líš": 5655,
      "moravská": 5656,
      "conglomer": 5657,
      "##goda": 5658,
      "conglomerate": 5659,
      "##řany": 5660,
      "##ávají": 5661,
      "##uck": 5662,
      "##illa": 5663,
      "##náš": 5664,
      "кирил": 5665,
      "tělocvičná": 5666,
      "squad": 5667,
      "fru": 5668,
      "##ynová": 5669,
      "pneum": 5670,
      "zemědělské": 5671,
      "geor": 5672,
      "##orov": 5673,
      "##boy": 5674,
      "##ben": 5675,
      "podk": 5676,
      "##láš": 5677,
      "havlíč": 5678,
      "##rach": 5679,
      "##iu": 5680,
      "##lt": 5681,
      "fid": 5682,
      "##ejšího": 5683,
      "##bro": 5684,
      "law": 5685,
      "ludví": 5686,
      "##nop": 5687,
      "##ane": 5688,
      "##kány": 5689,
      "úsek": 5690,
      "judr": 5691,
      "republice": 5692,
      "aero": 5693,
      "##uła": 5694,
      "##ětín": 5695,
      "odt": 5696,
      "##ív": 5697,
      "brother": 5698,
      "##ignor": 5699,
      "opravy": 5700,
      "##eja": 5701,
      "##ins": 5702,
      "občanů": 5703,
      "##chem": 5704,
      "##lehč": 5705,
      "lech": 5706,
      "кур": 5707,
      "##цев": 5708,
      "výs": 5709,
      "gabriel": 5710,
      "##xa": 5711,
      "##stat": 5712,
      "##ocent": 5713,
      "odch": 5714,
      "александра": 5715,
      "гор": 5716,
      "gran": 5717,
      "##vám": 5718,
      "##нов": 5719,
      "mall": 5720,
      "řep": 5721,
      "ladislava": 5722,
      "roud": 5723,
      "##owycz": 5724,
      "phdr": 5725,
      "##číš": 5726,
      "##ťte": 5727,
      "##věc": 5728,
      "hob": 5729,
      "nejna": 5730,
      "account": 5731,
      "podpor": 5732,
      "sára": 5733,
      "##war": 5734,
      "odf": 5735,
      "destin": 5736,
      "##ysts": 5737,
      "čs": 5738,
      "chrudim": 5739,
      "##chol": 5740,
      "##hn": 5741,
      "penzion": 5742,
      "přiz": 5743,
      "mini": 5744,
      "měl": 5745,
      "třebíč": 5746,
      "czes": 5747,
      "##rowski": 5748,
      "pk": 5749,
      "##jíždě": 5750,
      "##ply": 5751,
      "##eněji": 5752,
      "##kové": 5753,
      "site": 5754,
      "audit": 5755,
      "zuzanna": 5756,
      "divize": 5757,
      "##tom": 5758,
      "nejsk": 5759,
      "yrena": 5760,
      "uště": 5761,
      "cesky": 5762,
      "bes": 5763,
      "buz": 5764,
      "##kas": 5765,
      "cardinal": 5766,
      "##tal": 5767,
      "mand": 5768,
      "##rin": 5769,
      "##dzi": 5770,
      "nejneroz": 5771,
      "natalie": 5772,
      "валентина": 5773,
      "##anska": 5774,
      "mládeže": 5775,
      "##ávalo": 5776,
      "##ров": 5777,
      "##ávány": 5778,
      "cod": 5779,
      "hoang": 5780,
      "##eční": 5781,
      "##ikú": 5782,
      "##stra": 5783,
      "алена": 5784,
      "chomutov": 5785,
      "##echy": 5786,
      "##ji": 5787,
      "krzisz": 5788,
      "##kovi": 5789,
      "mddr": 5790,
      "bist": 5791,
      "jindř": 5792,
      "mother": 5793,
      "slab": 5794,
      "bot": 5795,
      "##drba": 5796,
      "##ávaly": 5797,
      "moz": 5798,
      "analysts": 5799,
      "##niv": 5800,
      "##éd": 5801,
      "hasicu": 5802,
      "duk": 5803,
      "father": 5804,
      "vilém": 5805,
      "##ju": 5806,
      "seh": 5807,
      "sister": 5808,
      "rp": 5809,
      "nejneod": 5810,
      "ráj": 5811,
      "regional": 5812,
      "bureau": 5813,
      "rodinný": 5814,
      "##ender": 5815,
      "##edl": 5816,
      "nezávislý": 5817,
      "##běta": 5818,
      "crypto": 5819,
      "abbot": 5820,
      "##icek": 5821,
      "karolyna": 5822,
      "srb": 5823,
      "kp": 5824,
      "bishop": 5825,
      "##hood": 5826,
      "oliv": 5827,
      "zvel": 5828,
      "##ści": 5829,
      "anat": 5830,
      "##omed": 5831,
      "trz": 5832,
      "##ural": 5833,
      "##gnostika": 5834,
      "right": 5835,
      "##olice": 5836,
      "##eves": 5837,
      "##olt": 5838,
      "js": 5839,
      "##real": 5840,
      "##enková": 5841,
      "lac": 5842,
      "deacon": 5843,
      "sor": 5844,
      "hanz": 5845,
      "ral": 5846,
      "venue": 5847,
      "##vod": 5848,
      "vysoč": 5849,
      "szczep": 5850,
      "aer": 5851,
      "archbishop": 5852,
      "training": 5853,
      "##eji": 5854,
      "lod": 5855,
      "garden": 5856,
      "##000": 5857,
      "hlu": 5858,
      "rakov": 5859,
      "tol": 5860,
      "sum": 5861,
      "mladá": 5862,
      "stel": 5863,
      "internet": 5864,
      "##об": 5865,
      "##yy": 5866,
      "hř": 5867,
      "campus": 5868,
      "god": 5869,
      "##nav": 5870,
      "koval": 5871,
      "alžběta": 5872,
      "tt": 5873,
      "любов": 5874,
      "##lib": 5875,
      "##čná": 5876,
      "cab": 5877,
      "##ikúra": 5878,
      "##mil": 5879,
      "##kovy": 5880,
      "vojtech": 5881,
      "jindra": 5882,
      "zuzka": 5883,
      "community": 5884,
      "audio": 5885,
      "stat": 5886,
      "sik": 5887,
      "prům": 5888,
      "august": 5889,
      "žd": 5890,
      "kraje": 5891,
      "karvin": 5892,
      "wiesław": 5893,
      "soluty": 5894,
      "##ulov": 5895,
      "gur": 5896,
      "##ekon": 5897,
      "##ectr": 5898,
      "##vet": 5899,
      "dec": 5900,
      "pokor": 5901,
      "lili": 5902,
      "stáj": 5903,
      "2000": 5904,
      "chain": 5905,
      "leb": 5906,
      "##cr": 5907,
      "##ney": 5908,
      "light": 5909,
      "##emen": 5910,
      "krzisztof": 5911,
      "albrech": 5912,
      "vm": 5913,
      "brněnský": 5914,
      "dream": 5915,
      "##wy": 5916,
      "##drych": 5917,
      "##lyv": 5918,
      "##eka": 5919,
      "##mí": 5920,
      "##ertová": 5921,
      "brad": 5922,
      "taty": 5923,
      "##wska": 5924,
      "syndic": 5925,
      "##ěli": 5926,
      "##ouz": 5927,
      "васи": 5928,
      "##ián": 5929,
      "makro": 5930,
      "mateřské": 5931,
      "novo": 5932,
      "##els": 5933,
      "##пова": 5934,
      "##něd": 5935,
      "stanyslav": 5936,
      "вад": 5937,
      "##eper": 5938,
      "##ářská": 5939,
      "energie": 5940,
      "vyž": 5941,
      "skor": 5942,
      "tyr": 5943,
      "box": 5944,
      "##uli": 5945,
      "##ínková": 5946,
      "pplk": 5947,
      "své": 5948,
      "aur": 5949,
      "##apie": 5950,
      "##nowska": 5951,
      "##evní": 5952,
      "##átky": 5953,
      "##anya": 5954,
      "instalace": 5955,
      "obyt": 5956,
      "##craft": 5957,
      "##rg": 5958,
      "protection": 5959,
      "luxus": 5960,
      "jyn": 5961,
      "##еб": 5962,
      "depot": 5963,
      "##iner": 5964,
      "##akov": 5965,
      "support": 5966,
      "rndr": 5967,
      "materska": 5968,
      "marya": 5969,
      "komp": 5970,
      "oj": 5971,
      "##zyk": 5972,
      "chab": 5973,
      "mrá": 5974,
      "##лим": 5975,
      "promot": 5976,
      "číž": 5977,
      "hop": 5978,
      "##onova": 5979,
      "##ог": 5980,
      "##ruč": 5981,
      "akci": 5982,
      "stad": 5983,
      "českomorav": 5984,
      "##adow": 5985,
      "student": 5986,
      "leasing": 5987,
      "kapit": 5988,
      "samuel": 5989,
      "##ejí": 5990,
      "tun": 5991,
      "podporu": 5992,
      "autodoprava": 5993,
      "komen": 5994,
      "##nický": 5995,
      "hodonín": 5996,
      "syndicate": 5997,
      "wanda": 5998,
      "mg": 5999,
      "peč": 6000,
      "ladyslav": 6001,
      "křiž": 6002,
      "##cht": 6003,
      "##žov": 6004,
      "##vd": 6005,
      "##ášek": 6006,
      "##ates": 6007,
      "##mk": 6008,
      "hasyčů": 6009,
      "##servis": 6010,
      "##elna": 6011,
      "##icke": 6012,
      "drob": 6013,
      "##баев": 6014,
      "thdr": 6015,
      "dobrovolnych": 6016,
      "zahrada": 6017,
      "malé": 6018,
      "anh": 6019,
      "любовь": 6020,
      "tatyana": 6021,
      "##nila": 6022,
      "det": 6023,
      "##rm": 6024,
      "rtdr": 6025,
      "##hoří": 6026,
      "lup": 6027,
      "stavba": 6028,
      "produk": 6029,
      "gyno": 6030,
      "##lavi": 6031,
      "rybářský": 6032,
      "##arov": 6033,
      "pion": 6034,
      "##čích": 6035,
      "rsdr": 6036,
      "paeddr": 6037,
      "##uti": 6038,
      "##ravi": 6039,
      "##louz": 6040,
      "nprap": 6041,
      "technik": 6042,
      "vd": 6043,
      "##иб": 6044,
      "##imo": 6045,
      "msgr": 6046,
      "kulturní": 6047,
      "##vik": 6048,
      "##ные": 6049,
      "##gram": 6050,
      "npor": 6051,
      "##terová": 6052,
      "##cho": 6053,
      "##ytal": 6054,
      "rozma": 6055,
      "obj": 6056,
      "##émy": 6057,
      "astro": 6058,
      "rcdr": 6059,
      "phmr": 6060,
      "compound": 6061,
      "video": 6062,
      "pivovar": 6063,
      "neo": 6064,
      "msdr": 6065,
      "thlic": 6066,
      "darina": 6067,
      "лари": 6068,
      "genplk": 6069,
      "nesk": 6070,
      "žab": 6071,
      "paní": 6072,
      "jag": 6073,
      "##хам": 6074,
      "már": 6075,
      "čm": 6076,
      "alan": 6077,
      "pab": 6078,
      "uš": 6079,
      "##lášt": 6080,
      "thmgr": 6081,
      "grzes": 6082,
      "photo": 6083,
      "developers": 6084,
      "wellness": 6085,
      "kamyla": 6086,
      "##dom": 6087,
      "immu": 6088,
      "šprap": 6089,
      "alt": 6090,
      "##анна": 6091,
      "ахм": 6092,
      "ym": 6093,
      "patri": 6094,
      "##lička": 6095,
      "monsignor": 6096,
      "nám": 6097,
      "##ochová": 6098,
      "škpt": 6099,
      "služeb": 6100,
      "##yšl": 6101,
      "##oušek": 6102,
      "##árková": 6103,
      "dagmara": 6104,
      "##vs": 6105,
      "mist": 6106,
      "genpor": 6107,
      "pract": 6108,
      "rychnov": 6109,
      "##ын": 6110,
      "stas": 6111,
      "##ifik": 6112,
      "maksym": 6113,
      "destination": 6114,
      "kna": 6115,
      "##nk": 6116,
      "pharmdr": 6117,
      "main": 6118,
      "fle": 6119,
      "##den": 6120,
      "mono": 6121,
      "##drová": 6122,
      "##rba": 6123,
      "liš": 6124,
      "štef": 6125,
      "кр": 6126,
      "jolana": 6127,
      "##káni": 6128,
      "##ńczyk": 6129,
      "fan": 6130,
      "##linika": 6131,
      "sanace": 6132,
      "ngoc": 6133,
      "##iał": 6134,
      "těš": 6135,
      "##lám": 6136,
      "ken": 6137,
      "##nět": 6138,
      "pola": 6139,
      "progr": 6140,
      "##orn": 6141,
      "##ňov": 6142,
      "##rárna": 6143,
      "cech": 6144,
      "truh": 6145,
      "daně": 6146,
      "##asová": 6147,
      "##rana": 6148,
      "radost": 6149,
      "lot": 6150,
      "will": 6151,
      "yw": 6152,
      "##verz": 6153,
      "federation": 6154,
      "##gová": 6155,
      "##lup": 6156,
      "neigh": 6157,
      "cestov": 6158,
      "##olo": 6159,
      "božena": 6160,
      "credit": 6161,
      "genmjr": 6162,
      "##isova": 6163,
      "zmr": 6164,
      "nrtm": 6165,
      "##bs": 6166,
      "psycho": 6167,
      "tok": 6168,
      "obecní": 6169,
      "dmitry": 6170,
      "estates": 6171,
      "strategists": 6172,
      "pru": 6173,
      "boch": 6174,
      "nech": 6175,
      "ses": 6176,
      "##ems": 6177,
      "##шин": 6178,
      "кирилл": 6179,
      "##oleta": 6180,
      "bystřice": 6181,
      "zdena": 6182,
      "##ůd": 6183,
      "##уг": 6184,
      "šrtm": 6185,
      "##шка": 6186,
      "bech": 6187,
      "mykhailo": 6188,
      "dup": 6189,
      "stach": 6190,
      "vaš": 6191,
      "##lila": 6192,
      "admin": 6193,
      "chemo": 6194,
      "##hs": 6195,
      "##гомед": 6196,
      "trž": 6197,
      "##rostřed": 6198,
      "##áváno": 6199,
      "##klop": 6200,
      "##irov": 6201,
      "sig": 6202,
      "terka": 6203,
      "##yck": 6204,
      "##opat": 6205,
      "zlí": 6206,
      "šust": 6207,
      "neighbor": 6208,
      "##ay": 6209,
      "nejzk": 6210,
      "zř": 6211,
      "##kv": 6212,
      "paula": 6213,
      "##лиев": 6214,
      "křiv": 6215,
      "svoboda": 6216,
      "hry": 6217,
      "##ude": 6218,
      "##áván": 6219,
      "fort": 6220,
      "sand": 6221,
      "##níte": 6222,
      "neighborhood": 6223,
      "tip": 6224,
      "zmír": 6225,
      "##nily": 6226,
      "macy": 6227,
      "##ovol": 6228,
      "pf": 6229,
      "rozj": 6230,
      "##vár": 6231,
      "aleksandr": 6232,
      "coordin": 6233,
      "thomas": 6234,
      "##telného": 6235,
      "opat": 6236,
      "##nyce": 6237,
      "rm": 6238,
      "oddělení": 6239,
      "##níček": 6240,
      "nemoc": 6241,
      "ppor": 6242,
      "ond": 6243,
      "odc": 6244,
      "demo": 6245,
      "nejos": 6246,
      "##ology": 6247,
      "##oslov": 6248,
      "svobodný": 6249,
      "tup": 6250,
      "##jm": 6251,
      "##lyce": 6252,
      "##vědč": 6253,
      "řeč": 6254,
      "wł": 6255,
      "znes": 6256,
      "##ард": 6257,
      "##átor": 6258,
      "##nické": 6259,
      "##áhnu": 6260,
      "planners": 6261,
      "energet": 6262,
      "podp": 6263,
      "přemysl": 6264,
      "církve": 6265,
      "jack": 6266,
      "##ross": 6267,
      "##яч": 6268,
      "##áváte": 6269,
      "zjed": 6270,
      "nast": 6271,
      "##tejme": 6272,
      "##amer": 6273,
      "##níkem": 6274,
      "nejú": 6275,
      "zasněž": 6276,
      "lob": 6277,
      "nikita": 6278,
      "nadhod": 6279,
      "klob": 6280,
      "##áša": 6281,
      "##ášková": 6282,
      "vysoké": 6283,
      "##af": 6284,
      "##off": 6285,
      "uštědř": 6286,
      "lékařka": 6287,
      "dlouhá": 6288,
      "##lyk": 6289,
      "##jím": 6290,
      "##elní": 6291,
      "ruz": 6292,
      "nejpro": 6293,
      "##léz": 6294,
      "vytíž": 6295,
      "##lých": 6296,
      "##nělejší": 6297,
      "szym": 6298,
      "##lete": 6299,
      "##ień": 6300,
      "##имов": 6301,
      "tvrd": 6302,
      "gregor": 6303,
      "##chan": 6304,
      "přef": 6305,
      "coordinators": 6306,
      "##sil": 6307,
      "čin": 6308,
      "##wal": 6309,
      "##ňujou": 6310,
      "##gal": 6311,
      "##mex": 6312,
      "chemička": 6313,
      "ačr": 6314,
      "##pra": 6315,
      "##mund": 6316,
      "##eclav": 6317,
      "goł": 6318,
      "mic": 6319,
      "slaw": 6320,
      "logo": 6321,
      "##ising": 6322,
      "##list": 6323,
      "hynek": 6324,
      "##upení": 6325,
      "brá": 6326,
      "nejnest": 6327,
      "##zu": 6328,
      "homo": 6329,
      "wel": 6330,
      "##ejším": 6331,
      "##igo": 6332,
      "nalep": 6333,
      "kazimierz": 6334,
      "##ronic": 6335,
      "##lya": 6336,
      "gero": 6337,
      "šumperk": 6338,
      "##ějme": 6339,
      "33": 6340,
      "slov": 6341,
      "##cak": 6342,
      "písek": 6343,
      "very": 6344,
      "##otová": 6345,
      "##ewsky": 6346,
      "##des": 6347,
      "##šova": 6348,
      "derma": 6349,
      "riz": 6350,
      "##hen": 6351,
      "##usova": 6352,
      "sas": 6353,
      "##dova": 6354,
      "edward": 6355,
      "##orova": 6356,
      "tať": 6357,
      "##inu": 6358,
      "mý": 6359,
      "ergo": 6360,
      "montáže": 6361,
      "wr": 6362,
      "##bová": 6363,
      "##pvp": 6364,
      "výroba": 6365,
      "mou": 6366,
      "##oltice": 6367,
      "uskupení": 6368,
      "lyb": 6369,
      "gon": 6370,
      "golden": 6371,
      "bek": 6372,
      "medico": 6373,
      "##aro": 6374,
      "##iná": 6375,
      "##ryj": 6376,
      "##ple": 6377,
      "ula": 6378,
      "oddíl": 6379,
      "social": 6380,
      "##mad": 6381,
      "лариса": 6382,
      "east": 6383,
      "##oušková": 6384,
      "socio": 6385,
      "phys": 6386,
      "style": 6387,
      "leš": 6388,
      "##zińska": 6389,
      "jung": 6390,
      "trn": 6391,
      "cit": 6392,
      "sus": 6393,
      "##oll": 6394,
      "##hala": 6395,
      "##mav": 6396,
      "##tle": 6397,
      "##dation": 6398,
      "włod": 6399,
      "ateliér": 6400,
      "##рик": 6401,
      "padre": 6402,
      "lékárna": 6403,
      "anež": 6404,
      "distribution": 6405,
      "sez": 6406,
      "##rádek": 6407,
      "##apy": 6408,
      "##ušová": 6409,
      "##икова": 6410,
      "shar": 6411,
      "svoj": 6412,
      "pvp": 6413,
      "##tm": 6414,
      "nák": 6415,
      "##eče": 6416,
      "immuno": 6417,
      "umění": 6418,
      "krnov": 6419,
      "cez": 6420,
      "##gaming": 6421,
      "##ásková": 6422,
      "plzen": 6423,
      "##vich": 6424,
      "##lesk": 6425,
      "právnička": 6426,
      "put": 6427,
      "prim": 6428,
      "##iger": 6429,
      "uv": 6430,
      "##reen": 6431,
      "##řovice": 6432,
      "##шина": 6433,
      "kuc": 6434,
      "##nicki": 6435,
      "vašek": 6436,
      "stříbr": 6437,
      "historička": 6438,
      "настя": 6439,
      "##иков": 6440,
      "##ejbal": 6441,
      "##ban": 6442,
      "dmitri": 6443,
      "dru": 6444,
      "##edy": 6445,
      "lk": 6446,
      "fyzička": 6447,
      "##oth": 6448,
      "šer": 6449,
      "strakon": 6450,
      "##nest": 6451,
      "##novice": 6452,
      "##oga": 6453,
      "viro": 6454,
      "truck": 6455,
      "##ado": 6456,
      "šil": 6457,
      "##oter": 6458,
      "ik": 6459,
      "##řízení": 6460,
      "bytového": 6461,
      "sportovni": 6462,
      "hd": 6463,
      "##ax": 6464,
      "matematička": 6465,
      "вадим": 6466,
      "##gas": 6467,
      "okro": 6468,
      "geoložka": 6469,
      "zw": 6470,
      "sokolov": 6471,
      "яна": 6472,
      "soft": 6473,
      "cosmet": 6474,
      "##czynska": 6475,
      "##lama": 6476,
      "##říč": 6477,
      "pyt": 6478,
      "duc": 6479,
      "##ём": 6480,
      "bioložka": 6481,
      "filosofka": 6482,
      "chi": 6483,
      "##нова": 6484,
      "##etření": 6485,
      "ortho": 6486,
      "farmaceutka": 6487,
      "kláš": 6488,
      "psycholožka": 6489,
      "rib": 6490,
      "pedagožka": 6491,
      "##evkova": 6492,
      "zaps": 6493,
      "ann": 6494,
      "krypto": 6495,
      "##yszek": 6496,
      "umělkyně": 6497,
      "can": 6498,
      "mykhaylo": 6499,
      "fo": 6500,
      "říz": 6501,
      "##ball": 6502,
      "##orska": 6503,
      "ceske": 6504,
      "##lok": 6505,
      "retro": 6506,
      "michala": 6507,
      "##iw": 6508,
      "##ynt": 6509,
      "ivona": 6510,
      "electr": 6511,
      "tradyng": 6512,
      "obcanske": 6513,
      "кра": 6514,
      "##ousek": 6515,
      "##sal": 6516,
      "prav": 6517,
      "build": 6518,
      "##мат": 6519,
      "vob": 6520,
      "veřejná": 6521,
      "##noc": 6522,
      "##ynd": 6523,
      "##ija": 6524,
      "констан": 6525,
      "##лю": 6526,
      "chmel": 6527,
      "ekonomka": 6528,
      "diamond": 6529,
      "##jo": 6530,
      "film": 6531,
      "ústav": 6532,
      "tiš": 6533,
      "šar": 6534,
      "##čky": 6535,
      "avi": 6536,
      "##ista": 6537,
      "pražská": 6538,
      "šul": 6539,
      "pole": 6540,
      "nie": 6541,
      "##fová": 6542,
      "##che": 6543,
      "##zační": 6544,
      "som": 6545,
      "cir": 6546,
      "##lk": 6547,
      "##roda": 6548,
      "tis": 6549,
      "stereo": 6550,
      "##niewska": 6551,
      "##enk": 6552,
      "architektka": 6553,
      "jet": 6554,
      "premises": 6555,
      "das": 6556,
      "##lč": 6557,
      "mim": 6558,
      "mychał": 6559,
      "rut": 6560,
      "koci": 6561,
      "sluz": 6562,
      "##иля": 6563,
      "hrom": 6564,
      "srd": 6565,
      "jev": 6566,
      "polik": 6567,
      "karin": 6568,
      "mrk": 6569,
      "##ня": 6570,
      "socioložka": 6571,
      "skrz": 6572,
      "sit": 6573,
      "##cess": 6574,
      "obnov": 6575,
      "dog": 6576,
      "##icova": 6577,
      "sylva": 6578,
      "muzeum": 6579,
      "вол": 6580,
      "prosp": 6581,
      "tý": 6582,
      "díl": 6583,
      "cich": 6584,
      "##atyon": 6585,
      "##nín": 6586,
      "itz": 6587,
      "cim": 6588,
      "klášter": 6589,
      "gór": 6590,
      "##ios": 6591,
      "##líme": 6592,
      "kk": 6593,
      "piz": 6594,
      "uj": 6595,
      "odborový": 6596,
      "##динов": 6597,
      "##енкова": 6598,
      "##ера": 6599,
      "hetero": 6600,
      "mrz": 6601,
      "vlas": 6602,
      "vra": 6603,
      "##erk": 6604,
      "джа": 6605,
      "practition": 6606,
      "šev": 6607,
      "##mát": 6608,
      "##ovací": 6609,
      "výstav": 6610,
      "jh": 6611,
      "фед": 6612,
      "##odor": 6613,
      "##ulta": 6614,
      "hipo": 6615,
      "kł": 6616,
      "advert": 6617,
      "##aba": 6618,
      "##scy": 6619,
      "magdaléna": 6620,
      "##líček": 6621,
      "podě": 6622,
      "tit": 6623,
      "##wood": 6624,
      "ohří": 6625,
      "tk": 6626,
      "umělecká": 6627,
      "hov": 6628,
      "gymnázi": 6629,
      "alf": 6630,
      "iso": 6631,
      "odz": 6632,
      "skaut": 6633,
      "stej": 6634,
      "systémy": 6635,
      "jim": 6636,
      "onco": 6637,
      "drž": 6638,
      "##mburk": 6639,
      "константин": 6640,
      "##рис": 6641,
      "мус": 6642,
      "jil": 6643,
      "##čina": 6644,
      "practitioners": 6645,
      "krystýna": 6646,
      "##áci": 6647,
      "##skiy": 6648,
      "##berger": 6649,
      "##cest": 6650,
      "cosmo": 6651,
      "##cat": 6652,
      "##brad": 6653,
      "křes": 6654,
      "##eneusz": 6655,
      "zyg": 6656,
      "##něný": 6657,
      "##vob": 6658,
      "##dry": 6659,
      "##bat": 6660,
      "přib": 6661,
      "konstant": 6662,
      "##ils": 6663,
      "##mag": 6664,
      "zprostřed": 6665,
      "hak": 6666,
      "##uong": 6667,
      "medi": 6668,
      "błaż": 6669,
      "kout": 6670,
      "##ešice": 6671,
      "patho": 6672,
      "##lewska": 6673,
      "олеся": 6674,
      "##eto": 6675,
      "neu": 6676,
      "you": 6677,
      "##ůjč": 6678,
      "krumlov": 6679,
      "vot": 6680,
      "##kův": 6681,
      "foj": 6682,
      "univerz": 6683,
      "##cle": 6684,
      "čep": 6685,
      "water": 6686,
      "##ąb": 6687,
      "су": 6688,
      "ciz": 6689,
      "cv": 6690,
      "##íně": 6691,
      "fig": 6692,
      "provin": 6693,
      "##dolí": 6694,
      "miš": 6695,
      "růžena": 6696,
      "##atová": 6697,
      "##eště": 6698,
      "stod": 6699,
      "##tají": 6700,
      "##łowski": 6701,
      "##ovich": 6702,
      "##śka": 6703,
      "##ai": 6704,
      "##atice": 6705,
      "##trp": 6706,
      "pš": 6707,
      "анато": 6708,
      "егор": 6709,
      "ам": 6710,
      "domů": 6711,
      "diagnostika": 6712,
      "anežka": 6713,
      "##ycki": 6714,
      "che": 6715,
      "##isy": 6716,
      "vok": 6717,
      "mut": 6718,
      "účetní": 6719,
      "guz": 6720,
      "##ciak": 6721,
      "##kovit": 6722,
      "schw": 6723,
      "robot": 6724,
      "##vová": 6725,
      "veh": 6726,
      "veřejný": 6727,
      "sala": 6728,
      "toxi": 6729,
      "tamara": 6730,
      "chrá": 6731,
      "anya": 6732,
      "##ocha": 6733,
      "cloud": 6734,
      "ак": 6735,
      "biel": 6736,
      "##estř": 6737,
      "lyd": 6738,
      "##imon": 6739,
      "##ťuk": 6740,
      "##udiv": 6741,
      "##ions": 6742,
      "##kot": 6743,
      "znev": 6744,
      "hemo": 6745,
      "def": 6746,
      "zbyt": 6747,
      "pneumo": 6748,
      "##ýš": 6749,
      "komenského": 6750,
      "cih": 6751,
      "dek": 6752,
      "thermo": 6753,
      "##cím": 6754,
      "##lali": 6755,
      "rock": 6756,
      "brna": 6757,
      "imm": 6758,
      "##ánky": 6759,
      "##ěříž": 6760,
      "kum": 6761,
      "nur": 6762,
      "chlor": 6763,
      "prostějov": 6764,
      "охранит": 6765,
      "neú": 6766,
      "hrb": 6767,
      "##wor": 6768,
      "##skyy": 6769,
      "##oče": 6770,
      "brav": 6771,
      "václava": 6772,
      "kratoch": 6773,
      "mah": 6774,
      "bir": 6775,
      "##nem": 6776,
      "marika": 6777,
      "##ная": 6778,
      "##cky": 6779,
      "##asova": 6780,
      "дани": 6781,
      "chot": 6782,
      "kroměříž": 6783,
      "świ": 6784,
      "##ivní": 6785,
      "##lim": 6786,
      "alois": 6787,
      "##ża": 6788,
      "##hail": 6789,
      "vsetín": 6790,
      "##lishing": 6791,
      "českých": 6792,
      "fla": 6793,
      "##itelných": 6794,
      "saj": 6795,
      "сем": 6796,
      "##ный": 6797,
      "##cet": 6798,
      "prisp": 6799,
      "##ча": 6800,
      "##inkr": 6801,
      "##ycling": 6802,
      "##žel": 6803,
      "32": 6804,
      "blá": 6805,
      "##ořice": 6806,
      "rekre": 6807,
      "vratislav": 6808,
      "##еш": 6809,
      "bm": 6810,
      "slad": 6811,
      "przyb": 6812,
      "бел": 6813,
      "##uan": 6814,
      "наталия": 6815,
      "javor": 6816,
      "##ňuješ": 6817,
      "ochranu": 6818,
      "přerov": 6819,
      "otakar": 6820,
      "fest": 6821,
      "##resli": 6822,
      "##czewski": 6823,
      "##tern": 6824,
      "vyta": 6825,
      "sž": 6826,
      "##иров": 6827,
      "hs": 6828,
      "evgeni": 6829,
      "##ínatel": 6830,
      "##ňovalo": 6831,
      "rim": 6832,
      "jagoda": 6833,
      "##ňujeme": 6834,
      "##isť": 6835,
      "##edz": 6836,
      "nejpr": 6837,
      "změk": 6838,
      "sej": 6839,
      "##icí": 6840,
      "##níku": 6841,
      "doob": 6842,
      "rozc": 6843,
      "##táno": 6844,
      "nejkon": 6845,
      "##níkům": 6846,
      "##áky": 6847,
      "cra": 6848,
      "эд": 6849,
      "##ecko": 6850,
      "gav": 6851,
      "frýdek": 6852,
      "##váte": 6853,
      "eliska": 6854,
      "antonin": 6855,
      "pila": 6856,
      "##ulková": 6857,
      "prev": 6858,
      "tří": 6859,
      "atlet": 6860,
      "nu": 6861,
      "##vent": 6862,
      "##íšek": 6863,
      "##ňuji": 6864,
      "соф": 6865,
      "dolež": 6866,
      "rozlep": 6867,
      "opom": 6868,
      "odříz": 6869,
      "##oudř": 6870,
      "oles": 6871,
      "rodicu": 6872,
      "zf": 6873,
      "kvě": 6874,
      "nac": 6875,
      "nepřed": 6876,
      "##бина": 6877,
      "##žte": 6878,
      "lybor": 6879,
      "vyn": 6880,
      "##luh": 6881,
      "##farma": 6882,
      "##гин": 6883,
      "lubos": 6884,
      "##еслав": 6885,
      "cardio": 6886,
      "##amb": 6887,
      "##ynova": 6888,
      "vyktor": 6889,
      "##czynski": 6890,
      "rozdr": 6891,
      "andrii": 6892,
      "pojišť": 6893,
      "##děni": 6894,
      "opod": 6895,
      "##ivějším": 6896,
      "##narová": 6897,
      "##moč": 6898,
      "##wo": 6899,
      "rozpl": 6900,
      "neju": 6901,
      "osteo": 6902,
      "soc": 6903,
      "##fort": 6904,
      "čej": 6905,
      "##tur": 6906,
      "blah": 6907,
      "kis": 6908,
      "##ild": 6909,
      "doubrav": 6910,
      "sib": 6911,
      "tha": 6912,
      "dráž": 6913,
      "##tace": 6914,
      "##echovice": 6915,
      "##rag": 6916,
      "seškrab": 6917,
      "##růst": 6918,
      "##ňují": 6919,
      "dif": 6920,
      "chvá": 6921,
      "žil": 6922,
      "##ęp": 6923,
      "karviná": 6924,
      "odma": 6925,
      "ozvlášt": 6926,
      "prispevkova": 6927,
      "##upová": 6928,
      "##shop": 6929,
      "cof": 6930,
      "hard": 6931,
      "ozd": 6932,
      "bedřich": 6933,
      "##ovanějšímu": 6934,
      "##lejšímu": 6935,
      "dovzd": 6936,
      "##kování": 6937,
      "standa": 6938,
      "osob": 6939,
      "dyna": 6940,
      "##ckého": 6941,
      "prin": 6942,
      "cvr": 6943,
      "vypr": 6944,
      "##eckova": 6945,
      "##nostech": 6946,
      "buš": 6947,
      "monitor": 6948,
      "##yx": 6949,
      "##dař": 6950,
      "apartments": 6951,
      "zbor": 6952,
      "wojt": 6953,
      "##iki": 6954,
      "nejná": 6955,
      "##eman": 6956,
      "dk": 6957,
      "andrei": 6958,
      "nadace": 6959,
      "náb": 6960,
      "##láte": 6961,
      "podtrh": 6962,
      "din": 6963,
      "břeclav": 6964,
      "grun": 6965,
      "##rala": 6966,
      "help": 6967,
      "мат": 6968,
      "##hoda": 6969,
      "##viz": 6970,
      "vykl": 6971,
      "klop": 6972,
      "##uky": 6973,
      "dvořák": 6974,
      "ded": 6975,
      "byl": 6976,
      "pud": 6977,
      "zách": 6978,
      "tul": 6979,
      "styl": 6980,
      "##ces": 6981,
      "doh": 6982,
      "то": 6983,
      "##ual": 6984,
      "##yusz": 6985,
      "dmytro": 6986,
      "fresh": 6987,
      "##ebni": 6988,
      "##yf": 6989,
      "bach": 6990,
      "lb": 6991,
      "yva": 6992,
      "nač": 6993,
      "interier": 6994,
      "катя": 6995,
      "zer": 6996,
      "kno": 6997,
      "kateryna": 6998,
      "##ída": 6999,
      "ele": 7000,
      "##vač": 7001,
      "##onov": 7002,
      "petrovice": 7003,
      "##omyšl": 7004,
      "dental": 7005,
      "##vl": 7006,
      "plyn": 7007,
      "##ulska": 7008,
      "kadeř": 7009,
      "kb": 7010,
      "ад": 7011,
      "kilo": 7012,
      "spar": 7013,
      "rekon": 7014,
      "lesy": 7015,
      "laj": 7016,
      "##edla": 7017,
      "##ette": 7018,
      "oblast": 7019,
      "mob": 7020,
      "##ánů": 7021,
      "##ив": 7022,
      "zelen": 7023,
      "вяч": 7024,
      "##ree": 7025,
      "##surance": 7026,
      "##oměř": 7027,
      "end": 7028,
      "##wik": 7029,
      "##oňová": 7030,
      "concept": 7031,
      "malw": 7032,
      "ruda": 7033,
      "##ua": 7034,
      "zásob": 7035,
      "stoj": 7036,
      "##duš": 7037,
      "saw": 7038,
      "##uerová": 7039,
      "českoslov": 7040,
      "##ubov": 7041,
      "alexey": 7042,
      "##vic": 7043,
      "leo": 7044,
      "##enová": 7045,
      "##bach": 7046,
      "victoria": 7047,
      "living": 7048,
      "##istrat": 7049,
      "##tková": 7050,
      "rhino": 7051,
      "přírod": 7052,
      "##yčka": 7053,
      "provincial": 7054,
      "podv": 7055,
      "##áže": 7056,
      "mariánské": 7057,
      "vh": 7058,
      "##lac": 7059,
      "phil": 7060,
      "##fg": 7061,
      "##skárna": 7062,
      "bend": 7063,
      "georg": 7064,
      "zbož": 7065,
      "##davatel": 7066,
      "havířov": 7067,
      "ziel": 7068,
      "##ovičky": 7069,
      "ethno": 7070,
      "jiř": 7071,
      "miro": 7072,
      "ck": 7073,
      "sklen": 7074,
      "wę": 7075,
      "organizací": 7076,
      "gamer": 7077,
      "##ido": 7078,
      "podd": 7079,
      "bistro": 7080,
      "střelecký": 7081,
      "##erka": 7082,
      "##ble": 7083,
      "##ující": 7084,
      "##ovičová": 7085,
      "##eková": 7086,
      "##muž": 7087,
      "pł": 7088,
      "##ysek": 7089,
      "36": 7090,
      "##osova": 7091,
      "##řený": 7092,
      "kamenice": 7093,
      "диана": 7094,
      "perf": 7095,
      "mělník": 7096,
      "##insky": 7097,
      "##mak": 7098,
      "pomoc": 7099,
      "31": 7100,
      "prok": 7101,
      "poděbrad": 7102,
      "аз": 7103,
      "##vk": 7104,
      "##kala": 7105,
      "tak": 7106,
      "třem": 7107,
      "bł": 7108,
      "##ół": 7109,
      "viktoria": 7110,
      "dl": 7111,
      "taj": 7112,
      "##ingerová": 7113,
      "##ýs": 7114,
      "rest": 7115,
      "##tro": 7116,
      "long": 7117,
      "czar": 7118,
      "slu": 7119,
      "vip": 7120,
      "##rás": 7121,
      "slep": 7122,
      "bezpečnost": 7123,
      "viktorie": 7124,
      "##ех": 7125,
      "##ning": 7126,
      "##eky": 7127,
      "##atka": 7128,
      "алё": 7129,
      "šumav": 7130,
      "##жон": 7131,
      "wiesława": 7132,
      "##ьян": 7133,
      "##ylova": 7134,
      "##imex": 7135,
      "##еня": 7136,
      "dobrá": 7137,
      "trend": 7138,
      "##zova": 7139,
      "##js": 7140,
      "##hou": 7141,
      "##centrum": 7142,
      "sylwester": 7143,
      "music": 7144,
      "##angel": 7145,
      "doš": 7146,
      "miecz": 7147,
      "ří": 7148,
      "toma": 7149,
      "termo": 7150,
      "procház": 7151,
      "mum": 7152,
      "##lux": 7153,
      "raf": 7154,
      "##ars": 7155,
      "manuf": 7156,
      "stre": 7157,
      "sic": 7158,
      "##lil": 7159,
      "cup": 7160,
      "##mate": 7161,
      "zoh": 7162,
      "вячеслав": 7163,
      "syk": 7164,
      "##nikov": 7165,
      "##imova": 7166,
      "##оз": 7167,
      "cleaning": 7168,
      "##ronom": 7169,
      "nowak": 7170,
      "василий": 7171,
      "lucia": 7172,
      "##stoj": 7173,
      "borov": 7174,
      "špr": 7175,
      "анатолий": 7176,
      "##elt": 7177,
      "szy": 7178,
      "##mik": 7179,
      "technici": 7180,
      "tot": 7181,
      "dou": 7182,
      "##лы": 7183,
      "##динова": 7184,
      "##гина": 7185,
      "technika": 7186,
      "novos": 7187,
      "##ocki": 7188,
      "sak": 7189,
      "jindřiška": 7190,
      "moravské": 7191,
      "zásobování": 7192,
      "milos": 7193,
      "hot": 7194,
      "symona": 7195,
      "про": 7196,
      "##toč": 7197,
      "myn": 7198,
      "pes": 7199,
      "##urova": 7200,
      "##uze": 7201,
      "##uri": 7202,
      "##elle": 7203,
      "stro": 7204,
      "fis": 7205,
      "autoservis": 7206,
      "ubyt": 7207,
      "##ektr": 7208,
      "yntern": 7209,
      "hp": 7210,
      "##utová": 7211,
      "keb": 7212,
      "##ote": 7213,
      "architek": 7214,
      "franc": 7215,
      "##olka": 7216,
      "start": 7217,
      "technicians": 7218,
      "##zala": 7219,
      "nord": 7220,
      "marg": 7221,
      "oldř": 7222,
      "pej": 7223,
      "cast": 7224,
      "##essa": 7225,
      "##edi": 7226,
      "juraj": 7227,
      "##dí": 7228,
      "##ác": 7229,
      "honz": 7230,
      "##tt": 7231,
      "##bus": 7232,
      "čás": 7233,
      "ман": 7234,
      "##als": 7235,
      "syr": 7236,
      "##dorf": 7237,
      "jeř": 7238,
      "hat": 7239,
      "posk": 7240,
      "služba": 7241,
      "##hořel": 7242,
      "##дар": 7243,
      "nemovitostí": 7244,
      "černý": 7245,
      "##měš": 7246,
      "zdraví": 7247,
      "ald": 7248,
      "grig": 7249,
      "##věz": 7250,
      "##ěje": 7251,
      "jędr": 7252,
      "ylona": 7253,
      "##онова": 7254,
      "##kají": 7255,
      "vladyslav": 7256,
      "ný": 7257,
      "##lińska": 7258,
      "sant": 7259,
      "##vap": 7260,
      "##ziej": 7261,
      "jani": 7262,
      "mikro": 7263,
      "cargo": 7264,
      "strz": 7265,
      "##abil": 7266,
      "##kly": 7267,
      "veselí": 7268,
      "pak": 7269,
      "zby": 7270,
      "##atyonal": 7271,
      "##vu": 7272,
      "bej": 7273,
      "##jana": 7274,
      "##řeč": 7275,
      "##rech": 7276,
      "mia": 7277,
      "pb": 7278,
      "bří": 7279,
      "block": 7280,
      "##4u": 7281,
      "##rovice": 7282,
      "гр": 7283,
      "##ocentrum": 7284,
      "naďa": 7285,
      "výrobní": 7286,
      "viz": 7287,
      "##ativa": 7288,
      "květa": 7289,
      "mariya": 7290,
      "minh": 7291,
      "##architekt": 7292,
      "mobil": 7293,
      "##kali": 7294,
      "spir": 7295,
      "stavbi": 7296,
      "##lash": 7297,
      "dil": 7298,
      "halyna": 7299,
      "innovation": 7300,
      "jó": 7301,
      "pošk": 7302,
      "##ňme": 7303,
      "obh": 7304,
      "##elska": 7305,
      "vyškov": 7306,
      "stavebni": 7307,
      "podb": 7308,
      "cik": 7309,
      "##álu": 7310,
      "chý": 7311,
      "##yw": 7312,
      "roma": 7313,
      "##anice": 7314,
      "##chá": 7315,
      "dima": 7316,
      "vož": 7317,
      "##шев": 7318,
      "justina": 7319,
      "##yuk": 7320,
      "poliklinika": 7321,
      "##care": 7322,
      "##баева": 7323,
      "##ulture": 7324,
      "asset": 7325,
      "zed": 7326,
      "til": 7327,
      "##ším": 7328,
      "##mance": 7329,
      "##ulla": 7330,
      "##ieł": 7331,
      "au": 7332,
      "bár": 7333,
      "gut": 7334,
      "tap": 7335,
      "##hoj": 7336,
      "##чев": 7337,
      "##wski": 7338,
      "stavitel": 7339,
      "мур": 7340,
      "sklad": 7341,
      "##ratice": 7342,
      "physio": 7343,
      "##rex": 7344,
      "eb": 7345,
      "##rik": 7346,
      "34": 7347,
      "##оев": 7348,
      "##geny": 7349,
      "ludvík": 7350,
      "svita": 7351,
      "##илов": 7352,
      "chodov": 7353,
      "##íšková": 7354,
      "##cis": 7355,
      "litvín": 7356,
      "fly": 7357,
      "publishing": 7358,
      "kosmet": 7359,
      "##łosz": 7360,
      "##epa": 7361,
      "gh": 7362,
      "##arik": 7363,
      "##сов": 7364,
      "iryna": 7365,
      "fylyp": 7366,
      "##адж": 7367,
      "šej": 7368,
      "kev": 7369,
      "hong": 7370,
      "##edo": 7371,
      "dun": 7372,
      "##otka": 7373,
      "control": 7374,
      "pof": 7375,
      "##kus": 7376,
      "##řít": 7377,
      "zapsaný": 7378,
      "nádra": 7379,
      "##ektiv": 7380,
      "##vb": 7381,
      "##liště": 7382,
      "##vyk": 7383,
      "##eře": 7384,
      "obr": 7385,
      "##roma": 7386,
      "bk": 7387,
      "vyčí": 7388,
      "##uková": 7389,
      "margar": 7390,
      "břet": 7391,
      "##taj": 7392,
      "andrew": 7393,
      "hrádek": 7394,
      "##cikova": 7395,
      "##kos": 7396,
      "žid": 7397,
      "bre": 7398,
      "##ipl": 7399,
      "##xd": 7400,
      "##mannova": 7401,
      "błażej": 7402,
      "cukrárna": 7403,
      "czechia": 7404,
      "##ograf": 7405,
      "##nám": 7406,
      "##nect": 7407,
      "##ида": 7408,
      "##sti": 7409,
      "##telný": 7410,
      "bogusław": 7411,
      "mikuláš": 7412,
      "nin": 7413,
      "bernad": 7414,
      "анж": 7415,
      "tka": 7416,
      "##enix": 7417,
      "horách": 7418,
      "bag": 7419,
      "myroslava": 7420,
      "koř": 7421,
      "ireneusz": 7422,
      "přež": 7423,
      "##ankova": 7424,
      "##asov": 7425,
      "артём": 7426,
      "rodinné": 7427,
      "##otéka": 7428,
      "ins": 7429,
      "zin": 7430,
      "##ťák": 7431,
      "huh": 7432,
      "statek": 7433,
      "šaf": 7434,
      "##mir": 7435,
      "##enska": 7436,
      "rata": 7437,
      "vozid": 7438,
      "##ryt": 7439,
      "sto": 7440,
      "gos": 7441,
      "гуль": 7442,
      "promotion": 7443,
      "##zp": 7444,
      "děd": 7445,
      "karl": 7446,
      "dragon": 7447,
      "pís": 7448,
      "beneš": 7449,
      "vysuš": 7450,
      "pavlov": 7451,
      "##101": 7452,
      "chol": 7453,
      "##formance": 7454,
      "lyž": 7455,
      "##мова": 7456,
      "malý": 7457,
      "cow": 7458,
      "vysoká": 7459,
      "haus": 7460,
      "bug": 7461,
      "##ygien": 7462,
      "wat": 7463,
      "##enkova": 7464,
      "##tisk": 7465,
      "nan": 7466,
      "pip": 7467,
      "dopravní": 7468,
      "##wicz": 7469,
      "ay": 7470,
      "##onsult": 7471,
      "svitlana": 7472,
      "##ase": 7473,
      "##čkov": 7474,
      "##ouskova": 7475,
      "noh": 7476,
      "jách": 7477,
      "poříčí": 7478,
      "oddluž": 7479,
      "typ": 7480,
      "mix": 7481,
      "olena": 7482,
      "вера": 7483,
      "##ival": 7484,
      "##slavice": 7485,
      "##rol": 7486,
      "##nerv": 7487,
      "##ijou": 7488,
      "абдул": 7489,
      "bogumi": 7490,
      "##но": 7491,
      "##edice": 7492,
      "##yslaw": 7493,
      "podnika": 7494,
      "##ostem": 7495,
      "denys": 7496,
      "kaf": 7497,
      "drozd": 7498,
      "oil": 7499,
      "##čin": 7500,
      "##vrz": 7501,
      "hair": 7502,
      "mst": 7503,
      "##master": 7504,
      "comput": 7505,
      "бар": 7506,
      "bh": 7507,
      "lop": 7508,
      "puch": 7509,
      "##you": 7510,
      "##iter": 7511,
      "smi": 7512,
      "hos": 7513,
      "jess": 7514,
      "sedlá": 7515,
      "systém": 7516,
      "rozkop": 7517,
      "stadion": 7518,
      "##iku": 7519,
      "jaromir": 7520,
      "##byeta": 7521,
      "##hlas": 7522,
      "jand": 7523,
      "##inst": 7524,
      "neup": 7525,
      "##tk": 7526,
      "##hř": 7527,
      "##aru": 7528,
      "##ена": 7529,
      "##ěd": 7530,
      "lind": 7531,
      "rand": 7532,
      "labor": 7533,
      "darya": 7534,
      "yulia": 7535,
      "##idy": 7536,
      "##уп": 7537,
      "##rozum": 7538,
      "##miel": 7539,
      "bs": 7540,
      "##pu": 7541,
      "##ave": 7542,
      "peť": 7543,
      "##kav": 7544,
      "##líčková": 7545,
      "##omyr": 7546,
      "hyb": 7547,
      "##ygn": 7548,
      "chyt": 7549,
      "mul": 7550,
      "flex": 7551,
      "mast": 7552,
      "żaneta": 7553,
      "##balo": 7554,
      "##ůrek": 7555,
      "tiskárna": 7556,
      "##níkovi": 7557,
      "zazd": 7558,
      "##dav": 7559,
      "vinohrad": 7560,
      "bac": 7561,
      "##řip": 7562,
      "##ging": 7563,
      "##sik": 7564,
      "yuriy": 7565,
      "40": 7566,
      "##enek": 7567,
      "uzná": 7568,
      "##ánov": 7569,
      "##ěly": 7570,
      "данил": 7571,
      "##arvi": 7572,
      "arbit": 7573,
      "##rál": 7574,
      "bond": 7575,
      "##ečt": 7576,
      "##yslava": 7577,
      "tmav": 7578,
      "##rah": 7579,
      "##udeb": 7580,
      "##itt": 7581,
      "time": 7582,
      "ста": 7583,
      "insurance": 7584,
      "lach": 7585,
      "zlíně": 7586,
      "##níčková": 7587,
      "zasm": 7588,
      "administrat": 7589,
      "roksana": 7590,
      "ujed": 7591,
      "kvas": 7592,
      "radi": 7593,
      "laur": 7594,
      "místek": 7595,
      "galina": 7596,
      "##nowski": 7597,
      "##iskut": 7598,
      "zřiz": 7599,
      "plá": 7600,
      "zasyp": 7601,
      "##ěst": 7602,
      "léč": 7603,
      "neoh": 7604,
      "abc": 7605,
      "нур": 7606,
      "##telnou": 7607,
      "dance": 7608,
      "жа": 7609,
      "##ese": 7610,
      "##3r": 7611,
      "soubor": 7612,
      "##emož": 7613,
      "##epř": 7614,
      "vysed": 7615,
      "serhii": 7616,
      "##чева": 7617,
      "валерий": 7618,
      "##zyńska": 7619,
      "konop": 7620,
      "##váme": 7621,
      "##ouká": 7622,
      "##utěš": 7623,
      "zrem": 7624,
      "sportu": 7625,
      "gil": 7626,
      "##ejš": 7627,
      "##ají": 7628,
      "##lům": 7629,
      "##mix": 7630,
      "##pová": 7631,
      "obdiv": 7632,
      "##dím": 7633,
      "doplou": 7634,
      "vost": 7635,
      "lh": 7636,
      "##nili": 7637,
      "servisní": 7638,
      "bronislav": 7639,
      "gw": 7640,
      "innovations": 7641,
      "rys": 7642,
      "easy": 7643,
      "ful": 7644,
      "##сова": 7645,
      "nájem": 7646,
      "дав": 7647,
      "hlíd": 7648,
      "vpad": 7649,
      "pj": 7650,
      "pis": 7651,
      "##orz": 7652,
      "##říh": 7653,
      "##livější": 7654,
      "rozmrz": 7655,
      "##ňováni": 7656,
      "vstřeb": 7657,
      "nálež": 7658,
      "rozhr": 7659,
      "roztří": 7660,
      "гол": 7661,
      "##bow": 7662,
      "##amed": 7663,
      "popuz": 7664,
      "yurii": 7665,
      "hý": 7666,
      "šind": 7667,
      "##ating": 7668,
      "##ešín": 7669,
      "oslep": 7670,
      "##štějšími": 7671,
      "zprů": 7672,
      "##uchová": 7673,
      "anatol": 7674,
      "##ších": 7675,
      "##ňte": 7676,
      "##ličková": 7677,
      "##fee": 7678,
      "ome": 7679,
      "##omíná": 7680,
      "biz": 7681,
      "hun": 7682,
      "troub": 7683,
      "артур": 7684,
      "sports": 7685,
      "terezka": 7686,
      "##mech": 7687,
      "zrych": 7688,
      "##ube": 7689,
      "opad": 7690,
      "##věš": 7691,
      "##ька": 7692,
      "zesvětl": 7693,
      "bin": 7694,
      "zeslab": 7695,
      "odlet": 7696,
      "zhudeb": 7697,
      "drag": 7698,
      "##czka": 7699,
      "podnikatel": 7700,
      "##vart": 7701,
      "##anowski": 7702,
      "35": 7703,
      "##ičtějším": 7704,
      "##ison": 7705,
      "##koum": 7706,
      "##lác": 7707,
      "blansko": 7708,
      "##tage": 7709,
      "##čeny": 7710,
      "opodstat": 7711,
      "šva": 7712,
      "prohléd": 7713,
      "developer": 7714,
      "bezú": 7715,
      "##ňovala": 7716,
      "trouf": 7717,
      "##livějšími": 7718,
      "##lyc": 7719,
      "##ávej": 7720,
      "povy": 7721,
      "vital": 7722,
      "##telněji": 7723,
      "okys": 7724,
      "##elská": 7725,
      "##čujete": 7726,
      "полина": 7727,
      "cyr": 7728,
      "##ycký": 7729,
      "econ": 7730,
      "odol": 7731,
      "danyela": 7732,
      "##tique": 7733,
      "нина": 7734,
      "##iver": 7735,
      "drh": 7736,
      "bernard": 7737,
      "##тов": 7738,
      "##атова": 7739,
      "přelé": 7740,
      "##nutý": 7741,
      "srozum": 7742,
      "##group": 7743,
      "##něnějšího": 7744,
      "přizpůsob": 7745,
      "historie": 7746,
      "kačka": 7747,
      "přič": 7748,
      "přelep": 7749,
      "##aa": 7750,
      "metují": 7751,
      "nováková": 7752,
      "валерия": 7753,
      "poklus": 7754,
      "##munt": 7755,
      "apartm": 7756,
      "sug": 7757,
      "ав": 7758,
      "odměř": 7759,
      "kak": 7760,
      "váš": 7761,
      "##wiec": 7762,
      "##grová": 7763,
      "chy": 7764,
      "way": 7765,
      "##лик": 7766,
      "##uss": 7767,
      "spolecenstvo": 7768,
      "happy": 7769,
      "drahomíra": 7770,
      "##enovice": 7771,
      "obk": 7772,
      "app": 7773,
      "##уля": 7774,
      "##елина": 7775,
      "zbyszek": 7776,
      "sier": 7777,
      "okna": 7778,
      "přátelé": 7779,
      "solutyons": 7780,
      "##дина": 7781,
      "##girl": 7782,
      "бер": 7783,
      "vyště": 7784,
      "##ologická": 7785,
      "dym": 7786,
      "právní": 7787,
      "##itelnému": 7788,
      "white": 7789,
      "klatovy": 7790,
      "сам": 7791,
      "mala": 7792,
      "магомед": 7793,
      "olš": 7794,
      "puk": 7795,
      "lex": 7796,
      "##buz": 7797,
      "světlana": 7798,
      "пол": 7799,
      "##gra": 7800,
      "##dd": 7801,
      "ath": 7802,
      "gad": 7803,
      "##oškola": 7804,
      "##fel": 7805,
      "taneční": 7806,
      "tadeáš": 7807,
      "##kul": 7808,
      "rekonstrukce": 7809,
      "##ála": 7810,
      "eur": 7811,
      "zbra": 7812,
      "kní": 7813,
      "roj": 7814,
      "louny": 7815,
      "alpha": 7816,
      "пер": 7817,
      "nejvyp": 7818,
      "kasya": 7819,
      "##unikace": 7820,
      "truhlář": 7821,
      "klinika": 7822,
      "treb": 7823,
      "42": 7824,
      "jirina": 7825,
      "denysa": 7826,
      "taťána": 7827,
      "váv": 7828,
      "tek": 7829,
      "##váno": 7830,
      "##или": 7831,
      "poc": 7832,
      "##cc": 7833,
      "yev": 7834,
      "##oped": 7835,
      "trh": 7836,
      "##оль": 7837,
      "##esová": 7838,
      "moder": 7839,
      "##oust": 7840,
      "fas": 7841,
      "##mysl": 7842,
      "dáša": 7843,
      "ели": 7844,
      "##ůvky": 7845,
      "##atec": 7846,
      "##idi": 7847,
      "důl": 7848,
      "viš": 7849,
      "##ryka": 7850,
      "svatop": 7851,
      "vest": 7852,
      "##írna": 7853,
      "tachov": 7854,
      "##ула": 7855,
      "přelou": 7856,
      "obytného": 7857,
      "##ílek": 7858,
      "##ečko": 7859,
      "##get": 7860,
      "meziříčí": 7861,
      "advertising": 7862,
      "rr": 7863,
      "рад": 7864,
      "maryna": 7865,
      "##инов": 7866,
      "##mart": 7867,
      "##jam": 7868,
      "##giel": 7869,
      "##szewska": 7870,
      "noc": 7871,
      "got": 7872,
      "##íčko": 7873,
      "##enkov": 7874,
      "šťast": 7875,
      "bartoš": 7876,
      "##hard": 7877,
      "##улов": 7878,
      "james": 7879,
      "pror": 7880,
      "slavkov": 7881,
      "##ourek": 7882,
      "ars": 7883,
      "náchod": 7884,
      "##vací": 7885,
      "##yová": 7886,
      "##avy": 7887,
      "wis": 7888,
      "##haus": 7889,
      "##fit": 7890,
      "zví": 7891,
      "##ýšov": 7892,
      "prach": 7893,
      "tri": 7894,
      "##kyp": 7895,
      "automation": 7896,
      "alla": 7897,
      "anička": 7898,
      "nicole": 7899,
      "##ól": 7900,
      "hn": 7901,
      "##ols": 7902,
      "##ucka": 7903,
      "pekárna": 7904,
      "dětský": 7905,
      "hroz": 7906,
      "gt": 7907,
      "ved": 7908,
      "##ape": 7909,
      "cestovní": 7910,
      "##yra": 7911,
      "##usta": 7912,
      "wioleta": 7913,
      "elyška": 7914,
      "industrial": 7915,
      "##kovič": 7916,
      "##inář": 7917,
      "##ukova": 7918,
      "krop": 7919,
      "##ackova": 7920,
      "ihor": 7921,
      "terezie": 7922,
      "komor": 7923,
      "##ivo": 7924,
      "cop": 7925,
      "muž": 7926,
      "sona": 7927,
      "##kovec": 7928,
      "sov": 7929,
      "mohel": 7930,
      "chrom": 7931,
      "buděj": 7932,
      "vrá": 7933,
      "##pek": 7934,
      "##zor": 7935,
      "silver": 7936,
      "vlá": 7937,
      "##fk": 7938,
      "tec": 7939,
      "technic": 7940,
      "hřeb": 7941,
      "oslavou": 7942,
      "##rog": 7943,
      "bečvou": 7944,
      "konstantin": 7945,
      "vitalii": 7946,
      "frank": 7947,
      "hokej": 7948,
      "vondr": 7949,
      "trs": 7950,
      "optim": 7951,
      "fm": 7952,
      "##voboz": 7953,
      "ryd": 7954,
      "ostra": 7955,
      "##erp": 7956,
      "thy": 7957,
      "byd": 7958,
      "pazd": 7959,
      "##lis": 7960,
      "radoslav": 7961,
      "centre": 7962,
      "mud": 7963,
      "malwina": 7964,
      "odr": 7965,
      "syt": 7966,
      "podkop": 7967,
      "##echová": 7968,
      "údolí": 7969,
      "петр": 7970,
      "##lij": 7971,
      "##lyš": 7972,
      "##eřice": 7973,
      "##takt": 7974,
      "bast": 7975,
      "paulyna": 7976,
      "touž": 7977,
      "39": 7978,
      "monte": 7979,
      "##ón": 7980,
      "##skup": 7981,
      "fen": 7982,
      "mend": 7983,
      "slová": 7984,
      "##ister": 7985,
      "##zač": 7986,
      "ywona": 7987,
      "##hyb": 7988,
      "##išt": 7989,
      "nicola": 7990,
      "##balová": 7991,
      "rid": 7992,
      "uherské": 7993,
      "##ror": 7994,
      "##koš": 7995,
      "##ávka": 7996,
      "záchran": 7997,
      "##ryst": 7998,
      "rav": 7999
    },
    "merges": [
      [
        "##o",
        "##v"
      ],
      [
        "##a",
        "##n"
      ],
      [
        "##s",
        "##t"
      ],
      [
        "##e",
        "##n"
      ],
      [
        "##a",
        "##r"
      ],
      [
        "##l",
        "##a"
      ],
      [
        "##e",
        "##r"
      ],
      [
        "##o",
        "##l"
      ],
      [
        "##k",
        "##a"
      ],
      [
        "##c",
        "##h"
      ],
      [
        "##o",
        "##r"
      ],
      [
        "##i",
        "##n"
      ],
      [
        "##ov",
        "##á"
      ],
      [
        "##r",
        "##o"
      ],
      [
        "##t",
        "##e"
      ],
      [
        "##a",
        "##l"
      ],
      [
        "##c",
        "##e"
      ],
      [
        "##o",
        "##n"
      ],
      [
        "##r",
        "##a"
      ],
      [
        "##i",
        "##k"
      ],
      [
        "##s",
        "##k"
      ],
      [
        "s",
        "##p"
      ],
      [
        "##v",
        "##i"
      ],
      [
        "##e",
        "##k"
      ],
      [
        "##d",
        "##a"
      ],
      [
        "##e",
        "##l"
      ],
      [
        "##n",
        "##í"
      ],
      [
        "##o",
        "##m"
      ],
      [
        "##a",
        "##t"
      ],
      [
        "##c",
        "##i"
      ],
      [
        "sp",
        "##ol"
      ],
      [
        "##e",
        "##j"
      ],
      [
        "##n",
        "##o"
      ],
      [
        "##e",
        "##t"
      ],
      [
        "##e",
        "##s"
      ],
      [
        "##i",
        "##l"
      ],
      [
        "##ov",
        "##a"
      ],
      [
        "##n",
        "##a"
      ],
      [
        "##o",
        "##u"
      ],
      [
        "##i",
        "##c"
      ],
      [
        "##e",
        "##d"
      ],
      [
        "##i",
        "##ce"
      ],
      [
        "##t",
        "##a"
      ],
      [
        "m",
        "##ar"
      ],
      [
        "##v",
        "##a"
      ],
      [
        "##e",
        "##č"
      ],
      [
        "##e",
        "##m"
      ],
      [
        "##r",
        "##u"
      ],
      [
        "##o",
        "##d"
      ],
      [
        "l",
        "##ik"
      ],
      [
        "##vi",
        "##da"
      ],
      [
        "p",
        "##ro"
      ],
      [
        "##a",
        "##d"
      ],
      [
        "##vida",
        "##ci"
      ],
      [
        "##ě",
        "##j"
      ],
      [
        "##o",
        "##s"
      ],
      [
        "##e",
        "##c"
      ],
      [
        "lik",
        "##vidaci"
      ],
      [
        "##i",
        "##t"
      ],
      [
        "##š",
        "##í"
      ],
      [
        "a",
        "##n"
      ],
      [
        "##st",
        "##v"
      ],
      [
        "##i",
        "##s"
      ],
      [
        "##o",
        "##b"
      ],
      [
        "##k",
        "##ová"
      ],
      [
        "##u",
        "##b"
      ],
      [
        "##a",
        "##s"
      ],
      [
        "##u",
        "##t"
      ],
      [
        "##i",
        "##a"
      ],
      [
        "spol",
        "##eč"
      ],
      [
        "##u",
        "##s"
      ],
      [
        "i",
        "##n"
      ],
      [
        "##z",
        "##a"
      ],
      [
        "##ěj",
        "##ší"
      ],
      [
        "##i",
        "##m"
      ],
      [
        "v",
        "##la"
      ],
      [
        "s",
        "##t"
      ],
      [
        "n",
        "##ej"
      ],
      [
        "m",
        "##a"
      ],
      [
        "v",
        "##y"
      ],
      [
        "##o",
        "##z"
      ],
      [
        "##u",
        "##l"
      ],
      [
        "##a",
        "##m"
      ],
      [
        "##k",
        "##o"
      ],
      [
        "##in",
        "##a"
      ],
      [
        "##d",
        "##r"
      ],
      [
        "##a",
        "##v"
      ],
      [
        "##h",
        "##o"
      ],
      [
        "##te",
        "##l"
      ],
      [
        "##s",
        "##ka"
      ],
      [
        "##n",
        "##i"
      ],
      [
        "##u",
        "##j"
      ],
      [
        "##o",
        "##t"
      ],
      [
        "##i",
        "##r"
      ],
      [
        "##u",
        "##r"
      ],
      [
        "##ní",
        "##k"
      ],
      [
        "vla",
        "##st"
      ],
      [
        "##an",
        "##a"
      ],
      [
        "##l",
        "##e"
      ],
      [
        "##stv",
        "##í"
      ],
      [
        "##l",
        "##i"
      ],
      [
        "##о",
        "##в"
      ],
      [
        "##an",
        "##i"
      ],
      [
        "##la",
        "##v"
      ],
      [
        "společ",
        "##en"
      ],
      [
        "##r",
        "##an"
      ],
      [
        "##in",
        "##g"
      ],
      [
        "m",
        "##i"
      ],
      [
        "##ník",
        "##ů"
      ],
      [
        "##y",
        "##n"
      ],
      [
        "##m",
        "##a"
      ],
      [
        "společen",
        "##ství"
      ],
      [
        "##en",
        "##t"
      ],
      [
        "##y",
        "##s"
      ],
      [
        "o",
        "##d"
      ],
      [
        "##ř",
        "##í"
      ],
      [
        "##o",
        "##p"
      ],
      [
        "##i",
        "##e"
      ],
      [
        "vlast",
        "##níků"
      ],
      [
        "o",
        "##r"
      ],
      [
        "c",
        "##h"
      ],
      [
        "##u",
        "##d"
      ],
      [
        "##m",
        "##e"
      ],
      [
        "r",
        "##e"
      ],
      [
        "##a",
        "##b"
      ],
      [
        "r",
        "##oz"
      ],
      [
        "##u",
        "##p"
      ],
      [
        "##e",
        "##ch"
      ],
      [
        "##a",
        "##k"
      ],
      [
        "##н",
        "##а"
      ],
      [
        "##n",
        "##ější"
      ],
      [
        "k",
        "##r"
      ],
      [
        "##sk",
        "##á"
      ],
      [
        "##i",
        "##on"
      ],
      [
        "##k",
        "##á"
      ],
      [
        "##en",
        "##a"
      ],
      [
        "##e",
        "##z"
      ],
      [
        "##st",
        "##o"
      ],
      [
        "##ru",
        "##ž"
      ],
      [
        "##o",
        "##w"
      ],
      [
        "##te",
        "##k"
      ],
      [
        "##e",
        "##b"
      ],
      [
        "##e",
        "##st"
      ],
      [
        "c",
        "##z"
      ],
      [
        "a",
        "##l"
      ],
      [
        "##h",
        "##a"
      ],
      [
        "##y",
        "##k"
      ],
      [
        "##sk",
        "##i"
      ],
      [
        "##no",
        "##st"
      ],
      [
        "##e",
        "##v"
      ],
      [
        "d",
        "##om"
      ],
      [
        "##o",
        "##g"
      ],
      [
        "##u",
        "##m"
      ],
      [
        "##ov",
        "##ice"
      ],
      [
        "or",
        "##g"
      ],
      [
        "o",
        "##b"
      ],
      [
        "pro",
        "##m"
      ],
      [
        "##y",
        "##t"
      ],
      [
        "k",
        "##l"
      ],
      [
        "p",
        "##ra"
      ],
      [
        "##c",
        "##z"
      ],
      [
        "##m",
        "##i"
      ],
      [
        "l",
        "##u"
      ],
      [
        "##r",
        "##á"
      ],
      [
        "##za",
        "##ce"
      ],
      [
        "##n",
        "##y"
      ],
      [
        "org",
        "##ani"
      ],
      [
        "##o",
        "##k"
      ],
      [
        "##i",
        "##d"
      ],
      [
        "##o",
        "##j"
      ],
      [
        "j",
        "##ed"
      ],
      [
        "p",
        "##et"
      ],
      [
        "##ov",
        "##an"
      ],
      [
        "p",
        "##ř"
      ],
      [
        "##u",
        "##n"
      ],
      [
        "##l",
        "##í"
      ],
      [
        "##i",
        "##ka"
      ],
      [
        "organi",
        "##zace"
      ],
      [
        "##ra",
        "##d"
      ],
      [
        "a",
        "##r"
      ],
      [
        "an",
        "##d"
      ],
      [
        "##i",
        "##v"
      ],
      [
        "##n",
        "##ě"
      ],
      [
        "##sk",
        "##ý"
      ],
      [
        "jed",
        "##no"
      ],
      [
        "##or",
        "##p"
      ],
      [
        "##i",
        "##g"
      ],
      [
        "##a",
        "##w"
      ],
      [
        "o",
        "##s"
      ],
      [
        "##e",
        "##p"
      ],
      [
        "##stv",
        "##o"
      ],
      [
        "##i",
        "##st"
      ],
      [
        "##a",
        "##te"
      ],
      [
        "##o",
        "##h"
      ],
      [
        "##l",
        "##á"
      ],
      [
        "##v",
        "##á"
      ],
      [
        "##i",
        "##č"
      ],
      [
        "k",
        "##ar"
      ],
      [
        "##n",
        "##á"
      ],
      [
        "j",
        "##an"
      ],
      [
        "##a",
        "##p"
      ],
      [
        "##o",
        "##st"
      ],
      [
        "a",
        "##ut"
      ],
      [
        "##y",
        "##na"
      ],
      [
        "p",
        "##r"
      ],
      [
        "##b",
        "##or"
      ],
      [
        "##y",
        "##l"
      ],
      [
        "##á",
        "##k"
      ],
      [
        "mar",
        "##t"
      ],
      [
        "##u",
        "##k"
      ],
      [
        "in",
        "##c"
      ],
      [
        "společ",
        "##nost"
      ],
      [
        "jedno",
        "##tek"
      ],
      [
        "##en",
        "##í"
      ],
      [
        "s",
        "##er"
      ],
      [
        "##а",
        "##н"
      ],
      [
        "d",
        "##ruž"
      ],
      [
        "mi",
        "##ch"
      ],
      [
        "##k",
        "##y"
      ],
      [
        "t",
        "##om"
      ],
      [
        "##e",
        "##š"
      ],
      [
        "##an",
        "##y"
      ],
      [
        "druž",
        "##stvo"
      ],
      [
        "##a",
        "##c"
      ],
      [
        "##sk",
        "##é"
      ],
      [
        "b",
        "##ar"
      ],
      [
        "m",
        "##ě"
      ],
      [
        "##t",
        "##ě"
      ],
      [
        "##e",
        "##w"
      ],
      [
        "##i",
        "##ch"
      ],
      [
        "##е",
        "##в"
      ],
      [
        "##r",
        "##y"
      ],
      [
        "p",
        "##od"
      ],
      [
        "##or",
        "##t"
      ],
      [
        "r",
        "##ad"
      ],
      [
        "n",
        "##a"
      ],
      [
        "##ов",
        "##а"
      ],
      [
        "m",
        "##í"
      ],
      [
        "j",
        "##ar"
      ],
      [
        "##n",
        "##ý"
      ],
      [
        "##la",
        "##d"
      ],
      [
        "s",
        "##ta"
      ],
      [
        "##i",
        "##va"
      ],
      [
        "z",
        "##a"
      ],
      [
        "##er",
        "##t"
      ],
      [
        "##í",
        "##n"
      ],
      [
        "p",
        "##av"
      ],
      [
        "prom",
        "##ovan"
      ],
      [
        "##t",
        "##er"
      ],
      [
        "##ran",
        "##d"
      ],
      [
        "l",
        "##o"
      ],
      [
        "##р",
        "##и"
      ],
      [
        "##an",
        "##d"
      ],
      [
        "##n",
        "##er"
      ],
      [
        "b",
        "##r"
      ],
      [
        "##e",
        "##la"
      ],
      [
        "a",
        "##dr"
      ],
      [
        "##i",
        "##p"
      ],
      [
        "##i",
        "##b"
      ],
      [
        "##k",
        "##ov"
      ],
      [
        "f",
        "##ir"
      ],
      [
        "a",
        "##g"
      ],
      [
        "##at",
        "##a"
      ],
      [
        "n",
        "##ad"
      ],
      [
        "##m",
        "##u"
      ],
      [
        "z",
        "##d"
      ],
      [
        "##k",
        "##ova"
      ],
      [
        "##l",
        "##y"
      ],
      [
        "##es",
        "##a"
      ],
      [
        "g",
        "##ro"
      ],
      [
        "##o",
        "##f"
      ],
      [
        "p",
        "##l"
      ],
      [
        "##et",
        "##a"
      ],
      [
        "##á",
        "##n"
      ],
      [
        "##r",
        "##e"
      ],
      [
        "##al",
        "##i"
      ],
      [
        "t",
        "##h"
      ],
      [
        "b",
        "##rand"
      ],
      [
        "č",
        "##e"
      ],
      [
        "##o",
        "##c"
      ],
      [
        "##v",
        "##est"
      ],
      [
        "j",
        "##m"
      ],
      [
        "##y",
        "##a"
      ],
      [
        "m",
        "##on"
      ],
      [
        "s",
        "##k"
      ],
      [
        "a",
        "##s"
      ],
      [
        "e",
        "##l"
      ],
      [
        "##ob",
        "##a"
      ],
      [
        "mě",
        "##sto"
      ],
      [
        "##u",
        "##z"
      ],
      [
        "##ů",
        "##m"
      ],
      [
        "m",
        "##il"
      ],
      [
        "##u",
        "##š"
      ],
      [
        "##b",
        "##a"
      ],
      [
        "fir",
        "##ma"
      ],
      [
        "o",
        "##p"
      ],
      [
        "##n",
        "##e"
      ],
      [
        "##i",
        "##te"
      ],
      [
        "##m",
        "##b"
      ],
      [
        "##ov",
        "##é"
      ],
      [
        "##ka",
        "##ce"
      ],
      [
        "##y",
        "##ch"
      ],
      [
        "gro",
        "##up"
      ],
      [
        "##л",
        "##и"
      ],
      [
        "##á",
        "##š"
      ],
      [
        "pra",
        "##ha"
      ],
      [
        "##us",
        "##z"
      ],
      [
        "os",
        "##oba"
      ],
      [
        "##i",
        "##š"
      ],
      [
        "##ar",
        "##d"
      ],
      [
        "mí",
        "##sto"
      ],
      [
        "##a",
        "##j"
      ],
      [
        "##i",
        "##an"
      ],
      [
        "##á",
        "##l"
      ],
      [
        "u",
        "##ž"
      ],
      [
        "ser",
        "##vi"
      ],
      [
        "aut",
        "##or"
      ],
      [
        "##ro",
        "##s"
      ],
      [
        "##m",
        "##an"
      ],
      [
        "##iva",
        "##tel"
      ],
      [
        "už",
        "##ivatel"
      ],
      [
        "adr",
        "##esa"
      ],
      [
        "lo",
        "##kace"
      ],
      [
        "##é",
        "##no"
      ],
      [
        "d",
        "##r"
      ],
      [
        "jm",
        "##éno"
      ],
      [
        "i",
        "##v"
      ],
      [
        "o",
        "##l"
      ],
      [
        "##o",
        "##š"
      ],
      [
        "s",
        "##v"
      ],
      [
        "##ic",
        "##k"
      ],
      [
        "##y",
        "##m"
      ],
      [
        "##ic",
        "##z"
      ],
      [
        "j",
        "##i"
      ],
      [
        "v",
        "##e"
      ],
      [
        "c",
        "##on"
      ],
      [
        "dom",
        "##u"
      ],
      [
        "p",
        "##a"
      ],
      [
        "kl",
        "##ub"
      ],
      [
        "##e",
        "##f"
      ],
      [
        "##ro",
        "##m"
      ],
      [
        "##í",
        "##r"
      ],
      [
        "spol",
        "##ek"
      ],
      [
        "d",
        "##a"
      ],
      [
        "##е",
        "##н"
      ],
      [
        "pet",
        "##r"
      ],
      [
        "##ol",
        "##og"
      ],
      [
        "s",
        "##h"
      ],
      [
        "##l",
        "##o"
      ],
      [
        "c",
        "##orp"
      ],
      [
        "##l",
        "##u"
      ],
      [
        "##ar",
        "##t"
      ],
      [
        "c",
        "##om"
      ],
      [
        "##y",
        "##st"
      ],
      [
        "l",
        "##l"
      ],
      [
        "##r",
        "##z"
      ],
      [
        "##tel",
        "##nější"
      ],
      [
        "##n",
        "##ik"
      ],
      [
        "##i",
        "##o"
      ],
      [
        "##u",
        "##st"
      ],
      [
        "##at",
        "##ion"
      ],
      [
        "in",
        "##vest"
      ],
      [
        "##ul",
        "##t"
      ],
      [
        "n",
        "##e"
      ],
      [
        "##g",
        "##a"
      ],
      [
        "##t",
        "##d"
      ],
      [
        "h",
        "##or"
      ],
      [
        "##а",
        "##р"
      ],
      [
        "sta",
        "##v"
      ],
      [
        "s",
        "##d"
      ],
      [
        "##а",
        "##т"
      ],
      [
        "##c",
        "##y"
      ],
      [
        "##č",
        "##í"
      ],
      [
        "##ov",
        "##al"
      ],
      [
        "##l",
        "##ová"
      ],
      [
        "l",
        "##im"
      ],
      [
        "k",
        "##am"
      ],
      [
        "##u",
        "##ch"
      ],
      [
        "l",
        "##td"
      ],
      [
        "d",
        "##o"
      ],
      [
        "s",
        "##z"
      ],
      [
        "##on",
        "##a"
      ],
      [
        "##á",
        "##r"
      ],
      [
        "##s",
        "##p"
      ],
      [
        "l",
        "##e"
      ],
      [
        "##л",
        "##е"
      ],
      [
        "t",
        "##rad"
      ],
      [
        "##л",
        "##а"
      ],
      [
        "##ko",
        "##w"
      ],
      [
        "k",
        "##a"
      ],
      [
        "##ko",
        "##la"
      ],
      [
        "##ite",
        "##d"
      ],
      [
        "a",
        "##d"
      ],
      [
        "an",
        "##dr"
      ],
      [
        "lim",
        "##ited"
      ],
      [
        "##mb",
        "##h"
      ],
      [
        "##sk",
        "##y"
      ],
      [
        "##и",
        "##н"
      ],
      [
        "v",
        "##er"
      ],
      [
        "g",
        "##mbh"
      ],
      [
        "r",
        "##om"
      ],
      [
        "##л",
        "##ь"
      ],
      [
        "##ra",
        "##v"
      ],
      [
        "m",
        "##at"
      ],
      [
        "##it",
        "##y"
      ],
      [
        "p",
        "##o"
      ],
      [
        "t",
        "##er"
      ],
      [
        "r",
        "##a"
      ],
      [
        "t",
        "##r"
      ],
      [
        "##ate",
        "##d"
      ],
      [
        "ll",
        "##c"
      ],
      [
        "##u",
        "##c"
      ],
      [
        "mart",
        "##in"
      ],
      [
        "##en",
        "##i"
      ],
      [
        "##orp",
        "##or"
      ],
      [
        "re",
        "##al"
      ],
      [
        "##ě",
        "##l"
      ],
      [
        "##la",
        "##va"
      ],
      [
        "##y",
        "##d"
      ],
      [
        "##t",
        "##or"
      ],
      [
        "inc",
        "##orpor"
      ],
      [
        "incorpor",
        "##ated"
      ],
      [
        "##en",
        "##ka"
      ],
      [
        "s",
        "##a"
      ],
      [
        "##j",
        "##a"
      ],
      [
        "##n",
        "##é"
      ],
      [
        "##ł",
        "##aw"
      ],
      [
        "e",
        "##x"
      ],
      [
        "##ě",
        "##t"
      ],
      [
        "##ec",
        "##k"
      ],
      [
        "##s",
        "##z"
      ],
      [
        "##i",
        "##z"
      ],
      [
        "an",
        "##na"
      ],
      [
        "s",
        "##m"
      ],
      [
        "##a",
        "##st"
      ],
      [
        "##n",
        "##ut"
      ],
      [
        "j",
        "##ana"
      ],
      [
        "h",
        "##ol"
      ],
      [
        "r",
        "##o"
      ],
      [
        "a",
        "##t"
      ],
      [
        "##y",
        "##b"
      ],
      [
        "mich",
        "##a"
      ],
      [
        "##y",
        "##c"
      ],
      [
        "##g",
        "##or"
      ],
      [
        "m",
        "##al"
      ],
      [
        "##r",
        "##ov"
      ],
      [
        "##и",
        "##на"
      ],
      [
        "sd",
        "##ruž"
      ],
      [
        "p",
        "##i"
      ],
      [
        "sdruž",
        "##ení"
      ],
      [
        "##ar",
        "##a"
      ],
      [
        "##is",
        "##lav"
      ],
      [
        "##e",
        "##h"
      ],
      [
        "o",
        "##n"
      ],
      [
        "k",
        "##at"
      ],
      [
        "##e",
        "##x"
      ],
      [
        "p",
        "##at"
      ],
      [
        "ma",
        "##te"
      ],
      [
        "b",
        "##yt"
      ],
      [
        "##b",
        "##y"
      ],
      [
        "##ov",
        "##ý"
      ],
      [
        "o",
        "##k"
      ],
      [
        "com",
        "##p"
      ],
      [
        "##е",
        "##р"
      ],
      [
        "##es",
        "##s"
      ],
      [
        "##á",
        "##v"
      ],
      [
        "##o",
        "##la"
      ],
      [
        "##l",
        "##ou"
      ],
      [
        "vla",
        "##d"
      ],
      [
        "d",
        "##ob"
      ],
      [
        "b",
        "##a"
      ],
      [
        "##n",
        "##ice"
      ],
      [
        "##y",
        "##p"
      ],
      [
        "##sk",
        "##o"
      ],
      [
        "n",
        "##at"
      ],
      [
        "##c",
        "##í"
      ],
      [
        "##va",
        "##z"
      ],
      [
        "jar",
        "##os"
      ],
      [
        "j",
        "##ak"
      ],
      [
        "##o",
        "##ci"
      ],
      [
        "##t",
        "##y"
      ],
      [
        "z",
        "##ák"
      ],
      [
        "promovan",
        "##ý"
      ],
      [
        "pav",
        "##el"
      ],
      [
        "##er",
        "##ová"
      ],
      [
        "promovan",
        "##á"
      ],
      [
        "##и",
        "##к"
      ],
      [
        "mich",
        "##al"
      ],
      [
        "##d",
        "##ř"
      ],
      [
        "##m",
        "##ent"
      ],
      [
        "m",
        "##or"
      ],
      [
        "##ń",
        "##ska"
      ],
      [
        "##an",
        "##t"
      ],
      [
        "c",
        "##ent"
      ],
      [
        "##u",
        "##ra"
      ],
      [
        "##an",
        "##ce"
      ],
      [
        "m",
        "##ed"
      ],
      [
        "t",
        "##ech"
      ],
      [
        "##lad",
        "##ní"
      ],
      [
        "##ru",
        "##m"
      ],
      [
        "##em",
        "##e"
      ],
      [
        "p",
        "##ol"
      ],
      [
        "##n",
        "##ic"
      ],
      [
        "a",
        "##le"
      ],
      [
        "zák",
        "##ladní"
      ],
      [
        "##z",
        "##d"
      ],
      [
        "k",
        "##on"
      ],
      [
        "ma",
        "##g"
      ],
      [
        "##v",
        "##y"
      ],
      [
        "r",
        "##en"
      ],
      [
        "s",
        "##vaz"
      ],
      [
        "##p",
        "##l"
      ],
      [
        "##i",
        "##er"
      ],
      [
        "mi",
        "##ros"
      ],
      [
        "##o",
        "##ž"
      ],
      [
        "b",
        "##oh"
      ],
      [
        "##e",
        "##a"
      ],
      [
        "cz",
        "##ech"
      ],
      [
        "l",
        "##a"
      ],
      [
        "v",
        "##ý"
      ],
      [
        "sp",
        "##ort"
      ],
      [
        "##vi",
        "##d"
      ],
      [
        "##li",
        "##v"
      ],
      [
        "z",
        "##b"
      ],
      [
        "d",
        "##ani"
      ],
      [
        "##ев",
        "##а"
      ],
      [
        "d",
        "##ům"
      ],
      [
        "con",
        "##s"
      ],
      [
        "##t",
        "##r"
      ],
      [
        "k",
        "##ra"
      ],
      [
        "š",
        "##kola"
      ],
      [
        "##e",
        "##te"
      ],
      [
        "p",
        "##h"
      ],
      [
        "##č",
        "##ková"
      ],
      [
        "s",
        "##ol"
      ],
      [
        "e",
        "##u"
      ],
      [
        "##s",
        "##c"
      ],
      [
        "##j",
        "##í"
      ],
      [
        "mar",
        "##k"
      ],
      [
        "nej",
        "##n"
      ],
      [
        "f",
        "##il"
      ],
      [
        "##ě",
        "##k"
      ],
      [
        "##o",
        "##ř"
      ],
      [
        "a",
        "##da"
      ],
      [
        "f",
        "##ran"
      ],
      [
        "st",
        "##an"
      ],
      [
        "servi",
        "##ce"
      ],
      [
        "##g",
        "##u"
      ],
      [
        "##w",
        "##a"
      ],
      [
        "##v",
        "##í"
      ],
      [
        "м",
        "##а"
      ],
      [
        "##er",
        "##s"
      ],
      [
        "##p",
        "##r"
      ],
      [
        "jak",
        "##ub"
      ],
      [
        "spol",
        "##ec"
      ],
      [
        "##n",
        "##u"
      ],
      [
        "##ěj",
        "##i"
      ],
      [
        "##0",
        "##0"
      ],
      [
        "p",
        "##ří"
      ],
      [
        "##o",
        "##ch"
      ],
      [
        "##y",
        "##r"
      ],
      [
        "##i",
        "##la"
      ],
      [
        "##о",
        "##р"
      ],
      [
        "##es",
        "##z"
      ],
      [
        "in",
        "##ter"
      ],
      [
        "##in",
        "##e"
      ],
      [
        "##a",
        "##ce"
      ],
      [
        "tom",
        "##áš"
      ],
      [
        "##ia",
        "##k"
      ],
      [
        "ji",
        "##ří"
      ],
      [
        "##i",
        "##ta"
      ],
      [
        "mon",
        "##ika"
      ],
      [
        "##l",
        "##ov"
      ],
      [
        "##en",
        "##ější"
      ],
      [
        "##č",
        "##ek"
      ],
      [
        "##ow",
        "##ska"
      ],
      [
        "trad",
        "##e"
      ],
      [
        "##g",
        "##e"
      ],
      [
        "##z",
        "##e"
      ],
      [
        "mar",
        "##ek"
      ],
      [
        "##к",
        "##а"
      ],
      [
        "##š",
        "##t"
      ],
      [
        "##í",
        "##k"
      ],
      [
        "##en",
        "##d"
      ],
      [
        "cons",
        "##ult"
      ],
      [
        "e",
        "##n"
      ],
      [
        "kar",
        "##ol"
      ],
      [
        "š",
        "##k"
      ],
      [
        "##ci",
        "##e"
      ],
      [
        "rom",
        "##an"
      ],
      [
        "##ys",
        "##z"
      ],
      [
        "pet",
        "##ra"
      ],
      [
        "##z",
        "##i"
      ],
      [
        "a",
        "##b"
      ],
      [
        "d",
        "##ar"
      ],
      [
        "s",
        "##ch"
      ],
      [
        "k",
        "##om"
      ],
      [
        "##en",
        "##ý"
      ],
      [
        "##c",
        "##k"
      ],
      [
        "a",
        "##m"
      ],
      [
        "ada",
        "##m"
      ],
      [
        "n",
        "##ik"
      ],
      [
        "##l",
        "##er"
      ],
      [
        "##ou",
        "##s"
      ],
      [
        "h",
        "##on"
      ],
      [
        "j",
        "##os"
      ],
      [
        "##к",
        "##с"
      ],
      [
        "k",
        "##ub"
      ],
      [
        "s",
        "##te"
      ],
      [
        "##ra",
        "##t"
      ],
      [
        "##p",
        "##a"
      ],
      [
        "##č",
        "##ní"
      ],
      [
        "##as",
        "##z"
      ],
      [
        "##ar",
        "##z"
      ],
      [
        "##d",
        "##al"
      ],
      [
        "##l",
        "##ub"
      ],
      [
        "spolec",
        "##en"
      ],
      [
        "##t",
        "##á"
      ],
      [
        "##r",
        "##i"
      ],
      [
        "v",
        "##el"
      ],
      [
        "##n",
        "##ov"
      ],
      [
        "l",
        "##ib"
      ],
      [
        "##ř",
        "##ina"
      ],
      [
        "l",
        "##enka"
      ],
      [
        "##т",
        "##а"
      ],
      [
        "##р",
        "##а"
      ],
      [
        "r",
        "##ob"
      ],
      [
        "f",
        "##rom"
      ],
      [
        "##c",
        "##t"
      ],
      [
        "m",
        "##ik"
      ],
      [
        "d",
        "##an"
      ],
      [
        "h",
        "##an"
      ],
      [
        "##ek",
        "##t"
      ],
      [
        "##ie",
        "##w"
      ],
      [
        "servi",
        "##s"
      ],
      [
        "h",
        "##a"
      ],
      [
        "##к",
        "##о"
      ],
      [
        "##gor",
        "##z"
      ],
      [
        "##и",
        "##м"
      ],
      [
        "##o",
        "##č"
      ],
      [
        "č",
        "##p"
      ],
      [
        "c",
        "##ar"
      ],
      [
        "##u",
        "##la"
      ],
      [
        "da",
        "##vid"
      ],
      [
        "##á",
        "##ková"
      ],
      [
        "v",
        "##al"
      ],
      [
        "e",
        "##m"
      ],
      [
        "e",
        "##d"
      ],
      [
        "##en",
        "##y"
      ],
      [
        "##on",
        "##ika"
      ],
      [
        "n",
        "##á"
      ],
      [
        "v",
        "##oj"
      ],
      [
        "##о",
        "##н"
      ],
      [
        "k",
        "##ate"
      ],
      [
        "##st",
        "##vi"
      ],
      [
        "e",
        "##va"
      ],
      [
        "##t",
        "##on"
      ],
      [
        "i",
        "##r"
      ],
      [
        "##t",
        "##h"
      ],
      [
        "##i",
        "##f"
      ],
      [
        "##v",
        "##ě"
      ],
      [
        "r",
        "##od"
      ],
      [
        "##s",
        "##a"
      ],
      [
        "k",
        "##ol"
      ],
      [
        "b",
        "##ro"
      ],
      [
        "pro",
        "##f"
      ],
      [
        "##ro",
        "##p"
      ],
      [
        "##z",
        "##y"
      ],
      [
        "##v",
        "##al"
      ],
      [
        "comp",
        "##any"
      ],
      [
        "##cz",
        "##yk"
      ],
      [
        "##ek",
        "##s"
      ],
      [
        "f",
        "##ar"
      ],
      [
        "##m",
        "##ar"
      ],
      [
        "##е",
        "##й"
      ],
      [
        "b",
        "##e"
      ],
      [
        "##f",
        "##a"
      ],
      [
        "jos",
        "##ef"
      ],
      [
        "##l",
        "##an"
      ],
      [
        "##on",
        "##d"
      ],
      [
        "##ń",
        "##ski"
      ],
      [
        "z",
        "##á"
      ],
      [
        "br",
        "##no"
      ],
      [
        "##za",
        "##k"
      ],
      [
        "lu",
        "##cie"
      ],
      [
        "g",
        "##ab"
      ],
      [
        "##ez",
        "##d"
      ],
      [
        "t",
        "##ran"
      ],
      [
        "##il",
        "##y"
      ],
      [
        "k",
        "##or"
      ],
      [
        "##í",
        "##m"
      ],
      [
        "f",
        "##r"
      ],
      [
        "##nik",
        "##u"
      ],
      [
        "ale",
        "##x"
      ],
      [
        "zd",
        "##en"
      ],
      [
        "##la",
        "##t"
      ],
      [
        "z",
        "##uz"
      ],
      [
        "k",
        "##s"
      ],
      [
        "d",
        "##ol"
      ],
      [
        "h",
        "##el"
      ],
      [
        "##ič",
        "##ů"
      ],
      [
        "b",
        "##or"
      ],
      [
        "spolecen",
        "##stvi"
      ],
      [
        "s",
        "##ro"
      ],
      [
        "v",
        "##l"
      ],
      [
        "##la",
        "##s"
      ],
      [
        "z",
        "##p"
      ],
      [
        "##í",
        "##š"
      ],
      [
        "dani",
        "##el"
      ],
      [
        "##ic",
        "##ká"
      ],
      [
        "za",
        "##h"
      ],
      [
        "##c",
        "##ová"
      ],
      [
        "dom",
        "##in"
      ],
      [
        "vy",
        "##s"
      ],
      [
        "m",
        "##y"
      ],
      [
        "ar",
        "##ch"
      ],
      [
        "j",
        "##ir"
      ],
      [
        "##ot",
        "##r"
      ],
      [
        "##b",
        "##i"
      ],
      [
        "b",
        "##u"
      ],
      [
        "u",
        "##l"
      ],
      [
        "cent",
        "##rum"
      ],
      [
        "а",
        "##н"
      ],
      [
        "##uj",
        "##í"
      ],
      [
        "v",
        "##á"
      ],
      [
        "##r",
        "##t"
      ],
      [
        "##e",
        "##g"
      ],
      [
        "mart",
        "##ina"
      ],
      [
        "o",
        "##st"
      ],
      [
        "h",
        "##ana"
      ],
      [
        "##eb",
        "##ní"
      ],
      [
        "##á",
        "##t"
      ],
      [
        "vlast",
[...]
