{
  "version": "1.0",
  "truncation": null,
  "padding": null,
  "added_tokens": [
    {
      "id": 0,
      "content": "[UNK]",
      "single_word": false,
      "lstrip": false,
      "rstrip": false,
      "normalized": false,
      "special": true
    },
    {
      "id": 1,
      "content": "[PAD]",
      "single_word": false,
      "lstrip": false,
      "rstrip": false,
      "normalized": false,
      "special": true
    }
  ],
  "normalizer": {
    "type": "Sequence",
    "normalizers": [
      {
        "type": "NFKC"
      }
    ]
  },
  "pre_tokenizer": {
    "type": "BertPreTokenizer"
  },
  "post_processor": null,
  "decoder": null,
  "model": {
    "type": "BPE",
    "dropout": null,
    "unk_token": "[UNK]",
    "continuing_subword_prefix": "##",
    "end_of_word_suffix": null,
    "fuse_unk": false,
    "byte_fallback": false,
    "ignore_merges": false,
    "vocab": {
      "[UNK]": 0,
      "[PAD]": 1,
      "\"": 2,
      "&": 3,
      "'": 4,
      "(": 5,
      ")": 6,
      "+": 7,
      ",": 8,
      "-": 9,
      ".": 10,
      "/": 11,
      "0": 12,
      "1": 13,
      "2": 14,
      "3": 15,
      "4": 16,
      "5": 17,
      "6": 18,
      "7": 19,
      "8": 20,
      "9": 21,
      ":": 22,
      ";": 23,
      "<": 24,
      ">": 25,
      "@": 26,
      "[": 27,
      "\\": 28,
      "]": 29,
      "_": 30,
      "`": 31,
      "a": 32,
      "b": 33,
      "c": 34,
      "d": 35,
      "e": 36,
      "f": 37,
      "g": 38,
      "h": 39,
      "i": 40,
      "j": 41,
      "k": 42,
      "l": 43,
      "m": 44,
      "n": 45,
      "o": 46,
      "p": 47,
      "q": 48,
      "r": 49,
      "s": 50,
      "t": 51,
      "u": 52,
      "v": 53,
      "w": 54,
      "x": 55,
      "y": 56,
      "z": 57,
      "{": 58,
      "|": 59,
      "}": 60,
      "á": 61,
      "ä": 62,
      "é": 63,
      "í": 64,
      "ó": 65,
      "ô": 66,
      "ú": 67,
      "ý": 68,
      "ą": 69,
      "ć": 70,
      "č": 71,
      "ď": 72,
      "ę": 73,
      "ě": 74,
      "ı": 75,
      "ĺ": 76,
      "ľ": 77,
      "ł": 78,
      "ń": 79,
      "ň": 80,
      "ŕ": 81,
      "ř": 82,
      "ś": 83,
      "š": 84,
      "ť": 85,
      "ů": 86,
      "ź": 87,
      "ż": 88,
      "ž": 89,
      "а": 90,
      "б": 91,
      "в": 92,
      "г": 93,
      "д": 94,
      "е": 95,
      "ж": 96,
      "з": 97,
      "и": 98,
      "й": 99,
      "к": 100,
      "л": 101,
      "м": 102,
      "н": 103,
      "о": 104,
      "п": 105,
      "р": 106,
      "с": 107,
      "т": 108,
      "у": 109,
      "ф": 110,
      "х": 111,
      "ц": 112,
      "ч": 113,
      "ш": 114,
      "щ": 115,
      "ъ": 116,
      "ы": 117,
      "ь": 118,
      "э": 119,
      "ю": 120,
      "я": 121,
      "ё": 122,
      "–": 123,
      "—": 124,
      "„": 125,
      "‹": 126,
      "›": 127,
      "−": 128,
      "##y": 129,
      "##n": 130,
      "##t": 131,
      "##u": 132,
      "##r": 133,
      "##e": 134,
      "##s": 135,
      "##i": 136,
      "##x": 137,
      "##l": 138,
      "##o": 139,
      "##g": 140,
      "##a": 141,
      "##c": 142,
      "##f": 143,
      "##d": 144,
      "##6": 145,
      "##m": 146,
      "##b": 147,
      "##p": 148,
      "##2": 149,
      "##7": 150,
      "##v": 151,
      "##0": 152,
      "##h": 153,
      "##k": 154,
      "##5": 155,
      "##z": 156,
      "##3": 157,
      "##j": 158,
      "##4": 159,
      "##9": 160,
      "##8": 161,
      "##q": 162,
      "##ř": 163,
      "##í": 164,
      "##ž": 165,
      "##1": 166,
      "##á": 167,
      "##š": 168,
      "##w": 169,
      "##о": 170,
      "##в": 171,
      "##а": 172,
      "##н": 173,
      "##ь": 174,
      "##ч": 175,
      "##и": 176,
      "##к": 177,
      "##ł": 178,
      "##л": 179,
      "##е": 180,
      "##с": 181,
      "##д": 182,
      "##р": 183,
      "##з": 184,
      "##м": 185,
      "##т": 186,
      "##ы": 187,
      "##й": 188,
      "##я": 189,
      "##ó": 190,
      "##ů": 191,
      "##č": 192,
      "##é": 193,
      "##ш": 194,
      "##п": 195,
      "##ж": 196,
      "##х": 197,
      "##у": 198,
      "##ě": 199,
      "##ń": 200,
      "##ż": 201,
      "##ý": 202,
      "##б": 203,
      "##ä": 204,
      "##ф": 205,
      "##ň": 206,
      "##ť": 207,
      "##ю": 208,
      "##ś": 209,
      "##г": 210,
      "##ц": 211,
      "##ć": 212,
      "##ú": 213,
      "##э": 214,
      "##ę": 215,
      "##ё": 216,
      "##ľ": 217,
      "##ą": 218,
      "##ď": 219,
      "##ź": 220,
      "##щ": 221,
      "##ı": 222,
      "##ъ": 223,
      "##ĺ": 224,
      "##ô": 225,
      "##ŕ": 226,
      "##−": 227,
      "##an": 228,
      "##ov": 229,
      "##er": 230,
      "##ar": 231,
      "##in": 232,
      "##on": 233,
      "##en": 234,
      "##or": 235,
      "##al": 236,
      "##te": 237,
      "##ic": 238,
      "##ka": 239,
      "##ová": 240,
      "##la": 241,
      "##st": 242,
      "##ro": 243,
      "##es": 244,
      "##ol": 245,
      "##at": 246,
      "##ch": 247,
      "##mi": 248,
      "li": 249,
      "##el": 250,
      "##ra": 251,
      "##om": 252,
      "##ek": 253,
      "##et": 254,
      "##ted": 255,
      "in": 256,
      "##td": 257,
      "##il": 258,
      "ltd": 259,
      "##is": 260,
      "##ac": 261,
      "mar": 262,
      "##it": 263,
      "an": 264,
      "##mited": 265,
      "##ia": 266,
      "##ing": 267,
      "limited": 268,
      "##sk": 269,
      "##ad": 270,
      "##ur": 271,
      "##ova": 272,
      "##os": 273,
      "##us": 274,
      "##ion": 275,
      "##id": 276,
      "##le": 277,
      "##as": 278,
      "##ie": 279,
      "##yn": 280,
      "##re": 281,
      "##ik": 282,
      "pro": 283,
      "##ent": 284,
      "##ková": 285,
      "##ul": 286,
      "##am": 287,
      "##ut": 288,
      "##ed": 289,
      "st": 290,
      "##ot": 291,
      "##ana": 292,
      "##ow": 293,
      "##un": 294,
      "##av": 295,
      "##ak": 296,
      "##ina": 297,
      "##ice": 298,
      "##ec": 299,
      "##ub": 300,
      "##em": 301,
      "##od": 302,
      "##lav": 303,
      "##ska": 304,
      "and": 305,
      "##ов": 306,
      "ma": 307,
      "inc": 308,
      "##ys": 309,
      "##ri": 310,
      "##na": 311,
      "##ud": 312,
      "##ich": 313,
      "ch": 314,
      "##ob": 315,
      "##ru": 316,
      "##and": 317,
      "sp": 318,
      "##ab": 319,
      "##im": 320,
      "##ej": 321,
      "##op": 322,
      "th": 323,
      "con": 324,
      "##oc": 325,
      "##ig": 326,
      "##ev": 327,
      "##og": 328,
      "##на": 329,
      "##ry": 330,
      "##aci": 331,
      "##up": 332,
      "al": 333,
      "##kv": 334,
      "##ce": 335,
      "##ir": 336,
      "##ní": 337,
      "##ski": 338,
      "ser": 339,
      "prom": 340,
      "##aw": 341,
      "##ation": 342,
      "##kvid": 343,
      "likvid": 344,
      "likvidaci": 345,
      "##ta": 346,
      "##ers": 347,
      "##iv": 348,
      "##ena": 349,
      "##ct": 350,
      "##orp": 351,
      "com": 352,
      "##cz": 353,
      "ll": 354,
      "##uk": 355,
      "##ter": 356,
      "##est": 357,
      "##ap": 358,
      "##rz": 359,
      "ar": 360,
      "##ert": 361,
      "ad": 362,
      "pet": 363,
      "##ko": 364,
      "serv": 365,
      "ro": 366,
      "##ult": 367,
      "##yl": 368,
      "##ag": 369,
      "as": 370,
      "##um": 371,
      "##ika": 372,
      "##ovan": 373,
      "##ou": 374,
      "ka": 375,
      "##art": 376,
      "co": 377,
      "llc": 378,
      "jan": 379,
      "mart": 380,
      "##yk": 381,
      "##ies": 382,
      "##ran": 383,
      "##uc": 384,
      "##th": 385,
      "cons": 386,
      "##ew": 387,
      "##ez": 388,
      "en": 389,
      "##yna": 390,
      "mich": 391,
      "##ан": 392,
      "##ech": 393,
      "##ym": 394,
      "##li": 395,
      "##ard": 396,
      "##eb": 397,
      "spol": 398,
      "##ep": 399,
      "##ев": 400,
      "promovan": 401,
      "##ова": 402,
      "tom": 403,
      "##ří": 404,
      "consult": 405,
      "##ora": 406,
      "##of": 407,
      "##va": 408,
      "##stv": 409,
      "kar": 410,
      "##ya": 411,
      "##áš": 412,
      "##ices": 413,
      "vla": 414,
      "##ip": 415,
      "##oj": 416,
      "rad": 417,
      "##ри": 418,
      "##ess": 419,
      "the": 420,
      "services": 421,
      "sh": 422,
      "##ok": 423,
      "pav": 424,
      "##any": 425,
      "##oh": 426,
      "##eg": 427,
      "gro": 428,
      "sol": 429,
      "##ist": 430,
      "jar": 431,
      "##yt": 432,
      "##ata": 433,
      "##ment": 434,
      "##da": 435,
      "##ions": 436,
      "corp": 437,
      "##ast": 438,
      "##ěj": 439,
      "##mb": 440,
      "##án": 441,
      "##man": 442,
      "##ší": 443,
      "ag": 444,
      "##aj": 445,
      "##io": 446,
      "##eta": 447,
      "mi": 448,
      "##yc": 449,
      "##ine": 450,
      "##usz": 451,
      "mil": 452,
      "dan": 453,
      "bar": 454,
      "##ort": 455,
      "##olog": 456,
      "comp": 457,
      "##ust": 458,
      "##ли": 459,
      "mon": 460,
      "##ovice": 461,
      "##ela": 462,
      "##ant": 463,
      "##ič": 464,
      "##ity": 465,
      "group": 466,
      "##ros": 467,
      "##ef": 468,
      "##icz": 469,
      "##kova": 470,
      "iv": 471,
      "##ly": 472,
      "##ost": 473,
      "##ian": 474,
      "of": 475,
      "##eč": 476,
      "solut": 477,
      "##ен": 478,
      "##ha": 479,
      "br": 480,
      "##uz": 481,
      "##iel": 482,
      "##ruž": 483,
      "do": 484,
      "ph": 485,
      "##iz": 486,
      "##af": 487,
      "##owska": 488,
      "##tel": 489,
      "le": 490,
      "##ement": 491,
      "##ych": 492,
      "on": 493,
      "petr": 494,
      "##mbh": 495,
      "##ick": 496,
      "gmbh": 497,
      "sz": 498,
      "ol": 499,
      "dom": 500,
      "##dr": 501,
      "##ge": 502,
      "##oz": 503,
      "##ský": 504,
      "zd": 505,
      "el": 506,
      "med": 507,
      "pr": 508,
      "##ар": 509,
      "ji": 510,
      "##ат": 511,
      "##tek": 512,
      "##anag": 513,
      "##ma": 514,
      "mark": 515,
      "tech": 516,
      "##ial": 517,
      "##eal": 518,
      "##ík": 519,
      "##anc": 520,
      "manag": 521,
      "##are": 522,
      "pl": 523,
      "luc": 524,
      "##stvo": 525,
      "sk": 526,
      "##und": 527,
      "##yd": 528,
      "##oslav": 529,
      "solutions": 530,
      "kl": 531,
      "##islav": 532,
      "##ле": 533,
      "##qu": 534,
      "##ho": 535,
      "dr": 536,
      "##ach": 537,
      "##ější": 538,
      "##ла": 539,
      "##uj": 540,
      "##ín": 541,
      "##rad": 542,
      "druž": 543,
      "##ská": 544,
      "nej": 545,
      "management": 546,
      "družstvo": 547,
      "ass": 548,
      "ex": 549,
      "##old": 550,
      "##lo": 551,
      "mat": 552,
      "##ин": 553,
      "ver": 554,
      "##ona": 555,
      "pa": 556,
      "##ler": 557,
      "##ign": 558,
      "##ль": 559,
      "op": 560,
      "ve": 561,
      "##ib": 562,
      "rom": 563,
      "at": 564,
      "##ace": 565,
      "##rom": 566,
      "martin": 567,
      "sch": 568,
      "##uš": 569,
      "##ga": 570,
      "inter": 571,
      "##ork": 572,
      "ho": 573,
      "incorp": 574,
      "##orated": 575,
      "##ák": 576,
      "##ław": 577,
      "incorporated": 578,
      "##ja": 579,
      "de": 580,
      "##ern": 581,
      "micha": 582,
      "##iew": 583,
      "##iš": 584,
      "pat": 585,
      "anna": 586,
      "##ír": 587,
      "##pert": 588,
      "ter": 589,
      "##ital": 590,
      "##tě": 591,
      "##ty": 592,
      "##tem": 593,
      "##ey": 594,
      "dav": 595,
      "##ина": 596,
      "##mil": 597,
      "##enka": 598,
      "##lová": 599,
      "des": 600,
      "##end": 601,
      "sv": 602,
      "##ton": 603,
      "promovaná": 604,
      "techn": 605,
      "##me": 606,
      "promovaný": 607,
      "##ba": 608,
      "kat": 609,
      "##ola": 610,
      "##áv": 611,
      "##ár": 612,
      "jana": 613,
      "##sc": 614,
      "##ner": 615,
      "##00": 616,
      "##ер": 617,
      "##owski": 618,
      "##oš": 619,
      "sa": 620,
      "##ara": 621,
      "consulting": 622,
      "##sh": 623,
      "##ny": 624,
      "##tor": 625,
      "##pr": 626,
      "##sz": 627,
      "od": 628,
      "vlad": 629,
      "company": 630,
      "michal": 631,
      "nat": 632,
      "##tes": 633,
      "ale": 634,
      "##uch": 635,
      "kr": 636,
      "be": 637,
      "bo": 638,
      "cent": 639,
      "##co": 640,
      "##ик": 641,
      "##ky": 642,
      "pi": 643,
      "##ay": 644,
      "jak": 645,
      "##ell": 646,
      "ed": 647,
      "##sky": 648,
      "mag": 649,
      "pavel": 650,
      "mal": 651,
      "or": 652,
      "##no": 653,
      "##ńska": 654,
      "##yng": 655,
      "##ors": 656,
      "##yb": 657,
      "##erg": 658,
      "##ive": 659,
      "fil": 660,
      "fran": 661,
      "##ance": 662,
      "##íková": 663,
      "##our": 664,
      "ac": 665,
      "##eš": 666,
      "roz": 667,
      "ab": 668,
      "##ark": 669,
      "am": 670,
      "##roslav": 671,
      "##ind": 672,
      "ren": 673,
      "##za": 674,
      "##ева": 675,
      "##ill": 676,
      "##pl": 677,
      "assoc": 678,
      "##ord": 679,
      "un": 680,
      "##rist": 681,
      "yn": 682,
      "##iak": 683,
      "##ical": 684,
      "##ck": 685,
      "rob": 686,
      "##ational": 687,
      "##yr": 688,
      "##ník": 689,
      "bl": 690,
      "propert": 691,
      "##vest": 692,
      "ste": 693,
      "##orz": 694,
      "##ex": 695,
      "val": 696,
      "ма": 697,
      "##az": 698,
      "##ht": 699,
      "so": 700,
      "##uka": 701,
      "cl": 702,
      "vlast": 703,
      "##ор": 704,
      "nad": 705,
      "##kov": 706,
      "stan": 707,
      "##ná": 708,
      "##ond": 709,
      "##yted": 710,
      "jakub": 711,
      "##čková": 712,
      "##ier": 713,
      "pra": 714,
      "uk": 715,
      "monika": 716,
      "##mila": 717,
      "##ood": 718,
      "##asz": 719,
      "ko": 720,
      "ind": 721,
      "##ula": 722,
      "comm": 723,
      "for": 724,
      "tomáš": 725,
      "marek": 726,
      "##ка": 727,
      "##sp": 728,
      "technolog": 729,
      "jaroslav": 730,
      "david": 731,
      "vy": 732,
      "##yon": 733,
      "ob": 734,
      "car": 735,
      "##ysz": 736,
      "roman": 737,
      "##enc": 738,
      "sm": 739,
      "##ire": 740,
      "tr": 741,
      "##ish": 742,
      "##ure": 743,
      "jiří": 744,
      "jos": 745,
      "marc": 746,
      "design": 747,
      "##wa": 748,
      "##ěk": 749,
      "##áková": 750,
      "##bor": 751,
      "##ura": 752,
      "adam": 753,
      "karol": 754,
      "##ál": 755,
      "##кс": 756,
      "##arz": 757,
      "ir": 758,
      "##erová": 759,
      "nik": 760,
      "intern": 761,
      "##ah": 762,
      "eng": 763,
      "arch": 764,
      "##arm": 765,
      "##ang": 766,
      "petra": 767,
      "##ug": 768,
      "##ts": 769,
      "##ite": 770,
      "##if": 771,
      "miroslav": 772,
      "pol": 773,
      "tra": 774,
      "dev": 775,
      "##та": 776,
      "part": 777,
      "##ics": 778,
      "ev": 779,
      "pod": 780,
      "##ра": 781,
      "lenka": 782,
      "##ool": 783,
      "##eh": 784,
      "##ко": 785,
      "andre": 786,
      "##nější": 787,
      "from": 788,
      "##anna": 789,
      "luk": 790,
      "##им": 791,
      "adv": 792,
      "barb": 793,
      "##yp": 794,
      "##řina": 795,
      "gl": 796,
      "kub": 797,
      "ond": 798,
      "##int": 799,
      "##он": 800,
      "##12": 801,
      "alex": 802,
      "##onika": 803,
      "##ate": 804,
      "##gr": 805,
      "res": 806,
      "dar": 807,
      "invest": 808,
      "gra": 809,
      "cap": 810,
      "##ala": 811,
      "##all": 812,
      "hor": 813,
      "##ota": 814,
      "cz": 815,
      "bu": 816,
      "##ček": 817,
      "##zka": 818,
      "##use": 819,
      "kate": 820,
      "##ita": 821,
      "##eks": 822,
      "krz": 823,
      "##dal": 824,
      "stud": 825,
      "##ей": 826,
      "##ners": 827,
      "bro": 828,
      "eva": 829,
      "##ction": 830,
      "##yg": 831,
      "##czyk": 832,
      "##ství": 833,
      "cre": 834,
      "zuz": 835,
      "jo": 836,
      "##ne": 837,
      "##ński": 838,
      "lucie": 839,
      "sc": 840,
      "daniel": 841,
      "gab": 842,
      "##ings": 843,
      "##elop": 844,
      "##ph": 845,
      "##ný": 846,
      "gr": 847,
      "##son": 848,
      "mik": 849,
      "ele": 850,
      "##otr": 851,
      "prod": 852,
      "##lí": 853,
      "př": 854,
      "zden": 855,
      "international": 856,
      "my": 857,
      "##stru": 858,
      "kry": 859,
      "mac": 860,
      "qu": 861,
      "im": 862,
      "##iela": 863,
      "hom": 864,
      "domin": 865,
      "den": 866,
      "fin": 867,
      "josef": 868,
      "##ica": 869,
      "develop": 870,
      "tran": 871,
      "ан": 872,
      "ly": 873,
      "gre": 874,
      "em": 875,
      "pla": 876,
      "ne": 877,
      "společ": 878,
      "lad": 879,
      "la": 880,
      "##ss": 881,
      "soc": 882,
      "market": 883,
      "##ld": 884,
      "##ał": 885,
      "##ron": 886,
      "##ni": 887,
      "paw": 888,
      "hel": 889,
      "##iewicz": 890,
      "##och": 891,
      "ks": 892,
      "martina": 893,
      "hold": 894,
      "robert": 895,
      "hana": 896,
      "kon": 897,
      "##ystem": 898,
      "##ens": 899,
      "##ering": 900,
      "sup": 901,
      "##ments": 902,
      "##alová": 903,
      "rev": 904,
      "krist": 905,
      "aut": 906,
      "natal": 907,
      "##iusz": 908,
      "kra": 909,
      "##andra": 910,
      "sr": 911,
      "##ild": 912,
      "zb": 913,
      "##ock": 914,
      "##mar": 915,
      "col": 916,
      "##ealth": 917,
      "gen": 918,
      "##ii": 919,
      "hol": 920,
      "ge": 921,
      "##ení": 922,
      "##sa": 923,
      "sim": 924,
      "sal": 925,
      "##her": 926,
      "veronika": 927,
      "##ně": 928,
      "partners": 929,
      "##age": 930,
      "man": 931,
      "system": 932,
      "##ff": 933,
      "##eck": 934,
      "##nik": 935,
      "##ect": 936,
      "han": 937,
      "але": 938,
      "ap": 939,
      "voj": 940,
      "##ore": 941,
      "##ric": 942,
      "terez": 943,
      "##рина": 944,
      "##rá": 945,
      "engine": 946,
      "##zi": 947,
      "ha": 948,
      "commun": 949,
      "bla": 950,
      "milan": 951,
      "##mir": 952,
      "lukáš": 953,
      "##ička": 954,
      "##ery": 955,
      "##ack": 956,
      "it": 957,
      "##ми": 958,
      "##zy": 959,
      "boh": 960,
      "##tof": 961,
      "media": 962,
      "prof": 963,
      "##ác": 964,
      "##uro": 965,
      "tru": 966,
      "bus": 967,
      "lud": 968,
      "lub": 969,
      "he": 970,
      "kateřina": 971,
      "bart": 972,
      "sro": 973,
      "##ур": 974,
      "da": 975,
      "michaela": 976,
      "##lad": 977,
      "##yan": 978,
      "##yz": 979,
      "sl": 980,
      "##ox": 981,
      "##enko": 982,
      "radek": 983,
      "dra": 984,
      "constru": 985,
      "##tra": 986,
      "pre": 987,
      "##ash": 988,
      "hon": 989,
      "fund": 990,
      "est": 991,
      "woj": 992,
      "real": 993,
      "ing": 994,
      "##enství": 995,
      "##unt": 996,
      "##ix": 997,
      "##land": 998,
      "school": 999,
      "produ": 1000,
      "il": 1001,
      "art": 1002,
      "##ink": 1003,
      "net": 1004,
      "##ye": 1005,
      "##ue": 1006,
      "nor": 1007,
      "associa": 1008,
      "##olf": 1009,
      "vos": 1010,
      "##eva": 1011,
      "##ад": 1012,
      "enter": 1013,
      "re": 1014,
      "mor": 1015,
      "lab": 1016,
      "grz": 1017,
      "##arch": 1018,
      "systems": 1019,
      "##one": 1020,
      "##ve": 1021,
      "##át": 1022,
      "lym": 1023,
      "se": 1024,
      "jul": 1025,
      "ba": 1026,
      "mate": 1027,
      "##ide": 1028,
      "magdal": 1029,
      "##ien": 1030,
      "filip": 1031,
      "##ст": 1032,
      "##řej": 1033,
      "trad": 1034,
      "elect": 1035,
      "piotr": 1036,
      "health": 1037,
      "##per": 1038,
      "zs": 1039,
      "##owicz": 1040,
      "agn": 1041,
      "ra": 1042,
      "mot": 1043,
      "##ož": 1044,
      "kas": 1045,
      "alena": 1046,
      "##ants": 1047,
      "ta": 1048,
      "aleks": 1049,
      "jed": 1050,
      "anton": 1051,
      "hal": 1052,
      "ivan": 1053,
      "алекс": 1054,
      "lymyted": 1055,
      "gal": 1056,
      "##uy": 1057,
      "marie": 1058,
      "##ft": 1059,
      "##iktor": 1060,
      "kol": 1061,
      "marta": 1062,
      "wal": 1063,
      "min": 1064,
      "##gan": 1065,
      "##osz": 1066,
      "##ий": 1067,
      "##pt": 1068,
      "fr": 1069,
      "##obal": 1070,
      "property": 1071,
      "##ight": 1072,
      "##cová": 1073,
      "##ley": 1074,
      "##др": 1075,
      "##ол": 1076,
      "##ber": 1077,
      "ops": 1078,
      "pv": 1079,
      "mak": 1080,
      "##ieszka": 1081,
      "##ations": 1082,
      "##ary": 1083,
      "##ия": 1084,
      "##ěl": 1085,
      "##tech": 1086,
      "mr": 1087,
      "renata": 1088,
      "##га": 1089,
      "associates": 1090,
      "##ong": 1091,
      "katarz": 1092,
      "##bi": 1093,
      "karel": 1094,
      "agnieszka": 1095,
      "##work": 1096,
      "bor": 1097,
      "frant": 1098,
      "er": 1099,
      "tereza": 1100,
      "kal": 1101,
      "van": 1102,
      "fl": 1103,
      "##ков": 1104,
      "fa": 1105,
      "os": 1106,
      "##bo": 1107,
      "##ет": 1108,
      "##ир": 1109,
      "##ancy": 1110,
      "kor": 1111,
      "##for": 1112,
      "eli": 1113,
      "per": 1114,
      "paul": 1115,
      "##yka": 1116,
      "##itka": 1117,
      "##nov": 1118,
      "zuzana": 1119,
      "po": 1120,
      "product": 1121,
      "mał": 1122,
      "##eł": 1123,
      "capital": 1124,
      "dig": 1125,
      "##ět": 1126,
      "vác": 1127,
      "rec": 1128,
      "##10": 1129,
      "bal": 1130,
      "##iness": 1131,
      "##ewska": 1132,
      "##ij": 1133,
      "ur": 1134,
      "##esk": 1135,
      "ben": 1136,
      "václav": 1137,
      "ec": 1138,
      "magdalena": 1139,
      "##uth": 1140,
      "##níků": 1141,
      "##amp": 1142,
      "global": 1143,
      "##by": 1144,
      "zdeněk": 1145,
      "vladim": 1146,
      "inst": 1147,
      "společenství": 1148,
      "##gorz": 1149,
      "##ян": 1150,
      "sw": 1151,
      "lim": 1152,
      "##ass": 1153,
      "##ča": 1154,
      "##енко": 1155,
      "just": 1156,
      "##amer": 1157,
      "fir": 1158,
      "new": 1159,
      "ng": 1160,
      "##ukasz": 1161,
      "mo": 1162,
      "dor": 1163,
      "##ул": 1164,
      "##osp": 1165,
      "kryst": 1166,
      "business": 1167,
      "##rzej": 1168,
      "na": 1169,
      "##tr": 1170,
      "dol": 1171,
      "syl": 1172,
      "##gorzata": 1173,
      "marcin": 1174,
      "her": 1175,
      "##oval": 1176,
      "##ade": 1177,
      "##ca": 1178,
      "lu": 1179,
      "marketing": 1180,
      "са": 1181,
      "jitka": 1182,
      "##nice": 1183,
      "construction": 1184,
      "sec": 1185,
      "ivana": 1186,
      "engineering": 1187,
      "vlastníků": 1188,
      "prz": 1189,
      "pri": 1190,
      "##ára": 1191,
      "ва": 1192,
      "ps": 1193,
      "##czak": 1194,
      "##ła": 1195,
      "ewa": 1196,
      "stra": 1197,
      "##ил": 1198,
      "##ative": 1199,
      "##era": 1200,
      "##кова": 1201,
      "##lá": 1202,
      "##se": 1203,
      "##ster": 1204,
      "care": 1205,
      "bur": 1206,
      "##ška": 1207,
      "joh": 1208,
      "mir": 1209,
      "##omír": 1210,
      "##lin": 1211,
      "vel": 1212,
      "mych": 1213,
      "ok": 1214,
      "##kowska": 1215,
      "##ikova": 1216,
      "##icka": 1217,
      "hr": 1218,
      "patry": 1219,
      "##eň": 1220,
      "tomasz": 1221,
      "kamil": 1222,
      "##row": 1223,
      "##mo": 1224,
      "center": 1225,
      "ondřej": 1226,
      "lib": 1227,
      "##isz": 1228,
      "stanislav": 1229,
      "kos": 1230,
      "##nost": 1231,
      "har": 1232,
      "llp": 1233,
      "##cl": 1234,
      "krzysz": 1235,
      "kla": 1236,
      "lp": 1237,
      "bog": 1238,
      "nov": 1239,
      "dob": 1240,
      "log": 1241,
      "sof": 1242,
      "katarzyna": 1243,
      "bi": 1244,
      "met": 1245,
      "kam": 1246,
      "raf": 1247,
      "holdings": 1248,
      "##ом": 1249,
      "te": 1250,
      "andrea": 1251,
      "ros": 1252,
      "technology": 1253,
      "##ms": 1254,
      "##íš": 1255,
      "##gor": 1256,
      "paweł": 1257,
      "star": 1258,
      "krzysztof": 1259,
      "##emi": 1260,
      "pe": 1261,
      "##mu": 1262,
      "##les": 1263,
      "##pa": 1264,
      "##yst": 1265,
      "technologies": 1266,
      "marké": 1267,
      "ang": 1268,
      "enterpr": 1269,
      "farm": 1270,
      "##port": 1271,
      "##xx": 1272,
      "aneta": 1273,
      "##ral": 1274,
      "av": 1275,
      "proj": 1276,
      "limyted": 1277,
      "##han": 1278,
      "št": 1279,
      "sil": 1280,
      "par": 1281,
      "bra": 1282,
      "pal": 1283,
      "lymited": 1284,
      "##let": 1285,
      "energ": 1286,
      "##11": 1287,
      "ladislav": 1288,
      "work": 1289,
      "##rt": 1290,
      "gabr": 1291,
      "ak": 1292,
      "properties": 1293,
      "joanna": 1294,
      "is": 1295,
      "sam": 1296,
      "##ам": 1297,
      "##anka": 1298,
      "##ung": 1299,
      "##isa": 1300,
      "max": 1301,
      "##anda": 1302,
      "andrzej": 1303,
      "rich": 1304,
      "##iation": 1305,
      "nikola": 1306,
      "olga": 1307,
      "##he": 1308,
      "wor": 1309,
      "build": 1310,
      "ště": 1311,
      "łukasz": 1312,
      "trust": 1313,
      "consultancy": 1314,
      "##ise": 1315,
      "##ke": 1316,
      "##ша": 1317,
      "##ute": 1318,
      "##erc": 1319,
      "helena": 1320,
      "##rat": 1321,
      "maria": 1322,
      "karolina": 1323,
      "##rik": 1324,
      "barbora": 1325,
      "pan": 1326,
      "studio": 1327,
      "mach": 1328,
      "##erv": 1329,
      "##ons": 1330,
      "##лина": 1331,
      "pvt": 1332,
      "ví": 1333,
      "##kiewicz": 1334,
      "markéta": 1335,
      "##ář": 1336,
      "##ower": 1337,
      "##cela": 1338,
      "michał": 1339,
      "##ional": 1340,
      "dag": 1341,
      "##rej": 1342,
      "reg": 1343,
      "##lic": 1344,
      "les": 1345,
      "##uta": 1346,
      "jir": 1347,
      "##pe": 1348,
      "##řich": 1349,
      "vas": 1350,
      "##tw": 1351,
      "františ": 1352,
      "fo": 1353,
      "indust": 1354,
      "organ": 1355,
      "##po": 1356,
      "##iec": 1357,
      "##čka": 1358,
      "##ińska": 1359,
      "marcela": 1360,
      "pavla": 1361,
      "##to": 1362,
      "##uf": 1363,
      "##itek": 1364,
      "##acz": 1365,
      "małgorzata": 1366,
      "ber": 1367,
      "##iy": 1368,
      "##law": 1369,
      "##zd": 1370,
      "vol": 1371,
      "##ožka": 1372,
      "dana": 1373,
      "off": 1374,
      "vě": 1375,
      "service": 1376,
      "law": 1377,
      "yv": 1378,
      "##ied": 1379,
      "koz": 1380,
      "mc": 1381,
      "##arová": 1382,
      "irena": 1383,
      "kop": 1384,
      "##ents": 1385,
      "##ус": 1386,
      "corpor": 1387,
      "##ис": 1388,
      "##tová": 1389,
      "##my": 1390,
      "consultants": 1391,
      "##čová": 1392,
      "##andr": 1393,
      "##br": 1394,
      "fre": 1395,
      "gabriela": 1396,
      "vladimír": 1397,
      "soci": 1398,
      "red": 1399,
      "##ee": 1400,
      "##ilová": 1401,
      "##ýna": 1402,
      "development": 1403,
      "ync": 1404,
      "##ham": 1405,
      "seb": 1406,
      "club": 1407,
      "##да": 1408,
      "##iss": 1409,
      "tur": 1410,
      "##ovský": 1411,
      "house": 1412,
      "##ата": 1413,
      "##iana": 1414,
      "west": 1415,
      "vý": 1416,
      "##ames": 1417,
      "františek": 1418,
      "euro": 1419,
      "kv": 1420,
      "##rig": 1421,
      "##iej": 1422,
      "##fe": 1423,
      "ins": 1424,
      "rud": 1425,
      "san": 1426,
      "##99": 1427,
      "xx": 1428,
      "##ovská": 1429,
      "adri": 1430,
      "##las": 1431,
      "jac": 1432,
      "##ver": 1433,
      "##ih": 1434,
      "grzeg": 1435,
      "dis": 1436,
      "mateusz": 1437,
      "kom": 1438,
      "##mann": 1439,
      "##igh": 1440,
      "wh": 1441,
      "barbara": 1442,
      "mus": 1443,
      "park": 1444,
      "dominik": 1445,
      "web": 1446,
      "##act": 1447,
      "##oda": 1448,
      "cle": 1449,
      "iw": 1450,
      "sur": 1451,
      "to": 1452,
      "beata": 1453,
      "##tract": 1454,
      "##ann": 1455,
      "kamila": 1456,
      "ku": 1457,
      "viktor": 1458,
      "##eni": 1459,
      "šk": 1460,
      "##mer": 1461,
      "##anová": 1462,
      "##wia": 1463,
      "##ья": 1464,
      "agenc": 1465,
      "##ewski": 1466,
      "##13": 1467,
      "sport": 1468,
      "##ety": 1469,
      "dist": 1470,
      "north": 1471,
      "ot": 1472,
      "ка": 1473,
      "sab": 1474,
      "##ater": 1475,
      "##ath": 1476,
      "сер": 1477,
      "##inc": 1478,
      "world": 1479,
      "secur": 1480,
      "pub": 1481,
      "contract": 1482,
      "##ence": 1483,
      "kot": 1484,
      "home": 1485,
      "##ory": 1486,
      "pp": 1487,
      "##ank": 1488,
      "grzegorz": 1489,
      "lo": 1490,
      "financ": 1491,
      "va": 1492,
      "network": 1493,
      "pop": 1494,
      "##go": 1495,
      "##200": 1496,
      "##lec": 1497,
      "##inka": 1498,
      "kur": 1499,
      "##vel": 1500,
      "maj": 1501,
      "del": 1502,
      "instit": 1503,
      "##ero": 1504,
      "ul": 1505,
      "##ба": 1506,
      "##ram": 1507,
      "##ел": 1508,
      "##ич": 1509,
      "natalia": 1510,
      "daw": 1511,
      "bas": 1512,
      "##lova": 1513,
      "##lat": 1514,
      "tomas": 1515,
      "##mit": 1516,
      "myl": 1517,
      "##atyon": 1518,
      "алексан": 1519,
      "##ald": 1520,
      "##oł": 1521,
      "##ед": 1522,
      "##kowski": 1523,
      "##кая": 1524,
      "##teg": 1525,
      "##árka": 1526,
      "jr": 1527,
      "organiz": 1528,
      "um": 1529,
      "##rol": 1530,
      "mel": 1531,
      "##uh": 1532,
      "##pra": 1533,
      "john": 1534,
      "##ani": 1535,
      "##ett": 1536,
      "##pán": 1537,
      "##št": 1538,
      "##chová": 1539,
      "##ps": 1540,
      "bel": 1541,
      "##ав": 1542,
      "me": 1543,
      "##emy": 1544,
      "##ína": 1545,
      "jur": 1546,
      "tel": 1547,
      "corporation": 1548,
      "##123": 1549,
      "##rová": 1550,
      "advis": 1551,
      "kn": 1552,
      "##ск": 1553,
      "land": 1554,
      "brand": 1555,
      "##20": 1556,
      "ар": 1557,
      "##iam": 1558,
      "##kad": 1559,
      "##šek": 1560,
      "##šová": 1561,
      "financial": 1562,
      "##ets": 1563,
      "king": 1564,
      "ната": 1565,
      "inf": 1566,
      "##anta": 1567,
      "##esa": 1568,
      "colle": 1569,
      "ek": 1570,
      "##itekt": 1571,
      "iveta": 1572,
      "luka": 1573,
      "green": 1574,
      "psych": 1575,
      "aleksandra": 1576,
      "česk": 1577,
      "##ycz": 1578,
      "##pro": 1579,
      "##ining": 1580,
      "##рий": 1581,
      "ped": 1582,
      "##ki": 1583,
      "##kola": 1584,
      "jol": 1585,
      "et": 1586,
      "digital": 1587,
      "fed": 1588,
      "##telnější": 1589,
      "association": 1590,
      "py": 1591,
      "kř": 1592,
      "zá": 1593,
      "##der": 1594,
      "south": 1595,
      "char": 1596,
      "ct": 1597,
      "cor": 1598,
      "##lov": 1599,
      "radka": 1600,
      "##šková": 1601,
      "ew": 1602,
      "communic": 1603,
      "patrik": 1604,
      "rt": 1605,
      "##akova": 1606,
      "##rav": 1607,
      "mad": 1608,
      "##be": 1609,
      "##ava": 1610,
      "##oložka": 1611,
      "##yslav": 1612,
      "##zek": 1613,
      "hub": 1614,
      "##ino": 1615,
      "##elina": 1616,
      "##ům": 1617,
      "no": 1618,
      "##ition": 1619,
      "dorota": 1620,
      "##mus": 1621,
      "##au": 1622,
      "##ivers": 1623,
      "medical": 1624,
      "га": 1625,
      "investments": 1626,
      "##ness": 1627,
      "ба": 1628,
      "##elová": 1629,
      "##лья": 1630,
      "##ures": 1631,
      "dagmar": 1632,
      "##uše": 1633,
      "##raft": 1634,
      "##onom": 1635,
      "##ňa": 1636,
      "##лия": 1637,
      "##рия": 1638,
      "ми": 1639,
      "kh": 1640,
      "##ush": 1641,
      "spec": 1642,
      "##itect": 1643,
      "energy": 1644,
      "jind": 1645,
      "mas": 1646,
      "##kovice": 1647,
      "##yta": 1648,
      "##iech": 1649,
      "##dan": 1650,
      "hav": 1651,
      "##arn": 1652,
      "hotel": 1653,
      "##sport": 1654,
      "##čí": 1655,
      "##rum": 1656,
      "hosp": 1657,
      "##que": 1658,
      "šárka": 1659,
      "##ander": 1660,
      "leg": 1661,
      "##bieta": 1662,
      "lé": 1663,
      "##erz": 1664,
      "we": 1665,
      "equ": 1666,
      "##uyen": 1667,
      "##lik": 1668,
      "##fan": 1669,
      "richard": 1670,
      "##ci": 1671,
      "##né": 1672,
      "štěpán": 1673,
      "por": 1674,
      "##inová": 1675,
      "##ем": 1676,
      "top": 1677,
      "ко": 1678,
      "aleš": 1679,
      "##inska": 1680,
      "##bur": 1681,
      "praha": 1682,
      "##de": 1683,
      "michael": 1684,
      "sob": 1685,
      "##zab": 1686,
      "##ada": 1687,
      "industri": 1688,
      "hen": 1689,
      "tat": 1690,
      "##rab": 1691,
      "##ezd": 1692,
      "##ield": 1693,
      "card": 1694,
      "der": 1695,
      "##bert": 1696,
      "dem": 1697,
      "##sek": 1698,
      "bud": 1699,
      "sebast": 1700,
      "kristýna": 1701,
      "agency": 1702,
      "##ium": 1703,
      "##gen": 1704,
      "fac": 1705,
      "sd": 1706,
      "věra": 1707,
      "##yńska": 1708,
      "##oo": 1709,
      "ja": 1710,
      "##ins": 1711,
      "vr": 1712,
      "mariusz": 1713,
      "##dp": 1714,
      "##áz": 1715,
      "##ios": 1716,
      "##nic": 1717,
      "dominika": 1718,
      "jer": 1719,
      "tre": 1720,
      "##těch": 1721,
      "##ile": 1722,
      "##кина": 1723,
      "phot": 1724,
      "##yne": 1725,
      "##ха": 1726,
      "##од": 1727,
      "libor": 1728,
      "bab": 1729,
      "rus": 1730,
      "rep": 1731,
      "acad": 1732,
      "##ban": 1733,
      "jaroslava": 1734,
      "all": 1735,
      "##yces": 1736,
      "##ilo": 1737,
      "gu": 1738,
      "##min": 1739,
      "##22": 1740,
      "##aceut": 1741,
      "vac": 1742,
      "##val": 1743,
      "cla": 1744,
      "kasia": 1745,
      "organizace": 1746,
      "cat": 1747,
      "mgr": 1748,
      "vil": 1749,
      "rafał": 1750,
      "##ling": 1751,
      "##анов": 1752,
      "iva": 1753,
      "##erova": 1754,
      "##notek": 1755,
      "trans": 1756,
      "om": 1757,
      "pavlí": 1758,
      "##arova": 1759,
      "szym": 1760,
      "india": 1761,
      "lond": 1762,
      "##pla": 1763,
      "##urt": 1764,
      "##ské": 1765,
      "simona": 1766,
      "lin": 1767,
      "##urance": 1768,
      "vent": 1769,
      "##res": 1770,
      "##istor": 1771,
      "##sko": 1772,
      "justyna": 1773,
      "rest": 1774,
      "##ło": 1775,
      "kuba": 1776,
      "##lej": 1777,
      "klára": 1778,
      "training": 1779,
      "tim": 1780,
      "angel": 1781,
      "##nut": 1782,
      "thi": 1783,
      "dp": 1784,
      "##лад": 1785,
      "architect": 1786,
      "centre": 1787,
      "##kař": 1788,
      "gar": 1789,
      "ther": 1790,
      "##iro": 1791,
      "jednotek": 1792,
      "bre": 1793,
      "##ана": 1794,
      "honza": 1795,
      "estate": 1796,
      "##ování": 1797,
      "martyn": 1798,
      "##ental": 1799,
      "##čice": 1800,
      "##ti": 1801,
      "##íra": 1802,
      "##áčková": 1803,
      "vp": 1804,
      "##tware": 1805,
      "##ская": 1806,
      "peter": 1807,
      "##sch": 1808,
      "servyces": 1809,
      "##ecka": 1810,
      "trading": 1811,
      "artur": 1812,
      "##кин": 1813,
      "##14": 1814,
      "dal": 1815,
      "bed": 1816,
      "magda": 1817,
      "vojtěch": 1818,
      "серг": 1819,
      "by": 1820,
      "##ous": 1821,
      "food": 1822,
      "##own": 1823,
      "coun": 1824,
      "jy": 1825,
      "london": 1826,
      "##23": 1827,
      "wojc": 1828,
      "iwona": 1829,
      "##ior": 1830,
      "paulina": 1831,
      "##žen": 1832,
      "##eral": 1833,
      "nguyen": 1834,
      "architekt": 1835,
      "matěj": 1836,
      "jiri": 1837,
      "academy": 1838,
      "##rov": 1839,
      "##nerová": 1840,
      "##ger": 1841,
      "##iek": 1842,
      "##iński": 1843,
      "amer": 1844,
      "##iya": 1845,
      "##ises": 1846,
      "##ford": 1847,
      "##ма": 1848,
      "##ňová": 1849,
      "##mian": 1850,
      "transport": 1851,
      "martyna": 1852,
      "##mc": 1853,
      "jon": 1854,
      "pavlína": 1855,
      "##vate": 1856,
      "##yons": 1857,
      "software": 1858,
      "ilona": 1859,
      "jacek": 1860,
      "special": 1861,
      "##lan": 1862,
      "александр": 1863,
      "св": 1864,
      "##15": 1865,
      "institute": 1866,
      "power": 1867,
      "##lu": 1868,
      "šim": 1869,
      "##lík": 1870,
      "ев": 1871,
      "ник": 1872,
      "##ris": 1873,
      "zh": 1874,
      "##udr": 1875,
      "pot": 1876,
      "##rib": 1877,
      "##gh": 1878,
      "przem": 1879,
      "za": 1880,
      "##ит": 1881,
      "##tain": 1882,
      "##лена": 1883,
      "horní": 1884,
      "emil": 1885,
      "saf": 1886,
      "daniela": 1887,
      "##orn": 1888,
      "##sková": 1889,
      "##ánková": 1890,
      "dawid": 1891,
      "tro": 1892,
      "community": 1893,
      "rod": 1894,
      "ves": 1895,
      "##íl": 1896,
      "##ynd": 1897,
      "##ator": 1898,
      "pty": 1899,
      "##alova": 1900,
      "auto": 1901,
      "##ont": 1902,
      "##áček": 1903,
      "ost": 1904,
      "vl": 1905,
      "ania": 1906,
      "##ím": 1907,
      "romana": 1908,
      "##isk": 1909,
      "##iol": 1910,
      "##form": 1911,
      "##cha": 1912,
      "##enice": 1913,
      "##osof": 1914,
      "nic": 1915,
      "lh": 1916,
      "##řová": 1917,
      "##etta": 1918,
      "maciej": 1919,
      "##anov": 1920,
      "на": 1921,
      "ра": 1922,
      "lit": 1923,
      "##count": 1924,
      "creative": 1925,
      "radim": 1926,
      "kater": 1927,
      "##ott": 1928,
      "mer": 1929,
      "klaud": 1930,
      "##ež": 1931,
      "old": 1932,
      "##enn": 1933,
      "##esh": 1934,
      "kul": 1935,
      "##ун": 1936,
      "влад": 1937,
      "kun": 1938,
      "##ze": 1939,
      "##čík": 1940,
      "##oth": 1941,
      "##áb": 1942,
      "##ек": 1943,
      "##omir": 1944,
      "##eme": 1945,
      "miloslav": 1946,
      "##řice": 1947,
      "##anova": 1948,
      "kac": 1949,
      "##ision": 1950,
      "##hd": 1951,
      "##за": 1952,
      "##yer": 1953,
      "sar": 1954,
      "##ád": 1955,
      "pří": 1956,
      "##wood": 1957,
      "##ид": 1958,
      "autom": 1959,
      "##ля": 1960,
      "blanka": 1961,
      "##ans": 1962,
      "sn": 1963,
      "kap": 1964,
      "found": 1965,
      "denisa": 1966,
      "wer": 1967,
      "šv": 1968,
      "##ká": 1969,
      "profess": 1970,
      "productions": 1971,
      "cont": 1972,
      "##77": 1973,
      "ана": 1974,
      "ampl": 1975,
      "electr": 1976,
      "##лав": 1977,
      "##eth": 1978,
      "dz": 1979,
      "##24": 1980,
      "agata": 1981,
      "enterprises": 1982,
      "loc": 1983,
      "##ove": 1984,
      "patryk": 1985,
      "sylwia": 1986,
      "lukas": 1987,
      "##rob": 1988,
      "##temat": 1989,
      "developments": 1990,
      "##ро": 1991,
      "dub": 1992,
      "##ira": 1993,
      "sebastian": 1994,
      "wil": 1995,
      "сергей": 1996,
      "srl": 1997,
      "gold": 1998,
      "adé": 1999,
      "city": 2000,
      "elż": 2001,
      "div": 2002,
      "univers": 2003,
      "##ico": 2004,
      "##то": 2005,
      "##ánek": 2006,
      "vend": 2007,
      "##care": 2008,
      "##ks": 2009,
      "far": 2010,
      "ham": 2011,
      "##por": 2012,
      "##yal": 2013,
      "##vp": 2014,
      "##hip": 2015,
      "##tec": 2016,
      "елена": 2017,
      "ms": 2018,
      "fab": 2019,
      "investment": 2020,
      "лю": 2021,
      "will": 2022,
      "##ген": 2023,
      "koc": 2024,
      "mě": 2025,
      "super": 2026,
      "##lerová": 2027,
      "##itt": 2028,
      "nejn": 2029,
      "ку": 2030,
      "##vo": 2031,
      "##len": 2032,
      "##21": 2033,
      "práv": 2034,
      "##umb": 2035,
      "marz": 2036,
      "road": 2037,
      "bob": 2038,
      "андр": 2039,
      "marian": 2040,
      "##ogra": 2041,
      "strateg": 2042,
      "kle": 2043,
      "eliška": 2044,
      "##met": 2045,
      "sem": 2046,
      "son": 2047,
      "myk": 2048,
      "private": 2049,
      "##kl": 2050,
      "building": 2051,
      "##ple": 2052,
      "black": 2053,
      "##ith": 2054,
      "damian": 2055,
      "вик": 2056,
      "vladi": 2057,
      "mod": 2058,
      "bř": 2059,
      "##skova": 2060,
      "travel": 2061,
      "##lana": 2062,
      "amplmus": 2063,
      "##dz": 2064,
      "##press": 2065,
      "##ists": 2066,
      "logist": 2067,
      "rost": 2068,
      "##dy": 2069,
      "krystyna": 2070,
      "##ława": 2071,
      "mid": 2072,
      "tř": 2073,
      "str": 2074,
      "tw": 2075,
      "dolní": 2076,
      "insurance": 2077,
      "vld": 2078,
      "##inski": 2079,
      "cal": 2080,
      "shop": 2081,
      "mba": 2082,
      "out": 2083,
      "morav": 2084,
      "account": 2085,
      "##ila": 2086,
      "##irl": 2087,
      "##ická": 2088,
      "##icki": 2089,
      "##анова": 2090,
      "sed": 2091,
      "##aur": 2092,
      "stor": 2093,
      "aud": 2094,
      "educ": 2095,
      "histor": 2096,
      "electrical": 2097,
      "us": 2098,
      "exc": 2099,
      "##ví": 2100,
      "acc": 2101,
      "тат": 2102,
      "clean": 2103,
      "vys": 2104,
      "csc": 2105,
      "##eng": 2106,
      "pap": 2107,
      "##ник": 2108,
      "svob": 2109,
      "zdeň": 2110,
      "pt": 2111,
      "##yo": 2112,
      "du": 2113,
      "##ida": 2114,
      "innov": 2115,
      "ole": 2116,
      "##oss": 2117,
      "miroslava": 2118,
      "hospital": 2119,
      "christ": 2120,
      "communications": 2121,
      "dsc": 2122,
      "kre": 2123,
      "##ities": 2124,
      "мар": 2125,
      "##berg": 2126,
      "##ух": 2127,
      "ludmila": 2128,
      "##osław": 2129,
      "##číková": 2130,
      "vdp": 2131,
      "##01": 2132,
      "##гор": 2133,
      "##py": 2134,
      "##33": 2135,
      "office": 2136,
      "eccl": 2137,
      "kost": 2138,
      "antonín": 2139,
      "drsc": 2140,
      "##ита": 2141,
      "##jr": 2142,
      "tal": 2143,
      "##áč": 2144,
      "##sová": 2145,
      "premi": 2146,
      "##erson": 2147,
      "slav": 2148,
      "##line": 2149,
      "ger": 2150,
      "##45": 2151,
      "patryc": 2152,
      "##ám": 2153,
      "##ский": 2154,
      "pavl": 2155,
      "vldp": 2156,
      "jolanta": 2157,
      "first": 2158,
      "szcz": 2159,
      "##uel": 2160,
      "zah": 2161,
      "east": 2162,
      "##kow": 2163,
      "##níková": 2164,
      "danuta": 2165,
      "professional": 2166,
      "##ьяна": 2167,
      "jarmila": 2168,
      "##ekt": 2169,
      "chemi": 2170,
      "##aming": 2171,
      "##ull": 2172,
      "nová": 2173,
      "finance": 2174,
      "expert": 2175,
      "pac": 2176,
      "security": 2177,
      "marcel": 2178,
      "евген": 2179,
      "за": 2180,
      "##ene": 2181,
      "julia": 2182,
      "oh": 2183,
      "##ův": 2184,
      "##ates": 2185,
      "zdeňka": 2186,
      "##60": 2187,
      "##eny": 2188,
      "kro": 2189,
      "kob": 2190,
      "europe": 2191,
      "teresa": 2192,
      "thom": 2193,
      "stre": 2194,
      "wies": 2195,
      "go": 2196,
      "hl": 2197,
      "ca": 2198,
      "##gl": 2199,
      "##unic": 2200,
      "igor": 2201,
      "##ias": 2202,
      "##czuk": 2203,
      "##ili": 2204,
      "##jan": 2205,
      "dep": 2206,
      "##ích": 2207,
      "##rod": 2208,
      "homes": 2209,
      "##uje": 2210,
      "project": 2211,
      "##idge": 2212,
      "##iště": 2213,
      "stav": 2214,
      "##ural": 2215,
      "duš": 2216,
      "оль": 2217,
      "dany": 2218,
      "wojciech": 2219,
      "adrian": 2220,
      "##enz": 2221,
      "##vě": 2222,
      "##ický": 2223,
      "dariusz": 2224,
      "##са": 2225,
      "ml": 2226,
      "don": 2227,
      "##ility": 2228,
      "pedag": 2229,
      "fyz": 2230,
      "mary": 2231,
      "now": 2232,
      "##alo": 2233,
      "anast": 2234,
      "lékař": 2235,
      "##nová": 2236,
      "##urs": 2237,
      "spolek": 2238,
      "fer": 2239,
      "##ovič": 2240,
      "ola": 2241,
      "##yle": 2242,
      "##ake": 2243,
      "##dová": 2244,
      "sław": 2245,
      "společnost": 2246,
      "##ста": 2247,
      "can": 2248,
      "##slav": 2249,
      "##urch": 2250,
      "kru": 2251,
      "##19": 2252,
      "team": 2253,
      "##osia": 2254,
      "##ešová": 2255,
      "sel": 2256,
      "advisors": 2257,
      "ха": 2258,
      "bern": 2259,
      "##už": 2260,
      "##ule": 2261,
      "čern": 2262,
      "##zabela": 2263,
      "az": 2264,
      "##ové": 2265,
      "##ysl": 2266,
      "##cova": 2267,
      "ekonom": 2268,
      "af": 2269,
      "татьяна": 2270,
      "adéla": 2271,
      "##ating": 2272,
      "ewelina": 2273,
      "##field": 2274,
      "##hor": 2275,
      "##iva": 2276,
      "jas": 2277,
      "mult": 2278,
      "sle": 2279,
      "##ysh": 2280,
      "##лана": 2281,
      "patrycja": 2282,
      "##med": 2283,
      "##iat": 2284,
      "##roz": 2285,
      "##bl": 2286,
      "matemat": 2287,
      "##ук": 2288,
      "##manová": 2289,
      "jirka": 2290,
      "##ale": 2291,
      "fit": 2292,
      "elżbieta": 2293,
      "gard": 2294,
      "аб": 2295,
      "sun": 2296,
      "##ewicz": 2297,
      "bak": 2298,
      "such": 2299,
      "vladimir": 2300,
      "##řed": 2301,
      "products": 2302,
      "filosof": 2303,
      "pharm": 2304,
      "geor": 2305,
      "##ght": 2306,
      "mychal": 2307,
      "clin": 2308,
      "##áž": 2309,
      "farmaceut": 2310,
      "##iga": 2311,
      "hyd": 2312,
      "zdenek": 2313,
      "##ole": 2314,
      "##nar": 2315,
      "##25": 2316,
      "##osh": 2317,
      "milena": 2318,
      "jad": 2319,
      "##ces": 2320,
      "tar": 2321,
      "##aff": 2322,
      "resour": 2323,
      "##gon": 2324,
      "smart": 2325,
      "##hl": 2326,
      "hu": 2327,
      "ольга": 2328,
      "##ěji": 2329,
      "air": 2330,
      "ал": 2331,
      "dy": 2332,
      "наталья": 2333,
      "wiktor": 2334,
      "##iw": 2335,
      "##17": 2336,
      "##iev": 2337,
      "smi": 2338,
      "luboš": 2339,
      "national": 2340,
      "##uty": 2341,
      "ga": 2342,
      "##ograph": 2343,
      "janusz": 2344,
      "##shop": 2345,
      "##ual": 2346,
      "##ony": 2347,
      "##ima": 2348,
      "##ward": 2349,
      "well": 2350,
      "vít": 2351,
      "mí": 2352,
      "##ruit": 2353,
      "cr": 2354,
      "##дин": 2355,
      "##imil": 2356,
      "##niak": 2357,
      "vo": 2358,
      "##ester": 2359,
      "foundation": 2360,
      "##lery": 2361,
      "katerina": 2362,
      "##itch": 2363,
      "cos": 2364,
      "##ali": 2365,
      "андрей": 2366,
      "works": 2367,
      "##vr": 2368,
      "miros": 2369,
      "##ari": 2370,
      "ryb": 2371,
      "trade": 2372,
      "##ryk": 2373,
      "up": 2374,
      "##yński": 2375,
      "##mat": 2376,
      "amb": 2377,
      "alic": 2378,
      "plan": 2379,
      "##ель": 2380,
      "maz": 2381,
      "karolína": 2382,
      "šp": 2383,
      "##ysław": 2384,
      "ст": 2385,
      "restaur": 2386,
      "step": 2387,
      "squ": 2388,
      "##house": 2389,
      "##ара": 2390,
      "fur": 2391,
      "ирина": 2392,
      "dud": 2393,
      "##18": 2394,
      "##lex": 2395,
      "master": 2396,
      "##ker": 2397,
      "ry": 2398,
      "yt": 2399,
      "##ux": 2400,
      "##hn": 2401,
      "##ily": 2402,
      "##ес": 2403,
      "wood": 2404,
      "ven": 2405,
      "dre": 2406,
      "свет": 2407,
      "##лий": 2408,
      "elena": 2409,
      "##liance": 2410,
      "gor": 2411,
      "port": 2412,
      "cra": 2413,
      "арт": 2414,
      "##lak": 2415,
      "pep": 2416,
      "solutyons": 2417,
      "stanis": 2418,
      "high": 2419,
      "jaromír": 2420,
      "plus": 2421,
      "##fa": 2422,
      "pok": 2423,
      "marzena": 2424,
      "##ате": 2425,
      "spa": 2426,
      "##мит": 2427,
      "kad": 2428,
      "bv": 2429,
      "##zová": 2430,
      "##ibor": 2431,
      "lou": 2432,
      "lid": 2433,
      "win": 2434,
      "fire": 2435,
      "##ane": 2436,
      "##earch": 2437,
      "##iola": 2438,
      "##zz": 2439,
      "vin": 2440,
      "##bek": 2441,
      "sva": 2442,
      "##ém": 2443,
      "##66": 2444,
      "##tern": 2445,
      "camp": 2446,
      "rap": 2447,
      "vic": 2448,
      "svat": 2449,
      "tomek": 2450,
      "ny": 2451,
      "nikol": 2452,
      "anal": 2453,
      "bry": 2454,
      "##ва": 2455,
      "aust": 2456,
      "##ome": 2457,
      "##áj": 2458,
      "##red": 2459,
      "##03": 2460,
      "vasyl": 2461,
      "ned": 2462,
      "##lam": 2463,
      "james": 2464,
      "di": 2465,
      "vlastimil": 2466,
      "bol": 2467,
      "miloš": 2468,
      "es": 2469,
      "##88": 2470,
      "##gamer": 2471,
      "tade": 2472,
      "##55": 2473,
      "##its": 2474,
      "##ičková": 2475,
      "##way": 2476,
      "##ovy": 2477,
      "ke": 2478,
      "бо": 2479,
      "lip": 2480,
      "##áta": 2481,
      "##tle": 2482,
      "##ynska": 2483,
      "cas": 2484,
      "макс": 2485,
      "one": 2486,
      "##inova": 2487,
      "myroslav": 2488,
      "##mily": 2489,
      "по": 2490,
      "##eed": 2491,
      "##mr": 2492,
      "vit": 2493,
      "ivo": 2494,
      "##dek": 2495,
      "klaudia": 2496,
      "denis": 2497,
      "##arek": 2498,
      "##16": 2499,
      "alicja": 2500,
      "##сия": 2501,
      "##out": 2502,
      "zdenka": 2503,
      "hum": 2504,
      "lev": 2505,
      "anastas": 2506,
      "distrib": 2507,
      "rudolf": 2508,
      "joz": 2509,
      "domu": 2510,
      "research": 2511,
      "##eld": 2512,
      "##ána": 2513,
      "mis": 2514,
      "bea": 2515,
      "##mon": 2516,
      "##лин": 2517,
      "kraj": 2518,
      "##yně": 2519,
      "graż": 2520,
      "##ille": 2521,
      "оле": 2522,
      "blue": 2523,
      "comput": 2524,
      "šte": 2525,
      "sandra": 2526,
      "vladislav": 2527,
      "central": 2528,
      "##27": 2529,
      "izabela": 2530,
      "дмит": 2531,
      "ventures": 2532,
      "##amb": 2533,
      "oleks": 2534,
      "past": 2535,
      "алексей": 2536,
      "coach": 2537,
      "##атерина": 2538,
      "bartek": 2539,
      "umě": 2540,
      "rych": 2541,
      "##si": 2542,
      "photograph": 2543,
      "##fer": 2544,
      "jindřich": 2545,
      "##aly": 2546,
      "bartosz": 2547,
      "##líková": 2548,
      "##lab": 2549,
      "express": 2550,
      "##iková": 2551,
      "##ama": 2552,
      "##ique": 2553,
      "ша": 2554,
      "brig": 2555,
      "doc": 2556,
      "su": 2557,
      "##ishop": 2558,
      "life": 2559,
      "##uba": 2560,
      "##aneta": 2561,
      "##ут": 2562,
      "pad": 2563,
      "ast": 2564,
      "college": 2565,
      "mob": 2566,
      "##ečková": 2567,
      "##com": 2568,
      "hab": 2569,
      "##04": 2570,
      "##ký": 2571,
      "jyří": 2572,
      "tri": 2573,
      "asia": 2574,
      "davyd": 2575,
      "kir": 2576,
      "zv": 2577,
      "rd": 2578,
      "wy": 2579,
      "monyka": 2580,
      "##ars": 2581,
      "church": 2582,
      "bez": 2583,
      "mari": 2584,
      "id": 2585,
      "##els": 2586,
      "##ťa": 2587,
      "sales": 2588,
      "jen": 2589,
      "##ercial": 2590,
      "boż": 2591,
      "##ister": 2592,
      "bron": 2593,
      "szymon": 2594,
      "светлана": 2595,
      "sabina": 2596,
      "has": 2597,
      "sav": 2598,
      "court": 2599,
      "sports": 2600,
      "##ury": 2601,
      "gru": 2602,
      "holding": 2603,
      "edyta": 2604,
      "ii": 2605,
      "##mel": 2606,
      "tu": 2607,
      "flor": 2608,
      "partnership": 2609,
      "ив": 2610,
      "hrad": 2611,
      "pas": 2612,
      "klim": 2613,
      "200": 2614,
      "bod": 2615,
      "##05": 2616,
      "##ilova": 2617,
      "drah": 2618,
      "jedn": 2619,
      "bank": 2620,
      "consultyng": 2621,
      "pel": 2622,
      "halina": 2623,
      "##ovi": 2624,
      "##уш": 2625,
      "##ere": 2626,
      "##acy": 2627,
      "sek": 2628,
      "##emo": 2629,
      "mycha": 2630,
      "vital": 2631,
      "urban": 2632,
      "gas": 2633,
      "arm": 2634,
      "best": 2635,
      "healthcare": 2636,
      "zbign": 2637,
      "je": 2638,
      "##led": 2639,
      "##iller": 2640,
      "ep": 2641,
      "klub": 2642,
      "##con": 2643,
      "silv": 2644,
      "##če": 2645,
      "##ega": 2646,
      "##ecký": 2647,
      "raj": 2648,
      "##44": 2649,
      "##98": 2650,
      "анаста": 2651,
      "##iver": 2652,
      "##ns": 2653,
      "lang": 2654,
      "##ový": 2655,
      "##we": 2656,
      "big": 2657,
      "yo": 2658,
      "conn": 2659,
      "##ón": 2660,
      "##ůž": 2661,
      "##eno": 2662,
      "zbyn": 2663,
      "social": 2664,
      "hill": 2665,
      "data": 2666,
      "##uer": 2667,
      "gol": 2668,
      "##kin": 2669,
      "alexandr": 2670,
      "stefan": 2671,
      "##ican": 2672,
      "##je": 2673,
      "ром": 2674,
      "poh": 2675,
      "recruit": 2676,
      "resid": 2677,
      "env": 2678,
      "war": 2679,
      "św": 2680,
      "##ány": 2681,
      "zem": 2682,
      "##iny": 2683,
      "##lou": 2684,
      "ltda": 2685,
      "ondra": 2686,
      "valent": 2687,
      "tour": 2688,
      "##lew": 2689,
      "анастасия": 2690,
      "##ecki": 2691,
      "psycholog": 2692,
      "##hr": 2693,
      "restaurant": 2694,
      "##ás": 2695,
      "##lish": 2696,
      "bohu": 2697,
      "##árna": 2698,
      "aqu": 2699,
      "дмитрий": 2700,
      "##jezd": 2701,
      "##хм": 2702,
      "##ves": 2703,
      "lhota": 2704,
      "dd": 2705,
      "##ai": 2706,
      "ban": 2707,
      "sas": 2708,
      "tax": 2709,
      "hej": 2710,
      "estates": 2711,
      "юлия": 2712,
      "##iuk": 2713,
      "vlasta": 2714,
      "ant": 2715,
      "mort": 2716,
      "hyp": 2717,
      "##78": 2718,
      "##šín": 2719,
      "jiřina": 2720,
      "##oper": 2721,
      "events": 2722,
      "##имир": 2723,
      "dušan": 2724,
      "##uda": 2725,
      "##hal": 2726,
      "zm": 2727,
      "alexandra": 2728,
      "sad": 2729,
      "lubomír": 2730,
      "##ply": 2731,
      "sis": 2732,
      "zbigniew": 2733,
      "haj": 2734,
      "##ovec": 2735,
      "logistics": 2736,
      "##ují": 2737,
      "bat": 2738,
      "oli": 2739,
      "nev": 2740,
      "kw": 2741,
      "##off": 2742,
      "kow": 2743,
      "##řík": 2744,
      "##air": 2745,
      "##omi": 2746,
      "mol": 2747,
      "##ven": 2748,
      "music": 2749,
      "daria": 2750,
      "fal": 2751,
      "maks": 2752,
      "prov": 2753,
      "##van": 2754,
      "ts": 2755,
      "jack": 2756,
      "hlav": 2757,
      "zel": 2758,
      "анна": 2759,
      "nav": 2760,
      "##hy": 2761,
      "print": 2762,
      "dark": 2763,
      "realty": 2764,
      "##arda": 2765,
      "##ны": 2766,
      "md": 2767,
      "serge": 2768,
      "water": 2769,
      "##uška": 2770,
      "enterprise": 2771,
      "##yce": 2772,
      "len": 2773,
      "sym": 2774,
      "vaclav": 2775,
      "rostislav": 2776,
      "##erie": 2777,
      "act": 2778,
      "##28": 2779,
      "##69": 2780,
      "ек": 2781,
      "caf": 2782,
      "gallery": 2783,
      "society": 2784,
      "##ius": 2785,
      "svaz": 2786,
      "dire": 2787,
      "industries": 2788,
      "##loud": 2789,
      "maty": 2790,
      "##ain": 2791,
      "##onyka": 2792,
      "##olt": 2793,
      "##aster": 2794,
      "jm": 2795,
      "##еж": 2796,
      "##yw": 2797,
      "##лан": 2798,
      "ingarch": 2799,
      "##uck": 2800,
      "architects": 2801,
      "metro": 2802,
      "syn": 2803,
      "cab": 2804,
      "##ella": 2805,
      "##plk": 2806,
      "##ecká": 2807,
      "##prap": 2808,
      "thomas": 2809,
      "##har": 2810,
      "##yak": 2811,
      "poz": 2812,
      "##ďa": 2813,
      "##ouch": 2814,
      "hod": 2815,
      "##от": 2816,
      "alina": 2817,
      "jag": 2818,
      "lux": 2819,
      "##ór": 2820,
      "##elka": 2821,
      "##ýn": 2822,
      "марина": 2823,
      "mirek": 2824,
      "##szula": 2825,
      "##omb": 2826,
      "light": 2827,
      "##wide": 2828,
      "bożena": 2829,
      "##ston": 2830,
      "##itz": 2831,
      "##enance": 2832,
      "sdruž": 2833,
      "alliance": 2834,
      "вас": 2835,
      "##ini": 2836,
      "labs": 2837,
      "jozef": 2838,
      "hanna": 2839,
      "##ос": 2840,
      "zn": 2841,
      "rysz": 2842,
      "##07": 2843,
      "nem": 2844,
      "sdružení": 2845,
      "ла": 2846,
      "cry": 2847,
      "##chod": 2848,
      "##wor": 2849,
      "street": 2850,
      "kel": 2851,
      "commercial": 2852,
      "##29": 2853,
      "##lé": 2854,
      "kristina": 2855,
      "rh": 2856,
      "soňa": 2857,
      "##inger": 2858,
      "##ipp": 2859,
      "vendula": 2860,
      "##esz": 2861,
      "byt": 2862,
      "boz": 2863,
      "store": 2864,
      "##eter": 2865,
      "##ouš": 2866,
      "kacper": 2867,
      "dv": 2868,
      "public": 2869,
      "urszula": 2870,
      "arkad": 2871,
      "##owsky": 2872,
      "##ras": 2873,
      "jerzy": 2874,
      "kinga": 2875,
      "mur": 2876,
      "vyk": 2877,
      "##jí": 2878,
      "inform": 2879,
      "university": 2880,
      "##usová": 2881,
      "pil": 2882,
      "rem": 2883,
      "##rtm": 2884,
      "ram": 2885,
      "grażyna": 2886,
      "##ánová": 2887,
      "biolog": 2888,
      "##gar": 2889,
      "lucye": 2890,
      "grand": 2891,
      "##enější": 2892,
      "екатерина": 2893,
      "##oń": 2894,
      "education": 2895,
      "si": 2896,
      "##gn": 2897,
      "##apy": 2898,
      "broth": 2899,
      "##ider": 2900,
      "##room": 2901,
      "compani": 2902,
      "luděk": 2903,
      "jadw": 2904,
      "##oy": 2905,
      "ju": 2906,
      "cer": 2907,
      "bul": 2908,
      "##26": 2909,
      "ret": 2910,
      "fat": 2911,
      "##iecz": 2912,
      "дан": 2913,
      "##yla": 2914,
      "##ichová": 2915,
      "eco": 2916,
      "hydro": 2917,
      "tor": 2918,
      "zap": 2919,
      "##cki": 2920,
      "weronika": 2921,
      "pos": 2922,
      "county": 2923,
      "##isek": 2924,
      "renáta": 2925,
      "##cs": 2926,
      "phys": 2927,
      "cam": 2928,
      "##rict": 2929,
      "##ney": 2930,
      "geolog": 2931,
      "##ола": 2932,
      "##chuk": 2933,
      "##ipal": 2934,
      "##říková": 2935,
      "zaj": 2936,
      "ela": 2937,
      "##лов": 2938,
      "##bro": 2939,
      "##bs": 2940,
      "family": 2941,
      "##dem": 2942,
      "##gy": 2943,
      "rock": 2944,
      "opt": 2945,
      "ondrej": 2946,
      "##ytal": 2947,
      "##řyna": 2948,
      "vod": 2949,
      "##ovska": 2950,
      "##уб": 2951,
      "ох": 2952,
      "dec": 2953,
      "##rych": 2954,
      "brz": 2955,
      "dm": 2956,
      "ле": 2957,
      "wiol": 2958,
      "wojtek": 2959,
      "ut": 2960,
      "рус": 2961,
      "bogdan": 2962,
      "pedagog": 2963,
      "ли": 2964,
      "prap": 2965,
      "##łod": 2966,
      "tob": 2967,
      "владимир": 2968,
      "jc": 2969,
      "##inh": 2970,
      "##raz": 2971,
      "legal": 2972,
      "##ame": 2973,
      "##arczyk": 2974,
      "rub": 2975,
      "abd": 2976,
      "##ever": 2977,
      "alexander": 2978,
      "yr": 2979,
      "##ovna": 2980,
      "brno": 2981,
      "##acon": 2982,
      "над": 2983,
      "rs": 2984,
      "##uard": 2985,
      "али": 2986,
      "##ution": 2987,
      "##stone": 2988,
      "ná": 2989,
      "##уд": 2990,
      "##iia": 2991,
      "gla": 2992,
      "##una": 2993,
      "##97": 2994,
      "##iska": 2995,
      "wit": 2996,
      "##cn": 2997,
      "tan": 2998,
      "zak": 2999,
      "##uss": 3000,
      "##zh": 3001,
      "dmit": 3002,
      "bran": 3003,
      "##kop": 3004,
      "photography": 3005,
      "dia": 3006,
      "class": 3007,
      "ash": 3008,
      "point": 3009,
      "direct": 3010,
      "natál": 3011,
      "specialists": 3012,
      "##adow": 3013,
      "##eček": 3014,
      "union": 3015,
      "##álková": 3016,
      "maci": 3017,
      "bil": 3018,
      "##otka": 3019,
      "##wn": 3020,
      "tec": 3021,
      "##óz": 3022,
      "fyzik": 3023,
      "sy": 3024,
      "##isch": 3025,
      "##mark": 3026,
      "clinic": 3027,
      "electric": 3028,
      "##over": 3029,
      "##intenance": 3030,
      "series": 3031,
      "ann": 3032,
      "industrial": 3033,
      "vav": 3034,
      "svet": 3035,
      "##лен": 3036,
      "fel": 3037,
      "##ington": 3038,
      "##šť": 3039,
      "sta": 3040,
      "katka": 3041,
      "mykha": 3042,
      "abb": 3043,
      "arena": 3044,
      "district": 3045,
      "##ects": 3046,
      "##ape": 3047,
      "hud": 3048,
      "##inal": 3049,
      "bogus": 3050,
      "wind": 3051,
      "sociolog": 3052,
      "##oto": 3053,
      "právník": 3054,
      "rog": 3055,
      "spr": 3056,
      "blu": 3057,
      "##rava": 3058,
      "historik": 3059,
      "##ulka": 3060,
      "cyb": 3061,
      "##ats": 3062,
      "vis": 3063,
      "kuch": 3064,
      "zof": 3065,
      "##íček": 3066,
      "##tre": 3067,
      "миха": 3068,
      "##08": 3069,
      "umělec": 3070,
      "##има": 3071,
      "##ура": 3072,
      "fry": 3073,
      "firm": 3074,
      "matematik": 3075,
      "place": 3076,
      "tv": 3077,
      "cleaning": 3078,
      "##ává": 3079,
      "##ло": 3080,
      "##dl": 3081,
      "contractors": 3082,
      "chemik": 3083,
      "##ráž": 3084,
      "##zn": 3085,
      "##рин": 3086,
      "##etail": 3087,
      "##vá": 3088,
      "mila": 3089,
      "##arma": 3090,
      "##ít": 3091,
      "krej": 3092,
      "##ycka": 3093,
      "##uska": 3094,
      "rek": 3095,
      "##aty": 3096,
      "ryszard": 3097,
      "вале": 3098,
      "salon": 3099,
      "##ei": 3100,
      "dům": 3101,
      "##mp": 3102,
      "##02": 3103,
      "дж": 3104,
      "pawel": 3105,
      "мария": 3106,
      "bon": 3107,
      "##šk": 3108,
      "engineers": 3109,
      "škola": 3110,
      "##arska": 3111,
      "ky": 3112,
      "##íčková": 3113,
      "buk": 3114,
      "ah": 3115,
      "asset": 3116,
      "zbyněk": 3117,
      "sand": 3118,
      "hanka": 3119,
      "ate": 3120,
      "##34": 3121,
      "plumb": 3122,
      "gry": 3123,
      "victor": 3124,
      "##iti": 3125,
      "##ble": 3126,
      "liv": 3127,
      "dj": 3128,
      "kud": 3129,
      "phil": 3130,
      "host": 3131,
      "wa": 3132,
      "lar": 3133,
      "čer": 3134,
      "hand": 3135,
      "##able": 3136,
      "##иев": 3137,
      "white": 3138,
      "maintenance": 3139,
      "tam": 3140,
      "##hib": 3141,
      "jarosław": 3142,
      "##65": 3143,
      "zab": 3144,
      "ax": 3145,
      "##nička": 3146,
      "##fl": 3147,
      "sara": 3148,
      "##do": 3149,
      "diana": 3150,
      "prote": 3151,
      "евгений": 3152,
      "##din": 3153,
      "##boy": 3154,
      "##ovic": 3155,
      "##сен": 3156,
      "rol": 3157,
      "##ynski": 3158,
      "##sl": 3159,
      "nez": 3160,
      "##ely": 3161,
      "wolf": 3162,
      "bub": 3163,
      "##pp": 3164,
      "##ygn": 3165,
      "иван": 3166,
      "##kn": 3167,
      "oldřich": 3168,
      "##zl": 3169,
      "vyt": 3170,
      "##elia": 3171,
      "##oun": 3172,
      "##kat": 3173,
      "##ów": 3174,
      "dun": 3175,
      "tex": 3176,
      "##well": 3177,
      "vir": 3178,
      "austral": 3179,
      "mirka": 3180,
      "app": 3181,
      "##czyńska": 3182,
      "zp": 3183,
      "##cy": 3184,
      "ton": 3185,
      "las": 3186,
      "cool": 3187,
      "dri": 3188,
      "##67": 3189,
      "sok": 3190,
      "entertain": 3191,
      "gast": 3192,
      "yur": 3193,
      "##ulová": 3194,
      "danyel": 3195,
      "кри": 3196,
      "##ase": 3197,
      "##čák": 3198,
      "jarek": 3199,
      "##tej": 3200,
      "fla": 3201,
      "hair": 3202,
      "royal": 3203,
      "##09": 3204,
      "bad": 3205,
      "české": 3206,
      "resources": 3207,
      "##ising": 3208,
      "třeb": 3209,
      "dental": 3210,
      "sub": 3211,
      "fyl": 3212,
      "##czik": 3213,
      "ки": 3214,
      "##ls": 3215,
      "##uju": 3216,
      "##ato": 3217,
      "led": 3218,
      "mudr": 3219,
      "##bel": 3220,
      "zk": 3221,
      "vyd": 3222,
      "gaj": 3223,
      "##ран": 3224,
      "storage": 3225,
      "zák": 3226,
      "var": 3227,
      "show": 3228,
      "veronyka": 3229,
      "##64": 3230,
      "but": 3231,
      "elz": 3232,
      "##bal": 3233,
      "kowal": 3234,
      "##itor": 3235,
      "munic": 3236,
      "##ology": 3237,
      "konrad": 3238,
      "recruitment": 3239,
      "##ime": 3240,
      "zal": 3241,
      "та": 3242,
      "nep": 3243,
      "gri": 3244,
      "bc": 3245,
      "support": 3246,
      "cooper": 3247,
      "##ała": 3248,
      "worldwide": 3249,
      "fair": 3250,
      "was": 3251,
      "marketa": 3252,
      "##děl": 3253,
      "elekt": 3254,
      "collect": 3255,
      "##pto": 3256,
      "heating": 3257,
      "jel": 3258,
      "ware": 3259,
      "lew": 3260,
      "абд": 3261,
      "flo": 3262,
      "dro": 3263,
      "##star": 3264,
      "##šov": 3265,
      "mech": 3266,
      "максим": 3267,
      "centrum": 3268,
      "##35": 3269,
      "kut": 3270,
      "##ец": 3271,
      "##ize": 3272,
      "##ченко": 3273,
      "lí": 3274,
      "##eration": 3275,
      "kri": 3276,
      "##ureau": 3277,
      "motor": 3278,
      "good": 3279,
      "jun": 3280,
      "##zimi": 3281,
      "##hová": 3282,
      "fe": 3283,
      "##ěž": 3284,
      "bohus": 3285,
      "mv": 3286,
      "ard": 3287,
      "zav": 3288,
      "elite": 3289,
      "consultor": 3290,
      "lan": 3291,
      "##lý": 3292,
      "##ený": 3293,
      "cv": 3294,
      "kuk": 3295,
      "emp": 3296,
      "##ůr": 3297,
      "měst": 3298,
      "bay": 3299,
      "alb": 3300,
      "online": 3301,
      "##mid": 3302,
      "aw": 3303,
      "вер": 3304,
      "pur": 3305,
      "fitness": 3306,
      "vera": 3307,
      "fast": 3308,
      "##nyk": 3309,
      "pract": 3310,
      "##hod": 3311,
      "mu": 3312,
      "american": 3313,
      "akad": 3314,
      "leon": 3315,
      "##cre": 3316,
      "##ovsky": 3317,
      "##ax": 3318,
      "kaz": 3319,
      "##ito": 3320,
      "hous": 3321,
      "##об": 3322,
      "krystian": 3323,
      "##ujme": 3324,
      "ow": 3325,
      "##ок": 3326,
      "ай": 3327,
      "##еп": 3328,
      "jem": 3329,
      "mic": 3330,
      "svobod": 3331,
      "kan": 3332,
      "##iron": 3333,
      "municipal": 3334,
      "##net": 3335,
      "sen": 3336,
      "ден": 3337,
      "##ęd": 3338,
      "##árová": 3339,
      "##rac": 3340,
      "##бек": 3341,
      "learn": 3342,
      "entertainment": 3343,
      "##iet": 3344,
      "##ross": 3345,
      "rc": 3346,
      "##ště": 3347,
      "chl": 3348,
      "##itelnější": 3349,
      "irina": 3350,
      "##ejme": 3351,
      "##men": 3352,
      "band": 3353,
      "да": 3354,
      "##уль": 3355,
      "##37": 3356,
      "leszek": 3357,
      "volod": 3358,
      "ox": 3359,
      "info": 3360,
      "##ience": 3361,
      "wat": 3362,
      "wol": 3363,
      "mylan": 3364,
      "angelika": 3365,
      "##06": 3366,
      "##orová": 3367,
      "zo": 3368,
      "slez": 3369,
      "przemek": 3370,
      "##álek": 3371,
      "##ěta": 3372,
      "linda": 3373,
      "český": 3374,
      "count": 3375,
      "##cik": 3376,
      "rené": 3377,
      "##iž": 3378,
      "cafe": 3379,
      "lat": 3380,
      "##zer": 3381,
      "##vin": 3382,
      "##myla": 3383,
      "studios": 3384,
      "mariola": 3385,
      "##ential": 3386,
      "manuf": 3387,
      "jab": 3388,
      "růž": 3389,
      "control": 3390,
      "##ited": 3391,
      "koš": 3392,
      "##fr": 3393,
      "tem": 3394,
      "jadwiga": 3395,
      "jura": 3396,
      "andri": 3397,
      "marina": 3398,
      "##mal": 3399,
      "simon": 3400,
      "##ano": 3401,
      "##pvp": 3402,
      "##cht": 3403,
      "dam": 3404,
      "gran": 3405,
      "pom": 3406,
      "##czek": 3407,
      "catering": 3408,
      "##leb": 3409,
      "construct": 3410,
      "mortg": 3411,
      "##lice": 3412,
      "soch": 3413,
      "##ng": 3414,
      "никола": 3415,
      "ov": 3416,
      "yul": 3417,
      "electron": 3418,
      "bohuslav": 3419,
      "beauty": 3420,
      "souk": 3421,
      "exhib": 3422,
      "vg": 3423,
      "darek": 3424,
      "##sen": 3425,
      "##acka": 3426,
      "ateli": 3427,
      "most": 3428,
      "matej": 3429,
      "##ýr": 3430,
      "projects": 3431,
      "automot": 3432,
      "vide": 3433,
      "equip": 3434,
      "bio": 3435,
      "kup": 3436,
      "arkadiusz": 3437,
      "right": 3438,
      "tadeusz": 3439,
      "##95": 3440,
      "##мила": 3441,
      "professionals": 3442,
      "lor": 3443,
      "imm": 3444,
      "instal": 3445,
      "##ange": 3446,
      "jam": 3447,
      "vor": 3448,
      "##den": 3449,
      "##уз": 3450,
      "kateřyna": 3451,
      "кон": 3452,
      "alice": 3453,
      "újezd": 3454,
      "##ičová": 3455,
      "##тон": 3456,
      "dop": 3457,
      "##yf": 3458,
      "manufact": 3459,
      "fut": 3460,
      "wiktoria": 3461,
      "coaching": 3462,
      "rtm": 3463,
      "##nict": 3464,
      "па": 3465,
      "##ěš": 3466,
      "bet": 3467,
      "aj": 3468,
      "graz": 3469,
      "##oř": 3470,
      "metal": 3471,
      "##avou": 3472,
      "chr": 3473,
      "##ujete": 3474,
      "##аров": 3475,
      "oc": 3476,
      "lada": 3477,
      "##ste": 3478,
      "##ieg": 3479,
      "míst": 3480,
      "piet": 3481,
      "##лова": 3482,
      "bir": 3483,
      "##nit": 3484,
      "##ylo": 3485,
      "fun": 3486,
      "oz": 3487,
      "nova": 3488,
      "##ators": 3489,
      "##rich": 3490,
      "##iad": 3491,
      "##iamond": 3492,
      "local": 3493,
      "kab": 3494,
      "mychaela": 3495,
      "##nou": 3496,
      "ru": 3497,
      "##gi": 3498,
      "laz": 3499,
      "##áno": 3500,
      "běl": 3501,
      "##tex": 3502,
      "nejz": 3503,
      "stru": 3504,
      "oak": 3505,
      "dur": 3506,
      "##ose": 3507,
      "natálie": 3508,
      "##ytka": 3509,
      "окс": 3510,
      "not": 3511,
      "franc": 3512,
      "##chenko": 3513,
      "##oft": 3514,
      "robin": 3515,
      "##ymyr": 3516,
      "##íč": 3517,
      "publish": 3518,
      "lead": 3519,
      "smol": 3520,
      "##ум": 3521,
      "##их": 3522,
      "von": 3523,
      "lyn": 3524,
      "fra": 3525,
      "##nictví": 3526,
      "lyb": 3527,
      "##hu": 3528,
      "##isko": 3529,
      "##yv": 3530,
      "zach": 3531,
      "##zslav": 3532,
      "oks": 3533,
      "##hen": 3534,
      "post": 3535,
      "##gs": 3536,
      "qual": 3537,
      "valley": 3538,
      "##ude": 3539,
      "cred": 3540,
      "##nad": 3541,
      "##omer": 3542,
      "zam": 3543,
      "##hel": 3544,
      "mikul": 3545,
      "##itel": 3546,
      "šimon": 3547,
      "sum": 3548,
      "##anek": 3549,
      "##38": 3550,
      "##nikova": 3551,
      "##юк": 3552,
      "ká": 3553,
      "cod": 3554,
      "##ladní": 3555,
      "itz": 3556,
      "pé": 3557,
      "##yca": 3558,
      "květ": 3559,
      "fox": 3560,
      "##bit": 3561,
      "игор": 3562,
      "kuz": 3563,
      "golf": 3564,
      "rej": 3565,
      "facility": 3566,
      "hart": 3567,
      "##riel": 3568,
      "manufactur": 3569,
      "##ison": 3570,
      "spolec": 3571,
      "vyb": 3572,
      "baj": 3573,
      "radio": 3574,
      "rak": 3575,
      "safety": 3576,
      "##emb": 3577,
      "##niew": 3578,
      "##ěm": 3579,
      "arts": 3580,
      "obec": 3581,
      "míš": 3582,
      "##str": 3583,
      "bri": 3584,
      "##47": 3585,
      "eth": 3586,
      "##inec": 3587,
      "##oň": 3588,
      "##ujte": 3589,
      "stanisław": 3590,
      "plumbing": 3591,
      "your": 3592,
      "##ách": 3593,
      "##ejte": 3594,
      "zofia": 3595,
      "##áčová": 3596,
      "##ářová": 3597,
      "foods": 3598,
      "пав": 3599,
      "červ": 3600,
      "vz": 3601,
      "krzys": 3602,
      "libuše": 3603,
      "##illa": 3604,
      "##inn": 3605,
      "vojta": 3606,
      "##eph": 3607,
      "svět": 3608,
      "przemysław": 3609,
      "##aa": 3610,
      "contracting": 3611,
      "##ovat": 3612,
      "ty": 3613,
      "##sy": 3614,
      "mit": 3615,
      "##ínová": 3616,
      "##ošová": 3617,
      "##ree": 3618,
      "##álová": 3619,
      "retail": 3620,
      "cust": 3621,
      "vladimíra": 3622,
      "sev": 3623,
      "##so": 3624,
      "##аня": 3625,
      "##mise": 3626,
      "god": 3627,
      "ref": 3628,
      "designs": 3629,
      "dyn": 3630,
      "##drž": 3631,
      "experts": 3632,
      "cel": 3633,
      "eg": 3634,
      "gosia": 3635,
      "##ša": 3636,
      "20": 3637,
      "dest": 3638,
      "##lon": 3639,
      "korn": 3640,
      "##tl": 3641,
      "alp": 3642,
      "##ump": 3643,
      "##sob": 3644,
      "##tory": 3645,
      "pob": 3646,
      "zen": 3647,
      "##forman": 3648,
      "obchod": 3649,
      "##68": 3650,
      "edward": 3651,
      "supply": 3652,
      "ib": 3653,
      "оксана": 3654,
      "##ér": 3655,
      "oleksandr": 3656,
      "##štof": 3657,
      "##ovali": 3658,
      "doub": 3659,
      "##cka": 3660,
      "ján": 3661,
      "rz": 3662,
      "sistem": 3663,
      "##nějšího": 3664,
      "##тин": 3665,
      "##imov": 3666,
      "corner": 3667,
      "odbor": 3668,
      "##sta": 3669,
      "##тор": 3670,
      "pc": 3671,
      "svetlana": 3672,
      "orth": 3673,
      "porad": 3674,
      "викто": 3675,
      "pit": 3676,
      "##zik": 3677,
      "люд": 3678,
      "##ils": 3679,
      "##ovala": 3680,
      "##57": 3681,
      "brad": 3682,
      "##ism": 3683,
      "вита": 3684,
      "##ines": 3685,
      "tot": 3686,
      "##íř": 3687,
      "bureau": 3688,
      "##54": 3689,
      "##hav": 3690,
      "andrew": 3691,
      "##áp": 3692,
      "digi": 3693,
      "##ysa": 3694,
      "emilia": 3695,
      "gul": 3696,
      "jin": 3697,
      "##ele": 3698,
      "moh": 3699,
      "##formance": 3700,
      "##ku": 3701,
      "conce": 3702,
      "mam": 3703,
      "střed": 3704,
      "pvp": 3705,
      "##мир": 3706,
      "bož": 3707,
      "##rop": 3708,
      "základní": 3709,
      "##ado": 3710,
      "garden": 3711,
      "little": 3712,
      "pon": 3713,
      "##иль": 3714,
      "smith": 3715,
      "##ся": 3716,
      "maciek": 3717,
      "##kh": 3718,
      "anita": 3719,
      "роман": 3720,
      "##30": 3721,
      "##kr": 3722,
      "vu": 3723,
      "bp": 3724,
      "usa": 3725,
      "##lc": 3726,
      "hubert": 3727,
      "##fo": 3728,
      "ic": 3729,
      "виктория": 3730,
      "had": 3731,
      "plast": 3732,
      "##ęb": 3733,
      "speed": 3734,
      "##íž": 3735,
      "mortgage": 3736,
      "workshop": 3737,
      "##31": 3738,
      "kav": 3739,
      "zdz": 3740,
      "##inov": 3741,
      "koh": 3742,
      "денис": 3743,
      "##íd": 3744,
      "bohumil": 3745,
      "##eper": 3746,
      "##nějšímu": 3747,
      "rn": 3748,
      "stanislava": 3749,
      "dalibor": 3750,
      "##raf": 3751,
      "##exc": 3752,
      "##ovalo": 3753,
      "eduard": 3754,
      "##iu": 3755,
      "oksana": 3756,
      "builders": 3757,
      "book": 3758,
      "hus": 3759,
      "##ман": 3760,
      "skal": 3761,
      "valer": 3762,
      "##ená": 3763,
      "##cess": 3764,
      "##nu": 3765,
      "cs": 3766,
      "mez": 3767,
      "lam": 3768,
      "##ynek": 3769,
      "pry": 3770,
      "šm": 3771,
      "игорь": 3772,
      "environ": 3773,
      "##ňák": 3774,
      "##orate": 3775,
      "hrab": 3776,
      "phd": 3777,
      "##olová": 3778,
      "servis": 3779,
      "sławomir": 3780,
      "##anced": 3781,
      "##west": 3782,
      "антон": 3783,
      "##bu": 3784,
      "##ema": 3785,
      "břez": 3786,
      "och": 3787,
      "##59": 3788,
      "connect": 3789,
      "shar": 3790,
      "rac": 3791,
      "##jon": 3792,
      "vesel": 3793,
      "##czyński": 3794,
      "paj": 3795,
      "kim": 3796,
      "nes": 3797,
      "petro": 3798,
      "inn": 3799,
      "cloud": 3800,
      "nyk": 3801,
      "##ké": 3802,
      "silvie": 3803,
      "nex": 3804,
      "##iner": 3805,
      "##бов": 3806,
      "ynvest": 3807,
      "outlet": 3808,
      "station": 3809,
      "cast": 3810,
      "computer": 3811,
      "##ette": 3812,
      "poj": 3813,
      "##еев": 3814,
      "##oč": 3815,
      "##shire": 3816,
      "federal": 3817,
      "event": 3818,
      "bozena": 3819,
      "##icová": 3820,
      "exhibition": 3821,
      "##lands": 3822,
      "николай": 3823,
      "##тина": 3824,
      "##ped": 3825,
      "##rot": 3826,
      "zas": 3827,
      "lis": 3828,
      "og": 3829,
      "##demar": 3830,
      "##ging": 3831,
      "site": 3832,
      "advert": 3833,
      "pharma": 3834,
      "ely": 3835,
      "##ykova": 3836,
      "##iors": 3837,
      "##di": 3838,
      "pech": 3839,
      "das": 3840,
      "hop": 3841,
      "kok": 3842,
      "##craft": 3843,
      "##mental": 3844,
      "sla": 3845,
      "marye": 3846,
      "basia": 3847,
      "nie": 3848,
      "##lep": 3849,
      "ala": 3850,
      "##ovaný": 3851,
      "pen": 3852,
      "людмила": 3853,
      "natalya": 3854,
      "nurs": 3855,
      "##ysia": 3856,
      "maja": 3857,
      "##kater": 3858,
      "automotive": 3859,
      "elzbieta": 3860,
      "kov": 3861,
      "##rev": 3862,
      "odb": 3863,
      "##arov": 3864,
      "##prom": 3865,
      "##išová": 3866,
      "ron": 3867,
      "##ecom": 3868,
      "##works": 3869,
      "##cher": 3870,
      "long": 3871,
      "uh": 3872,
      "janina": 3873,
      "lucka": 3874,
      "##voř": 3875,
      "spolecen": 3876,
      "vyš": 3877,
      "publishing": 3878,
      "mos": 3879,
      "nel": 3880,
      "prog": 3881,
      "##ivější": 3882,
      "komun": 3883,
      "ple": 3884,
      "gh": 3885,
      "##átová": 3886,
      "frantisek": 3887,
      "##lena": 3888,
      "##mannová": 3889,
      "plat": 3890,
      "sul": 3891,
      "performance": 3892,
      "lav": 3893,
      "jud": 3894,
      "##ív": 3895,
      "##stav": 3896,
      "##att": 3897,
      "vej": 3898,
      "gaw": 3899,
      "ин": 3900,
      "михаил": 3901,
      "##oslava": 3902,
      "svit": 3903,
      "##eff": 3904,
      "олег": 3905,
      "evgen": 3906,
      "##áni": 3907,
      "##něji": 3908,
      "hard": 3909,
      "##orek": 3910,
      "##32": 3911,
      "##čáková": 3912,
      "pola": 3913,
      "general": 3914,
      "józ": 3915,
      "##cek": 3916,
      "##ох": 3917,
      "mass": 3918,
      "moj": 3919,
      "gabry": 3920,
      "##ołaj": 3921,
      "plant": 3922,
      "##ujou": 3923,
      "кор": 3924,
      "united": 3925,
      "##ujeme": 3926,
      "##yngs": 3927,
      "zad": 3928,
      "bou": 3929,
      "zar": 3930,
      "yl": 3931,
      "##ds": 3932,
      "##anh": 3933,
      "advisory": 3934,
      "##acek": 3935,
      "##ńsky": 3936,
      "scot": 3937,
      "hed": 3938,
      "##cal": 3939,
      "##еева": 3940,
      "##ycs": 3941,
      "##mad": 3942,
      "oy": 3943,
      "york": 3944,
      "##iger": 3945,
      "firma": 3946,
      "nal": 3947,
      "quick": 3948,
      "fri": 3949,
      "##owa": 3950,
      "ker": 3951,
      "gamer": 3952,
      "mirosław": 3953,
      "myr": 3954,
      "##vy": 3955,
      "##56": 3956,
      "něm": 3957,
      "consort": 3958,
      "carp": 3959,
      "collective": 3960,
      "pham": 3961,
      "##eszka": 3962,
      "##iška": 3963,
      "##don": 3964,
      "domyn": 3965,
      "##nul": 3966,
      "##uji": 3967,
      "hip": 3968,
      "##urová": 3969,
      "##ovaly": 3970,
      "naz": 3971,
      "##uła": 3972,
      "corporate": 3973,
      "jarda": 3974,
      "chud": 3975,
      "thd": 3976,
      "maga": 3977,
      "##yty": 3978,
      "wojt": 3979,
      "##из": 3980,
      "##nějších": 3981,
      "vladym": 3982,
      "##ета": 3983,
      "##rova": 3984,
      "дар": 3985,
      "##ea": 3986,
      "insp": 3987,
      "##átní": 3988,
      "lil": 3989,
      "mikołaj": 3990,
      "##ids": 3991,
      "poradenství": 3992,
      "##oci": 3993,
      "##lar": 3994,
      "audio": 3995,
      "andr": 3996,
      "jew": 3997,
      "chem": 3998,
      "##umi": 3999,
      "wellness": 4000,
      "waldemar": 4001,
      "nina": 4002,
      "##reen": 4003,
      "imp": 4004,
      "lak": 4005,
      "##ynka": 4006,
      "roof": 4007,
      "pek": 4008,
      "ci": 4009,
      "##ег": 4010,
      "hall": 4011,
      "##ija": 4012,
      "het": 4013,
      "aug": 4014,
      "tatiana": 4015,
      "##ret": 4016,
      "##win": 4017,
      "##yy": 4018,
      "##ecz": 4019,
      "##kal": 4020,
      "##sm": 4021,
      "zone": 4022,
      "adriana": 4023,
      "ken": 4024,
      "##awa": 4025,
      "andrej": 4026,
      "##luk": 4027,
      "rab": 4028,
      "vn": 4029,
      "##zimierz": 4030,
      "komise": 4031,
      "ctp": 4032,
      "deb": 4033,
      "cy": 4034,
      "##стя": 4035,
      "##ugh": 4036,
      "learning": 4037,
      "##chov": 4038,
      "##ášová": 4039,
      "##000": 4040,
      "##sw": 4041,
      "##něn": 4042,
      "##yno": 4043,
      "edita": 4044,
      "##89": 4045,
      "##skaya": 4046,
      "vad": 4047,
      "sergey": 4048,
      "vid": 4049,
      "tym": 4050,
      "sud": 4051,
      "ultra": 4052,
      "spot": 4053,
      "hap": 4054,
      "надеж": 4055,
      "byst": 4056,
      "кар": 4057,
      "sop": 4058,
      "spolecenstv": 4059,
      "bru": 4060,
      "##gaming": 4061,
      "##drich": 4062,
      "gam": 4063,
      "wr": 4064,
      "protection": 4065,
      "okres": 4066,
      "day": 4067,
      "serg": 4068,
      "tit": 4069,
      "##ович": 4070,
      "##car": 4071,
      "jytka": 4072,
      "multi": 4073,
      "video": 4074,
      "##стина": 4075,
      "##kt": 4076,
      "##sel": 4077,
      "##dě": 4078,
      "jednota": 4079,
      "##cí": 4080,
      "##ict": 4081,
      "##никова": 4082,
      "##key": 4083,
      "##rika": 4084,
      "desygn": 4085,
      "praž": 4086,
      "llm": 4087,
      "fle": 4088,
      "##87": 4089,
      "pres": 4090,
      "со": 4091,
      "wo": 4092,
      "##držba": 4093,
      "##enia": 4094,
      "##én": 4095,
      "therapy": 4096,
      "bě": 4097,
      "lod": 4098,
      "link": 4099,
      "галина": 4100,
      "##gu": 4101,
      "vítě": 4102,
      "vasil": 4103,
      "štěpánka": 4104,
      "william": 4105,
      "grupo": 4106,
      "##éna": 4107,
      "films": 4108,
      "diamond": 4109,
      "volodymyr": 4110,
      "##ender": 4111,
      "regional": 4112,
      "##icky": 4113,
      "def": 4114,
      "fish": 4115,
      "cyber": 4116,
      "ub": 4117,
      "ynd": 4118,
      "jexc": 4119,
      "král": 4120,
      "equipment": 4121,
      "míša": 4122,
      "kristyna": 4123,
      "##ickova": 4124,
      "##uješ": 4125,
      "consortium": 4126,
      "##ření": 4127,
      "person": 4128,
      "alan": 4129,
      "пет": 4130,
      "vš": 4131,
      "вален": 4132,
      "##ylová": 4133,
      "надежда": 4134,
      "##eman": 4135,
      "graph": 4136,
      "dzi": 4137,
      "##par": 4138,
      "baz": 4139,
      "lidia": 4140,
      "zim": 4141,
      "oleg": 4142,
      "##uno": 4143,
      "##иц": 4144,
      "ze": 4145,
      "intel": 4146,
      "repair": 4147,
      "access": 4148,
      "mechan": 4149,
      "ess": 4150,
      "dog": 4151,
      "##fic": 4152,
      "cho": 4153,
      "##asová": 4154,
      "##94": 4155,
      "cars": 4156,
      "##kina": 4157,
      "frank": 4158,
      "vrb": 4159,
      "sign": 4160,
      "eug": 4161,
      "##iał": 4162,
      "##rey": 4163,
      "patric": 4164,
      "pyotr": 4165,
      "##74": 4166,
      "premium": 4167,
      "mys": 4168,
      "##ňková": 4169,
      "sky": 4170,
      "grazyna": 4171,
      "##kyně": 4172,
      "czech": 4173,
      "##ыр": 4174,
      "##anning": 4175,
      "agro": 4176,
      "ales": 4177,
      "agny": 4178,
      "##gnost": 4179,
      "##ycal": 4180,
      "##oke": 4181,
      "##атов": 4182,
      "##36": 4183,
      "šeb": 4184,
      "mont": 4185,
      "##alska": 4186,
      "##arski": 4187,
      "##uv": 4188,
      "sir": 4189,
      "albert": 4190,
      "##ados": 4191,
      "dat": 4192,
      "cop": 4193,
      "erik": 4194,
      "##fil": 4195,
      "##ming": 4196,
      "end": 4197,
      "meg": 4198,
      "manufacturing": 4199,
      "##miej": 4200,
      "##bridge": 4201,
      "radovan": 4202,
      "илья": 4203,
      "tox": 4204,
      "wioletta": 4205,
      "nut": 4206,
      "##enda": 4207,
      "andrey": 4208,
      "##elova": 4209,
      "##nějším": 4210,
      "nela": 4211,
      "hy": 4212,
      "exec": 4213,
      "wi": 4214,
      "gł": 4215,
      "technical": 4216,
      "##ели": 4217,
      "buch": 4218,
      "##zo": 4219,
      "##otová": 4220,
      "##ební": 4221,
      "motors": 4222,
      "yvana": 4223,
      "mind": 4224,
      "warehouse": 4225,
      "sokol": 4226,
      "lum": 4227,
      "agnyeszka": 4228,
      "malgorzata": 4229,
      "##па": 4230,
      "##skar": 4231,
      "vision": 4232,
      "let": 4233,
      "tet": 4234,
      "##ač": 4235,
      "##ieva": 4236,
      "pec": 4237,
      "ekater": 4238,
      "##unka": 4239,
      "##asy": 4240,
      "##nek": 4241,
      "labor": 4242,
      "##ог": 4243,
      "vym": 4244,
      "gi": 4245,
      "marine": 4246,
      "кат": 4247,
      "georg": 4248,
      "novot": 4249,
      "advanced": 4250,
      "its": 4251,
      "chron": 4252,
      "##дра": 4253,
      "stanyslav": 4254,
      "mand": 4255,
      "mg": 4256,
      "leis": 4257,
      "##rowska": 4258,
      "##rd": 4259,
      "stří": 4260,
      "##eda": 4261,
      "imag": 4262,
      "##ynt": 4263,
      "vítězslav": 4264,
      "##sil": 4265,
      "10": 4266,
      "stepan": 4267,
      "##pol": 4268,
      "suppl": 4269,
      "quar": 4270,
      "george": 4271,
      "klara": 4272,
      "##ruš": 4273,
      "try": 4274,
      "##цева": 4275,
      "bishop": 4276,
      "ten": 4277,
      "cur": 4278,
      "milada": 4279,
      "showroom": 4280,
      "##ave": 4281,
      "##ml": 4282,
      "žaneta": 4283,
      "mykola": 4284,
      "rapid": 4285,
      "karina": 4286,
      "##евич": 4287,
      "##oma": 4288,
      "bag": 4289,
      "jes": 4290,
      "józef": 4291,
      "##ians": 4292,
      "sid": 4293,
      "arn": 4294,
      "plaza": 4295,
      "##inery": 4296,
      "nas": 4297,
      "reh": 4298,
      "wealth": 4299,
      "##ných": 4300,
      "crew": 4301,
      "equity": 4302,
      "cult": 4303,
      "##íme": 4304,
      "landsc": 4305,
      "##hi": 4306,
      "##niku": 4307,
      "miss": 4308,
      "mvdr": 4309,
      "atelier": 4310,
      "##lip": 4311,
      "##sn": 4312,
      "sons": 4313,
      "rozv": 4314,
      "interiors": 4315,
      "##cer": 4316,
      "##oga": 4317,
      "kil": 4318,
      "resort": 4319,
      "vik": 4320,
      "supplies": 4321,
      "pip": 4322,
      "##che": 4323,
      "credit": 4324,
      "##ball": 4325,
      "sł": 4326,
      "innovation": 4327,
      "##75": 4328,
      "australia": 4329,
      "inv": 4330,
      "##оч": 4331,
      "mons": 4332,
      "steph": 4333,
      "coast": 4334,
      "pte": 4335,
      "pí": 4336,
      "medic": 4337,
      "##101": 4338,
      "mok": 4339,
      "##hood": 4340,
      "laura": 4341,
      "spolecenstvi": 4342,
      "##los": 4343,
      "кол": 4344,
      "fash": 4345,
      "solar": 4346,
      "##bury": 4347,
      "аль": 4348,
      "advertising": 4349,
      "nek": 4350,
      "##sova": 4351,
      "##39": 4352,
      "villa": 4353,
      "prec": 4354,
      "##42": 4355,
      "виктор": 4356,
      "##du": 4357,
      "kamen": 4358,
      "zub": 4359,
      "yntern": 4360,
      "sko": 4361,
      "##esova": 4362,
      "jav": 4363,
      "zi": 4364,
      "state": 4365,
      "hyper": 4366,
      "dobrov": 4367,
      "main": 4368,
      "##maz": 4369,
      "##ocz": 4370,
      "##чук": 4371,
      "##jo": 4372,
      "ath": 4373,
      "men": 4374,
      "##cu": 4375,
      "fro": 4376,
      "##hov": 4377,
      "paci": 4378,
      "fy": 4379,
      "##ww": 4380,
      "lap": 4381,
      "securities": 4382,
      "##ženýr": 4383,
      "čp": 4384,
      "voz": 4385,
      "krzysiek": 4386,
      "##łowska": 4387,
      "kod": 4388,
      "##zel": 4389,
      "packa": 4390,
      "boj": 4391,
      "nar": 4392,
      "ska": 4393,
      "##nt": 4394,
      "ис": 4395,
      "internet": 4396,
      "##nějšími": 4397,
      "poch": 4398,
      "mah": 4399,
      "brew": 4400,
      "##uč": 4401,
      "##vat": 4402,
      "##žb": 4403,
      "ludv": 4404,
      "iii": 4405,
      "štefan": 4406,
      "##uce": 4407,
      "дарья": 4408,
      "##ival": 4409,
      "std": 4410,
      "lucyna": 4411,
      "##inek": 4412,
      "rela": 4413,
      "are": 4414,
      "living": 4415,
      "reb": 4416,
      "sylw": 4417,
      "som": 4418,
      "##ислав": 4419,
      "##mová": 4420,
      "vrat": 4421,
      "kev": 4422,
      "henryk": 4423,
      "cir": 4424,
      "##iová": 4425,
      "##ků": 4426,
      "radosław": 4427,
      "elektro": 4428,
      "##ře": 4429,
      "kač": 4430,
      "##76": 4431,
      "zaw": 4432,
      "anim": 4433,
      "plz": 4434,
      "institut": 4435,
      "##vey": 4436,
      "##ua": 4437,
      "architecture": 4438,
      "america": 4439,
      "##dom": 4440,
      "##mě": 4441,
      "##akov": 4442,
      "##ocka": 4443,
      "##omíra": 4444,
      "gur": 4445,
      "##96": 4446,
      "##ware": 4447,
      "##unter": 4448,
      "leisure": 4449,
      "magaz": 4450,
      "##48": 4451,
      "pě": 4452,
      "саша": 4453,
      "##šice": 4454,
      "##ound": 4455,
      "ková": 4456,
      "hn": 4457,
      "para": 4458,
      "юрий": 4459,
      "##can": 4460,
      "záv": 4461,
      "admin": 4462,
      "base": 4463,
      "##ville": 4464,
      "ada": 4465,
      "velké": 4466,
      "dita": 4467,
      "maxim": 4468,
      "photo": 4469,
      "##enková": 4470,
      "##stal": 4471,
      "##pi": 4472,
      "lena": 4473,
      "##ické": 4474,
      "##enix": 4475,
      "bíl": 4476,
      "##olas": 4477,
      "medya": 4478,
      "tab": 4479,
      "##manova": 4480,
      "##ackova": 4481,
      "vlastniku": 4482,
      "##išť": 4483,
      "campus": 4484,
      "classic": 4485,
      "zl": 4486,
      "##mgr": 4487,
      "cardinal": 4488,
      "##bc": 4489,
      "##atyonal": 4490,
      "##elle": 4491,
      "##arth": 4492,
      "aer": 4493,
      "##bar": 4494,
      "##šovice": 4495,
      "steel": 4496,
      "##kan": 4497,
      "adela": 4498,
      "##ople": 4499,
      "jcd": 4500,
      "sap": 4501,
      "anastasia": 4502,
      "##čan": 4503,
      "cooperative": 4504,
      "павел": 4505,
      "##šík": 4506,
      "##ňáková": 4507,
      "кристина": 4508,
      "##3r": 4509,
      "nl": 4510,
      "##лим": 4511,
      "ксен": 4512,
      "##hol": 4513,
      "##rick": 4514,
      "##bow": 4515,
      "gym": 4516,
      "designers": 4517,
      "##ista": 4518,
      "paed": 4519,
      "neuro": 4520,
      "##ош": 4521,
      "##otice": 4522,
      "##inková": 4523,
      "##bishop": 4524,
      "inženýr": 4525,
      "##fol": 4526,
      "julie": 4527,
      "эль": 4528,
      "ří": 4529,
      "##yll": 4530,
      "kin": 4531,
      "ner": 4532,
      "cross": 4533,
      "hof": 4534,
      "krat": 4535,
      "##ез": 4536,
      "##ough": 4537,
      "##hart": 4538,
      "leona": 4539,
      "##ación": 4540,
      "mother": 4541,
      "rada": 4542,
      "lov": 4543,
      "gabriel": 4544,
      "housing": 4545,
      "##war": 4546,
      "##iones": 4547,
      "##čany": 4548,
      "##иева": 4549,
      "serh": 4550,
      "dus": 4551,
      "vyl": 4552,
      "##ой": 4553,
      "ас": 4554,
      "##nerova": 4555,
      "labem": 4556,
      "hire": 4557,
      "##isová": 4558,
      "##iecka": 4559,
      "##cent": 4560,
      "rafal": 4561,
      "##ální": 4562,
      "arek": 4563,
      "chain": 4564,
      "##ruz": 4565,
      "posp": 4566,
      "pastor": 4567,
      "кири": 4568,
      "##еч": 4569,
      "may": 4570,
      "mall": 4571,
      "marlena": 4572,
      "rez": 4573,
      "##85": 4574,
      "dě": 4575,
      "##ewycz": 4576,
      "nový": 4577,
      "telecom": 4578,
      "##ínek": 4579,
      "fyn": 4580,
      "##lovice": 4581,
      "artem": 4582,
      "zdzis": 4583,
      "##ělkyně": 4584,
      "jola": 4585,
      "samuel": 4586,
      "fol": 4587,
      "##nal": 4588,
      "cow": 4589,
      "environmental": 4590,
      "охран": 4591,
      "##арова": 4592,
      "hrub": 4593,
      "##ierz": 4594,
      "##dra": 4595,
      "muz": 4596,
      "##mm": 4597,
      "##owycz": 4598,
      "int": 4599,
      "brook": 4600,
      "##иш": 4601,
      "box": 4602,
      "solution": 4603,
      "##mik": 4604,
      "ital": 4605,
      "very": 4606,
      "##90": 4607,
      "dragon": 4608,
      "macro": 4609,
      "##hoř": 4610,
      "yveta": 4611,
      "##łomiej": 4612,
      "místní": 4613,
      "##yana": 4614,
      "##eslav": 4615,
      "##olo": 4616,
      "čech": 4617,
      "stráž": 4618,
      "гри": 4619,
      "ruslan": 4620,
      "##nicka": 4621,
      "yvan": 4622,
      "nu": 4623,
      "dry": 4624,
      "stas": 4625,
      "chil": 4626,
      "stach": 4627,
      "matt": 4628,
      "##erce": 4629,
      "wild": 4630,
      "brother": 4631,
      "diagnost": 4632,
      "##ois": 4633,
      "##92": 4634,
      "никита": 4635,
      "##ášková": 4636,
      "##mis": 4637,
      "pul": 4638,
      "##stant": 4639,
      "##onka": 4640,
      "sos": 4641,
      "##tegr": 4642,
      "##oba": 4643,
      "smr": 4644,
      "proch": 4645,
      "kus": 4646,
      "nin": 4647,
      "aga": 4648,
      "sher": 4649,
      "assocya": 4650,
      "##kar": 4651,
      "##mjr": 4652,
      "##gate": 4653,
      "##nie": 4654,
      "christian": 4655,
      "abbot": 4656,
      "ladyslav": 4657,
      "kamyl": 4658,
      "gastro": 4659,
      "fort": 4660,
      "mov": 4661,
      "form": 4662,
      "##ников": 4663,
      "##ination": 4664,
      "žel": 4665,
      "oliwia": 4666,
      "##itní": 4667,
      "##ých": 4668,
      "##árková": 4669,
      "factory": 4670,
      "##pal": 4671,
      "##fy": 4672,
      "##king": 4673,
      "rat": 4674,
      "čet": 4675,
      "bára": 4676,
      "bartłomiej": 4677,
      "##nova": 4678,
      "##пов": 4679,
      "forest": 4680,
      "kryštof": 4681,
      "hř": 4682,
      "pavlina": 4683,
      "erika": 4684,
      "franty": 4685,
      "chod": 4686,
      "uz": 4687,
      "lili": 4688,
      "dmyt": 4689,
      "##ren": 4690,
      "aqua": 4691,
      "mig": 4692,
      "chal": 4693,
      "bhd": 4694,
      "lut": 4695,
      "grow": 4696,
      "##ious": 4697,
      "cie": 4698,
      "##elková": 4699,
      "jand": 4700,
      "##43": 4701,
      "фа": 4702,
      "##ášek": 4703,
      "brod": 4704,
      "##ějším": 4705,
      "##sol": 4706,
      "##ben": 4707,
      "developers": 4708,
      "údržba": 4709,
      "peš": 4710,
      "august": 4711,
      "##yš": 4712,
      "##50": 4713,
      "ras": 4714,
      "sat": 4715,
      "mira": 4716,
      "чер": 4717,
      "руслан": 4718,
      "nap": 4719,
      "##icht": 4720,
      "##dle": 4721,
      "leb": 4722,
      "lif": 4723,
      "##лл": 4724,
      "дима": 4725,
      "hospitality": 4726,
      "tich": 4727,
      "plc": 4728,
      "##онов": 4729,
      "heř": 4730,
      "##ori": 4731,
      "##wal": 4732,
      "miluše": 4733,
      "sister": 4734,
      "ксения": 4735,
      "bohdan": 4736,
      "rand": 4737,
      "rok": 4738,
      "##roj": 4739,
      "##ysts": 4740,
      "##hon": 4741,
      "alt": 4742,
      "##кий": 4743,
      "monsign": 4744,
      "quarter": 4745,
      "##usova": 4746,
      "merc": 4747,
      "accounting": 4748,
      "che": 4749,
      "mobile": 4750,
      "dvoř": 4751,
      "##orm": 4752,
      "láz": 4753,
      "father": 4754,
      "##ája": 4755,
      "##něme": 4756,
      "expo": 4757,
      "piz": 4758,
      "coff": 4759,
      "kyn": 4760,
      "river": 4761,
      "golden": 4762,
      "##etice": 4763,
      "marcyn": 4764,
      "scott": 4765,
      "##ыш": 4766,
      "cit": 4767,
      "##utique": 4768,
      "гор": 4769,
      "krup": 4770,
      "##ира": 4771,
      "##ecky": 4772,
      "##ušková": 4773,
      "##91": 4774,
      "##бе": 4775,
      "zlat": 4776,
      "search": 4777,
      "tool": 4778,
      "iza": 4779,
      "mem": 4780,
      "ró": 4781,
      "stř": 4782,
      "promot": 4783,
      "hur": 4784,
      "##lawa": 4785,
      "waw": 4786,
      "##uan": 4787,
      "##tv": 4788,
      "sarka": 4789,
      "евгения": 4790,
      "##ordin": 4791,
      "lukasz": 4792,
      "##yti": 4793,
      "##ll": 4794,
      "cham": 4795,
      "bronislav": 4796,
      "středisko": 4797,
      "pik": 4798,
      "ekaterina": 4799,
      "##aba": 4800,
      "deacon": 4801,
      "nejv": 4802,
      "blo": 4803,
      "naděž": 4804,
      "##гом": 4805,
      "synd": 4806,
      "aleksander": 4807,
      "##yte": 4808,
      "артем": 4809,
      "rtd": 4810,
      "mb": 4811,
      "block": 4812,
      "games": 4813,
      "residents": 4814,
      "lee": 4815,
      "haw": 4816,
      "##mod": 4817,
      "moravský": 4818,
      "oskar": 4819,
      "ди": 4820,
      "sdn": 4821,
      "nam": 4822,
      "blaž": 4823,
      "тим": 4824,
      "printing": 4825,
      "planning": 4826,
      "kaj": 4827,
      "neigh": 4828,
      "iz": 4829,
      "natalie": 4830,
      "##mira": 4831,
      "assocyates": 4832,
      "kuc": 4833,
      "squad": 4834,
      "##оз": 4835,
      "country": 4836,
      "kg": 4837,
      "##uff": 4838,
      "berg": 4839,
      "program": 4840,
      "алина": 4841,
      "##84": 4842,
      "zat": 4843,
      "production": 4844,
      "##ube": 4845,
      "naděžda": 4846,
      "cin": 4847,
      "complex": 4848,
      "pne": 4849,
      "kří": 4850,
      "tek": 4851,
      "tree": 4852,
      "tecn": 4853,
      "##oušková": 4854,
      "aero": 4855,
      "archbishop": 4856,
      "kaš": 4857,
      "koch": 4858,
      "sin": 4859,
      "carol": 4860,
      "##éd": 4861,
      "##80": 4862,
      "sekce": 4863,
      "rot": 4864,
      "##xd": 4865,
      "mill": 4866,
      "lem": 4867,
      "mlad": 4868,
      "cher": 4869,
      "sí": 4870,
      "katarzina": 4871,
      "##cc": 4872,
      "boris": 4873,
      "##gg": 4874,
      "##lejší": 4875,
      "mul": 4876,
      "cook": 4877,
      "##ravy": 4878,
      "frantyšek": 4879,
      "quality": 4880,
      "atl": 4881,
      "esc": 4882,
      "katar": 4883,
      "press": 4884,
      "norbert": 4885,
      "čes": 4886,
      "piotrek": 4887,
      "innovations": 4888,
      "##жа": 4889,
      "##ávání": 4890,
      "bł": 4891,
      "##ource": 4892,
      "##zia": 4893,
      "plk": 4894,
      "##ows": 4895,
      "##иг": 4896,
      "##yld": 4897,
      "##ínková": 4898,
      "mjr": 4899,
      "иль": 4900,
      "##kon": 4901,
      "silver": 4902,
      "bit": 4903,
      "miloslava": 4904,
      "vladymír": 4905,
      "space": 4906,
      "ip": 4907,
      "##tt": 4908,
      "##omě": 4909,
      "execut": 4910,
      "location": 4911,
      "town": 4912,
      "##íte": 4913,
      "##62": 4914,
      "##ień": 4915,
      "lys": 4916,
      "leas": 4917,
      "geo": 4918,
      "thanh": 4919,
      "##áte": 4920,
      "kpt": 4921,
      "zoo": 4922,
      "chot": 4923,
      "kitch": 4924,
      "##vl": 4925,
      "kacz": 4926,
      "##anci": 4927,
      "alžb": 4928,
      "yar": 4929,
      "##epend": 4930,
      "packaging": 4931,
      "##ía": 4932,
      "##ese": 4933,
      "##čín": 4934,
      "gil": 4935,
      "projek": 4936,
      "gregor": 4937,
      "poly": 4938,
      "##ičky": 4939,
      "networks": 4940,
      "human": 4941,
      "##enberg": 4942,
      "sant": 4943,
      "##jak": 4944,
      "##93": 4945,
      "##iem": 4946,
      "ud": 4947,
      "##ěv": 4948,
      "##63": 4949,
      "phdr": 4950,
      "brown": 4951,
      "pho": 4952,
      "##elt": 4953,
      "výbor": 4954,
      "film": 4955,
      "trz": 4956,
      "##rix": 4957,
      "liga": 4958,
      "oil": 4959,
      "##mara": 4960,
      "oste": 4961,
      "federation": 4962,
      "##72": 4963,
      "hra": 4964,
      "##ика": 4965,
      "мир": 4966,
      "regina": 4967,
      "mega": 4968,
      "analyt": 4969,
      "виталий": 4970,
      "judr": 4971,
      "lom": 4972,
      "##ásková": 4973,
      "veh": 4974,
      "lind": 4975,
      "##etka": 4976,
      "##árek": 4977,
      "##стан": 4978,
      "los": 4979,
      "##ones": 4980,
      "fest": 4981,
      "ад": 4982,
      "##inf": 4983,
      "##žová": 4984,
      "padre": 4985,
      "##83": 4986,
      "##girl": 4987,
      "##cil": 4988,
      "paní": 4989,
      "job": 4990,
      "radomír": 4991,
      "##rak": 4992,
      "##ries": 4993,
      "sci": 4994,
      "vyh": 4995,
      "##bová": 4996,
      "##enský": 4997,
      "##řiška": 4998,
      "jarka": 4999,
      "##icek": 5000,
      "##master": 5001,
      "##ucha": 5002,
      "staff": 5003,
      "##ativ": 5004,
      "administ": 5005,
      "venue": 5006,
      "##active": 5007,
      "##lerova": 5008,
      "##kowiak": 5009,
      "tun": 5010,
      "##oté": 5011,
      "##ift": 5012,
      "zuzanna": 5013,
      "##rin": 5014,
      "leoš": 5015,
      "##ao": 5016,
      "##ning": 5017,
      "element": 5018,
      "dov": 5019,
      "dobrovol": 5020,
      "##ges": 5021,
      "##nap": 5022,
      "##skyi": 5023,
      "abp": 5024,
      "##ół": 5025,
      "hay": 5026,
      "##40": 5027,
      "##urek": 5028,
      "mini": 5029,
      "##tegra": 5030,
      "mga": 5031,
      "bos": 5032,
      "##ovaná": 5033,
      "##ady": 5034,
      "rtn": 5035,
      "prokop": 5036,
      "commerce": 5037,
      "information": 5038,
      "pin": 5039,
      "foto": 5040,
      "##49": 5041,
      "pix": 5042,
      "##rock": 5043,
      "александра": 5044,
      "broad": 5045,
      "prost": 5046,
      "dcn": 5047,
      "alf": 5048,
      "##ords": 5049,
      "##eland": 5050,
      "##anský": 5051,
      "##ój": 5052,
      "people": 5053,
      "alpha": 5054,
      "##100": 5055,
      "krzisz": 5056,
      "валентина": 5057,
      "wis": 5058,
      "##shore": 5059,
      "##ubová": 5060,
      "crow": 5061,
      "pepa": 5062,
      "usk": 5063,
      "##utová": 5064,
      "аз": 5065,
      "алена": 5066,
      "##imi": 5067,
      "monsignor": 5068,
      "ym": 5069,
      "aff": 5070,
      "##šíková": 5071,
      "dod": 5072,
      "msdr": 5073,
      "##rodní": 5074,
      "naj": 5075,
      "##еб": 5076,
      "key": 5077,
      "pplk": 5078,
      "boutique": 5079,
      "planners": 5080,
      "##lie": 5081,
      "pacific": 5082,
      "nast": 5083,
      "rsdr": 5084,
      "rndr": 5085,
      "nick": 5086,
      "##цев": 5087,
      "rcdr": 5088,
      "##erk": 5089,
      "##anowska": 5090,
      "seg": 5091,
      "capytal": 5092,
      "cartel": 5093,
      "##enov": 5094,
      "cic": 5095,
      "thdr": 5096,
      "gabryela": 5097,
      "npor": 5098,
      "##ikov": 5099,
      "karolyna": 5100,
      "opport": 5101,
      "кур": 5102,
      "czes": 5103,
      "mddr": 5104,
      "neighbor": 5105,
      "##stra": 5106,
      "sławek": 5107,
      "##aria": 5108,
      "##worth": 5109,
      "##bach": 5110,
      "##нов": 5111,
      "##cia": 5112,
      "phmr": 5113,
      "rtdr": 5114,
      "##ров": 5115,
      "truck": 5116,
      "nprap": 5117,
      "paeddr": 5118,
      "nrtm": 5119,
      "depot": 5120,
      "msgr": 5121,
      "aur": 5122,
      "##ynová": 5123,
      "šrtm": 5124,
      "##kou": 5125,
      "great": 5126,
      "anat": 5127,
      "lep": 5128,
      "stol": 5129,
      "tol": 5130,
      "thlic": 5131,
      "##zyńska": 5132,
      "floor": 5133,
      "##lus": 5134,
      "glass": 5135,
      "integr": 5136,
      "nykola": 5137,
      "opportun": 5138,
      "##esp": 5139,
      "beč": 5140,
      "##ji": 5141,
      "##ějšími": 5142,
      "gn": 5143,
      "##86": 5144,
      "přem": 5145,
      "congl": 5146,
      "genplk": 5147,
      "##enská": 5148,
      "šprap": 5149,
      "##tm": 5150,
      "automation": 5151,
      "##omerate": 5152,
      "laur": 5153,
      "region": 5154,
      "conglomerate": 5155,
      "##etín": 5156,
      "##yman": 5157,
      "pharmdr": 5158,
      "##enk": 5159,
      "genmjr": 5160,
      "szczep": 5161,
      "škpt": 5162,
      "jednotka": 5163,
      "shadow": 5164,
      "##51": 5165,
      "industry": 5166,
      "sára": 5167,
      "dream": 5168,
      "roofing": 5169,
      "thmgr": 5170,
      "bca": 5171,
      "##omen": 5172,
      "moun": 5173,
      "kuč": 5174,
      "hc": 5175,
      "##acki": 5176,
      "komunitní": 5177,
      "foot": 5178,
      "analysts": 5179,
      "fron": 5180,
      "##oušek": 5181,
      "hoř": 5182,
      "genpor": 5183,
      "##izer": 5184,
      "##73": 5185,
      "##zińska": 5186,
      "##get": 5187,
      "##ějšímu": 5188,
      "ppor": 5189,
      "##pet": 5190,
      "gon": 5191,
      "krzisztof": 5192,
      "##icians": 5193,
      "dim": 5194,
      "##46": 5195,
      "neighborhood": 5196,
      "grab": 5197,
      "matyáš": 5198,
      "nové": 5199,
      "##tage": 5200,
      "vzd": 5201,
      "úsek": 5202,
      "##ějšího": 5203,
      "##anska": 5204,
      "##áň": 5205,
      "##inská": 5206,
      "##ičů": 5207,
      "любов": 5208,
      "sbor": 5209,
      "chap": 5210,
      "##ioł": 5211,
      "##icate": 5212,
      "##mund": 5213,
      "ig": 5214,
      "péče": 5215,
      "total": 5216,
      "zw": 5217,
      "ai": 5218,
      "pak": 5219,
      "##wska": 5220,
      "rose": 5221,
      "how": 5222,
      "marya": 5223,
      "nos": 5224,
      "slezský": 5225,
      "astro": 5226,
      "##lyn": 5227,
      "##70": 5228,
      "yrena": 5229,
      "##ckova": 5230,
      "communication": 5231,
      "jez": 5232,
      "bezd": 5233,
      "##orova": 5234,
      "##79": 5235,
      "lac": 5236,
      "##eková": 5237,
      "##lei": 5238,
      "##52": 5239,
      "sing": 5240,
      "joseph": 5241,
      "stavby": 5242,
      "##js": 5243,
      "##inský": 5244,
      "##akar": 5245,
      "tyl": 5246,
      "##eska": 5247,
      "custom": 5248,
      "magazine": 5249,
      "##íkov": 5250,
      "chris": 5251,
      "##58": 5252,
      "##něž": 5253,
      "##ikú": 5254,
      "veter": 5255,
      "swe": 5256,
      "yw": 5257,
      "pow": 5258,
      "##уг": 5259,
      "ladislava": 5260,
      "raz": 5261,
      "bell": 5262,
      "wiesław": 5263,
      "arc": 5264,
      "brněn": 5265,
      "compound": 5266,
      "##eli": 5267,
      "techno": 5268,
      "constructyon": 5269,
      "scotland": 5270,
      "##fire": 5271,
      "ran": 5272,
      "##aš": 5273,
      "rain": 5274,
      "##иб": 5275,
      "hul": 5276,
      "nag": 5277,
      "with": 5278,
      "roh": 5279,
      "##ůl": 5280,
      "vojtech": 5281,
      "sor": 5282,
      "chrono": 5283,
      "##ses": 5284,
      "rozs": 5285,
      "pneum": 5286,
      "##ento": 5287,
      "gaming": 5288,
      "##ione": 5289,
      "##ама": 5290,
      "stone": 5291,
      "##wicz": 5292,
      "##inity": 5293,
      "васи": 5294,
      "##пова": 5295,
      "surg": 5296,
      "##mak": 5297,
      "jones": 5298,
      "##ilov": 5299,
      "cp": 5300,
      "destination": 5301,
      "kož": 5302,
      "zuzka": 5303,
      "вад": 5304,
      "she": 5305,
      "##lig": 5306,
      "dos": 5307,
      "##eo": 5308,
      "##usek": 5309,
      "##pan": 5310,
      "mun": 5311,
      "##yness": 5312,
      "##mas": 5313,
      "##niture": 5314,
      "bd": 5315,
      "jolana": 5316,
      "distribution": 5317,
      "##ovany": 5318,
      "paula": 5319,
      "jyr": 5320,
      "kaw": 5321,
      "##omed": 5322,
      "kamyla": 5323,
      "##баев": 5324,
      "hyg": 5325,
      "tep": 5326,
      "##áže": 5327,
      "##řov": 5328,
      "sik": 5329,
      "mn": 5330,
      "alžběta": 5331,
      "národní": 5332,
      "##ikúra": 5333,
      "hrd": 5334,
      "repub": 5335,
      "civ": 5336,
      "lech": 5337,
      "coffee": 5338,
      "##upová": 5339,
      "jess": 5340,
      "matth": 5341,
      "cour": 5342,
      "##var": 5343,
      "rozp": 5344,
      "canada": 5345,
      "sistems": 5346,
      "fi": 5347,
      "hut": 5348,
      "##vers": 5349,
      "##head": 5350,
      "##71": 5351,
      "gw": 5352,
      "##cká": 5353,
      "properti": 5354,
      "##ipping": 5355,
      "мух": 5356,
      "bond": 5357,
      "ali": 5358,
      "##53": 5359,
      "##ertová": 5360,
      "##rád": 5361,
      "любовь": 5362,
      "prop": 5363,
      "leh": 5364,
      "##cle": 5365,
      "tatyana": 5366,
      "odděl": 5367,
      "##upa": 5368,
      "grzes": 5369,
      "##ušová": 5370,
      "##terová": 5371,
      "##ián": 5372,
      "##ores": 5373,
      "hoang": 5374,
      "okresní": 5375,
      "##ences": 5376,
      "##íp": 5377,
      "tm": 5378,
      "##ria": 5379,
      "lex": 5380,
      "##yč": 5381,
      "лари": 5382,
      "##ovní": 5383,
      "##mond": 5384,
      "pros": 5385,
      "vi": 5386,
      "chemička": 5387,
      "##orska": 5388,
      "##icova": 5389,
      "##ots": 5390,
      "bioložka": 5391,
      "mut": 5392,
      "socioložka": 5393,
      "ki": 5394,
      "hd": 5395,
      "##41": 5396,
      "sound": 5397,
      "##une": 5398,
      "mast": 5399,
      "furniture": 5400,
      "##nuto": 5401,
      "oš": 5402,
      "lá": 5403,
      "##zova": 5404,
      "lékařka": 5405,
      "pov": 5406,
      "cu": 5407,
      "cad": 5408,
      "hem": 5409,
      "##rica": 5410,
      "##lay": 5411,
      "ekonomka": 5412,
      "biel": 5413,
      "gp": 5414,
      "##ын": 5415,
      "jindra": 5416,
      "voda": 5417,
      "independ": 5418,
      "##ylor": 5419,
      "psycholožka": 5420,
      "##onova": 5421,
      "##ray": 5422,
      "mater": 5423,
      "##iko": 5424,
      "##ird": 5425,
      "##мов": 5426,
      "wł": 5427,
      "myn": 5428,
      "charles": 5429,
      "electronics": 5430,
      "česká": 5431,
      "##dol": 5432,
      "##atová": 5433,
      "sus": 5434,
      "rental": 5435,
      "anatol": 5436,
      "fyzička": 5437,
      "matematička": 5438,
      "farmaceutka": 5439,
      "southern": 5440,
      "##rus": 5441,
      "кр": 5442,
      "neb": 5443,
      "ахм": 5444,
      "##box": 5445,
      "executive": 5446,
      "darina": 5447,
      "##nes": 5448,
      "##aco": 5449,
      "##yj": 5450,
      "stere": 5451,
      "sylv": 5452,
      "##čovice": 5453,
      "umělkyně": 5454,
      "##udová": 5455,
      "hong": 5456,
      "syndicate": 5457,
      "soukrom": 5458,
      "dagmara": 5459,
      "právnička": 5460,
      "mykhailo": 5461,
      "novo": 5462,
      "geoložka": 5463,
      "nowak": 5464,
      "anh": 5465,
      "##анна": 5466,
      "sig": 5467,
      "##áme": 5468,
      "##cel": 5469,
      "historička": 5470,
      "rodin": 5471,
      "mysl": 5472,
      "##uw": 5473,
      "dou": 5474,
      "dmitry": 5475,
      "decor": 5476,
      "filosofka": 5477,
      "##gal": 5478,
      "pražský": 5479,
      "accountants": 5480,
      "suk": 5481,
      "pedagožka": 5482,
      "##recht": 5483,
      "##des": 5484,
      "кирилл": 5485,
      "fid": 5486,
      "moto": 5487,
      "cosmet": 5488,
      "architektka": 5489,
      "zy": 5490,
      "##ďka": 5491,
      "beach": 5492,
      "wanda": 5493,
      "##ные": 5494,
      "jaros": 5495,
      "##ić": 5496,
      "krajský": 5497,
      "##org": 5498,
      "##nos": 5499,
      "lol": 5500,
      "##ард": 5501,
      "##áňa": 5502,
      "##mír": 5503,
      "vyz": 5504,
      "pł": 5505,
      "##jed": 5506,
      "myt": 5507,
      "tes": 5508,
      "line": 5509,
      "apart": 5510,
      "##tova": 5511,
      "viol": 5512,
      "##uerová": 5513,
      "##ovit": 5514,
      "##ycling": 5515,
      "##klid": 5516,
      "nom": 5517,
      "residential": 5518,
      "agric": 5519,
      "test": 5520,
      "##lian": 5521,
      "crypto": 5522,
      "hlad": 5523,
      "mychał": 5524,
      "ngoc": 5525,
      "bach": 5526,
      "stel": 5527,
      "jim": 5528,
      "##kovská": 5529,
      "##ávis": 5530,
      "choc": 5531,
      "##enová": 5532,
      "##uma": 5533,
      "ou": 5534,
      "sou": 5535,
      "##лиев": 5536,
      "##nková": 5537,
      "karp": 5538,
      "karla": 5539,
      "##ved": 5540,
      "partner": 5541,
      "zdena": 5542,
      "din": 5543,
      "pach": 5544,
      "urb": 5545,
      "##iff": 5546,
      "leasing": 5547,
      "nejp": 5548,
      "##wolf": 5549,
      "##ošt": 5550,
      "makro": 5551,
      "tok": 5552,
      "hot": 5553,
      "io": 5554,
      "kis": 5555,
      "luxus": 5556,
      "##яч": 5557,
      "##vič": 5558,
      "##yes": 5559,
      "zt": 5560,
      "##scy": 5561,
      "slaw": 5562,
      "lord": 5563,
      "##nis": 5564,
      "##имов": 5565,
      "kras": 5566,
      "##ense": 5567,
      "aviation": 5568,
      "marg": 5569,
      "kem": 5570,
      "bh": 5571,
      "tod": 5572,
      "busyness": 5573,
      "psycho": 5574,
      "vs": 5575,
      "##ati": 5576,
      "háj": 5577,
      "victoria": 5578,
      "##elo": 5579,
      "##asova": 5580,
      "##гомед": 5581,
      "##bon": 5582,
      "škol": 5583,
      "goł": 5584,
      "##bla": 5585,
      "##leh": 5586,
      "technologyes": 5587,
      "##apt": 5588,
      "brněnský": 5589,
      "coordin": 5590,
      "terka": 5591,
      "strategists": 5592,
      "rozt": 5593,
      "kola": 5594,
      "##abil": 5595,
      "##ochová": 5596,
      "craft": 5597,
      "##ecraft": 5598,
      "ni": 5599,
      "##low": 5600,
      "neo": 5601,
      "włod": 5602,
      "gero": 5603,
      "vaj": 5604,
      "schw": 5605,
      "duch": 5606,
      "##еш": 5607,
      "cc": 5608,
      "consultoria": 5609,
      "pu": 5610,
      "##81": 5611,
      "##raj": 5612,
      "##bn": 5613,
      "bohum": 5614,
      "##chester": 5615,
      "##aro": 5616,
      "##aga": 5617,
      "##roll": 5618,
      "##kos": 5619,
      "##ásek": 5620,
      "premier": 5621,
      "clear": 5622,
      "božena": 5623,
      "##cov": 5624,
      "##max": 5625,
      "logo": 5626,
      "##vent": 5627,
      "vysok": 5628,
      "cot": 5629,
      "staré": 5630,
      "jeff": 5631,
      "##liv": 5632,
      "kazimierz": 5633,
      "##rát": 5634,
      "##prov": 5635,
      "##rowski": 5636,
      "##ewsky": 5637,
      "org": 5638,
      "##ńczyk": 5639,
      "##2000": 5640,
      "nezávis": 5641,
      "wel": 5642,
      "fashion": 5643,
      "ula": 5644,
      "dmitri": 5645,
      "šť": 5646,
      "socio": 5647,
      "demo": 5648,
      "muse": 5649,
      "cro": 5650,
      "tele": 5651,
      "syst": 5652,
      "dlou": 5653,
      "##82": 5654,
      "uc": 5655,
      "ald": 5656,
      "##rie": 5657,
      "##ycle": 5658,
      "aleksandr": 5659,
      "##oni": 5660,
      "veřej": 5661,
      "venture": 5662,
      "hora": 5663,
      "pard": 5664,
      "integra": 5665,
      "ef": 5666,
      "ari": 5667,
      "hynek": 5668,
      "лариса": 5669,
      "##nel": 5670,
      "##ige": 5671,
      "girl": 5672,
      "medico": 5673,
      "dynam": 5674,
      "love": 5675,
      "##yx": 5676,
      "сем": 5677,
      "##hrad": 5678,
      "macy": 5679,
      "biz": 5680,
      "##agle": 5681,
      "bow": 5682,
      "ngu": 5683,
      "státní": 5684,
      "engyne": 5685,
      "mono": 5686,
      "##lek": 5687,
      "##икова": 5688,
      "jord": 5689,
      "##nd": 5690,
      "##ctic": 5691,
      "oper": 5692,
      "kł": 5693,
      "adry": 5694,
      "##iter": 5695,
      "##udio": 5696,
      "viro": 5697,
      "coordinators": 5698,
      "##upení": 5699,
      "nikita": 5700,
      "##нова": 5701,
      "zyg": 5702,
      "oce": 5703,
      "##ycki": 5704,
      "hanz": 5705,
      "divize": 5706,
      "tours": 5707,
      "kys": 5708,
      "##maj": 5709,
      "##aszek": 5710,
      "##kovský": 5711,
      "##ration": 5712,
      "##áša": 5713,
      "##śc": 5714,
      "fot": 5715,
      "##jf": 5716,
      "tať": 5717,
      "council": 5718,
      "##ovičová": 5719,
      "13": 5720,
      "##бер": 5721,
      "tl": 5722,
      "##eco": 5723,
      "##iams": 5724,
      "soukromý": 5725,
      "##рик": 5726,
      "stad": 5727,
      "rut": 5728,
      "anth": 5729,
      "cest": 5730,
      "přemysl": 5731,
      "bí": 5732,
      "export": 5733,
      "you": 5734,
      "##drová": 5735,
      "kit": 5736,
      "malá": 5737,
      "##иля": 5738,
      "##ago": 5739,
      "ign": 5740,
      "vyn": 5741,
      "##zen": 5742,
      "##chova": 5743,
      "talent": 5744,
      "oddělení": 5745,
      "настя": 5746,
      "marketyng": 5747,
      "prodej": 5748,
      "koval": 5749,
      "ctr": 5750,
      "##61": 5751,
      "hat": 5752,
      "przyb": 5753,
      "##шка": 5754,
      "process": 5755,
      "констан": 5756,
      "přel": 5757,
      "##vol": 5758,
      "thu": 5759,
      "##ific": 5760,
      "##iba": 5761,
      "dot": 5762,
      "##yszek": 5763,
      "opravy": 5764,
      "##иков": 5765,
      "##onov": 5766,
      "ft": 5767,
      "##го": 5768,
      "##vice": 5769,
      "##łaż": 5770,
      "##gin": 5771,
      "buj": 5772,
      "hou": 5773,
      "pab": 5774,
      "##pts": 5775,
      "fly": 5776,
      "rail": 5777,
      "##ešov": 5778,
      "яна": 5779,
      "ide": 5780,
      "dost": 5781,
      "svobodný": 5782,
      "skrz": 5783,
      "вадим": 5784,
      "městský": 5785,
      "piv": 5786,
      "rel": 5787,
      "vehic": 5788,
      "uskupení": 5789,
      "ergo": 5790,
      "##iki": 5791,
      "##burg": 5792,
      "##less": 5793,
      "##yse": 5794,
      "guz": 5795,
      "holdyngs": 5796,
      "trus": 5797,
      "rum": 5798,
      "compan": 5799,
      "sak": 5800,
      "##cích": 5801,
      "##kers": 5802,
      "european": 5803,
      "##lád": 5804,
      "brun": 5805,
      "vinc": 5806,
      "analytics": 5807,
      "кра": 5808,
      "mykhaylo": 5809,
      "##řiv": 5810,
      "vladyslav": 5811,
      "homo": 5812,
      "##mig": 5813,
      "dok": 5814,
      "nur": 5815,
      "##anská": 5816,
      "##ogados": 5817,
      "##енкова": 5818,
      "acqu": 5819,
      "esp": 5820,
      "mia": 5821,
      "vašek": 5822,
      "shipping": 5823,
      "young": 5824,
      "nezávislý": 5825,
      "ivona": 5826,
      "##ём": 5827,
      "##nia": 5828,
      "##czewska": 5829,
      "km": 5830,
      "chlum": 5831,
      "au": 5832,
      "nah": 5833,
      "kent": 5834,
      "##haj": 5835,
      "bac": 5836,
      "practition": 5837,
      "##ency": 5838,
      "vratislav": 5839,
      "tut": 5840,
      "##čil": 5841,
      "##fi": 5842,
      "##als": 5843,
      "##vi": 5844,
      "brothers": 5845,
      "sb": 5846,
      "константин": 5847,
      "offshore": 5848,
      "foc": 5849,
      "farms": 5850,
      "die": 5851,
      "##атова": 5852,
      "##динов": 5853,
      "česko": 5854,
      "21": 5855,
      "theat": 5856,
      "##лю": 5857,
      "way": 5858,
      "##hova": 5859,
      "фед": 5860,
      "cez": 5861,
      "##ня": 5862,
      "вол": 5863,
      "##alski": 5864,
      "##bour": 5865,
      "týn": 5866,
      "fak": 5867,
      "cich": 5868,
      "##eneusz": 5869,
      "##ikace": 5870,
      "eliska": 5871,
      "##jd": 5872,
      "##ream": 5873,
      "monitor": 5874,
      "##roup": 5875,
      "##ějších": 5876,
      "12": 5877,
      "slo": 5878,
      "anya": 5879,
      "##ovace": 5880,
      "cosmo": 5881,
      "##ežka": 5882,
      "##ера": 5883,
      "ruz": 5884,
      "physio": 5885,
      "gav": 5886,
      "##ights": 5887,
      "##right": 5888,
      "##icals": 5889,
      "cert": 5890,
      "##orov": 5891,
      "hov": 5892,
      "que": 5893,
      "td": 5894,
      "ray": 5895,
      "mk": 5896,
      "chemo": 5897,
      "import": 5898,
      "velká": 5899,
      "олеся": 5900,
      "ам": 5901,
      "##atyons": 5902,
      "gad": 5903,
      "run": 5904,
      "##yuk": 5905,
      "##atova": 5906,
      "virt": 5907,
      "france": 5908,
      "sylva": 5909,
      "služ": 5910,
      "propertyes": 5911,
      "##other": 5912,
      "##asa": 5913,
      "##izace": 5914,
      "saw": 5915,
      "michala": 5916,
      "jiř": 5917,
      "gem": 5918,
      "sit": 5919,
      "bug": 5920,
      "##uková": 5921,
      "jewel": 5922,
      "strz": 5923,
      "antonin": 5924,
      "practitioners": 5925,
      "plzeň": 5926,
      "reality": 5927,
      "wir": 5928,
      "jęd": 5929,
      "24": 5930,
      "natural": 5931,
      "##ike": 5932,
      "henry": 5933,
      "##mol": 5934,
      "start": 5935,
      "##ieł": 5936,
      "##etření": 5937,
      "magdaléna": 5938,
      "provinc": 5939,
      "vaš": 5940,
      "##рис": 5941,
      "##su": 5942,
      "china": 5943,
      "unit": 5944,
      "##isova": 5945,
      "gate": 5946,
      "math": 5947,
      "krypto": 5948,
      "růžena": 5949,
      "##ная": 5950,
      "head": 5951,
      "##ection": 5952,
      "##ubov": 5953,
      "northern": 5954,
      "мус": 5955,
      "nyc": 5956,
      "rav": 5957,
      "stereo": 5958,
      "##ąb": 5959,
      "onco": 5960,
      "til": 5961,
      "##nuti": 5962,
      "##oco": 5963,
      "##cast": 5964,
      "##dor": 5965,
      "bytové": 5966,
      "##iecki": 5967,
      "science": 5968,
      "eff": 5969,
      "faj": 5970,
      "mud": 5971,
      "dvor": 5972,
      "úč": 5973,
      "##rap": 5974,
      "ро": 5975,
      "##řych": 5976,
      "##ody": 5977,
      "##yusz": 5978,
      "##xy": 5979,
      "bun": 5980,
      "phoenix": 5981,
      "##edd": 5982,
      "pllc": 5983,
      "егор": 5984,
      "rhino": 5985,
      "##ship": 5986,
      "nied": 5987,
      "premises": 5988,
      "##anovice": 5989,
      "obecní": 5990,
      "##hail": 5991,
      "marián": 5992,
      "lop": 5993,
      "су": 5994,
      "##ken": 5995,
      "##něte": 5996,
      "gyno": 5997,
      "анато": 5998,
      "tas": 5999,
      "arg": 6000,
      "koste": 6001,
      "##cat": 6002,
      "ryd": 6003,
      "iso": 6004,
      "sho": 6005,
      "##śka": 6006,
      "##osti": 6007,
      "##ный": 6008,
      "vilém": 6009,
      "##usta": 6010,
      "##áh": 6011,
      "uny": 6012,
      "leaders": 6013,
      "pou": 6014,
      "rodinný": 6015,
      "taylor": 6016,
      "lybor": 6017,
      "hob": 6018,
      "##шин": 6019,
      "##owiak": 6020,
      "brid": 6021,
      "karin": 6022,
      "##skiy": 6023,
      "appl": 6024,
      "strategic": 6025,
      "square": 6026,
      "village": 6027,
      "##иров": 6028,
      "heart": 6029,
      "##ici": 6030,
      "##liz": 6031,
      "rož": 6032,
      "konstant": 6033,
      "duc": 6034,
      "błaż": 6035,
      "##nout": 6036,
      "##jam": 6037,
      "bot": 6038,
      "##ětice": 6039,
      "kou": 6040,
      "vt": 6041,
      "leo": 6042,
      "ice": 6043,
      "personal": 6044,
      "retro": 6045,
      "ce": 6046,
      "paint": 6047,
      "##zor": 6048,
      "investors": 6049,
      "##lis": 6050,
      "hetero": 6051,
      "##umě": 6052,
      "haz": 6053,
      "##utt": 6054,
      "##cho": 6055,
      "дани": 6056,
      "vlt": 6057,
      "##plays": 6058,
      "##iza": 6059,
      "venc": 6060,
      "sie": 6061,
      "##ther": 6062,
      "##rs": 6063,
      "##řská": 6064,
      "anežka": 6065,
      "tamara": 6066,
      "distribuce": 6067,
      "##mg": 6068,
      "cloth": 6069,
      "hil": 6070,
      "gaz": 6071,
      "margar": 6072,
      "ак": 6073,
      "consultanci": 6074,
      "krystýna": 6075,
      "эд": 6076,
      "jagoda": 6077,
      "buz": 6078,
      "##log": 6079,
      "##stí": 6080,
      "wash": 6081,
      "##oor": 6082,
      "festival": 6083,
      "##edy": 6084,
      "##point": 6085,
      "##niewska": 6086,
      "nab": 6087,
      "##еслав": 6088,
      "wall": 6089,
      "mex": 6090,
      "princ": 6091,
      "robot": 6092,
      "катя": 6093,
      "mist": 6094,
      "advent": 6095,
      "##оп": 6096,
      "##insky": 6097,
      "resource": 6098,
      "ay": 6099,
      "rid": 6100,
      "##dale": 6101,
      "gardens": 6102,
      "##ards": 6103,
      "kevin": 6104,
      "lubos": 6105,
      "time": 6106,
      "##kol": 6107,
      "veřejný": 6108,
      "chor": 6109,
      "interactive": 6110,
      "##lap": 6111,
      "наталия": 6112,
      "spir": 6113,
      "##ergy": 6114,
      "##enkova": 6115,
      "##ocha": 6116,
      "##aný": 6117,
      "##ovich": 6118,
      "call": 6119,
      "investice": 6120,
      "pern": 6121,
      "eu": 6122,
      "##jn": 6123,
      "exp": 6124,
      "бел": 6125,
      "koł": 6126,
      "##zb": 6127,
      "##mont": 6128,
      "instalace": 6129,
      "##rb": 6130,
      "##ages": 6131,
      "eb": 6132,
      "viv": 6133,
      "news": 6134,
      "zag": 6135,
      "perf": 6136,
      "соф": 6137,
      "hemo": 6138,
      "dc": 6139,
      "get": 6140,
      "kord": 6141,
      "ss": 6142,
      "bend": 6143,
      "asp": 6144,
      "regionální": 6145,
      "##ąs": 6146,
      "##hai": 6147,
      "##osa": 6148,
      "future": 6149,
      "lane": 6150,
      "##cing": 6151,
      "marika": 6152,
      "honz": 6153,
      "bah": 6154,
      "##rah": 6155,
      "šaf": 6156,
      "doprava": 6157,
      "охранит": 6158,
      "##007": 6159,
      "galerie": 6160,
      "nejne": 6161,
      "lett": 6162,
      "toxi": 6163,
      "dez": 6164,
      "14": 6165,
      "vran": 6166,
      "19": 6167,
      "wes": 6168,
      "##ares": 6169,
      "##tejn": 6170,
      "##ente": 6171,
      "oliver": 6172,
      "provincial": 6173,
      "hipo": 6174,
      "##rek": 6175,
      "##kowsky": 6176,
      "##fg": 6177,
      "##бина": 6178,
      "andrii": 6179,
      "##otín": 6180,
      "##ologie": 6181,
      "ern": 6182,
      "dej": 6183,
      "ziel": 6184,
      "šum": 6185,
      "##rit": 6186,
      "open": 6187,
      "##change": 6188,
      "dent": 6189,
      "##ief": 6190,
      "már": 6191,
      "mom": 6192,
      "fresh": 6193,
      "clark": 6194,
      "agricult": 6195,
      "back": 6196,
      "malw": 6197,
      "krás": 6198,
      "##ištění": 6199,
      "##ех": 6200,
      "##fal": 6201,
      "kej": 6202,
      "abdul": 6203,
      "alexey": 6204,
      "kenn": 6205,
      "11": 6206,
      "ondr": 6207,
      "cuk": 6208,
      "dum": 6209,
      "child": 6210,
      "##kel": 6211,
      "oles": 6212,
      "##onsult": 6213,
      "lake": 6214,
      "##ęp": 6215,
      "##оль": 6216,
      "##eryng": 6217,
      "##iq": 6218,
      "dmytro": 6219,
      "мат": 6220,
      "##ив": 6221,
      "ds": 6222,
      "independent": 6223,
      "hos": 6224,
      "andrei": 6225,
      "sanace": 6226,
      "##inder": 6227,
      "##miel": 6228,
      "##idad": 6229,
      "cup": 6230,
      "##гин": 6231,
      "##ear": 6232,
      "##ehold": 6233,
      "miš": 6234,
      "pneumo": 6235,
      "##rade": 6236,
      "##eds": 6237,
      "patho": 6238,
      "вяч": 6239,
      "##ча": 6240,
      "osteo": 6241,
      "velký": 6242,
      "nw": 6243,
      "##níky": 6244,
      "cha": 6245,
      "williams": 6246,
      "##lez": 6247,
      "##uu": 6248,
      "cardio": 6249,
      "milos": 6250,
      "four": 6251,
      "##edia": 6252,
      "museum": 6253,
      "##ějovice": 6254,
      "##nc": 6255,
      "immuno": 6256,
      "##yde": 6257,
      "africa": 6258,
      "##ope": 6259,
      "rach": 6260,
      "nak": 6261,
      "kova": 6262,
      "##eka": 6263,
      "recycling": 6264,
      "kilo": 6265,
      "otakar": 6266,
      "cand": 6267,
      "##jc": 6268,
      "##ulska": 6269,
      "wiesława": 6270,
      "##ěves": 6271,
      "dru": 6272,
      "justina": 6273,
      "morgan": 6274,
      "syr": 6275,
      "##ým": 6276,
      "edge": 6277,
      "bek": 6278,
      "##owy": 6279,
      "##side": 6280,
      "##ather": 6281,
      "гр": 6282,
      "thermo": 6283,
      "pis": 6284,
      "##жон": 6285,
      "nord": 6286,
      "epic": 6287,
      "bernard": 6288,
      "mountain": 6289,
      "##iera": 6290,
      "##rzak": 6291,
      "symona": 6292,
      "##rh": 6293,
      "stro": 6294,
      "lighting": 6295,
      "диана": 6296,
      "lucia": 6297,
      "intellig": 6298,
      "russ": 6299,
      "##íšková": 6300,
      "jet": 6301,
      "servic": 6302,
      "mił": 6303,
      "šed": 6304,
      "##fc": 6305,
      "precision": 6306,
      "lich": 6307,
      "jay": 6308,
      "##ews": 6309,
      "bb": 6310,
      "yva": 6311,
      "про": 6312,
      "##дар": 6313,
      "emplo": 6314,
      "mike": 6315,
      "kateryna": 6316,
      "##lev": 6317,
      "sylwester": 6318,
      "portfol": 6319,
      "##еня": 6320,
      "diagnostika": 6321,
      "##erw": 6322,
      "##ocki": 6323,
      "aven": 6324,
      "##cký": 6325,
      "##čko": 6326,
      "vyktor": 6327,
      "##erland": 6328,
      "alois": 6329,
      "##říz": 6330,
      "dance": 6331,
      "##ske": 6332,
      "##łowski": 6333,
      "##czynska": 6334,
      "##ého": 6335,
      "##imon": 6336,
      "attor": 6337,
      "jež": 6338,
      "animal": 6339,
      "miecz": 6340,
      "##оев": 6341,
      "##games": 6342,
      "##ful": 6343,
      "##oup": 6344,
      "##eri": 6345,
      "##architekt": 6346,
      "risk": 6347,
      "chiro": 6348,
      "landscap": 6349,
      "mechanical": 6350,
      "##ode": 6351,
      "ortho": 6352,
      "nejb": 6353,
      "standa": 6354,
      "technologi": 6355,
      "před": 6356,
      "##erka": 6357,
      "##ьян": 6358,
      "##leg": 6359,
      "soft": 6360,
      "juraj": 6361,
      "ender": 6362,
      "emb": 6363,
      "pass": 6364,
      "lj": 6365,
      "kum": 6366,
      "вячеслав": 6367,
      "lach": 6368,
      "kult": 6369,
      "алё": 6370,
      "cd": 6371,
      "hug": 6372,
      "##yra": 6373,
      "pand": 6374,
      "drob": 6375,
      "ingen": 6376,
      "##nete": 6377,
      "##oko": 6378,
      "western": 6379,
      "##oles": 6380,
      "dym": 6381,
      "pokor": 6382,
      "василий": 6383,
      "sha": 6384,
      "funds": 6385,
      "hamp": 6386,
      "concepts": 6387,
      "stock": 6388,
      "play": 6389,
      "##imova": 6390,
      "strat": 6391,
      "fine": 6392,
      "ik": 6393,
      "liber": 6394,
      "fig": 6395,
      "##rim": 6396,
      "##íšek": 6397,
      "theatre": 6398,
      "roks": 6399,
      "www": 6400,
      "##usa": 6401,
      "andy": 6402,
      "cli": 6403,
      "##онова": 6404,
      "##hard": 6405,
      "##byeta": 6406,
      "projekty": 6407,
      "koč": 6408,
      "анатолий": 6409,
      "##yż": 6410,
      "##aker": 6411,
      "ez": 6412,
      "##ňovice": 6413,
      "ston": 6414,
      "ман": 6415,
      "##ular": 6416,
      "##rada": 6417,
      "minist": 6418,
      "pink": 6419,
      "hoj": 6420,
      "mariya": 6421,
      "##wski": 6422,
      "##динова": 6423,
      "##hs": 6424,
      "##miss": 6425,
      "income": 6426,
      "мур": 6427,
      "##áňová": 6428,
      "##adlo": 6429,
      "thy": 6430,
      "got": 6431,
      "##oňová": 6432,
      "##лы": 6433,
      "##cture": 6434,
      "сам": 6435,
      "##nicki": 6436,
      "##fs": 6437,
      "##life": 6438,
      "oliv": 6439,
      "chv": 6440,
      "massage": 6441,
      "sew": 6442,
      "kond": 6443,
      "fial": 6444,
      "brat": 6445,
      "hrom": 6446,
      "technicians": 6447,
      "sep": 6448,
      "##entry": 6449,
      "17": 6450,
      "oč": 6451,
      "jindřiška": 6452,
      "brasil": 6453,
      "myroslava": 6454,
      "bear": 6455,
      "##ulance": 6456,
      "activ": 6457,
      "trn": 6458,
      "gór": 6459,
      "jah": 6460,
      "##tka": 6461,
      "contracts": 6462,
      "##place": 6463,
      "##skal": 6464,
      "set": 6465,
      "##uś": 6466,
      "čerm": 6467,
      "15": 6468,
      "##aver": 6469,
      "hlub": 6470,
      "ys": 6471,
      "##urn": 6472,
      "dl": 6473,
      "gun": 6474,
      "##rec": 6475,
      "luž": 6476,
      "jung": 6477,
      "##шина": 6478,
      "nicol": 6479,
      "room": 6480,
      "##chen": 6481,
      "seni": 6482,
      "atlant": 6483,
      "cw": 6484,
      "##acht": 6485,
      "dw": 6486,
      "via": 6487,
      "##гина": 6488,
      "##сов": 6489,
      "gos": 6490,
      "##адж": 6491,
      "lon": 6492,
      "##ends": 6493,
      "данил": 6494,
      "##práv": 6495,
      "##onice": 6496,
      "body": 6497,
      "cm": 6498,
      "ble": 6499,
      "##uby": 6500,
      "aps": 6501,
      "##zyński": 6502,
      "row": 6503,
      "pers": 6504,
      "##yss": 6505,
      "nicola": 6506,
      "##inary": 6507,
      "saj": 6508,
      "moon": 6509,
      "fabric": 6510,
      "##ativa": 6511,
      "cim": 6512,
      "##olution": 6513,
      "stavební": 6514,
      "ludvík": 6515,
      "##ills": 6516,
      "lyd": 6517,
      "kid": 6518,
      "##uto": 6519,
      "iryna": 6520,
      "##ańska": 6521,
      "анж": 6522,
      "##ovcová": 6523,
      "theb": 6524,
      "minh": 6525,
      "installat": 6526,
      "vok": 6527,
      "agent": 6528,
      "hak": 6529,
      "##ysek": 6530,
      "harris": 6531,
      "clar": 6532,
      "view": 6533,
      "##ryc": 6534,
      "##skyy": 6535,
      "##tion": 6536,
      "##mart": 6537,
      "žď": 6538,
      "##ined": 6539,
      "flow": 6540,
      "student": 6541,
      "halyna": 6542,
      "##lewska": 6543,
      "text": 6544,
      "gy": 6545,
      "depart": 6546,
      "##rzyk": 6547,
      "rychard": 6548,
      "##haus": 6549,
      "##rian": 6550,
      "##чев": 6551,
      "##eckova": 6552,
      "##fox": 6553,
      "neod": 6554,
      "ful": 6555,
      "fond": 6556,
      "##nat": 6557,
      "##ziński": 6558,
      "##sobování": 6559,
      "květa": 6560,
      "ced": 6561,
      "rozk": 6562,
      "tj": 6563,
      "úklid": 6564,
      "youth": 6565,
      "kral": 6566,
      "##odová": 6567,
      "##oman": 6568,
      "brit": 6569,
      "##opa": 6570,
      "##roba": 6571,
      "sier": 6572,
      "jirina": 6573,
      "##баева": 6574,
      "nejroz": 6575,
      "##ellow": 6576,
      "##tim": 6577,
      "##ziej": 6578,
      "surve": 6579,
      "ireneusz": 6580,
      "texas": 6581,
      "##fin": 6582,
      "zac": 6583,
      "ral": 6584,
      "hi": 6585,
      "prů": 6586,
      "danyela": 6587,
      "denys": 6588,
      "##olice": 6589,
      "rozm": 6590,
      "bernad": 6591,
      "##há": 6592,
      "night": 6593,
      "dut": 6594,
      "dad": 6595,
      "oran": 6596,
      "##kas": 6597,
      "гуль": 6598,
      "##vald": 6599,
      "bist": 6600,
      "přeh": 6601,
      "mp": 6602,
      "centro": 6603,
      "##inja": 6604,
      "##yslaw": 6605,
      "naďa": 6606,
      "companies": 6607,
      "##уп": 6608,
      "charter": 6609,
      "spring": 6610,
      "hung": 6611,
      "growth": 6612,
      "##kem": 6613,
      "ace": 6614,
      "##arl": 6615,
      "und": 6616,
      "strategies": 6617,
      "ethno": 6618,
      "vyst": 6619,
      "ball": 6620,
      "mj": 6621,
      "noh": 6622,
      "jp": 6623,
      "##czynski": 6624,
      "peť": 6625,
      "nich": 6626,
      "bib": 6627,
      "##vis": 6628,
      "patrick": 6629,
      "##kování": 6630,
      "dima": 6631,
      "##mes": 6632,
      "nejd": 6633,
      "##ubice": 6634,
      "##nuty": 6635,
      "gb": 6636,
      "##ида": 6637,
      "svitlana": 6638,
      "ross": 6639,
      "mychael": 6640,
      "chiropra": 6641,
      "concept": 6642,
      "pes": 6643,
      "##wo": 6644,
      "szw": 6645,
      "##epř": 6646,
      "##telnějšího": 6647,
      "бар": 6648,
      "eye": 6649,
      "má": 6650,
      "##2003": 6651,
      "gó": 6652,
      "##fx": 6653,
      "mysliv": 6654,
      "aa": 6655,
      "ld": 6656,
      "##enec": 6657,
      "yan": 6658,
      "put": 6659,
      "##media": 6660,
      "childr": 6661,
      "вера": 6662,
      "olena": 6663,
      "hotels": 6664,
      "chamber": 6665,
      "##evich": 6666,
      "##essa": 6667,
      "##tal": 6668,
      "##farm": 6669,
      "derma": 6670,
      "абдул": 6671,
      "##bat": 6672,
      "darya": 6673,
      "##mie": 6674,
      "ti": 6675,
      "##oul": 6676,
      "##lace": 6677,
      "stephen": 6678,
      "ав": 6679,
      "yulia": 6680,
      "wę": 6681,
      "integrated": 6682,
      "##сова": 6683,
      "##jana": 6684,
      "cyr": 6685,
      "##pres": 6686,
      "dolež": 6687,
      "fylyp": 6688,
      "##iasz": 6689,
      "bath": 6690,
      "jynd": 6691,
      "hala": 6692,
      "poč": 6693,
      "yuriy": 6694,
      "focus": 6695,
      "foj": 6696,
      "##osova": 6697,
      "##eting": 6698,
      "ground": 6699,
      "##uchová": 6700,
      "hv": 6701,
      "ster": 6702,
      "##obil": 6703,
      "zásobování": 6704,
      "lun": 6705,
      "čms": 6706,
      "iron": 6707,
      "##ucka": 6708,
      "##vová": 6709,
      "mend": 6710,
      "pam": 6711,
      "ana": 6712,
      "валерий": 6713,
      "##omyr": 6714,
      "bogusław": 6715,
      "##ankova": 6716,
      "##lp": 6717,
      "jacob": 6718,
      "pf": 6719,
      "##ingerová": 6720,
      "pig": 6721,
      "##rid": 6722,
      "##999": 6723,
      "survey": 6724,
      "18": 6725,
      "артём": 6726,
      "nech": 6727,
      "##acova": 6728,
      "elementary": 6729,
      "##ando": 6730,
      "##eline": 6731,
      "##nikov": 6732,
      "denysa": 6733,
      "arth": 6734,
      "##narová": 6735,
      "arbit": 6736,
      "дав": 6737,
      "##yck": 6738,
      "##ivery": 6739,
      "##het": 6740,
      "kitchen": 6741,
      "nicole": 6742,
      "##anowski": 6743,
      "yurii": 6744,
      "dobrovolných": 6745,
      "ге": 6746,
      "##nn": 6747,
      "kris": 6748,
      "sag": 6749,
      "tecnolog": 6750,
      "women": 6751,
      "spark": 6752,
      "gust": 6753,
      "zahrad": 6754,
      "нур": 6755,
      "zaz": 6756,
      "bogumi": 6757,
      "##raž": 6758,
      "ded": 6759,
      "##níček": 6760,
      "matouš": 6761,
      "гол": 6762,
      "##oon": 6763,
      "##unová": 6764,
      "ocean": 6765,
      "wag": 6766,
      "##md": 6767,
      "nv": 6768,
      "##řez": 6769,
      "##ěn": 6770,
      "sona": 6771,
      "department": 6772,
      "##tee": 6773,
      "johnson": 6774,
      "##илов": 6775,
      "ста": 6776,
      "visual": 6777,
      "serhii": 6778,
      "##ька": 6779,
      "koj": 6780,
      "##more": 6781,
      "błażej": 6782,
      "šul": 6783,
      "wyl": 6784,
      "prot": 6785,
      "##erty": 6786,
      "bill": 6787,
      "##gam": 6788,
      "vzděl": 6789,
      "kasya": 6790,
      "kratoch": 6791,
      "ylona": 6792,
      "color": 6793,
      "křiv": 6794,
      "kade": 6795,
      "thed": 6796,
      "tyr": 6797,
      "neh": 6798,
      "pyt": 6799,
      "gał": 6800,
      "gib": 6801,
      "##atyve": 6802,
      "##kins": 6803,
      "jaromir": 6804,
      "šil": 6805,
      "vach": 6806,
      "ambulance": 6807,
      "štef": 6808,
      "add": 6809,
      "hors": 6810,
      "##tz": 6811,
      "##ubek": 6812,
      "##tice": 6813,
      "żaneta": 6814,
      "action": 6815,
      "vet": 6816,
      "accountancy": 6817,
      "##zar": 6818,
      "lup": 6819,
      "next": 6820,
      "šev": 6821,
      "##iesz": 6822,
      "černá": 6823,
      "maryusz": 6824,
      "##лик": 6825,
      "артур": 6826,
      "##ąd": 6827,
      "lob": 6828,
      "##ař": 6829,
      "##líž": 6830,
      "##eless": 6831,
      "##play": 6832,
      "náv": 6833,
      "##ui": 6834,
      "kirill": 6835,
      "##mag": 6836,
      "eugen": 6837,
      "##ečka": 6838,
      "нина": 6839,
      "пер": 6840,
      "bakery": 6841,
      "##cr": 6842,
      "galina": 6843,
      "##инов": 6844,
      "tourism": 6845,
      "zbyszek": 6846,
      "##тов": 6847,
      "prime": 6848,
      "hedv": 6849,
      "ели": 6850,
      "viktorie": 6851,
      "joinery": 6852,
      "wine": 6853,
      "полина": 6854,
      "##atov": 6855,
      "##tar": 6856,
      "##opher": 6857,
      "##xa": 6858,
      "kraw": 6859,
      "vob": 6860,
      "stoj": 6861,
      "##елина": 6862,
      "##ól": 6863,
      "##chi": 6864,
      "##iser": 6865,
      "screen": 6866,
      "lot": 6867,
      "middle": 6868,
      "prest": 6869,
      "tě": 6870,
      "delta": 6871,
      "mario": 6872,
      "ward": 6873,
      "##lava": 6874,
      "владислав": 6875,
      "eagle": 6876,
      "##дина": 6877,
      "freehold": 6878,
      "##etislav": 6879,
      "records": 6880,
      "boř": 6881,
      "##idl": 6882,
      "валерия": 6883,
      "##playz": 6884,
      "světlana": 6885,
      "think": 6886,
      "##pson": 6887,
      "##чева": 6888,
      "рад": 6889,
      "killer": 6890,
      "##ováno": 6891,
      "##usion": 6892,
      "пол": 6893,
      "##níčková": 6894,
      "##pová": 6895,
      "##vd": 6896,
      "##kalová": 6897,
      "##ikowska": 6898,
      "##cak": 6899,
      "practice": 6900,
      "přih": 6901,
      "бер": 6902,
      "hru": 6903,
      "##vs": 6904,
      "miller": 6905,
      "##ávka": 6906,
      "puch": 6907,
      "pict": 6908,
      "магомед": 6909,
      "##уля": 6910,
      "bukov": 6911,
      "neg": 6912,
      "conc": 6913,
      "boc": 6914,
      "##itas": 6915,
      "roksana": 6916,
      "řeh": 6917,
      "##ůvod": 6918,
      "bej": 6919,
      "rov": 6920,
      "aid": 6921,
      "##view": 6922,
      "nursery": 6923,
      "garage": 6924,
      "##štejn": 6925,
      "ynter": 6926,
      "##leč": 6927,
      "##шев": 6928,
      "yev": 6929,
      "terezka": 6930,
      "##rafter": 6931,
      "skor": 6932,
      "pust": 6933,
      "živ": 6934,
      "##yová": 6935,
      "##rys": 6936,
      "ug": 6937,
      "cooling": 6938,
      "##itors": 6939,
      "dk": 6940,
      "alla": 6941,
      "bridge": 6942,
      "free": 6943,
      "sov": 6944,
      "##lot": 6945,
      "zast": 6946,
      "##ným": 6947,
      "##light": 6948,
      "##или": 6949,
      "##ynova": 6950,
      "szp": 6951,
      "prok": 6952,
      "studyo": 6953,
      "##ула": 6954,
      "kami": 6955,
      "##munt": 6956,
      "odp": 6957,
      "marianna": 6958,
      "##nam": 6959,
      "down": 6960,
      "##tková": 6961,
      "termo": 6962,
      "##uky": 6963,
      "##rn": 6964,
      "kadeř": 6965,
      "cec": 6966,
      "sut": 6967,
      "##líd": 6968,
      "##eves": 6969,
      "vltavou": 6970,
      "stand": 6971,
      "мам": 6972,
      "##yth": 6973,
      "chiropractic": 6974,
      "##ured": 6975,
      "moham": 6976,
      "kout": 6977,
      "##wh": 6978,
      "##улов": 6979,
      "dobro": 6980,
      "инна": 6981,
      "tadeáš": 6982,
      "##oria": 6983,
      "radym": 6984,
      "lodge": 6985,
      "##lete": 6986,
      "##orky": 6987,
      "myd": 6988,
      "malwina": 6989,
      "##kowicz": 6990,
      "##izz": 6991,
      "frý": 6992,
      "##tc": 6993,
      "lucas": 6994,
      "##lem": 6995,
      "řez": 6996,
      "##orking": 6997,
      "drahomíra": 6998,
      "if": 6999,
      "##ож": 7000,
      "##lia": 7001,
      "gut": 7002,
      "##2004": 7003,
      "kids": 7004,
      "pej": 7005,
      "##igo": 7006,
      "witold": 7007,
      "##2002": 7008,
      "##wick": 7009,
      "##bus": 7010,
      "##říčí": 7011,
      "snow": 7012,
      "gan": 7013,
      "##tein": 7014,
      "sac": 7015,
      "vlas": 7016,
      "##ryst": 7017,
      "advoc": 7018,
      "doh": 7019,
      "syd": 7020,
      "##čov": 7021,
      "##utions": 7022,
      "kings": 7023,
      "awes": 7024,
      "jd": 7025,
      "shel": 7026,
      "administrat": 7027,
      "##atka": 7028,
      "##arc": 7029,
      "fu": 7030,
      "##ného": 7031,
      "##east": 7032,
      "cultural": 7033,
      "creek": 7034,
      "jizer": 7035,
      "##wi": 7036,
      "taťána": 7037,
      "dyg": 7038,
      "gov": 7039,
      "čist": 7040,
      "##atic": 7041,
      "##yi": 7042,
      "nováková": 7043,
      "bright": 7044,
      "##esová": 7045,
      "kačka": 7046,
      "jev": 7047,
      "##neme": 7048,
      "##likova": 7049,
      "vot": 7050,
      "##col": 7051,
      "##mor": 7052,
      "dáša": 7053,
      "vond": 7054,
      "island": 7055,
      "##hous": 7056,
      "##уллина": 7057,
      "##ejší": 7058,
      "##pli": 7059,
      "wład": 7060,
      "langu": 7061,
      "##lich": 7062,
      "##irov": 7063,
      "##ping": 7064,
      "ion": 7065,
      "##enova": 7066,
      "pron": 7067,
      "rys": 7068,
      "radoslav": 7069,
      "##ěna": 7070,
      "сол": 7071,
      "lock": 7072,
      "бор": 7073,
      "ihor": 7074,
      "##urova": 7075,
      "paulyna": 7076,
      "šym": 7077,
      "##ante": 7078,
      "##ives": 7079,
      "##енков": 7080,
      "##unova": 7081,
      "pharmacy": 7082,
      "roc": 7083,
      "non": 7084,
      "buyld": 7085,
      "steven": 7086,
      "##řeb": 7087,
      "##rů": 7088,
      "##elli": 7089,
      "pool": 7090,
      "##iper": 7091,
      "##ques": 7092,
      "##inkova": 7093,
      "##space": 7094,
      "##stová": 7095,
      "##fish": 7096,
      "##nicí": 7097,
      "jean": 7098,
      "kant": 7099,
      "two": 7100,
      "biał": 7101,
      "##entos": 7102,
      "##gress": 7103,
      "ywona": 7104,
      "##хан": 7105,
      "nan": 7106,
      "##ící": 7107,
      "woł": 7108,
      "##hill": 7109,
      "zosia": 7110,
      "##ote": 7111,
      "##iewska": 7112,
      "vitalii": 7113,
      "bui": 7114,
      "##prost": 7115,
      "##eti": 7116,
      "jj": 7117,
      "neum": 7118,
      "holub": 7119,
      "taras": 7120,
      "петр": 7121,
      "##ěř": 7122,
      "anička": 7123,
      "##ulova": 7124,
      "wioleta": 7125,
      "hunter": 7126,
      "bár": 7127,
      "graphics": 7128,
      "##emie": 7129,
      "maryna": 7130,
      "##lák": 7131,
      "##ebr": 7132,
      "##ůvka": 7133,
      "##naj": 7134,
      "ark": 7135,
      "pud": 7136,
      "pizza": 7137,
      "tap": 7138,
      "##ukova": 7139,
      "ер": 7140,
      "##iszewska": 7141,
      "##ilities": 7142,
      "16": 7143,
      "##vor": 7144,
      "##xt": 7145,
      "yana": 7146,
      "mou": 7147,
      "mirosława": 7148,
      "město": 7149,
      "cezary": 7150,
      "##oky": 7151,
      "##yght": 7152,
      "##ulov": 7153,
      "tak": 7154,
      "pře": 7155,
      "##mt": 7156,
      "##ylova": 7157,
      "##pek": 7158,
      "##oration": 7159,
      "entre": 7160,
      "lag": 7161,
      "##layer": 7162,
      "mrá": 7163,
      "cb": 7164,
      "audit": 7165,
      "##ified": 7166,
      "avenue": 7167,
      "##lata": 7168,
      "orch": 7169,
      "##átel": 7170,
      "sg": 7171,
      "vost": 7172,
      "3d": 7173,
      "бр": 7174,
      "castle": 7175,
      "krá": 7176,
      "##mier": 7177,
      "##iep": 7178,
      "jaz": 7179,
      "##vají": 7180,
      "##encová": 7181,
      "elyška": 7182,
      "exchange": 7183,
      "terezie": 7184,
      "аня": 7185,
      "rp": 7186,
      "branding": 7187,
      "inna": 7188,
      "##urg": 7189,
      "pharmaceut": 7190,
      "##лам": 7191,
      "gala": 7192,
      "záb": 7193,
      "ynvestments": 7194,
      "wid": 7195,
      "janek": 7196,
      "flex": 7197,
      "board": 7198,
      "##ecek": 7199,
      "##ečná": 7200,
      "##under": 7201,
      "path": 7202,
      "chra": 7203,
      "##iry": 7204,
      "tvr": 7205,
      "area": 7206,
      "##ňany": 7207,
      "##líček": 7208,
      "ingr": 7209,
      "zes": 7210,
      "antoni": 7211,
      "rib": 7212,
      "##dova": 7213,
      "radmila": 7214,
      "##czka": 7215,
      "flooring": 7216,
      "engen": 7217,
      "zor": 7218,
      "nguien": 7219,
      "tul": 7220,
      "them": 7221,
      "micro": 7222,
      "##рос": 7223,
      "that": 7224,
      "maksym": 7225,
      "wój": 7226,
      "##ét": 7227,
      "naw": 7228,
      "sarah": 7229,
      "ск": 7230,
      "verča": 7231,
      "##lod": 7232,
      "vadim": 7233,
      "##rr": 7234,
      "##ského": 7235,
      "prag": 7236,
      "gog": 7237,
      "lubomir": 7238,
      "лена": 7239,
      "live": 7240,
      "nataliya": 7241,
      "wiel": 7242,
      "##dd": 7243,
      "##líčková": 7244,
      "##lach": 7245,
      "byr": 7246,
      "##gre": 7247,
      "parad": 7248,
      "číž": 7249,
      "nis": 7250,
      "drozd": 7251,
      "marsh": 7252,
      "terra": 7253,
      "##унова": 7254,
      "##tions": 7255,
      "acquis": 7256,
      "##dej": 7257,
      "dř": 7258,
      "fan": 7259,
      "##andová": 7260,
      "ach": 7261,
      "##ales": 7262,
      "алла": 7263,
      "field": 7264,
      "bedřich": 7265,
      "staffing": 7266,
      "##itions": 7267,
      "greg": 7268,
      "chmel": 7269,
      "cies": 7270,
      "zed": 7271,
      "##sb": 7272,
      "##onek": 7273,
      "medi": 7274,
      "##mix": 7275,
      "mária": 7276,
      "mcc": 7277,
      "universal": 7278,
      "##zabeth": 7279,
      "těl": 7280,
      "там": 7281,
      "obchodní": 7282,
      "exper": 7283,
      "consultant": 7284,
      "delivery": 7285,
      "hasičů": 7286,
      "mikro": 7287,
      "##uri": 7288,
      "##nuta": 7289,
      "##onová": 7290,
      "##icha": 7291,
      "##iczek": 7292,
      "skr": 7293,
      "roma": 7294,
      "##ads": 7295,
      "##avy": 7296,
      "heřman": 7297,
      "gord": 7298,
      "strategy": 7299,
      "##angel": 7300,
      "му": 7301,
      "db": 7302,
      "ian": 7303,
      "##rez": 7304,
      "##etová": 7305,
      "mazur": 7306,
      "##oa": 7307,
      "pier": 7308,
      "select": 7309,
      "hir": 7310,
      "hunt": 7311,
      "##унов": 7312,
      "sergei": 7313,
      "hb": 7314,
      "степ": 7315,
      "##łka": 7316,
      "##zak": 7317,
      "mt": 7318,
      "calif": 7319,
      "mm": 7320,
      "veg": 7321,
      "##itan": 7322,
      "##chemi": 7323,
      "##oka": 7324,
      "##vb": 7325,
      "##ops": 7326,
      "алёна": 7327,
      "schools": 7328,
      "##ancová": 7329,
      "anet": 7330,
      "florida": 7331,
      "vyp": 7332,
      "infra": 7333,
      "юля": 7334,
      "chab": 7335,
      "##lińska": 7336,
      "##inet": 7337,
      "václava": 7338,
      "dusan": 7339,
      "brokers": 7340,
      "таня": 7341,
      "##asek": 7342,
      "čep": 7343,
      "##czewski": 7344,
      "ynternatyonal": 7345,
      "mika": 7346,
      "low": 7347,
      "##ving": 7348,
      "recre": 7349,
      "obs": 7350,
      "##lah": 7351,
      "##brook": 7352,
      "##rk": 7353,
      "dept": 7354,
      "##imp": 7355,
      "##uga": 7356,
      "chrom": 7357,
      "energi": 7358,
      "viet": 7359,
      "##tors": 7360,
      "mec": 7361,
      "groupe": 7362,
      "lej": 7363,
      "quang": 7364,
      "##invest": 7365,
      "бу": 7366,
      "chom": 7367,
      "##embly": 7368,
      "clothing": 7369,
      "##360": 7370,
      "róż": 7371,
      "wawrz": 7372,
      "##linika": 7373,
      "рома": 7374,
      "сан": 7375,
      "##ёв": 7376,
      "##link": 7377,
      "mro": 7378,
      "xd": 7379,
      "##0n": 7380,
      "bin": 7381,
      "horiz": 7382,
      "##lička": 7383,
      "suc": 7384,
      "comunic": 7385,
      "katarína": 7386,
      "##jm": 7387,
      "oly": 7388,
      "value": 7389,
      "virtual": 7390,
      "jal": 7391,
      "ods": 7392,
      "vlaďka": 7393,
      "danuše": 7394,
      "##ěnice": 7395,
      "##eř": 7396,
      "apartments": 7397,
      "##merová": 7398,
      "мухам": 7399,
      "troj": 7400,
      "##wy": 7401,
      "ordin": 7402,
      "##чик": 7403,
      "##юша": 7404,
      "consultores": 7405,
      "##ements": 7406,
      "wilson": 7407,
      "ri": 7408,
      "barča": 7409,
      "sweet": 7410,
      "dinh": 7411,
      "##mary": 7412,
      "stanislaw": 7413,
      "##chal": 7414,
      "##kvyd": 7415,
      "whe": 7416,
      "##licí": 7417,
      "##olska": 7418,
      "sys": 7419,
      "sáz": 7420,
      "vondr": 7421,
      "tony": 7422,
      "##čen": 7423,
      "##uli": 7424,
      "conse": 7425,
      "##iber": 7426,
      "otto": 7427,
      "olsz": 7428,
      "laborator": 7429,
      "bech": 7430,
      "rý": 7431,
      "vyv": 7432,
      "ema": 7433,
      "##neš": 7434,
      "sea": 7435,
      "merch": 7436,
      "##gová": 7437,
      "viktoria": 7438,
      "mateřská": 7439,
      "##лиева": 7440,
      "quant": 7441,
      "##bram": 7442,
      "mes": 7443,
      "##wik": 7444,
      "##rana": 7445,
      "ludmyla": 7446,
      "econom": 7447,
      "ewel": 7448,
      "zdzisław": 7449,
      "orl": 7450,
      "adrianna": 7451,
      "pir": 7452,
      "##fová": 7453,
      "grad": 7454,
      "zuzia": 7455,
      "assist": 7456,
      "kula": 7457,
      "pup": 7458,
      "kostel": 7459,
      "##2b": 7460,
      "##niewski": 7461,
      "valentina": 7462,
      "##ąg": 7463,
      "##ulková": 7464,
      "##кар": 7465,
      "##ýk": 7466,
      "##зав": 7467,
      "stop": 7468,
      "athlet": 7469,
      "##имова": 7470,
      "blaz": 7471,
      "louis": 7472,
      "engenhar": 7473,
      "yndust": 7474,
      "francis": 7475,
      "##3d": 7476,
      "##idi": 7477,
      "##roda": 7478,
      "mej": 7479,
      "##yco": 7480,
      "гу": 7481,
      "##ační": 7482,
      "mans": 7483,
      "##gra": 7484,
      "##uber": 7485,
      "##psych": 7486,
      "bohumila": 7487,
      "californ": 7488,
      "##йд": 7489,
      "sej": 7490,
      "##dog": 7491,
      "##killer": 7492,
      "loun": 7493,
      "vaň": 7494,
      "##iman": 7495,
      "haus": 7496,
      "##rost": 7497,
      "##iszek": 7498,
      "sto": 7499,
      "pavol": 7500,
      "##ieb": 7501,
      "##хов": 7502,
      "##миль": 7503,
      "crist": 7504,
      "##aczek": 7505,
      "##ёва": 7506,
      "##ějov": 7507,
      "jach": 7508,
      "тр": 7509,
      "ernest": 7510,
      "rent": 7511,
      "##hh": 7512,
      "##not": 7513,
      "иб": 7514,
      "##ýb": 7515,
      "cath": 7516,
      "##the": 7517,
      "weld": 7518,
      "rig": 7519,
      "ester": 7520,
      "##ites": 7521,
      "##ynets": 7522,
      "jaw": 7523,
      "jablon": 7524,
      "##mot": 7525,
      "##aja": 7526,
      "##ílek": 7527,
      "##рита": 7528,
      "klin": 7529,
      "##ewa": 7530,
      "dil": 7531,
      "ян": 7532,
      "magic": 7533,
      "##ílková": 7534,
      "##ielska": 7535,
      "blah": 7536,
      "struct": 7537,
      "##1234": 7538,
      "##fel": 7539,
      "##tro": 7540,
      "konstantin": 7541,
      "mai": 7542,
      "ever": 7543,
      "šar": 7544,
      "banc": 7545,
      "##unov": 7546,
      "##ychová": 7547,
      "phu": 7548,
      "##ifer": 7549,
      "vop": 7550,
      "##но": 7551,
      "six": 7552,
      "moz": 7553,
      "##ables": 7554,
      "dět": 7555,
      "оля": 7556,
      "##цова": 7557,
      "##řeš": 7558,
      "lea": 7559,
      "violetta": 7560,
      "##kk": 7561,
      "servyce": 7562,
      "senior": 7563,
      "##rc": 7564,
      "##дий": 7565,
      "hlin": 7566,
      "siw": 7567,
      "##eś": 7568,
      "##atory": 7569,
      "mariana": 7570,
      "coworking": 7571,
      "kaja": 7572,
      "##ekce": 7573,
      "cav": 7574,
      "##това": 7575,
      "casa": 7576,
      "##fac": 7577,
      "stein": 7578,
      "##apie": 7579,
      "vladislava": 7580,
      "##igan": 7581,
      "##odor": 7582,
      "ey": 7583,
      "##nyak": 7584,
      "byl": 7585,
      "siv": 7586,
      "carl": 7587,
      "rainbow": 7588,
      "touch": 7589,
      "##water": 7590,
      "ara": 7591,
      "##ovyč": 7592,
      "eryk": 7593,
      "##žov": 7594,
      "##ест": 7595,
      "bid": 7596,
      "míra": 7597,
      "##spěv": 7598,
      "happy": 7599,
      "mikola": 7600,
      "olej": 7601,
      "ota": 7602,
      "##yga": 7603,
      "bast": 7604,
      "source": 7605,
      "##zan": 7606,
      "##eník": 7607,
      "##last": 7608,
      "marysia": 7609,
      "chic": 7610,
      "szt": 7611,
      "pazd": 7612,
      "loch": 7613,
      "agriculture": 7614,
      "##unk": 7615,
      "##lín": 7616,
      "hend": 7617,
      "##jar": 7618,
      "evžen": 7619,
      "příspěv": 7620,
      "##eum": 7621,
      "machine": 7622,
      "наз": 7623,
      "drag": 7624,
      "hradec": 7625,
      "přib": 7626,
      "##ulta": 7627,
      "staw": 7628,
      "gest": 7629,
      "peč": 7630,
      "##írová": 7631,
      "##oi": 7632,
      "march": 7633,
      "jarmyla": 7634,
      "spe": 7635,
      "informat": 7636,
      "cou": 7637,
      "over": 7638,
      "more": 7639,
      "lion": 7640,
      "##уров": 7641,
      "rust": 7642,
      "##ада": 7643,
      "uch": 7644,
      "chval": 7645,
      "nadez": 7646,
      "tka": 7647,
      "бог": 7648,
      "##jová": 7649,
      "sebastyan": 7650,
      "příspěvková": 7651,
      "dawyd": 7652,
      "##wich": 7653,
      "šind": 7654,
      "hoff": 7655,
      "##icken": 7656,
      "služby": 7657,
      "domy": 7658,
      "manor": 7659,
      "##pc": 7660,
      "fyr": 7661,
      "małg": 7662,
      "stará": 7663,
      "##zace": 7664,
      "##wear": 7665,
      "expl": 7666,
      "pardubice": 7667,
      "##yková": 7668,
      "bara": 7669,
      "czern": 7670,
      "tav": 7671,
      "##rior": 7672,
      "pm": 7673,
      "##ecová": 7674,
      "brick": 7675,
      "konop": 7676,
      "##yses": 7677,
      "beck": 7678,
      "conf": 7679,
      "##рам": 7680,
      "##gm": 7681,
      "##adová": 7682,
      "promotions": 7683,
      "kasp": 7684,
      "##uza": 7685,
      "##owiec": 7686,
      "spect": 7687,
      "вар": 7688,
      "ryan": 7689,
      "change": 7690,
      "doubrav": 7691,
      "yns": 7692,
      "ksenia": 7693,
      "fedor": 7694,
      "##alík": 7695,
      "##jk": 7696,
      "krum": 7697,
      "##oe": 7698,
      "miłosz": 7699,
      "##там": 7700,
      "wac": 7701,
      "bezdě": 7702,
      "dh": 7703,
      "##enna": 7704,
      "##enkov": 7705,
      "##rárna": 7706,
      "panda": 7707,
      "##уллин": 7708,
      "świ": 7709,
      "ric": 7710,
      "пр": 7711,
      "sedlá": 7712,
      "bey": 7713,
      "##żek": 7714,
      "anthony": 7715,
      "##yment": 7716,
      "účet": 7717,
      "emyl": 7718,
      "gm": 7719,
      "бур": 7720,
      "kotr": 7721,
      "assess": 7722,
      "solic": 7723,
      "##uszka": 7724,
      "loan": 7725,
      "brewery": 7726,
      "yaroslav": 7727,
      "##ému": 7728,
      "##орг": 7729,
      "corporatyon": 7730,
      "sasha": 7731,
      "arqu": 7732,
      "dani": 7733,
      "женя": 7734,
      "fern": 7735,
      "лу": 7736,
      "nh": 7737,
      "zuza": 7738,
      "##eba": 7739,
      "##беков": 7740,
      "##ovych": 7741,
      "##iles": 7742,
      "##unch": 7743,
      "##jb": 7744,
      "vč": 7745,
      "bert": 7746,
      "##day": 7747,
      "hron": 7748,
      "kamp": 7749,
      "##ete": 7750,
      "řep": 7751,
      "smet": 7752,
      "лилия": 7753,
      "assembly": 7754,
      "марга": 7755,
      "oleš": 7756,
      "core": 7757,
      "##lt": 7758,
      "small": 7759,
      "starý": 7760,
      "##ffe": 7761,
      "dobr": 7762,
      "##yonal": 7763,
      "lázně": 7764,
      "##onín": 7765,
      "emerg": 7766,
      "gajd": 7767,
      "##lyc": 7768,
      "odst": 7769,
      "##lech": 7770,
      "##modation": 7771,
      "##yh": 7772,
      "computers": 7773,
      "##оника": 7774,
      "##инова": 7775,
      "tou": 7776,
      "knap": 7777,
      "children": 7778,
      "##yma": 7779,
      "blat": 7780,
      "pens": 7781,
      "##udmila": 7782,
      "##vv": 7783,
      "bes": 7784,
      "danil": 7785,
      "california": 7786,
      "jackson": 7787,
      "hell": 7788,
      "philip": 7789,
      "наташа": 7790,
      "interior": 7791,
      "##завета": 7792,
      "altern": 7793,
      "##ličková": 7794,
      "##itage": 7795,
      "##oměřice": 7796,
      "##oli": 7797,
      "##inář": 7798,
      "boss": 7799,
      "dab": 7800,
      "nob": 7801,
      "matthew": 7802,
      "medycal": 7803,
      "##ěděl": 7804,
      "woź": 7805,
      "##fly": 7806,
      "renew": 7807,
      "tag": 7808,
      "ordinace": 7809,
      "cov": 7810,
      "##ju": 7811,
      "##acion": 7812,
      "##ábor": 7813,
      "jane": 7814,
      "hope": 7815,
      "asoci": 7816,
      "moc": 7817,
      "bros": 7818,
      "motorc": 7819,
      "##erse": 7820,
      "##ible": 7821,
      "##řel": 7822,
      "bistro": 7823,
      "piech": 7824,
      "břetislav": 7825,
      "##ušice": 7826,
      "rag": 7827,
      "szab": 7828,
      "##lač": 7829,
      "miriam": 7830,
      "wyn": 7831,
      "soj": 7832,
      "surgery": 7833,
      "brian": 7834,
      "yvona": 7835,
      "szczepan": 7836,
      "macyej": 7837,
      "##uin": 7838,
      "##iewski": 7839,
      "svc": 7840,
      "cob": 7841,
      "ilya": 7842,
      "bened": 7843,
      "uher": 7844,
      "accom": 7845,
      "ford": 7846,
      "##rou": 7847,
      "bapt": 7848,
      "sach": 7849,
      "##ční": 7850,
      "stok": 7851,
      "entrepr": 7852,
      "##luž": 7853,
      "univ": 7854,
      "##xi": 7855,
      "##zková": 7856,
      "steve": 7857,
      "##ulage": 7858,
      "dead": 7859,
      "##ьев": 7860,
      "fam": 7861,
      "nc": 7862,
      "rata": 7863,
      "material": 7864,
      "##istika": 7865,
      "##ostin": 7866,
      "jb": 7867,
      "##ench": 7868,
      "##jas": 7869,
      "poš": 7870,
      "hyb": 7871,
      "##rag": 7872,
      "borys": 7873,
      "##řovice": 7874,
      "buc": 7875,
      "##ctor": 7876,
      "##ulski": 7877,
      "##átková": 7878,
      "pog": 7879,
      "##lh": 7880,
      "##ери": 7881,
      "counsel": 7882,
      "leadership": 7883,
      "sug": 7884,
      "##ьева": 7885,
      "drz": 7886,
      "tradyng": 7887,
      "##fyz": 7888,
      "##enta": 7889,
      "сав": 7890,
      "grace": 7891,
      "бай": 7892,
      "##ešovice": 7893,
      "libr": 7894,
      "style": 7895,
      "meh": 7896,
      "instru": 7897,
      "mister": 7898,
      "resp": 7899,
      "impact": 7900,
      "##louk": 7901,
      "bord": 7902,
      "know": 7903,
      "##erov": 7904,
      "soul": 7905,
      "chm": 7906,
      "svatop": 7907,
      "wan": 7908,
      "##ador": 7909,
      "##мира": 7910,
      "bogumiła": 7911,
      "##berk": 7912,
      "##peč": 7913,
      "##histor": 7914,
      "##telnějšímu": 7915,
      "##iar": 7916,
      "hro": 7917,
      "eliza": 7918,
      "vojt": 7919,
      "haulage": 7920,
      "exped": 7921,
      "##су": 7922,
      "květoslava": 7923,
      "##ryd": 7924,
      "game": 7925,
      "ore": 7926,
      "farma": 7927,
      "##ый": 7928,
      "##ýv": 7929,
      "ген": 7930,
      "##ulík": 7931,
      "cran": 7932,
      "lok": 7933,
      "draho": 7934,
      "jizerou": 7935,
      "##ип": 7936,
      "jour": 7937,
      "kep": 7938,
      "pája": 7939,
      "##ена": 7940,
      "krop": 7941,
      "wend": 7942,
      "fej": 7943,
      "##pod": 7944,
      "italia": 7945,
      "##onstru": 7946,
      "миша": 7947,
      "kyt": 7948,
      "##ičt": 7949,
      "##nl": 7950,
      "##bauer": 7951,
      "slad": 7952,
      "##2005": 7953,
      "jindrich": 7954,
      "midlands": 7955,
      "##lama": 7956,
      "##oud": 7957,
      "##еле": 7958,
      "##enek": 7959,
      "deal": 7960,
      "##анд": 7961,
      "##pat": 7962,
      "##fit": 7963,
      "proc": 7964,
      "distribut": 7965,
      "карина": 7966,
      "##ňov": 7967,
      "radi": 7968,
      "маргарита": 7969,
      "##isy": 7970,
      "##cikova": 7971,
      "##ws": 7972,
      "zygmunt": 7973,
      "absol": 7974,
      "##ětín": 7975,
      "мин": 7976,
      "ludek": 7977,
      "##isha": 7978,
      "##ourek": 7979,
      "##web": 7980,
      "kik": 7981,
      "machinery": 7982,
      "##ovány": 7983,
      "mh": 7984,
      "apl": 7985,
      "skop": 7986,
      "##die": 7987,
      "oxford": 7988,
      "doug": 7989,
      "baran": 7990,
      "##bot": 7991,
      "cinema": 7992,
      "елизавета": 7993,
      "tc": 7994,
      "hry": 7995,
      "##ways": 7996,
      "##atice": 7997,
      "prin": 7998,
      "mix": 7999
    },
    "merges": [
      [
        "##a",
        "##n"
      ],
      [
        "##o",
        "##v"
      ],
      [
        "##e",
        "##r"
      ],
      [
        "##a",
        "##r"
      ],
      [
        "##i",
        "##n"
      ],
      [
        "##o",
        "##n"
      ],
      [
        "##e",
        "##n"
      ],
      [
        "##o",
        "##r"
      ],
      [
        "##a",
        "##l"
      ],
      [
        "##t",
        "##e"
      ],
      [
        "##i",
        "##c"
      ],
      [
        "##k",
        "##a"
      ],
      [
        "##ov",
        "##á"
      ],
      [
        "##l",
        "##a"
      ],
      [
        "##s",
        "##t"
      ],
      [
        "##r",
        "##o"
      ],
      [
        "##e",
        "##s"
      ],
      [
        "##o",
        "##l"
      ],
      [
        "##a",
        "##t"
      ],
      [
        "##c",
        "##h"
      ],
      [
        "##m",
        "##i"
      ],
      [
        "l",
        "##i"
      ],
      [
        "##e",
        "##l"
      ],
      [
        "##r",
        "##a"
      ],
      [
        "##o",
        "##m"
      ],
      [
        "##e",
        "##k"
      ],
      [
        "##e",
        "##t"
      ],
      [
        "##te",
        "##d"
      ],
      [
        "i",
        "##n"
      ],
      [
        "##t",
        "##d"
      ],
      [
        "##i",
        "##l"
      ],
      [
        "l",
        "##td"
      ],
      [
        "##i",
        "##s"
      ],
      [
        "##a",
        "##c"
      ],
      [
        "m",
        "##ar"
      ],
      [
        "##i",
        "##t"
      ],
      [
        "a",
        "##n"
      ],
      [
        "##mi",
        "##ted"
      ],
      [
        "##i",
        "##a"
      ],
      [
        "##in",
        "##g"
      ],
      [
        "li",
        "##mited"
      ],
      [
        "##s",
        "##k"
      ],
      [
        "##a",
        "##d"
      ],
      [
        "##u",
        "##r"
      ],
      [
        "##ov",
        "##a"
      ],
      [
        "##o",
        "##s"
      ],
      [
        "##u",
        "##s"
      ],
      [
        "##i",
        "##on"
      ],
      [
        "##i",
        "##d"
      ],
      [
        "##l",
        "##e"
      ],
      [
        "##a",
        "##s"
      ],
      [
        "##i",
        "##e"
      ],
      [
        "##y",
        "##n"
      ],
      [
        "##r",
        "##e"
      ],
      [
        "##i",
        "##k"
      ],
      [
        "p",
        "##ro"
      ],
      [
        "##en",
        "##t"
      ],
      [
        "##k",
        "##ová"
      ],
      [
        "##u",
        "##l"
      ],
      [
        "##a",
        "##m"
      ],
      [
        "##u",
        "##t"
      ],
      [
        "##e",
        "##d"
      ],
      [
        "s",
        "##t"
      ],
      [
        "##o",
        "##t"
      ],
      [
        "##an",
        "##a"
      ],
      [
        "##o",
        "##w"
      ],
      [
        "##u",
        "##n"
      ],
      [
        "##a",
        "##v"
      ],
      [
        "##a",
        "##k"
      ],
      [
        "##in",
        "##a"
      ],
      [
        "##ic",
        "##e"
      ],
      [
        "##e",
        "##c"
      ],
      [
        "##u",
        "##b"
      ],
      [
        "##e",
        "##m"
      ],
      [
        "##o",
        "##d"
      ],
      [
        "##la",
        "##v"
      ],
      [
        "##s",
        "##ka"
      ],
      [
        "an",
        "##d"
      ],
      [
        "##о",
        "##в"
      ],
      [
        "m",
        "##a"
      ],
      [
        "in",
        "##c"
      ],
      [
        "##y",
        "##s"
      ],
      [
        "##r",
        "##i"
      ],
      [
        "##n",
        "##a"
      ],
      [
        "##u",
        "##d"
      ],
      [
        "##ic",
        "##h"
      ],
      [
        "c",
        "##h"
      ],
      [
        "##o",
        "##b"
      ],
      [
        "##r",
        "##u"
      ],
      [
        "##an",
        "##d"
      ],
      [
        "s",
        "##p"
      ],
      [
        "##a",
        "##b"
      ],
      [
        "##i",
        "##m"
      ],
      [
        "##e",
        "##j"
      ],
      [
        "##o",
        "##p"
      ],
      [
        "t",
        "##h"
      ],
      [
        "c",
        "##on"
      ],
      [
        "##o",
        "##c"
      ],
      [
        "##i",
        "##g"
      ],
      [
        "##e",
        "##v"
      ],
      [
        "##o",
        "##g"
      ],
      [
        "##н",
        "##а"
      ],
      [
        "##r",
        "##y"
      ],
      [
        "##ac",
        "##i"
      ],
      [
        "##u",
        "##p"
      ],
      [
        "a",
        "##l"
      ],
      [
        "##k",
        "##v"
      ],
      [
        "##c",
        "##e"
      ],
      [
        "##i",
        "##r"
      ],
      [
        "##n",
        "##í"
      ],
      [
        "##sk",
        "##i"
      ],
      [
        "s",
        "##er"
      ],
      [
        "pro",
        "##m"
      ],
      [
        "##a",
        "##w"
      ],
      [
        "##at",
        "##ion"
      ],
      [
        "##kv",
        "##id"
      ],
      [
        "li",
        "##kvid"
      ],
      [
        "likvid",
        "##aci"
      ],
      [
        "##t",
        "##a"
      ],
      [
        "##er",
        "##s"
      ],
      [
        "##i",
        "##v"
      ],
      [
        "##en",
        "##a"
      ],
      [
        "##c",
        "##t"
      ],
      [
        "##or",
        "##p"
      ],
      [
        "c",
        "##om"
      ],
      [
        "##c",
        "##z"
      ],
      [
        "l",
        "##l"
      ],
      [
        "##u",
        "##k"
      ],
      [
        "##t",
        "##er"
      ],
      [
        "##e",
        "##st"
      ],
      [
        "##a",
        "##p"
      ],
      [
        "##r",
        "##z"
      ],
      [
        "a",
        "##r"
      ],
      [
        "##er",
        "##t"
      ],
      [
        "a",
        "##d"
      ],
      [
        "p",
        "##et"
      ],
      [
        "##k",
        "##o"
      ],
      [
        "ser",
        "##v"
      ],
      [
        "r",
        "##o"
      ],
      [
        "##ul",
        "##t"
      ],
      [
        "##y",
        "##l"
      ],
      [
        "##a",
        "##g"
      ],
      [
        "a",
        "##s"
      ],
      [
        "##u",
        "##m"
      ],
      [
        "##i",
        "##ka"
      ],
      [
        "##ov",
        "##an"
      ],
      [
        "##o",
        "##u"
      ],
      [
        "k",
        "##a"
      ],
      [
        "##ar",
        "##t"
      ],
      [
        "c",
        "##o"
      ],
      [
        "ll",
        "##c"
      ],
      [
        "j",
        "##an"
      ],
      [
        "mar",
        "##t"
      ],
      [
        "##y",
        "##k"
      ],
      [
        "##i",
        "##es"
      ],
      [
        "##r",
        "##an"
      ],
      [
        "##u",
        "##c"
      ],
      [
        "##t",
        "##h"
      ],
      [
        "con",
        "##s"
      ],
      [
        "##e",
        "##w"
      ],
      [
        "##e",
        "##z"
      ],
      [
        "e",
        "##n"
      ],
      [
        "##yn",
        "##a"
      ],
      [
        "m",
        "##ich"
      ],
      [
        "##а",
        "##н"
      ],
      [
        "##e",
        "##ch"
      ],
      [
        "##y",
        "##m"
      ],
      [
        "##l",
        "##i"
      ],
      [
        "##ar",
        "##d"
      ],
      [
        "##e",
        "##b"
      ],
      [
        "sp",
        "##ol"
      ],
      [
        "##e",
        "##p"
      ],
      [
        "##е",
        "##в"
      ],
      [
        "prom",
        "##ovan"
      ],
      [
        "##ов",
        "##а"
      ],
      [
        "t",
        "##om"
      ],
      [
        "##ř",
        "##í"
      ],
      [
        "cons",
        "##ult"
      ],
      [
        "##or",
        "##a"
      ],
      [
        "##o",
        "##f"
      ],
      [
        "##v",
        "##a"
      ],
      [
        "##st",
        "##v"
      ],
      [
        "k",
        "##ar"
      ],
      [
        "##y",
        "##a"
      ],
      [
        "##á",
        "##š"
      ],
      [
        "##ic",
        "##es"
      ],
      [
        "v",
        "##la"
      ],
      [
        "##i",
        "##p"
      ],
      [
        "##o",
        "##j"
      ],
      [
        "r",
        "##ad"
      ],
      [
        "##р",
        "##и"
      ],
      [
        "##es",
        "##s"
      ],
      [
        "th",
        "##e"
      ],
      [
        "serv",
        "##ices"
      ],
      [
        "s",
        "##h"
      ],
      [
        "##o",
        "##k"
      ],
      [
        "p",
        "##av"
      ],
      [
        "##an",
        "##y"
      ],
      [
        "##o",
        "##h"
      ],
      [
        "##e",
        "##g"
      ],
      [
        "g",
        "##ro"
      ],
      [
        "s",
        "##ol"
      ],
      [
        "##i",
        "##st"
      ],
      [
        "j",
        "##ar"
      ],
      [
        "##y",
        "##t"
      ],
      [
        "##at",
        "##a"
      ],
      [
        "##m",
        "##ent"
      ],
      [
        "##d",
        "##a"
      ],
      [
        "##ion",
        "##s"
      ],
      [
        "c",
        "##orp"
      ],
      [
        "##a",
        "##st"
      ],
      [
        "##ě",
        "##j"
      ],
      [
        "##m",
        "##b"
      ],
      [
        "##á",
        "##n"
      ],
      [
        "##m",
        "##an"
      ],
      [
        "##š",
        "##í"
      ],
      [
        "a",
        "##g"
      ],
      [
        "##a",
        "##j"
      ],
      [
        "##i",
        "##o"
      ],
      [
        "##et",
        "##a"
      ],
      [
        "m",
        "##i"
      ],
      [
        "##y",
        "##c"
      ],
      [
        "##in",
        "##e"
      ],
      [
        "##us",
        "##z"
      ],
      [
        "m",
        "##il"
      ],
      [
        "d",
        "##an"
      ],
      [
        "b",
        "##ar"
      ],
      [
        "##or",
        "##t"
      ],
      [
        "##ol",
        "##og"
      ],
      [
        "com",
        "##p"
      ],
      [
        "##u",
        "##st"
      ],
      [
        "##л",
        "##и"
      ],
      [
        "m",
        "##on"
      ],
      [
        "##ov",
        "##ice"
      ],
      [
        "##e",
        "##la"
      ],
      [
        "##an",
        "##t"
      ],
      [
        "##i",
        "##č"
      ],
      [
        "##it",
        "##y"
      ],
      [
        "gro",
        "##up"
      ],
      [
        "##ro",
        "##s"
      ],
      [
        "##e",
        "##f"
      ],
      [
        "##ic",
        "##z"
      ],
      [
        "##k",
        "##ova"
      ],
      [
        "i",
        "##v"
      ],
      [
        "##l",
        "##y"
      ],
      [
        "##o",
        "##st"
      ],
      [
        "##i",
        "##an"
      ],
      [
        "o",
        "##f"
      ],
      [
        "##e",
        "##č"
      ],
      [
        "sol",
        "##ut"
      ],
      [
        "##е",
        "##н"
      ],
      [
        "##h",
        "##a"
      ],
      [
        "b",
        "##r"
      ],
      [
        "##u",
        "##z"
      ],
      [
        "##i",
        "##el"
      ],
      [
        "##ru",
        "##ž"
      ],
      [
        "d",
        "##o"
      ],
      [
        "p",
        "##h"
      ],
      [
        "##i",
        "##z"
      ],
      [
        "##a",
        "##f"
      ],
      [
        "##ow",
        "##ska"
      ],
      [
        "##te",
        "##l"
      ],
      [
        "l",
        "##e"
      ],
      [
        "##em",
        "##ent"
      ],
      [
        "##y",
        "##ch"
      ],
      [
        "o",
        "##n"
      ],
      [
        "pet",
        "##r"
      ],
      [
        "##mb",
        "##h"
      ],
      [
        "##ic",
        "##k"
      ],
      [
        "g",
        "##mbh"
      ],
      [
        "s",
        "##z"
      ],
      [
        "o",
        "##l"
      ],
      [
        "d",
        "##om"
      ],
      [
        "##d",
        "##r"
      ],
      [
        "##g",
        "##e"
      ],
      [
        "##o",
        "##z"
      ],
      [
        "##sk",
        "##ý"
      ],
      [
        "z",
        "##d"
      ],
      [
        "e",
        "##l"
      ],
      [
        "m",
        "##ed"
      ],
      [
        "p",
        "##r"
      ],
      [
        "##а",
        "##р"
      ],
      [
        "j",
        "##i"
      ],
      [
        "##а",
        "##т"
      ],
      [
        "##te",
        "##k"
      ],
      [
        "##ana",
        "##g"
      ],
      [
        "##m",
        "##a"
      ],
      [
        "mar",
        "##k"
      ],
      [
        "t",
        "##ech"
      ],
      [
        "##i",
        "##al"
      ],
      [
        "##e",
        "##al"
      ],
      [
        "##í",
        "##k"
      ],
      [
        "##an",
        "##c"
      ],
      [
        "m",
        "##anag"
      ],
      [
        "##ar",
        "##e"
      ],
      [
        "p",
        "##l"
      ],
      [
        "l",
        "##uc"
      ],
      [
        "##stv",
        "##o"
      ],
      [
        "s",
        "##k"
      ],
      [
        "##un",
        "##d"
      ],
      [
        "##y",
        "##d"
      ],
      [
        "##os",
        "##lav"
      ],
      [
        "solut",
        "##ions"
      ],
      [
        "k",
        "##l"
      ],
      [
        "##is",
        "##lav"
      ],
      [
        "##л",
        "##е"
      ],
      [
        "##q",
        "##u"
      ],
      [
        "##h",
        "##o"
      ],
      [
        "d",
        "##r"
      ],
      [
        "##a",
        "##ch"
      ],
      [
        "##ěj",
        "##ší"
      ],
      [
        "##л",
        "##а"
      ],
      [
        "##u",
        "##j"
      ],
      [
        "##í",
        "##n"
      ],
      [
        "##ra",
        "##d"
      ],
      [
        "d",
        "##ruž"
      ],
      [
        "##sk",
        "##á"
      ],
      [
        "n",
        "##ej"
      ],
      [
        "manag",
        "##ement"
      ],
      [
        "druž",
        "##stvo"
      ],
      [
        "as",
        "##s"
      ],
      [
        "e",
        "##x"
      ],
      [
        "##ol",
        "##d"
      ],
      [
        "##l",
        "##o"
      ],
      [
        "m",
        "##at"
      ],
      [
        "##и",
        "##н"
      ],
      [
        "v",
        "##er"
      ],
      [
        "##on",
        "##a"
      ],
      [
        "p",
        "##a"
      ],
      [
        "##l",
        "##er"
      ],
      [
        "##ig",
        "##n"
      ],
      [
        "##л",
        "##ь"
      ],
      [
        "o",
        "##p"
      ],
      [
        "v",
        "##e"
      ],
      [
        "##i",
        "##b"
      ],
      [
        "r",
        "##om"
      ],
      [
        "a",
        "##t"
      ],
      [
        "##ac",
        "##e"
      ],
      [
        "##ro",
        "##m"
      ],
      [
        "mart",
        "##in"
      ],
      [
        "s",
        "##ch"
      ],
      [
        "##u",
        "##š"
      ],
      [
        "##g",
        "##a"
      ],
      [
        "in",
        "##ter"
      ],
      [
        "##or",
        "##k"
      ],
      [
        "h",
        "##o"
      ],
      [
        "inc",
        "##orp"
      ],
      [
        "##ora",
        "##ted"
      ],
      [
        "##á",
        "##k"
      ],
      [
        "##ł",
        "##aw"
      ],
      [
        "incorp",
        "##orated"
      ],
      [
        "##j",
        "##a"
      ],
      [
        "d",
        "##e"
      ],
      [
        "##er",
        "##n"
      ],
      [
        "mich",
        "##a"
      ],
      [
        "##ie",
        "##w"
      ],
      [
        "##i",
        "##š"
      ],
      [
        "p",
        "##at"
      ],
      [
        "an",
        "##na"
      ],
      [
        "##í",
        "##r"
      ],
      [
        "##p",
        "##ert"
      ],
      [
        "t",
        "##er"
      ],
      [
        "##it",
        "##al"
      ],
      [
        "##t",
        "##ě"
      ],
      [
        "##t",
        "##y"
      ],
      [
        "##te",
        "##m"
      ],
      [
        "##e",
        "##y"
      ],
      [
        "d",
        "##av"
      ],
      [
        "##и",
        "##на"
      ],
      [
        "##mi",
        "##l"
      ],
      [
        "##en",
        "##ka"
      ],
      [
        "##l",
        "##ová"
      ],
      [
        "d",
        "##es"
      ],
      [
        "##en",
        "##d"
      ],
      [
        "s",
        "##v"
      ],
      [
        "##t",
        "##on"
      ],
      [
        "promovan",
        "##á"
      ],
      [
        "tech",
        "##n"
      ],
      [
        "##m",
        "##e"
      ],
      [
        "promovan",
        "##ý"
      ],
      [
        "##b",
        "##a"
      ],
      [
        "k",
        "##at"
      ],
      [
        "##o",
        "##la"
      ],
      [
        "##á",
        "##v"
      ],
      [
        "##á",
        "##r"
      ],
      [
        "j",
        "##ana"
      ],
      [
        "##s",
        "##c"
      ],
      [
        "##n",
        "##er"
      ],
      [
        "##0",
        "##0"
      ],
      [
        "##е",
        "##р"
      ],
      [
        "##ow",
        "##ski"
      ],
      [
        "##o",
        "##š"
      ],
      [
        "s",
        "##a"
      ],
      [
        "##ar",
        "##a"
      ],
      [
        "consult",
        "##ing"
      ],
      [
        "##s",
        "##h"
      ],
      [
        "##n",
        "##y"
      ],
      [
        "##t",
        "##or"
      ],
      [
        "##p",
        "##r"
      ],
      [
        "##s",
        "##z"
      ],
      [
        "o",
        "##d"
      ],
      [
        "vla",
        "##d"
      ],
      [
        "comp",
        "##any"
      ],
      [
        "mich",
        "##al"
      ],
      [
        "n",
        "##at"
      ],
      [
        "##te",
        "##s"
      ],
      [
        "a",
        "##le"
      ],
      [
        "##u",
        "##ch"
      ],
      [
        "k",
        "##r"
      ],
      [
        "b",
        "##e"
      ],
      [
        "b",
        "##o"
      ],
      [
        "c",
        "##ent"
      ],
      [
        "##c",
        "##o"
      ],
      [
        "##и",
        "##к"
      ],
      [
        "##k",
        "##y"
      ],
      [
        "p",
        "##i"
      ],
      [
        "##a",
        "##y"
      ],
      [
        "j",
        "##ak"
      ],
      [
        "##el",
        "##l"
      ],
      [
        "e",
        "##d"
      ],
      [
        "##sk",
        "##y"
      ],
      [
        "ma",
        "##g"
      ],
      [
        "pav",
        "##el"
      ],
      [
        "m",
        "##al"
      ],
      [
        "o",
        "##r"
      ],
      [
        "##n",
        "##o"
      ],
      [
        "##ń",
        "##ska"
      ],
      [
        "##yn",
        "##g"
      ],
      [
        "##or",
        "##s"
      ],
      [
        "##y",
        "##b"
      ],
      [
        "##er",
        "##g"
      ],
      [
        "##iv",
        "##e"
      ],
      [
        "f",
        "##il"
      ],
      [
        "f",
        "##ran"
      ],
      [
        "##an",
        "##ce"
      ],
      [
        "##í",
        "##ková"
      ],
      [
        "##o",
        "##ur"
      ],
      [
        "a",
        "##c"
      ],
      [
        "##e",
        "##š"
      ],
      [
        "ro",
        "##z"
      ],
      [
        "a",
        "##b"
      ],
      [
        "##ar",
        "##k"
      ],
      [
        "a",
        "##m"
      ],
      [
        "##ros",
        "##lav"
      ],
      [
        "##in",
        "##d"
      ],
      [
        "r",
        "##en"
      ],
      [
        "##z",
        "##a"
      ],
      [
        "##ев",
        "##а"
      ],
      [
        "##il",
        "##l"
      ],
      [
        "##p",
        "##l"
      ],
      [
        "ass",
        "##oc"
      ],
      [
        "##or",
        "##d"
      ],
      [
        "u",
        "##n"
      ],
      [
        "##ri",
        "##st"
      ],
      [
        "y",
        "##n"
      ],
      [
        "##ia",
        "##k"
      ],
      [
        "##ic",
        "##al"
      ],
      [
        "##c",
        "##k"
      ],
      [
        "r",
        "##ob"
      ],
      [
        "##ation",
        "##al"
      ],
      [
        "##y",
        "##r"
      ],
      [
        "##ní",
        "##k"
      ],
      [
        "b",
        "##l"
      ],
      [
        "pro",
        "##pert"
      ],
      [
        "##v",
        "##est"
      ],
      [
        "s",
        "##te"
      ],
      [
        "##or",
        "##z"
      ],
      [
        "##e",
        "##x"
      ],
      [
        "v",
        "##al"
      ],
      [
        "м",
        "##а"
      ],
      [
        "##a",
        "##z"
      ],
      [
        "##h",
        "##t"
      ],
      [
        "s",
        "##o"
      ],
      [
        "##u",
        "##ka"
      ],
      [
        "c",
        "##l"
      ],
      [
        "vla",
        "##st"
      ],
      [
        "##о",
        "##р"
      ],
      [
        "n",
        "##ad"
      ],
      [
        "##k",
        "##ov"
      ],
      [
        "st",
        "##an"
      ],
      [
        "##n",
        "##á"
      ],
      [
        "##on",
        "##d"
      ],
      [
        "##y",
        "##ted"
      ],
      [
        "jak",
        "##ub"
      ],
      [
        "##č",
        "##ková"
      ],
      [
        "##i",
        "##er"
      ],
      [
        "p",
        "##ra"
      ],
      [
        "u",
        "##k"
      ],
      [
        "mon",
        "##ika"
      ],
      [
        "##mi",
        "##la"
      ],
      [
        "##o",
        "##od"
      ],
      [
        "##as",
        "##z"
      ],
      [
        "k",
        "##o"
      ],
      [
        "in",
        "##d"
      ],
      [
        "##u",
        "##la"
      ],
      [
        "com",
        "##m"
      ],
      [
        "f",
        "##or"
      ],
      [
        "tom",
        "##áš"
      ],
      [
        "mar",
        "##ek"
      ],
      [
        "##к",
        "##а"
      ],
      [
        "##s",
        "##p"
      ],
      [
        "techn",
        "##olog"
      ],
      [
        "jar",
        "##oslav"
      ],
      [
        "dav",
        "##id"
      ],
      [
        "v",
        "##y"
      ],
      [
        "##y",
        "##on"
      ],
      [
        "o",
        "##b"
      ],
      [
        "c",
        "##ar"
      ],
      [
        "##ys",
        "##z"
      ],
      [
        "rom",
        "##an"
      ],
      [
        "##en",
        "##c"
      ],
      [
        "s",
        "##m"
      ],
      [
        "##i",
        "##re"
      ],
      [
        "t",
        "##r"
      ],
      [
        "##is",
        "##h"
      ],
      [
        "##ur",
        "##e"
      ],
      [
        "ji",
        "##ří"
      ],
      [
        "j",
        "##os"
      ],
      [
        "mar",
        "##c"
      ],
      [
        "des",
        "##ign"
      ],
      [
        "##w",
        "##a"
      ],
      [
        "##ě",
        "##k"
      ],
      [
        "##á",
        "##ková"
      ],
      [
        "##b",
        "##or"
      ],
      [
        "##u",
        "##ra"
      ],
      [
        "ad",
        "##am"
      ],
      [
        "kar",
        "##ol"
      ],
      [
        "##á",
        "##l"
      ],
      [
        "##к",
        "##с"
      ],
      [
        "##ar",
        "##z"
      ],
      [
        "i",
        "##r"
      ],
      [
        "##er",
        "##ová"
      ],
      [
        "n",
        "##ik"
      ],
      [
        "inter",
        "##n"
      ],
      [
        "##a",
        "##h"
      ],
      [
        "en",
        "##g"
      ],
      [
        "ar",
        "##ch"
      ],
      [
        "##ar",
        "##m"
      ],
      [
        "##an",
        "##g"
      ],
      [
        "pet",
        "##ra"
      ],
      [
        "##u",
        "##g"
      ],
      [
        "##t",
        "##s"
      ],
      [
        "##i",
        "##te"
      ],
      [
        "##i",
        "##f"
      ],
      [
        "mi",
        "##roslav"
      ],
      [
        "p",
        "##ol"
      ],
      [
        "t",
        "##ra"
      ],
      [
        "d",
        "##ev"
      ],
      [
        "##т",
        "##а"
      ],
      [
        "p",
        "##art"
      ],
      [
        "##ic",
        "##s"
      ],
      [
        "e",
        "##v"
      ],
      [
        "p",
        "##od"
      ],
      [
        "##р",
        "##а"
      ],
      [
        "l",
        "##enka"
      ],
      [
        "##o",
        "##ol"
      ],
      [
        "##e",
        "##h"
      ],
      [
        "##к",
        "##о"
      ],
      [
        "and",
        "##re"
      ],
      [
        "##n",
        "##ější"
      ],
      [
        "f",
        "##rom"
      ],
      [
        "##an",
        "##na"
      ],
      [
        "l",
        "##uk"
      ],
      [
        "##и",
        "##м"
      ],
      [
        "ad",
        "##v"
      ],
      [
        "bar",
        "##b"
      ],
      [
        "##y",
        "##p"
      ],
      [
        "##ř",
        "##ina"
      ],
      [
        "g",
        "##l"
      ],
      [
        "k",
        "##ub"
      ],
      [
        "on",
        "##d"
      ],
      [
        "##in",
        "##t"
      ],
      [
        "##о",
        "##н"
      ],
      [
        "##1",
        "##2"
      ],
      [
        "ale",
        "##x"
      ],
      [
        "##on",
        "##ika"
      ],
      [
        "##a",
        "##te"
      ],
      [
        "##g",
        "##r"
      ],
      [
        "r",
        "##es"
      ],
      [
        "d",
        "##ar"
      ],
      [
        "in",
        "##vest"
      ],
      [
        "g",
        "##ra"
      ],
      [
        "c",
        "##ap"
      ],
      [
        "##al",
        "##a"
      ],
      [
        "##al",
        "##l"
      ],
      [
        "h",
        "##or"
      ],
      [
        "##ot",
        "##a"
      ],
      [
        "c",
        "##z"
      ],
      [
        "b",
        "##u"
      ],
      [
        "##č",
        "##ek"
      ],
      [
        "##z",
        "##ka"
      ],
      [
        "##us",
        "##e"
      ],
      [
        "ka",
        "##te"
      ],
      [
        "##it",
        "##a"
      ],
      [
        "##ek",
        "##s"
      ],
      [
        "k",
        "##rz"
      ],
      [
        "##d",
        "##al"
      ],
      [
        "st",
        "##ud"
      ],
      [
        "##е",
        "##й"
      ],
      [
        "##n",
        "##ers"
      ],
      [
        "b",
        "##ro"
      ],
      [
        "e",
        "##va"
      ],
      [
        "##ct",
        "##ion"
      ],
      [
        "##y",
        "##g"
      ],
      [
        "##cz",
        "##yk"
      ],
      [
        "##stv",
        "##í"
      ],
      [
        "c",
        "##re"
      ],
      [
        "z",
        "##uz"
      ],
      [
        "j",
        "##o"
      ],
      [
        "##n",
        "##e"
      ],
      [
        "##ń",
        "##ski"
      ],
      [
        "luc",
        "##ie"
      ],
      [
        "s",
        "##c"
      ],
      [
        "dan",
        "##iel"
      ],
      [
        "g",
        "##ab"
      ],
      [
        "##ing",
        "##s"
      ],
      [
        "##el",
        "##op"
      ],
      [
        "##p",
        "##h"
      ],
      [
        "##n",
        "##ý"
      ],
      [
        "g",
        "##r"
      ],
      [
        "##s",
        "##on"
      ],
      [
        "m",
        "##ik"
      ],
      [
        "e",
        "##le"
      ],
      [
        "##ot",
        "##r"
      ],
      [
        "pro",
        "##d"
      ],
      [
        "##l",
        "##í"
      ],
      [
        "p",
        "##ř"
      ],
      [
        "zd",
        "##en"
      ],
      [
        "intern",
        "##ational"
      ],
      [
        "m",
        "##y"
      ],
      [
        "##st",
        "##ru"
      ],
      [
        "k",
        "##ry"
      ],
      [
        "m",
        "##ac"
      ],
      [
        "q",
        "##u"
      ],
      [
        "i",
        "##m"
      ],
      [
        "##ie",
        "##la"
      ],
      [
        "h",
        "##om"
      ],
      [
        "dom",
        "##in"
      ],
      [
        "d",
        "##en"
      ],
      [
        "f",
        "##in"
      ],
      [
        "jos",
        "##ef"
      ],
      [
        "##ic",
        "##a"
      ],
      [
        "dev",
        "##elop"
      ],
      [
        "t",
        "##ran"
      ],
      [
        "а",
        "##н"
      ],
      [
        "l",
        "##y"
      ],
      [
        "g",
        "##re"
      ],
      [
        "e",
        "##m"
      ],
      [
        "p",
        "##la"
      ],
      [
        "n",
        "##e"
      ],
      [
        "spol",
        "##eč"
      ],
      [
        "l",
        "##ad"
      ],
      [
        "l",
        "##a"
      ],
      [
        "##s",
        "##s"
      ],
      [
        "s",
        "##oc"
      ],
      [
        "mark",
        "##et"
      ],
      [
        "##l",
        "##d"
      ],
      [
        "##a",
        "##ł"
      ],
      [
        "##r",
        "##on"
      ],
      [
        "##n",
        "##i"
      ],
      [
        "p",
        "##aw"
      ],
      [
        "h",
        "##el"
      ],
      [
        "##iew",
        "##icz"
      ],
      [
        "##o",
        "##ch"
      ],
      [
        "k",
        "##s"
      ],
      [
        "mart",
        "##ina"
      ],
      [
        "h",
        "##old"
      ],
      [
        "rob",
        "##ert"
      ],
      [
        "h",
        "##ana"
      ],
      [
        "k",
        "##on"
      ],
      [
        "##ys",
        "##tem"
      ],
      [
        "##en",
        "##s"
      ],
      [
        "##er",
        "##ing"
      ],
      [
        "s",
        "##up"
      ],
      [
        "##ment",
        "##s"
      ],
      [
        "##al",
        "##ová"
      ],
      [
        "r",
        "##ev"
      ],
      [
        "k",
        "##rist"
      ],
      [
        "a",
        "##ut"
      ],
      [
        "nat",
        "##al"
      ],
      [
        "##i",
        "##usz"
      ],
      [
        "k",
        "##ra"
      ],
      [
        "##and",
        "##ra"
      ],
      [
        "s",
        "##r"
      ],
      [
        "##il",
        "##d"
      ],
      [
        "z",
        "##b"
      ],
      [
        "##oc",
        "##k"
      ],
      [
        "##m",
        "##ar"
      ],
      [
        "c",
        "##ol"
      ],
      [
        "##eal",
        "##th"
      ],
      [
        "g",
        "##en"
      ],
      [
        "##i",
        "##i"
      ],
      [
        "h",
        "##ol"
      ],
      [
        "g",
        "##e"
      ],
      [
        "##en",
        "##í"
      ],
      [
        "##s",
        "##a"
      ],
      [
        "s",
        "##im"
      ],
      [
        "s",
        "##al"
      ],
      [
        "##h",
        "##er"
      ],
      [
        "ver",
        "##onika"
      ],
      [
        "##n",
        "##ě"
      ],
      [
        "part",
        "##ners"
      ],
      [
        "##ag",
        "##e"
      ],
      [
        "m",
        "##an"
      ],
      [
        "s",
        "##ystem"
      ],
      [
        "##f",
        "##f"
      ],
      [
        "##ec",
        "##k"
      ],
      [
        "##n",
        "##ik"
      ],
      [
        "##ec",
        "##t"
      ],
      [
        "h",
        "##an"
      ],
      [
        "а",
        "##ле"
      ],
      [
        "a",
        "##p"
      ],
      [
        "v",
        "##oj"
      ],
      [
        "##or",
        "##e"
      ],
      [
        "##r",
        "##ic"
      ],
      [
        "ter",
        "##ez"
      ],
      [
        "##ри",
        "##на"
      ],
      [
        "##r",
        "##á"
      ],
      [
        "eng",
        "##ine"
      ],
      [
        "##z",
        "##i"
      ],
      [
        "h",
        "##a"
      ],
      [
        "comm",
        "##un"
      ],
      [
        "b",
        "##la"
      ],
      [
        "mil",
        "##an"
      ],
      [
        "##mi",
        "##r"
      ],
      [
        "luk",
        "##áš"
      ],
      [
        "##ič",
        "##ka"
      ],
      [
        "##er",
        "##y"
      ],
      [
        "##ac",
        "##k"
      ],
      [
        "i",
        "##t"
      ],
      [
        "##м",
        "##и"
      ],
      [
[...]
