{
  "version": "1.0",
  "truncation": null,
  "padding": null,
  "added_tokens": [
    {
      "id": 0,
      "content": "[UNK]",
      "single_word": false,
      "lstrip": false,
      "rstrip": false,
      "normalized": false,
      "special": true
    },
    {
      "id": 1,
      "content": "[PAD]",
      "single_word": false,
      "lstrip": false,
      "rstrip": false,
      "normalized": false,
      "special": true
    }
  ],
  "normalizer": {
    "type": "Sequence",
    "normalizers": [
      {
        "type": "NFKC"
      }
    ]
  },
  "pre_tokenizer": {
    "type": "BertPreTokenizer"
  },
  "post_processor": null,
  "decoder": null,
  "model": {
    "type": "BPE",
    "dropout": null,
    "unk_token": "[UNK]",
    "continuing_subword_prefix": "##",
    "end_of_word_suffix": null,
    "fuse_unk": false,
    "byte_fallback": false,
    "ignore_merges": false,
    "vocab": {
      "[UNK]": 0,
      "[PAD]": 1,
      "\"": 2,
      "&": 3,
      "'": 4,
      "(": 5,
      ")": 6,
      "+": 7,
      ",": 8,
      "-": 9,
      ".": 10,
      "/": 11,
      "0": 12,
      "1": 13,
      "2": 14,
      "3": 15,
      "4": 16,
      "5": 17,
      "6": 18,
      "7": 19,
      "8": 20,
      "9": 21,
      ":": 22,
      ";": 23,
      "@": 24,
      "[": 25,
      "]": 26,
      "_": 27,
      "a": 28,
      "b": 29,
      "c": 30,
      "d": 31,
      "e": 32,
      "f": 33,
      "g": 34,
      "h": 35,
      "i": 36,
      "j": 37,
      "k": 38,
      "l": 39,
      "m": 40,
      "n": 41,
      "o": 42,
      "p": 43,
      "q": 44,
      "r": 45,
      "s": 46,
      "t": 47,
      "u": 48,
      "v": 49,
      "w": 50,
      "x": 51,
      "y": 52,
      "z": 53,
      "|": 54,
      "á": 55,
      "ä": 56,
      "é": 57,
      "í": 58,
      "ó": 59,
      "ô": 60,
      "ú": 61,
      "ý": 62,
      "ą": 63,
      "ć": 64,
      "č": 65,
      "ď": 66,
      "ę": 67,
      "ě": 68,
      "ĺ": 69,
      "ľ": 70,
      "ł": 71,
      "ń": 72,
      "ň": 73,
      "ŕ": 74,
      "ř": 75,
      "ś": 76,
      "š": 77,
      "ť": 78,
      "ů": 79,
      "ź": 80,
      "ż": 81,
      "ž": 82,
      "а": 83,
      "б": 84,
      "в": 85,
      "г": 86,
      "д": 87,
      "е": 88,
      "ж": 89,
      "з": 90,
      "и": 91,
      "й": 92,
      "к": 93,
      "л": 94,
      "м": 95,
      "н": 96,
      "о": 97,
      "п": 98,
      "р": 99,
      "с": 100,
      "т": 101,
      "у": 102,
      "ф": 103,
      "х": 104,
      "ц": 105,
      "ч": 106,
      "ш": 107,
      "щ": 108,
      "ъ": 109,
      "ы": 110,
      "ь": 111,
      "э": 112,
      "ю": 113,
      "я": 114,
      "ё": 115,
      "##i": 116,
      "##m": 117,
      "##e": 118,
      "##d": 119,
      "##a": 120,
      "##h": 121,
      "##o": 122,
      "##p": 123,
      "##7": 124,
      "##r": 125,
      "##8": 126,
      "##c": 127,
      "##1": 128,
      "##j": 129,
      "##9": 130,
      "##v": 131,
      "##s": 132,
      "##t": 133,
      "##b": 134,
      "##y": 135,
      "##2": 136,
      "##f": 137,
      "##l": 138,
      "##g": 139,
      "##w": 140,
      "##z": 141,
      "##6": 142,
      "##á": 143,
      "##3": 144,
      "##n": 145,
      "##k": 146,
      "##4": 147,
      "##x": 148,
      "##q": 149,
      "##u": 150,
      "##0": 151,
      "##о": 152,
      "##л": 153,
      "##д": 154,
      "##е": 155,
      "##н": 156,
      "##ц": 157,
      "##в": 158,
      "##а": 159,
      "##5": 160,
      "##ď": 161,
      "##р": 162,
      "##и": 163,
      "##щ": 164,
      "##т": 165,
      "##б": 166,
      "##у": 167,
      "##с": 168,
      "##м": 169,
      "##й": 170,
      "##ý": 171,
      "##š": 172,
      "##к": 173,
      "##ř": 174,
      "##í": 175,
      "##č": 176,
      "##я": 177,
      "##г": 178,
      "##ś": 179,
      "##ч": 180,
      "##ů": 181,
      "##é": 182,
      "##ф": 183,
      "##ę": 184,
      "##ě": 185,
      "##ń": 186,
      "##ы": 187,
      "##ł": 188,
      "##ó": 189,
      "##ä": 190,
      "##з": 191,
      "##ь": 192,
      "##х": 193,
      "##ž": 194,
      "##ш": 195,
      "##ą": 196,
      "##ú": 197,
      "##п": 198,
      "##ć": 199,
      "##ж": 200,
      "##ю": 201,
      "##ň": 202,
      "##ż": 203,
      "##ť": 204,
      "##ё": 205,
      "##ľ": 206,
      "##э": 207,
      "##ô": 208,
      "##ź": 209,
      "##ъ": 210,
      "##ĺ": 211,
      "##ŕ": 212,
      "##an": 213,
      "##ov": 214,
      "##er": 215,
      "##ar": 216,
      "##in": 217,
      "##en": 218,
      "##on": 219,
      "##or": 220,
      "##ic": 221,
      "##al": 222,
      "##te": 223,
      "##ová": 224,
      "##ka": 225,
      "##la": 226,
      "##es": 227,
      "##om": 228,
      "##ol": 229,
      "in": 230,
      "##im": 231,
      "##at": 232,
      "##st": 233,
      "##el": 234,
      "##ch": 235,
      "##ra": 236,
      "##il": 237,
      "##et": 238,
      "##ro": 239,
      "##ek": 240,
      "an": 241,
      "##ted": 242,
      "##td": 243,
      "##is": 244,
      "##imi": 245,
      "ltd": 246,
      "limi": 247,
      "limited": 248,
      "##ia": 249,
      "mar": 250,
      "##it": 251,
      "##ing": 252,
      "##ik": 253,
      "##ova": 254,
      "##os": 255,
      "##ur": 256,
      "##ad": 257,
      "##us": 258,
      "##am": 259,
      "##ie": 260,
      "##as": 261,
      "and": 262,
      "##ion": 263,
      "##ková": 264,
      "##sk": 265,
      "##ac": 266,
      "##re": 267,
      "##le": 268,
      "##ent": 269,
      "##id": 270,
      "##ana": 271,
      "##ul": 272,
      "##na": 273,
      "com": 274,
      "##av": 275,
      "##ow": 276,
      "ing": 277,
      "##ina": 278,
      "##ов": 279,
      "##ut": 280,
      "st": 281,
      "##ot": 282,
      "##un": 283,
      "##ed": 284,
      "inc": 285,
      "##ub": 286,
      "##ud": 287,
      "##ak": 288,
      "##lav": 289,
      "##ec": 290,
      "##em": 291,
      "##ice": 292,
      "##ich": 293,
      "##ig": 294,
      "##ska": 295,
      "ma": 296,
      "##на": 297,
      "##od": 298,
      "##ir": 299,
      "##ru": 300,
      "th": 301,
      "##and": 302,
      "##ob": 303,
      "##ev": 304,
      "##zy": 305,
      "ch": 306,
      "sp": 307,
      "fr": 308,
      "##ab": 309,
      "con": 310,
      "##gr": 311,
      "##ri": 312,
      "##oc": 313,
      "##orp": 314,
      "pro": 315,
      "##op": 316,
      "##ski": 317,
      "al": 318,
      "##ta": 319,
      "ll": 320,
      "##up": 321,
      "##ter": 322,
      "##aw": 323,
      "pet": 324,
      "ad": 325,
      "ser": 326,
      "##uc": 327,
      "##iv": 328,
      "##og": 329,
      "##ys": 330,
      "##ation": 331,
      "ar": 332,
      "##ena": 333,
      "mgr": 334,
      "##ap": 335,
      "##uk": 336,
      "##ers": 337,
      "##ry": 338,
      "as": 339,
      "jan": 340,
      "##ok": 341,
      "at": 342,
      "llc": 343,
      "##ert": 344,
      "mich": 345,
      "##ce": 346,
      "##um": 347,
      "##ies": 348,
      "##ан": 349,
      "##ев": 350,
      "serv": 351,
      "##ова": 352,
      "##dr": 353,
      "##ika": 354,
      "##ora": 355,
      "sk": 356,
      "##ma": 357,
      "mart": 358,
      "co": 359,
      "##ej": 360,
      "##art": 361,
      "##ult": 362,
      "##est": 363,
      "tom": 364,
      "##ík": 365,
      "##ина": 366,
      "##ip": 367,
      "##ko": 368,
      "##ard": 369,
      "spol": 370,
      "##ct": 371,
      "##ew": 372,
      "pav": 373,
      "##ар": 374,
      "##ices": 375,
      "##vo": 376,
      "##ant": 377,
      "en": 378,
      "##mb": 379,
      "kar": 380,
      "cons": 381,
      "br": 382,
      "##eb": 383,
      "##aci": 384,
      "##ez": 385,
      "##ag": 386,
      "##áš": 387,
      "services": 388,
      "corp": 389,
      "##th": 390,
      "##oh": 391,
      "the": 392,
      "jar": 393,
      "##va": 394,
      "mi": 395,
      "##ib": 396,
      "##oj": 397,
      "de": 398,
      "ph": 399,
      "##ian": 400,
      "rad": 401,
      "vla": 402,
      "##ech": 403,
      "consult": 404,
      "##ions": 405,
      "from": 406,
      "mil": 407,
      "##ou": 408,
      "##ine": 409,
      "##man": 410,
      "##ata": 411,
      "##ast": 412,
      "##vid": 413,
      "##kova": 414,
      "gro": 415,
      "##of": 416,
      "sol": 417,
      "dan": 418,
      "lik": 419,
      "##ment": 420,
      "ro": 421,
      "likvid": 422,
      "##ess": 423,
      "##ří": 424,
      "likvidaci": 425,
      "##ep": 426,
      "sh": 427,
      "petr": 428,
      "##any": 429,
      "##ин": 430,
      "##aj": 431,
      "##ен": 432,
      "##da": 433,
      "##mbh": 434,
      "bar": 435,
      "gmbh": 436,
      "##icz": 437,
      "kr": 438,
      "pr": 439,
      "##eg": 440,
      "##onika": 441,
      "##eta": 442,
      "el": 443,
      "##yn": 444,
      "##iel": 445,
      "##io": 446,
      "cz": 447,
      "##ал": 448,
      "##ate": 449,
      "##usz": 450,
      "##ruž": 451,
      "##ер": 452,
      "on": 453,
      "##ay": 454,
      "pl": 455,
      "##ef": 456,
      "##cz": 457,
      "##ust": 458,
      "ag": 459,
      "iv": 460,
      "##ort": 461,
      "dr": 462,
      "##ros": 463,
      "##ат": 464,
      "ol": 465,
      "##ge": 466,
      "bc": 467,
      "group": 468,
      "##anc": 469,
      "##stvo": 470,
      "##ovice": 471,
      "##ist": 472,
      "##án": 473,
      "comp": 474,
      "druž": 475,
      "družstvo": 476,
      "martin": 477,
      "ko": 478,
      "##owska": 479,
      "##iz": 480,
      "incorp": 481,
      "tr": 482,
      "incorpora": 483,
      "dom": 484,
      "incorporated": 485,
      "of": 486,
      "##af": 487,
      "##uz": 488,
      "##sz": 489,
      "##islav": 490,
      "##ик": 491,
      "##ity": 492,
      "##ement": 493,
      "##ela": 494,
      "solut": 495,
      "zd": 496,
      "##ick": 497,
      "##oslav": 498,
      "##lo": 499,
      "le": 500,
      "##ič": 501,
      "ver": 502,
      "##ín": 503,
      "##ach": 504,
      "##if": 505,
      "##iš": 506,
      "ji": 507,
      "##ла": 508,
      "##anag": 509,
      "##ler": 510,
      "##sc": 511,
      "solutions": 512,
      "##ha": 513,
      "gr": 514,
      "mark": 515,
      "##ní": 516,
      "##ton": 517,
      "manag": 518,
      "##eč": 519,
      "##ign": 520,
      "##ле": 521,
      "net": 522,
      "luc": 523,
      "rom": 524,
      "micha": 525,
      "##udr": 526,
      "mat": 527,
      "kl": 528,
      "##az": 529,
      "jana": 530,
      "##eal": 531,
      "##iew": 532,
      "michal": 533,
      "management": 534,
      "##ey": 535,
      "##ial": 536,
      "inter": 537,
      "##und": 538,
      "##pl": 539,
      "##yl": 540,
      "##ор": 541,
      "ho": 542,
      "pavel": 543,
      "##enka": 544,
      "##rad": 545,
      "##owski": 546,
      "##ex": 547,
      "ter": 548,
      "##ier": 549,
      "##old": 550,
      "##czy": 551,
      "sz": 552,
      "med": 553,
      "##ská": 554,
      "##are": 555,
      "tech": 556,
      "anna": 557,
      "sv": 558,
      "pa": 559,
      "op": 560,
      "bo": 561,
      "##ill": 562,
      "##qu": 563,
      "##ona": 564,
      "ass": 565,
      "##ila": 566,
      "sch": 567,
      "##igh": 568,
      "##ák": 569,
      "##ия": 570,
      "##end": 571,
      "or": 572,
      "dav": 573,
      "##ital": 574,
      "##mail": 575,
      "##00": 576,
      "##ль": 577,
      "kam": 578,
      "##ga": 579,
      "##lová": 580,
      "consulting": 581,
      "##ева": 582,
      "ab": 583,
      "##ner": 584,
      "##yna": 585,
      "##ław": 586,
      "##ell": 587,
      "sa": 588,
      "jak": 589,
      "company": 590,
      "##ský": 591,
      "##ts": 592,
      "miros": 593,
      "##uš": 594,
      "##íková": 595,
      "##olog": 596,
      "ale": 597,
      "##ír": 598,
      "##ja": 599,
      "mag": 600,
      "adv": 601,
      "##ya": 602,
      "des": 603,
      "am": 604,
      "##ola": 605,
      "mal": 606,
      "##tek": 607,
      "##uch": 608,
      "rev": 609,
      "##ern": 610,
      "kat": 611,
      "cent": 612,
      "##ost": 613,
      "##oš": 614,
      "##iak": 615,
      "##им": 616,
      "pat": 617,
      "vlad": 618,
      "##ind": 619,
      "jiří": 620,
      "##ara": 621,
      "##ive": 622,
      "##ty": 623,
      "so": 624,
      "be": 625,
      "##ck": 626,
      "##tor": 627,
      "##ms": 628,
      "##ba": 629,
      "ste": 630,
      "sm": 631,
      "ed": 632,
      "ex": 633,
      "##ical": 634,
      "##ish": 635,
      "arch": 636,
      "pi": 637,
      "david": 638,
      "##pert": 639,
      "gen": 640,
      "tomáš": 641,
      "em": 642,
      "##sh": 643,
      "nat": 644,
      "##ár": 645,
      "techn": 646,
      "##át": 647,
      "##ah": 648,
      "jaroslav": 649,
      "jakub": 650,
      "ren": 651,
      "##erg": 652,
      "##tě": 653,
      "bl": 654,
      "##co": 655,
      "##ang": 656,
      "##ark": 657,
      "monika": 658,
      "jos": 659,
      "##ite": 660,
      "miroslav": 661,
      "##rist": 662,
      "##rap": 663,
      "##pr": 664,
      "##ny": 665,
      "ind": 666,
      "rob": 667,
      "##кс": 668,
      "val": 669,
      "uk": 670,
      "##ork": 671,
      "##áč": 672,
      "##ий": 673,
      "##our": 674,
      "##ир": 675,
      "##ка": 676,
      "un": 677,
      "##ire": 678,
      "marek": 679,
      "##ond": 680,
      "roman": 681,
      "##orz": 682,
      "##ěk": 683,
      "##ко": 684,
      "##ord": 685,
      "petra": 686,
      "##ńska": 687,
      "ac": 688,
      "fil": 689,
      "##uka": 690,
      "##ors": 691,
      "cl": 692,
      "##ood": 693,
      "##áková": 694,
      "##ans": 695,
      "##ational": 696,
      "##ур": 697,
      "lib": 698,
      "lenka": 699,
      "adam": 700,
      "propert": 701,
      "##он": 702,
      "res": 703,
      "##ula": 704,
      "##ас": 705,
      "assoc": 706,
      "##za": 707,
      "stan": 708,
      "##ил": 709,
      "jo": 710,
      "##ам": 711,
      "for": 712,
      "##eš": 713,
      "vlast": 714,
      "nad": 715,
      "nik": 716,
      "ir": 717,
      "dis": 718,
      "inv": 719,
      "##řina": 720,
      "##kov": 721,
      "##asz": 722,
      "##all": 723,
      "##yt": 724,
      "##eh": 725,
      "##wa": 726,
      "lucie": 727,
      "ond": 728,
      "barb": 729,
      "mudr": 730,
      "eva": 731,
      "it": 732,
      "luk": 733,
      "##ics": 734,
      "##ug": 735,
      "comm": 736,
      "marc": 737,
      "##ura": 738,
      "technolog": 739,
      "design": 740,
      "##erová": 741,
      "kub": 742,
      "##enc": 743,
      "karol": 744,
      "bro": 745,
      "##tel": 746,
      "andre": 747,
      "han": 748,
      "daniel": 749,
      "intern": 750,
      "##czyk": 751,
      "car": 752,
      "##ná": 753,
      "part": 754,
      "josef": 755,
      "##ings": 756,
      "ks": 757,
      "##ota": 758,
      "##ky": 759,
      "##ica": 760,
      "zuz": 761,
      "ан": 762,
      "##tes": 763,
      "hor": 764,
      "ev": 765,
      "alex": 766,
      "zden": 767,
      "##no": 768,
      "##12": 769,
      "##rz": 770,
      "pol": 771,
      "##ол": 772,
      "##ис": 773,
      "##her": 774,
      "##ník": 775,
      "##iela": 776,
      "##ym": 777,
      "##ight": 778,
      "hana": 779,
      "##ál": 780,
      "##iewicz": 781,
      "invest": 782,
      "##las": 783,
      "martina": 784,
      "##zka": 785,
      "kate": 786,
      "##ит": 787,
      "##ock": 788,
      "eng": 789,
      "tra": 790,
      "##eks": 791,
      "gl": 792,
      "##ox": 793,
      "##ure": 794,
      "##ance": 795,
      "##ita": 796,
      "bu": 797,
      "cap": 798,
      "##ool": 799,
      "dar": 800,
      "##ад": 801,
      "##ей": 802,
      "mac": 803,
      "jir": 804,
      "mik": 805,
      "milan": 806,
      "me": 807,
      "##dal": 808,
      "sr": 809,
      "domin": 810,
      "##ński": 811,
      "dev": 812,
      "voj": 813,
      "##ens": 814,
      "international": 815,
      "##ix": 816,
      "veronika": 817,
      "##др": 818,
      "hel": 819,
      "##int": 820,
      "але": 821,
      "##yk": 822,
      "gab": 823,
      "gre": 824,
      "##iusz": 825,
      "vos": 826,
      "sim": 827,
      "pra": 828,
      "##nik": 829,
      "kateřina": 830,
      "robert": 831,
      "##ет": 832,
      "sc": 833,
      "fin": 834,
      "##ild": 835,
      "lad": 836,
      "ele": 837,
      "##ii": 838,
      "prof": 839,
      "##alová": 840,
      "paw": 841,
      "##otr": 842,
      "##son": 843,
      "##ners": 844,
      "hol": 845,
      "vá": 846,
      "##port": 847,
      "##ments": 848,
      "ap": 849,
      "michaela": 850,
      "##yb": 851,
      "##ул": 852,
      "ka": 853,
      "sro": 854,
      "zs": 855,
      "##tr": 856,
      "mon": 857,
      "terez": 858,
      "##och": 859,
      "il": 860,
      "stud": 861,
      "##ering": 862,
      "kon": 863,
      "den": 864,
      "##eck": 865,
      "pod": 866,
      "prod": 867,
      "##andra": 868,
      "la": 869,
      "gra": 870,
      "##ья": 871,
      "krist": 872,
      "##yste": 873,
      "##oz": 874,
      "##stru": 875,
      "lukáš": 876,
      "krzy": 877,
      "ops": 878,
      "##cl": 879,
      "##ction": 880,
      "cre": 881,
      "bla": 882,
      "kra": 883,
      "sal": 884,
      "radek": 885,
      "##anna": 886,
      "##use": 887,
      "##ealth": 888,
      "sup": 889,
      "##mar": 890,
      "##ect": 891,
      "##ст": 892,
      "natal": 893,
      "##čková": 894,
      "lub": 895,
      "##uy": 896,
      "##ong": 897,
      "sl": 898,
      "filip": 899,
      "bart": 900,
      "partners": 901,
      "##ack": 902,
      "hom": 903,
      "boh": 904,
      "##elop": 905,
      "##ld": 906,
      "##sky": 907,
      "##owicz": 908,
      "hold": 909,
      "im": 910,
      "mr": 911,
      "##ał": 912,
      "##olf": 913,
      "##ly": 914,
      "##arm": 915,
      "associa": 916,
      "syste": 917,
      "hr": 918,
      "##ien": 919,
      "##tra": 920,
      "алекс": 921,
      "market": 922,
      "bus": 923,
      "ak": 924,
      "##yr": 925,
      "karel": 926,
      "media": 927,
      "pavl": 928,
      "##per": 929,
      "marie": 930,
      "##ví": 931,
      "agn": 932,
      "##tm": 933,
      "lud": 934,
      "zb": 935,
      "develop": 936,
      "##pt": 937,
      "##ash": 938,
      "##sa": 939,
      "ivan": 940,
      "produc": 941,
      "##ho": 942,
      "alena": 943,
      "##land": 944,
      "qu": 945,
      "##zyna": 946,
      "##enko": 947,
      "kry": 948,
      "##ff": 949,
      "мар": 950,
      "piotr": 951,
      "he": 952,
      "fre": 953,
      "ма": 954,
      "art": 955,
      "col": 956,
      "engine": 957,
      "##ink": 958,
      "##ček": 959,
      "dra": 960,
      "##ary": 961,
      "mor": 962,
      "##eva": 963,
      "##obal": 964,
      "woj": 965,
      "##ков": 966,
      "man": 967,
      "##ína": 968,
      "##itka": 969,
      "##енко": 970,
      "est": 971,
      "##iktor": 972,
      "kol": 973,
      "nor": 974,
      "ha": 975,
      "##tof": 976,
      "##ley": 977,
      "##ел": 978,
      "zuzana": 979,
      "tereza": 980,
      "frant": 981,
      "##yd": 982,
      "pla": 983,
      "commun": 984,
      "constru": 985,
      "tru": 986,
      "hal": 987,
      "##ieszka": 988,
      "magdal": 989,
      "fund": 990,
      "##enst": 991,
      "mate": 992,
      "##clav": 993,
      "##ych": 994,
      "##ij": 995,
      "zdeněk": 996,
      "fl": 997,
      "agnieszka": 998,
      "kal": 999,
      "real": 1000,
      "kor": 1001,
      "vladim": 1002,
      "marta": 1003,
      "##unt": 1004,
      "václav": 1005,
      "katar": 1006,
      "##por": 1007,
      "##iness": 1008,
      "kas": 1009,
      "van": 1010,
      "pv": 1011,
      "advok": 1012,
      "wal": 1013,
      "aut": 1014,
      "##cová": 1015,
      "associates": 1016,
      "pan": 1017,
      "aleks": 1018,
      "advokát": 1019,
      "se": 1020,
      "##mila": 1021,
      "renata": 1022,
      "anton": 1023,
      "jitka": 1024,
      "##ом": 1025,
      "bor": 1026,
      "##ations": 1027,
      "mot": 1028,
      "##ery": 1029,
      "ivana": 1030,
      "health": 1031,
      "##řej": 1032,
      "hon": 1033,
      "capital": 1034,
      "##ue": 1035,
      "##era": 1036,
      "trad": 1037,
      "er": 1038,
      "##amb": 1039,
      "##ancy": 1040,
      "jul": 1041,
      "ur": 1042,
      "ba": 1043,
      "##ne": 1044,
      "systems": 1045,
      "property": 1046,
      "business": 1047,
      "##ikova": 1048,
      "ec": 1049,
      "společ": 1050,
      "##osz": 1051,
      "##rop": 1052,
      "elect": 1053,
      "##кова": 1054,
      "re": 1055,
      "grz": 1056,
      "##sp": 1057,
      "##one": 1058,
      "##ore": 1059,
      "ben": 1060,
      "##lic": 1061,
      "##oo": 1062,
      "##ян": 1063,
      "##ав": 1064,
      "##lad": 1065,
      "school": 1066,
      "stanislav": 1067,
      "bal": 1068,
      "min": 1069,
      "enter": 1070,
      "marcin": 1071,
      "sw": 1072,
      "mał": 1073,
      "ng": 1074,
      "##ants": 1075,
      "##ińska": 1076,
      "##ank": 1077,
      "##аш": 1078,
      "mir": 1079,
      "##ewska": 1080,
      "##uth": 1081,
      "##ft": 1082,
      "##eł": 1083,
      "magdalena": 1084,
      "ondřej": 1085,
      "##01": 1086,
      "št": 1087,
      "##amer": 1088,
      "vr": 1089,
      "##row": 1090,
      "dol": 1091,
      "ms": 1092,
      "vol": 1093,
      "##gorz": 1094,
      "paul": 1095,
      "engineering": 1096,
      "per": 1097,
      "bur": 1098,
      "her": 1099,
      "##ster": 1100,
      "ra": 1101,
      "kamil": 1102,
      "##iej": 1103,
      "ob": 1104,
      "judr": 1105,
      "new": 1106,
      "##tech": 1107,
      "construction": 1108,
      "##omír": 1109,
      "electr": 1110,
      "ал": 1111,
      "dor": 1112,
      "##iy": 1113,
      "ladislav": 1114,
      "##gorzata": 1115,
      "trans": 1116,
      "holdings": 1117,
      "##iec": 1118,
      "marketing": 1119,
      "katarzyna": 1120,
      "##ára": 1121,
      "##zek": 1122,
      "krzysz": 1123,
      "##ич": 1124,
      "##isa": 1125,
      "##ide": 1126,
      "##ид": 1127,
      "##kowska": 1128,
      "##ný": 1129,
      "##ass": 1130,
      "##ukasz": 1131,
      "##ala": 1132,
      "red": 1133,
      "ewa": 1134,
      "##bo": 1135,
      "mo": 1136,
      "har": 1137,
      "just": 1138,
      "##icka": 1139,
      "andrea": 1140,
      "mak": 1141,
      "##ła": 1142,
      "##ear": 1143,
      "##czak": 1144,
      "##work": 1145,
      "##iss": 1146,
      "joh": 1147,
      "star": 1148,
      "do": 1149,
      "str": 1150,
      "marké": 1151,
      "krzysztof": 1152,
      "da": 1153,
      "##enství": 1154,
      "##ace": 1155,
      "gabr": 1156,
      "rich": 1157,
      "vel": 1158,
      "##uta": 1159,
      "##for": 1160,
      "##ář": 1161,
      "##age": 1162,
      "sam": 1163,
      "technologies": 1164,
      "##ee": 1165,
      "lp": 1166,
      "llp": 1167,
      "ta": 1168,
      "společenství": 1169,
      "kos": 1170,
      "syl": 1171,
      "##га": 1172,
      "##kiewicz": 1173,
      "bra": 1174,
      "##ča": 1175,
      "##níků": 1176,
      "par": 1177,
      "##ied": 1178,
      "##ung": 1179,
      "consultancy": 1180,
      "patr": 1181,
      "od": 1182,
      "barbora": 1183,
      "ар": 1184,
      "ru": 1185,
      "##pa": 1186,
      "vladimír": 1187,
      "ros": 1188,
      "##rum": 1189,
      "bog": 1190,
      "františ": 1191,
      "tomasz": 1192,
      "global": 1193,
      "av": 1194,
      "care": 1195,
      "nikola": 1196,
      "mach": 1197,
      "dob": 1198,
      "sec": 1199,
      "pal": 1200,
      "maria": 1201,
      "karolina": 1202,
      "rec": 1203,
      "helena": 1204,
      "##iana": 1205,
      "aneta": 1206,
      "##xx": 1207,
      "lab": 1208,
      "markéta": 1209,
      "properties": 1210,
      "olga": 1211,
      "##bi": 1212,
      "##anda": 1213,
      "ví": 1214,
      "vlastníků": 1215,
      "ště": 1216,
      "šk": 1217,
      "ne": 1218,
      "##ca": 1219,
      "raf": 1220,
      "vě": 1221,
      "##rzej": 1222,
      "lu": 1223,
      "ber": 1224,
      "indust": 1225,
      "##ilová": 1226,
      "##oft": 1227,
      "paweł": 1228,
      "irena": 1229,
      "michał": 1230,
      "##lin": 1231,
      "dag": 1232,
      "my": 1233,
      "##nov": 1234,
      "##ph": 1235,
      "##řich": 1236,
      "##line": 1237,
      "##rej": 1238,
      "##ath": 1239,
      "##nice": 1240,
      "ku": 1241,
      "františek": 1242,
      "build": 1243,
      "##mon": 1244,
      "##ěj": 1245,
      "##ade": 1246,
      "##eň": 1247,
      "dana": 1248,
      "joanna": 1249,
      "patry": 1250,
      "##cela": 1251,
      "##ět": 1252,
      "gabriela": 1253,
      "##ед": 1254,
      "technology": 1255,
      "##anová": 1256,
      "##anka": 1257,
      "szy": 1258,
      "kla": 1259,
      "kop": 1260,
      "nov": 1261,
      "wh": 1262,
      "pavla": 1263,
      "gm": 1264,
      "dig": 1265,
      "is": 1266,
      "##ative": 1267,
      "jr": 1268,
      "##ih": 1269,
      "os": 1270,
      "##ička": 1271,
      "##tová": 1272,
      "##ith": 1273,
      "marcela": 1274,
      "andrzej": 1275,
      "vas": 1276,
      "př": 1277,
      "##erv": 1278,
      "kn": 1279,
      "##11": 1280,
      "сер": 1281,
      "##iw": 1282,
      "##кая": 1283,
      "##ke": 1284,
      "##ber": 1285,
      "łukasz": 1286,
      "pvt": 1287,
      "mc": 1288,
      "fo": 1289,
      "kryst": 1290,
      "gal": 1291,
      "pre": 1292,
      "##tions": 1293,
      "##br": 1294,
      "jed": 1295,
      "ig": 1296,
      "estate": 1297,
      "##ус": 1298,
      "##ewski": 1299,
      "##ise": 1300,
      "##andr": 1301,
      "csc": 1302,
      "##ons": 1303,
      "web": 1304,
      "##андр": 1305,
      "dominik": 1306,
      "pe": 1307,
      "##anta": 1308,
      "małgorzata": 1309,
      "##gan": 1310,
      "sil": 1311,
      "##kowski": 1312,
      "center": 1313,
      "mus": 1314,
      "##ах": 1315,
      "##ovský": 1316,
      "iw": 1317,
      "##arová": 1318,
      "##ем": 1319,
      "##ios": 1320,
      "stra": 1321,
      "##ents": 1322,
      "##аб": 1323,
      "##ай": 1324,
      "ang": 1325,
      "adri": 1326,
      "##ames": 1327,
      "##ann": 1328,
      "viktor": 1329,
      "kamila": 1330,
      "les": 1331,
      "##fr": 1332,
      "##mann": 1333,
      "koz": 1334,
      "##mer": 1335,
      "##jr": 1336,
      "rud": 1337,
      "##ск": 1338,
      "##by": 1339,
      "tomas": 1340,
      "xx": 1341,
      "##to": 1342,
      "##aš": 1343,
      "нат": 1344,
      "##osp": 1345,
      "ins": 1346,
      "##law": 1347,
      "all": 1348,
      "card": 1349,
      "##me": 1350,
      "ge": 1351,
      "kh": 1352,
      "proj": 1353,
      "po": 1354,
      "mv": 1355,
      "##uf": 1356,
      "ct": 1357,
      "##ss": 1358,
      "go": 1359,
      "tur": 1360,
      "inst": 1361,
      "##acek": 1362,
      "##iński": 1363,
      "##од": 1364,
      "##iation": 1365,
      "energ": 1366,
      "##inka": 1367,
      "##iam": 1368,
      "##amp": 1369,
      "##ovská": 1370,
      "soc": 1371,
      "barbara": 1372,
      "##les": 1373,
      "##yan": 1374,
      "enterpr": 1375,
      "##kad": 1376,
      "kot": 1377,
      "александр": 1378,
      "##erc": 1379,
      "law": 1380,
      "mba": 1381,
      "beata": 1382,
      "##200": 1383,
      "eu": 1384,
      "pp": 1385,
      "natalia": 1386,
      "max": 1387,
      "financ": 1388,
      "##ouš": 1389,
      "te": 1390,
      "seb": 1391,
      "maj": 1392,
      "##uh": 1393,
      "mateusz": 1394,
      "##itt": 1395,
      "grzeg": 1396,
      "dz": 1397,
      "##ior": 1398,
      "##их": 1399,
      "##ád": 1400,
      "##99": 1401,
      "##tract": 1402,
      "trust": 1403,
      "##bor": 1404,
      "et": 1405,
      "pri": 1406,
      "##ve": 1407,
      "##gen": 1408,
      "##dp": 1409,
      "##lova": 1410,
      "na": 1411,
      "north": 1412,
      "##árka": 1413,
      "jur": 1414,
      "cr": 1415,
      "ok": 1416,
      "rt": 1417,
      "##uyen": 1418,
      "dam": 1419,
      "met": 1420,
      "##ous": 1421,
      "##iška": 1422,
      "##ni": 1423,
      "šp": 1424,
      "štěp": 1425,
      "##oration": 1426,
      "##mus": 1427,
      "##íš": 1428,
      "##ýna": 1429,
      "##ets": 1430,
      "hav": 1431,
      "kv": 1432,
      "##oda": 1433,
      "iveta": 1434,
      "##ral": 1435,
      "log": 1436,
      "contract": 1437,
      "##ана": 1438,
      "##iff": 1439,
      "##iya": 1440,
      "mail": 1441,
      "king": 1442,
      "phdr": 1443,
      "lo": 1444,
      "lin": 1445,
      "rn": 1446,
      "studio": 1447,
      "##he": 1448,
      "##123": 1449,
      "##act": 1450,
      "sur": 1451,
      "luka": 1452,
      "##yp": 1453,
      "##chová": 1454,
      "##isz": 1455,
      "grzegorz": 1456,
      "##ett": 1457,
      "##ald": 1458,
      "john": 1459,
      "bel": 1460,
      "##áčková": 1461,
      "development": 1462,
      "##ás": 1463,
      "kur": 1464,
      "by": 1465,
      "##ile": 1466,
      "digital": 1467,
      "communic": 1468,
      "ко": 1469,
      "##esa": 1470,
      "libor": 1471,
      "##кина": 1472,
      "##ira": 1473,
      "##iech": 1474,
      "richard": 1475,
      "financial": 1476,
      "sab": 1477,
      "investments": 1478,
      "club": 1479,
      "sylw": 1480,
      "##ysz": 1481,
      "dp": 1482,
      "prz": 1483,
      "fir": 1484,
      "##elina": 1485,
      "##анов": 1486,
      "radka": 1487,
      "cle": 1488,
      "##ower": 1489,
      "mel": 1490,
      "##ver": 1491,
      "##anova": 1492,
      "dagmar": 1493,
      "##аз": 1494,
      "##ki": 1495,
      "##10": 1496,
      "off": 1497,
      "az": 1498,
      "mvdr": 1499,
      "jiri": 1500,
      "daw": 1501,
      "ot": 1502,
      "consultants": 1503,
      "char": 1504,
      "vp": 1505,
      "##ory": 1506,
      "service": 1507,
      "michael": 1508,
      "##ham": 1509,
      "tal": 1510,
      "##der": 1511,
      "industri": 1512,
      "##áček": 1513,
      "aleš": 1514,
      "gmx": 1515,
      "kac": 1516,
      "##ская": 1517,
      "post": 1518,
      "šárka": 1519,
      "mad": 1520,
      "jind": 1521,
      "secur": 1522,
      "##anov": 1523,
      "štěpán": 1524,
      "jol": 1525,
      "iva": 1526,
      "green": 1527,
      "medical": 1528,
      "aleksandra": 1529,
      "##ema": 1530,
      "rus": 1531,
      "west": 1532,
      "kř": 1533,
      "##po": 1534,
      "to": 1535,
      "##кин": 1536,
      "##yc": 1537,
      "##лад": 1538,
      "##ield": 1539,
      "##inová": 1540,
      "##ins": 1541,
      "##ivers": 1542,
      "sport": 1543,
      "house": 1544,
      "south": 1545,
      "park": 1546,
      "nguyen": 1547,
      "del": 1548,
      "dorota": 1549,
      "##13": 1550,
      "##áb": 1551,
      "##akova": 1552,
      "натал": 1553,
      "##ram": 1554,
      "kom": 1555,
      "dm": 1556,
      "kristýna": 1557,
      "pop": 1558,
      "##ander": 1559,
      "##gl": 1560,
      "vl": 1561,
      "věra": 1562,
      "##inska": 1563,
      "mas": 1564,
      "##ňa": 1565,
      "dominika": 1566,
      "##esk": 1567,
      "##ency": 1568,
      "##dz": 1569,
      "patrik": 1570,
      "##hy": 1571,
      "##ishop": 1572,
      "##elová": 1573,
      "ul": 1574,
      "кр": 1575,
      "energy": 1576,
      "thi": 1577,
      "india": 1578,
      "##orn": 1579,
      "##go": 1580,
      "eccl": 1581,
      "серг": 1582,
      "mariusz": 1583,
      "##iek": 1584,
      "##arz": 1585,
      "##ute": 1586,
      "##raft": 1587,
      "##ater": 1588,
      "##ware": 1589,
      "soft": 1590,
      "corporation": 1591,
      "##se": 1592,
      "vil": 1593,
      "sob": 1594,
      "pub": 1595,
      "##plk": 1596,
      "##lik": 1597,
      "iz": 1598,
      "##lay": 1599,
      "вал": 1600,
      "##arn": 1601,
      "##bieta": 1602,
      "home": 1603,
      "##ional": 1604,
      "kasia": 1605,
      "simona": 1606,
      "wor": 1607,
      "##iet": 1608,
      "##ун": 1609,
      "св": 1610,
      "bab": 1611,
      "bas": 1612,
      "ник": 1613,
      "##ining": 1614,
      "vac": 1615,
      "##inc": 1616,
      "ев": 1617,
      "šim": 1618,
      "##vel": 1619,
      "##ence": 1620,
      "bud": 1621,
      "emil": 1622,
      "trading": 1623,
      "prap": 1624,
      "##ada": 1625,
      "no": 1626,
      "justyna": 1627,
      "rndr": 1628,
      "lif": 1629,
      "##těch": 1630,
      "tre": 1631,
      "we": 1632,
      "mga": 1633,
      "##ек": 1634,
      "ampl": 1635,
      "jaroslava": 1636,
      "equ": 1637,
      "##аев": 1638,
      "##ises": 1639,
      "ew": 1640,
      "por": 1641,
      "##ush": 1642,
      "##zena": 1643,
      "##аг": 1644,
      "##rová": 1645,
      "влад": 1646,
      "bol": 1647,
      "##iol": 1648,
      "tim": 1649,
      "reg": 1650,
      "##hl": 1651,
      "##arova": 1652,
      "pharm": 1653,
      "##ange": 1654,
      "gu": 1655,
      "klára": 1656,
      "md": 1657,
      "##áv": 1658,
      "hen": 1659,
      "##лена": 1660,
      "##fan": 1661,
      "peter": 1662,
      "ст": 1663,
      "##rtm": 1664,
      "##alova": 1665,
      "network": 1666,
      "ир": 1667,
      "praha": 1668,
      "iwona": 1669,
      "tat": 1670,
      "##ero": 1671,
      "##ures": 1672,
      "##ух": 1673,
      "ves": 1674,
      "##kovice": 1675,
      "radim": 1676,
      "##oł": 1677,
      "paulina": 1678,
      "exc": 1679,
      "##ак": 1680,
      "association": 1681,
      "jer": 1682,
      "##sch": 1683,
      "##erova": 1684,
      "##tain": 1685,
      "coun": 1686,
      "vld": 1687,
      "##ci": 1688,
      "##omir": 1689,
      "dsc": 1690,
      "tel": 1691,
      "##nam": 1692,
      "ilona": 1693,
      "vojtěch": 1694,
      "daniela": 1695,
      "##uše": 1696,
      "##de": 1697,
      "drsc": 1698,
      "lond": 1699,
      "##dan": 1700,
      "##ánková": 1701,
      "vdp": 1702,
      "##urt": 1703,
      "honza": 1704,
      "##yg": 1705,
      "pty": 1706,
      "pavlína": 1707,
      "leg": 1708,
      "vy": 1709,
      "miloslav": 1710,
      "##ecka": 1711,
      "##teg": 1712,
      "ана": 1713,
      "##ester": 1714,
      "##ision": 1715,
      "inf": 1716,
      "##ott": 1717,
      "андр": 1718,
      "##ánek": 1719,
      "##22": 1720,
      "##mr": 1721,
      "##ban": 1722,
      "dawid": 1723,
      "land": 1724,
      "vldp": 1725,
      "ham": 1726,
      "gar": 1727,
      "bed": 1728,
      "##nerová": 1729,
      "##au": 1730,
      "instit": 1731,
      "##own": 1732,
      "food": 1733,
      "magda": 1734,
      "лю": 1735,
      "roz": 1736,
      "centrum": 1737,
      "kuba": 1738,
      "##net": 1739,
      "##que": 1740,
      "##ental": 1741,
      "hotel": 1742,
      "##bert": 1743,
      "doc": 1744,
      "##иев": 1745,
      "centre": 1746,
      "svob": 1747,
      "will": 1748,
      "matěj": 1749,
      "sebast": 1750,
      "ke": 1751,
      "kle": 1752,
      "##mo": 1753,
      "елена": 1754,
      "##bur": 1755,
      "rafał": 1756,
      "dal": 1757,
      "##esh": 1758,
      "productions": 1759,
      "maciej": 1760,
      "ve": 1761,
      "london": 1762,
      "##ger": 1763,
      "##гор": 1764,
      "##из": 1765,
      "ania": 1766,
      "hub": 1767,
      "##gh": 1768,
      "##анова": 1769,
      "artur": 1770,
      "jon": 1771,
      "sar": 1772,
      "##str": 1773,
      "##ily": 1774,
      "##ген": 1775,
      "##лав": 1776,
      "##zyn": 1777,
      "enterprises": 1778,
      "##čík": 1779,
      "ic": 1780,
      "amplmus": 1781,
      "arm": 1782,
      "##be": 1783,
      "przem": 1784,
      "mer": 1785,
      "##ps": 1786,
      "##tin": 1787,
      "##ник": 1788,
      "вик": 1789,
      "far": 1790,
      "šv": 1791,
      "##řová": 1792,
      "ole": 1793,
      "cat": 1794,
      "##ро": 1795,
      "denisa": 1796,
      "##ičková": 1797,
      "sylwia": 1798,
      "vent": 1799,
      "chr": 1800,
      "##íl": 1801,
      "тат": 1802,
      "##mc": 1803,
      "##ida": 1804,
      "lukas": 1805,
      "##ford": 1806,
      "amer": 1807,
      "nic": 1808,
      "##iuk": 1809,
      "romana": 1810,
      "##rab": 1811,
      "аб": 1812,
      "wer": 1813,
      "юл": 1814,
      "kap": 1815,
      "koc": 1816,
      "lh": 1817,
      "##ěl": 1818,
      "dist": 1819,
      "jacek": 1820,
      "kul": 1821,
      "##hd": 1822,
      "##ут": 1823,
      "##inski": 1824,
      "##emy": 1825,
      "training": 1826,
      "##imir": 1827,
      "##ove": 1828,
      "##notek": 1829,
      "##čice": 1830,
      "kun": 1831,
      "##ук": 1832,
      "blanka": 1833,
      "past": 1834,
      "ml": 1835,
      "##hip": 1836,
      "rep": 1837,
      "##ino": 1838,
      "sebastian": 1839,
      "up": 1840,
      "##vate": 1841,
      "horní": 1842,
      "##irl": 1843,
      "rock": 1844,
      "sn": 1845,
      "свет": 1846,
      "##иш": 1847,
      "##áz": 1848,
      "agency": 1849,
      "##cha": 1850,
      "out": 1851,
      "##ull": 1852,
      "organ": 1853,
      "sed": 1854,
      "angel": 1855,
      "wojc": 1856,
      "##23": 1857,
      "##icki": 1858,
      "kater": 1859,
      "##ze": 1860,
      "creative": 1861,
      "jednotek": 1862,
      "##count": 1863,
      "srl": 1864,
      "atlas": 1865,
      "gold": 1866,
      "communications": 1867,
      "advis": 1868,
      "marian": 1869,
      "dub": 1870,
      "sd": 1871,
      "##wood": 1872,
      "nav": 1873,
      "##ities": 1874,
      "nová": 1875,
      "##26": 1876,
      "##acz": 1877,
      "eliška": 1878,
      "##ule": 1879,
      "##care": 1880,
      "bre": 1881,
      "##íček": 1882,
      "##тор": 1883,
      "damian": 1884,
      "vend": 1885,
      "san": 1886,
      "##urance": 1887,
      "##íra": 1888,
      "der": 1889,
      "agata": 1890,
      "vir": 1891,
      "mid": 1892,
      "electrical": 1893,
      "miroslava": 1894,
      "software": 1895,
      "private": 1896,
      "colle": 1897,
      "##lat": 1898,
      "##form": 1899,
      "adé": 1900,
      "##ima": 1901,
      "developments": 1902,
      "pos": 1903,
      "евген": 1904,
      "čern": 1905,
      "saf": 1906,
      "##rob": 1907,
      "transport": 1908,
      "##ator": 1909,
      "##itect": 1910,
      "univers": 1911,
      "##ane": 1912,
      "##ьяна": 1913,
      "##uj": 1914,
      "##рий": 1915,
      "found": 1916,
      "##ple": 1917,
      "sem": 1918,
      "ludmila": 1919,
      "##íčková": 1920,
      "pad": 1921,
      "##уд": 1922,
      "оль": 1923,
      "investment": 1924,
      "black": 1925,
      "kaz": 1926,
      "##loud": 1927,
      "##min": 1928,
      "jas": 1929,
      "##enice": 1930,
      "fab": 1931,
      "##lík": 1932,
      "europ": 1933,
      "##ešová": 1934,
      "##air": 1935,
      "##ež": 1936,
      "##umb": 1937,
      "son": 1938,
      "old": 1939,
      "##ron": 1940,
      "##vp": 1941,
      "##lerová": 1942,
      "##ezd": 1943,
      "##ium": 1944,
      "bob": 1945,
      "##21": 1946,
      "work": 1947,
      "##ness": 1948,
      "wil": 1949,
      "sky": 1950,
      "krystyna": 1951,
      "##ric": 1952,
      "road": 1953,
      "world": 1954,
      "##20": 1955,
      "##аева": 1956,
      "acad": 1957,
      "##oth": 1958,
      "du": 1959,
      "##zef": 1960,
      "rs": 1961,
      "zdeň": 1962,
      "hl": 1963,
      "##ias": 1964,
      "building": 1965,
      "##от": 1966,
      "brand": 1967,
      "jarmila": 1968,
      "сергей": 1969,
      "tw": 1970,
      "##řice": 1971,
      "##čová": 1972,
      "wies": 1973,
      "##idge": 1974,
      "pap": 1975,
      "##št": 1976,
      "##ava": 1977,
      "klaud": 1978,
      "julia": 1979,
      "##ická": 1980,
      "educ": 1981,
      "##aming": 1982,
      "##ont": 1983,
      "татьяна": 1984,
      "o2": 1985,
      "##уб": 1986,
      "##lana": 1987,
      "##kt": 1988,
      "yah": 1989,
      "bř": 1990,
      "##лана": 1991,
      "##уш": 1992,
      "##imil": 1993,
      "christ": 1994,
      "igor": 1995,
      "##tec": 1996,
      "dem": 1997,
      "##číková": 1998,
      "##bl": 1999,
      "##ius": 2000,
      "##cja": 2001,
      "##dová": 2002,
      "##ес": 2003,
      "slav": 2004,
      "##oll": 2005,
      "##iga": 2006,
      "##etta": 2007,
      "##enn": 2008,
      "antonín": 2009,
      "tř": 2010,
      "##yta": 2011,
      "ольга": 2012,
      "account": 2013,
      "dc": 2014,
      "##uck": 2015,
      "##šová": 2016,
      "##ап": 2017,
      "кар": 2018,
      "vladimir": 2019,
      "dolní": 2020,
      "duš": 2021,
      "email": 2022,
      "pt": 2023,
      "community": 2024,
      "##ské": 2025,
      "lip": 2026,
      "wojciech": 2027,
      "##24": 2028,
      "##oss": 2029,
      "##berg": 2030,
      "ivo": 2031,
      "cal": 2032,
      "proton": 2033,
      "##ysl": 2034,
      "adrian": 2035,
      "##andex": 2036,
      "zdeňka": 2037,
      "phot": 2038,
      "ry": 2039,
      "##ňová": 2040,
      "##email": 2041,
      "##eth": 2042,
      "such": 2043,
      "##iat": 2044,
      "наталья": 2045,
      "spec": 2046,
      "##czuk": 2047,
      "##field": 2048,
      "mod": 2049,
      "tro": 2050,
      "online": 2051,
      "hosp": 2052,
      "yandex": 2053,
      "##77": 2054,
      "dariusz": 2055,
      "danuta": 2056,
      "##ский": 2057,
      "##cova": 2058,
      "##ale": 2059,
      "insurance": 2060,
      "##isk": 2061,
      "yahoo": 2062,
      "thom": 2063,
      "rost": 2064,
      "ewelina": 2065,
      "##its": 2066,
      "##inal": 2067,
      "kob": 2068,
      "jolanta": 2069,
      "##niak": 2070,
      "##níková": 2071,
      "high": 2072,
      "katerina": 2073,
      "##lan": 2074,
      "##ława": 2075,
      "east": 2076,
      "top": 2077,
      "logist": 2078,
      "soch": 2079,
      "##dy": 2080,
      "air": 2081,
      "##ický": 2082,
      "patrycja": 2083,
      "##cki": 2084,
      "##osia": 2085,
      "##itch": 2086,
      "homes": 2087,
      "##uel": 2088,
      "##ister": 2089,
      "broth": 2090,
      "milena": 2091,
      "zdenek": 2092,
      "tar": 2093,
      "виктор": 2094,
      "##ico": 2095,
      "maz": 2096,
      "##čka": 2097,
      "##14": 2098,
      "##ovič": 2099,
      "##ole": 2100,
      "fat": 2101,
      "ger": 2102,
      "kru": 2103,
      "stre": 2104,
      "##tem": 2105,
      "now": 2106,
      "europe": 2107,
      "nex": 2108,
      "ирина": 2109,
      "##urs": 2110,
      "##aff": 2111,
      "pot": 2112,
      "##ime": 2113,
      "project": 2114,
      "teresa": 2115,
      "travel": 2116,
      "арт": 2117,
      "izab": 2118,
      "om": 2119,
      "##ux": 2120,
      "jirka": 2121,
      "##об": 2122,
      "##erson": 2123,
      "##nar": 2124,
      "fer": 2125,
      "##zh": 2126,
      "##eng": 2127,
      "abb": 2128,
      "##ии": 2129,
      "##šková": 2130,
      "##acon": 2131,
      "##gon": 2132,
      "marcel": 2133,
      "adéla": 2134,
      "rd": 2135,
      "##iev": 2136,
      "architect": 2137,
      "##osław": 2138,
      "##ibor": 2139,
      "##ruit": 2140,
      "foundation": 2141,
      "ив": 2142,
      "bern": 2143,
      "fam": 2144,
      "city": 2145,
      "##dl": 2146,
      "##ерина": 2147,
      "##manová": 2148,
      "##тина": 2149,
      "ola": 2150,
      "alic": 2151,
      "##oy": 2152,
      "ryb": 2153,
      "suppl": 2154,
      "can": 2155,
      "paed": 2156,
      "wiktor": 2157,
      "cor": 2158,
      "security": 2159,
      "##kat": 2160,
      "##isc": 2161,
      "дм": 2162,
      "##ling": 2163,
      "kad": 2164,
      "макс": 2165,
      "vít": 2166,
      "jaromír": 2167,
      "vlastimil": 2168,
      "##hm": 2169,
      "kost": 2170,
      "##03": 2171,
      "rc": 2172,
      "##63": 2173,
      "##urch": 2174,
      "luboš": 2175,
      "patryk": 2176,
      "##уз": 2177,
      "sel": 2178,
      "don": 2179,
      "česk": 2180,
      "##аша": 2181,
      "##rib": 2182,
      "fed": 2183,
      "##ос": 2184,
      "drah": 2185,
      "##ene": 2186,
      "stanis": 2187,
      "##ome": 2188,
      "vit": 2189,
      "kir": 2190,
      "ps": 2191,
      "resour": 2192,
      "##ille": 2193,
      "##itz": 2194,
      "step": 2195,
      "##way": 2196,
      "##erz": 2197,
      "most": 2198,
      "##15": 2199,
      "cra": 2200,
      "miloš": 2201,
      "##ali": 2202,
      "##lov": 2203,
      "##ican": 2204,
      "va": 2205,
      "acc": 2206,
      "products": 2207,
      "lid": 2208,
      "elż": 2209,
      "оле": 2210,
      "##pro": 2211,
      "##bc": 2212,
      "##45": 2213,
      "dud": 2214,
      "ja": 2215,
      "##gamer": 2216,
      "academy": 2217,
      "дмит": 2218,
      "sław": 2219,
      "##sko": 2220,
      "##iver": 2221,
      "bca": 2222,
      "##inova": 2223,
      "##zd": 2224,
      "##атерина": 2225,
      "##ake": 2226,
      "sun": 2227,
      "ltda": 2228,
      "##ating": 2229,
      "win": 2230,
      "rem": 2231,
      "bohum": 2232,
      "##ward": 2233,
      "elżbieta": 2234,
      "autom": 2235,
      "super": 2236,
      "##iola": 2237,
      "##han": 2238,
      "alicja": 2239,
      "clean": 2240,
      "##iia": 2241,
      "zá": 2242,
      "anast": 2243,
      "fur": 2244,
      "##out": 2245,
      "karolína": 2246,
      "es": 2247,
      "##ра": 2248,
      "fire": 2249,
      "##ewicz": 2250,
      "##lak": 2251,
      "lap": 2252,
      "ther": 2253,
      "##ło": 2254,
      "elena": 2255,
      "rod": 2256,
      "gor": 2257,
      "ant": 2258,
      "rudolf": 2259,
      "geor": 2260,
      "##ель": 2261,
      "paeddr": 2262,
      "velk": 2263,
      "##ograp": 2264,
      "##kin": 2265,
      "##lam": 2266,
      "##zyk": 2267,
      "vasyl": 2268,
      "##ual": 2269,
      "jindřich": 2270,
      "##ilova": 2271,
      "bv": 2272,
      "jad": 2273,
      "akad": 2274,
      "##earch": 2275,
      "janusz": 2276,
      "##ces": 2277,
      "##tion": 2278,
      "bp": 2279,
      "id": 2280,
      "clin": 2281,
      "port": 2282,
      "kre": 2283,
      "svat": 2284,
      "right": 2285,
      "klaudia": 2286,
      "vic": 2287,
      "светлана": 2288,
      "rtm": 2289,
      "bak": 2290,
      "##jan": 2291,
      "institute": 2292,
      "анаст": 2293,
      "pep": 2294,
      "war": 2295,
      "гал": 2296,
      "pas": 2297,
      "##kola": 2298,
      "##eral": 2299,
      "ром": 2300,
      "##osh": 2301,
      "##iller": 2302,
      "##rov": 2303,
      "##33": 2304,
      "##nová": 2305,
      "morav": 2306,
      "vo": 2307,
      "special": 2308,
      "life": 2309,
      "##04": 2310,
      "##05": 2311,
      "brig": 2312,
      "mddr": 2313,
      "андрей": 2314,
      "hum": 2315,
      "##ум": 2316,
      "##iska": 2317,
      "vladislav": 2318,
      "##асия": 2319,
      "nikol": 2320,
      "pac": 2321,
      "gru": 2322,
      "##py": 2323,
      "marzena": 2324,
      "wood": 2325,
      "##bek": 2326,
      "##čí": 2327,
      "##rat": 2328,
      "cas": 2329,
      "##uer": 2330,
      "##ker": 2331,
      "##sová": 2332,
      "##yle": 2333,
      "##ečková": 2334,
      "james": 2335,
      "иль": 2336,
      "power": 2337,
      "##ила": 2338,
      "izabela": 2339,
      "##cka": 2340,
      "##nic": 2341,
      "organiz": 2342,
      "asia": 2343,
      "##ony": 2344,
      "##дин": 2345,
      "##iro": 2346,
      "jen": 2347,
      "##řík": 2348,
      "##19": 2349,
      "##arek": 2350,
      "##uba": 2351,
      "##zz": 2352,
      "resta": 2353,
      "hu": 2354,
      "gard": 2355,
      "pří": 2356,
      "zbyn": 2357,
      "zdenka": 2358,
      "hill": 2359,
      "fac": 2360,
      "szcz": 2361,
      "анастасия": 2362,
      "np": 2363,
      "szymon": 2364,
      "##líková": 2365,
      "##да": 2366,
      "##lass": 2367,
      "юлия": 2368,
      "innov": 2369,
      "tomek": 2370,
      "zh": 2371,
      "šte": 2372,
      "pel": 2373,
      "##ита": 2374,
      "##имир": 2375,
      "one": 2376,
      "гр": 2377,
      "##ition": 2378,
      "##my": 2379,
      "##áta": 2380,
      "##иль": 2381,
      "kro": 2382,
      "##cast": 2383,
      "##ovan": 2384,
      "sen": 2385,
      "##rav": 2386,
      "##odz": 2387,
      "tu": 2388,
      "fast": 2389,
      "##25": 2390,
      "hot": 2391,
      "##off": 2392,
      "tv": 2393,
      "partnership": 2394,
      "ned": 2395,
      "finance": 2396,
      "##ог": 2397,
      "##box": 2398,
      "sabina": 2399,
      "pok": 2400,
      "##li": 2401,
      "aust": 2402,
      "hab": 2403,
      "##omb": 2404,
      "blue": 2405,
      "len": 2406,
      "tade": 2407,
      "##еж": 2408,
      "research": 2409,
      "recruit": 2410,
      "ек": 2411,
      "su": 2412,
      "lev": 2413,
      "##ural": 2414,
      "klim": 2415,
      "halina": 2416,
      "##ián": 2417,
      "restaur": 2418,
      "анна": 2419,
      "##rd": 2420,
      "##mi": 2421,
      "oleks": 2422,
      "big": 2423,
      "##isch": 2424,
      "##иб": 2425,
      "##slav": 2426,
      "##inger": 2427,
      "##si": 2428,
      "fit": 2429,
      "##yz": 2430,
      "comput": 2431,
      "sandra": 2432,
      "flor": 2433,
      "lit": 2434,
      "auto": 2435,
      "ston": 2436,
      "logistics": 2437,
      "вас": 2438,
      "hospital": 2439,
      "amb": 2440,
      "vital": 2441,
      "##ran": 2442,
      "##ecki": 2443,
      "franc": 2444,
      "dre": 2445,
      "silv": 2446,
      "raj": 2447,
      "ram": 2448,
      "##60": 2449,
      "##pe": 2450,
      "bry": 2451,
      "sas": 2452,
      "##иева": 2453,
      "pharmdr": 2454,
      "hrad": 2455,
      "sav": 2456,
      "bartosz": 2457,
      "##17": 2458,
      "##ety": 2459,
      "zbign": 2460,
      "##els": 2461,
      "mob": 2462,
      "office": 2463,
      "strateg": 2464,
      "ost": 2465,
      "##ique": 2466,
      "music": 2467,
      "##iva": 2468,
      "sales": 2469,
      "##elka": 2470,
      "hlav": 2471,
      "##oun": 2472,
      "##inh": 2473,
      "ly": 2474,
      "realty": 2475,
      "##alk": 2476,
      "##ovec": 2477,
      "lil": 2478,
      "industries": 2479,
      "##press": 2480,
      "tut": 2481,
      "pm": 2482,
      "us": 2483,
      "denis": 2484,
      "алексей": 2485,
      "sports": 2486,
      "bartek": 2487,
      "edyta": 2488,
      "200": 2489,
      "hej": 2490,
      "ii": 2491,
      "zel": 2492,
      "##har": 2493,
      "zbigniew": 2494,
      "photograp": 2495,
      "##bs": 2496,
      "##ns": 2497,
      "мих": 2498,
      "has": 2499,
      "##fl": 2500,
      "##iková": 2501,
      "rostislav": 2502,
      "first": 2503,
      "farm": 2504,
      "trade": 2505,
      "марина": 2506,
      "ts": 2507,
      "ле": 2508,
      "je": 2509,
      "church": 2510,
      "##uda": 2511,
      "дан": 2512,
      "pob": 2513,
      "urban": 2514,
      "mons": 2515,
      "pil": 2516,
      "lubomír": 2517,
      "haj": 2518,
      "##ecký": 2519,
      "##com": 2520,
      "##18": 2521,
      "##hor": 2522,
      "dire": 2523,
      "##isek": 2524,
      "##aneta": 2525,
      "##ůž": 2526,
      "vaclav": 2527,
      "jiřina": 2528,
      "##ks": 2529,
      "##kow": 2530,
      "dark": 2531,
      "##red": 2532,
      "profess": 2533,
      "court": 2534,
      "odb": 2535,
      "anastas": 2536,
      "kw": 2537,
      "lang": 2538,
      "alexandr": 2539,
      "very": 2540,
      "vlasta": 2541,
      "sad": 2542,
      "ca": 2543,
      "##mel": 2544,
      "екатерина": 2545,
      "myk": 2546,
      "healthcare": 2547,
      "##val": 2548,
      "##ury": 2549,
      "##hr": 2550,
      "eg": 2551,
      "daria": 2552,
      "tri": 2553,
      "##att": 2554,
      "##fa": 2555,
      "##chuk": 2556,
      "##vi": 2557,
      "zah": 2558,
      "lhota": 2559,
      "gol": 2560,
      "##ок": 2561,
      "##unic": 2562,
      "##ider": 2563,
      "ban": 2564,
      "conn": 2565,
      "alina": 2566,
      "##ола": 2567,
      "##07": 2568,
      "events": 2569,
      "ondra": 2570,
      "##uty": 2571,
      "div": 2572,
      "kow": 2573,
      "dušan": 2574,
      "##ris": 2575,
      "##ini": 2576,
      "jm": 2577,
      "##ип": 2578,
      "spa": 2579,
      "##iem": 2580,
      "над": 2581,
      "domu": 2582,
      "zem": 2583,
      "valent": 2584,
      "##лан": 2585,
      "##cs": 2586,
      "##met": 2587,
      "ep": 2588,
      "maty": 2589,
      "##ťa": 2590,
      "##len": 2591,
      "##lew": 2592,
      "cer": 2593,
      "ju": 2594,
      "live": 2595,
      "##ryk": 2596,
      "public": 2597,
      "##иц": 2598,
      "lou": 2599,
      "pastor": 2600,
      "liv": 2601,
      "##ama": 2602,
      "education": 2603,
      "##ercial": 2604,
      "terra": 2605,
      "##oks": 2606,
      "inform": 2607,
      "дж": 2608,
      "well": 2609,
      "jerzy": 2610,
      "владимир": 2611,
      "##88": 2612,
      "mirek": 2613,
      "yo": 2614,
      "##arczyk": 2615,
      "vaš": 2616,
      "free": 2617,
      "mě": 2618,
      "##zová": 2619,
      "stefan": 2620,
      "szm": 2621,
      "krej": 2622,
      "cab": 2623,
      "tax": 2624,
      "bod": 2625,
      "bron": 2626,
      "ga": 2627,
      "##ша": 2628,
      "mort": 2629,
      "##02": 2630,
      "mis": 2631,
      "##tdr": 2632,
      "kinga": 2633,
      "dd": 2634,
      "las": 2635,
      "tran": 2636,
      "alexandra": 2637,
      "##con": 2638,
      "mol": 2639,
      "tec": 2640,
      "rysz": 2641,
      "family": 2642,
      "##55": 2643,
      "ondrej": 2644,
      "##ecká": 2645,
      "##wor": 2646,
      "##je": 2647,
      "##anek": 2648,
      "li": 2649,
      "##hal": 2650,
      "bishop": 2651,
      "##ston": 2652,
      "##66": 2653,
      "env": 2654,
      "jack": 2655,
      "##ters": 2656,
      "county": 2657,
      "thomas": 2658,
      "дмитрий": 2659,
      "att": 2660,
      "##mjr": 2661,
      "##ignor": 2662,
      "##jn": 2663,
      "resid": 2664,
      "##аил": 2665,
      "white": 2666,
      "##ras": 2667,
      "##arda": 2668,
      "boż": 2669,
      "##izon": 2670,
      "coach": 2671,
      "syn": 2672,
      "##iance": 2673,
      "bil": 2674,
      "ventures": 2675,
      "mur": 2676,
      "maks": 2677,
      "industrial": 2678,
      "##eček": 2679,
      "jozef": 2680,
      "college": 2681,
      "##ška": 2682,
      "thm": 2683,
      "social": 2684,
      "shop": 2685,
      "fal": 2686,
      "kov": 2687,
      "##bishop": 2688,
      "bea": 2689,
      "vendula": 2690,
      "##аф": 2691,
      "##res": 2692,
      "##wn": 2693,
      "mjr": 2694,
      "##ец": 2695,
      "soňa": 2696,
      "##ofia": 2697,
      "##říková": 2698,
      "martyna": 2699,
      "photography": 2700,
      "pplk": 2701,
      "rsdr": 2702,
      "professional": 2703,
      "hod": 2704,
      "weronika": 2705,
      "##27": 2706,
      "##ever": 2707,
      "wald": 2708,
      "ppor": 2709,
      "wit": 2710,
      "##уль": 2711,
      "jag": 2712,
      "##oho": 2713,
      "##uška": 2714,
      "##ution": 2715,
      "##ington": 2716,
      "##raf": 2717,
      "##rt": 2718,
      "cardinal": 2719,
      "##ďa": 2720,
      "abbot": 2721,
      "##ven": 2722,
      "org": 2723,
      "wiol": 2724,
      "мария": 2725,
      "ima": 2726,
      "street": 2727,
      "kpt": 2728,
      "##né": 2729,
      "luděk": 2730,
      "##med": 2731,
      "vin": 2732,
      "mother": 2733,
      "abp": 2734,
      "##ův": 2735,
      "##fer": 2736,
      "##álková": 2737,
      "bay": 2738,
      "serge": 2739,
      "##ám": 2740,
      "plk": 2741,
      "##olt": 2742,
      "buk": 2743,
      "direct": 2744,
      "иван": 2745,
      "##ля": 2746,
      "dcn": 2747,
      "##ichová": 2748,
      "prom": 2749,
      "##szula": 2750,
      "hanna": 2751,
      "tam": 2752,
      "var": 2753,
      "##ovska": 2754,
      "čet": 2755,
      "##tre": 2756,
      "##ited": 2757,
      "dec": 2758,
      "mila": 2759,
      "vav": 2760,
      "##żyna": 2761,
      "rtn": 2762,
      "thdr": 2763,
      "dv": 2764,
      "msdr": 2765,
      "##usová": 2766,
      "fe": 2767,
      "nrtm": 2768,
      "##ón": 2769,
      "series": 2770,
      "lar": 2771,
      "smart": 2772,
      "wind": 2773,
      "rtdr": 2774,
      "phmr": 2775,
      "gas": 2776,
      "bi": 2777,
      "##ats": 2778,
      "npor": 2779,
      "brother": 2780,
      "msgr": 2781,
      "light": 2782,
      "##let": 2783,
      "##16": 2784,
      "##09": 2785,
      "rcdr": 2786,
      "šprap": 2787,
      "##ýn": 2788,
      "wolf": 2789,
      "national": 2790,
      "škpt": 2791,
      "##cd": 2792,
      "šrtm": 2793,
      "maci": 2794,
      "##ai": 2795,
      "thmgr": 2796,
      "##eld": 2797,
      "genplk": 2798,
      "oh": 2799,
      "urszula": 2800,
      "кир": 2801,
      "thlic": 2802,
      "renáta": 2803,
      "вит": 2804,
      "##еп": 2805,
      "sister": 2806,
      "валер": 2807,
      "##gar": 2808,
      "##сен": 2809,
      "##ив": 2810,
      "вер": 2811,
      "plus": 2812,
      "genmjr": 2813,
      "##ysław": 2814,
      "nprap": 2815,
      "father": 2816,
      "sok": 2817,
      "zbyněk": 2818,
      "##ěž": 2819,
      "genpor": 2820,
      "św": 2821,
      "##over": 2822,
      "##kl": 2823,
      "##ářová": 2824,
      "virg": 2825,
      "bul": 2826,
      "##zi": 2827,
      "deacon": 2828,
      "bank": 2829,
      "##ores": 2830,
      "prok": 2831,
      "ela": 2832,
      "chl": 2833,
      "zaj": 2834,
      "kacper": 2835,
      "university": 2836,
      "alexander": 2837,
      "restaurant": 2838,
      "##uss": 2839,
      "##08": 2840,
      "orange": 2841,
      "kuch": 2842,
      "rub": 2843,
      "##ysh": 2844,
      "абд": 2845,
      "oldřich": 2846,
      "##uska": 2847,
      "abd": 2848,
      "fle": 2849,
      "entertain": 2850,
      "##ím": 2851,
      "padre": 2852,
      "team": 2853,
      "##иса": 2854,
      "##06": 2855,
      "##има": 2856,
      "##ové": 2857,
      "hud": 2858,
      "##ble": 2859,
      "ryszard": 2860,
      "grażyna": 2861,
      "##ěv": 2862,
      "dj": 2863,
      "dmit": 2864,
      "##улл": 2865,
      "##44": 2866,
      "##adow": 2867,
      "максим": 2868,
      "nem": 2869,
      "##uard": 2870,
      "paní": 2871,
      "ard": 2872,
      "##iad": 2873,
      "archbishop": 2874,
      "##boy": 2875,
      "nev": 2876,
      "##už": 2877,
      "monsignor": 2878,
      "wojtek": 2879,
      "##ór": 2880,
      "##аст": 2881,
      "##ulka": 2882,
      "##lish": 2883,
      "##mat": 2884,
      "diana": 2885,
      "fa": 2886,
      "##ng": 2887,
      "ден": 2888,
      "svet": 2889,
      "##ects": 2890,
      "vod": 2891,
      "##ella": 2892,
      "recruitment": 2893,
      "bub": 2894,
      "distrib": 2895,
      "bat": 2896,
      "kristina": 2897,
      "gaj": 2898,
      "natál": 2899,
      "##ito": 2900,
      "blu": 2901,
      "advokátka": 2902,
      "tour": 2903,
      "##hail": 2904,
      "mos": 2905,
      "##ченко": 2906,
      "##аров": 2907,
      "tob": 2908,
      "spolek": 2909,
      "##ape": 2910,
      "##98": 2911,
      "lis": 2912,
      "yur": 2913,
      "victor": 2914,
      "wr": 2915,
      "##ouch": 2916,
      "marketa": 2917,
      "##ari": 2918,
      "data": 2919,
      "rog": 2920,
      "kan": 2921,
      "ант": 2922,
      "##bro": 2923,
      "cam": 2924,
      "##ology": 2925,
      "##zen": 2926,
      "bon": 2927,
      "##иг": 2928,
      "yt": 2929,
      "valer": 2930,
      "##oria": 2931,
      "nova": 2932,
      "sle": 2933,
      "##álek": 2934,
      "##ovsky": 2935,
      "##trol": 2936,
      "bożena": 2937,
      "##ipp": 2938,
      "##arska": 2939,
      "##enet": 2940,
      "gam": 2941,
      "##78": 2942,
      "commercial": 2943,
      "##we": 2944,
      "ax": 2945,
      "hand": 2946,
      "mic": 2947,
      "##orová": 2948,
      "bad": 2949,
      "кон": 2950,
      "kud": 2951,
      "sla": 2952,
      "##ovic": 2953,
      "arkad": 2954,
      "##áj": 2955,
      "##stone": 2956,
      "master": 2957,
      "asset": 2958,
      "ty": 2959,
      "stav": 2960,
      "water": 2961,
      "##able": 2962,
      "##iny": 2963,
      "entertainment": 2964,
      "##iza": 2965,
      "ramb": 2966,
      "##ea": 2967,
      "ash": 2968,
      "##оз": 2969,
      "bogus": 2970,
      "bogdan": 2971,
      "brno": 2972,
      "##eter": 2973,
      "##cik": 2974,
      "tor": 2975,
      "##šek": 2976,
      "aud": 2977,
      "advisors": 2978,
      "##esz": 2979,
      "jadw": 2980,
      "spr": 2981,
      "american": 2982,
      "никола": 2983,
      "kut": 2984,
      "##оп": 2985,
      "##юк": 2986,
      "##iron": 2987,
      "tex": 2988,
      "##áčová": 2989,
      "mikul": 2990,
      "##оч": 2991,
      "##rod": 2992,
      "opt": 2993,
      "led": 2994,
      "studios": 2995,
      "ven": 2996,
      "was": 2997,
      "jel": 2998,
      "gry": 2999,
      "pawel": 3000,
      "sand": 3001,
      "##iu": 3002,
      "plan": 3003,
      "wp": 3004,
      "za": 3005,
      "estates": 3006,
      "contractors": 3007,
      "irina": 3008,
      "dri": 3009,
      "##еев": 3010,
      "aw": 3011,
      "krystian": 3012,
      "resources": 3013,
      "pur": 3014,
      "katka": 3015,
      "mirka": 3016,
      "ис": 3017,
      "litt": 3018,
      "bir": 3019,
      "but": 3020,
      "##ato": 3021,
      "squ": 3022,
      "hanka": 3023,
      "vis": 3024,
      "bohus": 3025,
      "růž": 3026,
      "##ieg": 3027,
      "dl": 3028,
      "lan": 3029,
      "alb": 3030,
      "##star": 3031,
      "mult": 3032,
      "##ija": 3033,
      "prem": 3034,
      "zv": 3035,
      "##ох": 3036,
      "equip": 3037,
      "##ase": 3038,
      "##iger": 3039,
      "##well": 3040,
      "kowal": 3041,
      "##pla": 3042,
      "sez": 3043,
      "rocket": 3044,
      "sara": 3045,
      "fel": 3046,
      "kuk": 3047,
      "##28": 3048,
      "окс": 3049,
      "##69": 3050,
      "##еева": 3051,
      "marina": 3052,
      "przy": 3053,
      "jadwiga": 3054,
      "linda": 3055,
      "##teo": 3056,
      "##áž": 3057,
      "vera": 3058,
      "alice": 3059,
      "jem": 3060,
      "vor": 3061,
      "##oste": 3062,
      "##mp": 3063,
      "##sek": 3064,
      "mariola": 3065,
      "ow": 3066,
      "##bel": 3067,
      "červ": 3068,
      "dental": 3069,
      "##zer": 3070,
      "print": 3071,
      "plumb": 3072,
      "emp": 3073,
      "##kh": 3074,
      "##zyńska": 3075,
      "евгений": 3076,
      "##nikova": 3077,
      "vesel": 3078,
      "jam": 3079,
      "##den": 3080,
      "kuc": 3081,
      "app": 3082,
      "##ała": 3083,
      "holding": 3084,
      "##ility": 3085,
      "klub": 3086,
      "šm": 3087,
      "##mark": 3088,
      "##ano": 3089,
      "##oń": 3090,
      "##gs": 3091,
      "angelika": 3092,
      "дар": 3093,
      "##ience": 3094,
      "clinic": 3095,
      "phd": 3096,
      "třeb": 3097,
      "piet": 3098,
      "simon": 3099,
      "##elia": 3100,
      "##ošová": 3101,
      "##czyńska": 3102,
      "##afe": 3103,
      "##zl": 3104,
      "good": 3105,
      "игор": 3106,
      "kup": 3107,
      "##čák": 3108,
      "ton": 3109,
      "рус": 3110,
      "##álová": 3111,
      "act": 3112,
      "jarek": 3113,
      "austral": 3114,
      "##тин": 3115,
      "##еи": 3116,
      "jarosław": 3117,
      "##pvp": 3118,
      "пав": 3119,
      "##iž": 3120,
      "ас": 3121,
      "##inn": 3122,
      "fla": 3123,
      "##дм": 3124,
      "kab": 3125,
      "ov": 3126,
      "day": 3127,
      "matej": 3128,
      "support": 3129,
      "##бек": 3130,
      "##jezd": 3131,
      "##iamond": 3132,
      "##ира": 3133,
      "hy": 3134,
      "wiktoria": 3135,
      "##inov": 3136,
      "##ович": 3137,
      "orang": 3138,
      "##oma": 3139,
      "##29": 3140,
      "wa": 3141,
      "andri": 3142,
      "##ěm": 3143,
      "jura": 3144,
      "##chenko": 3145,
      "##ross": 3146,
      "greg": 3147,
      "hus": 3148,
      "lew": 3149,
      "kok": 3150,
      "brz": 3151,
      "arkadiusz": 3152,
      "fra": 3153,
      "##ínová": 3154,
      "##kal": 3155,
      "wł": 3156,
      "ам": 3157,
      "##ičová": 3158,
      "jun": 3159,
      "rych": 3160,
      "vg": 3161,
      "bohuslav": 3162,
      "konrad": 3163,
      "flo": 3164,
      "##anh": 3165,
      "##niew": 3166,
      "smol": 3167,
      "оксана": 3168,
      "koš": 3169,
      "##imov": 3170,
      "##ánová": 3171,
      "inn": 3172,
      "##oň": 3173,
      "##czek": 3174,
      "baj": 3175,
      "loc": 3176,
      "##rich": 3177,
      "##аня": 3178,
      "ib": 3179,
      "sina": 3180,
      "sta": 3181,
      "##emar": 3182,
      "кор": 3183,
      "##play": 3184,
      "zoz": 3185,
      "##hn": 3186,
      "your": 3187,
      "##global": 3188,
      "##ům": 3189,
      "ай": 3190,
      "##als": 3191,
      "di": 3192,
      "пол": 3193,
      "##apy": 3194,
      "valley": 3195,
      "jab": 3196,
      "leon": 3197,
      "##enz": 3198,
      "##cek": 3199,
      "robin": 3200,
      "##look": 3201,
      "##czyn": 3202,
      "evgen": 3203,
      "běl": 3204,
      "роман": 3205,
      "jac": 3206,
      "electric": 3207,
      "##oř": 3208,
      "kaj": 3209,
      "koh": 3210,
      "##ика": 3211,
      "##ani": 3212,
      "itz": 3213,
      "contracting": 3214,
      "##árová": 3215,
      "##ег": 3216,
      "ox": 3217,
      "##ыр": 3218,
      "##ěta": 3219,
      "##ogle": 3220,
      "dalibor": 3221,
      "##íř": 3222,
      "qq": 3223,
      "af": 3224,
      "##enk": 3225,
      "control": 3226,
      "kel": 3227,
      "leszek": 3228,
      "##cht": 3229,
      "##voř": 3230,
      "oliw": 3231,
      "##ilio": 3232,
      "novot": 3233,
      "von": 3234,
      "zofia": 3235,
      "##ач": 3236,
      "aj": 3237,
      "had": 3238,
      "виктория": 3239,
      "ple": 3240,
      "dro": 3241,
      "sum": 3242,
      "organizace": 3243,
      "##zik": 3244,
      "##ickova": 3245,
      "elz": 3246,
      "люб": 3247,
      "projects": 3248,
      "fut": 3249,
      "##arch": 3250,
      "lada": 3251,
      "šimon": 3252,
      "mortg": 3253,
      "designs": 3254,
      "##riel": 3255,
      "##ines": 3256,
      "##acka": 3257,
      "##sm": 3258,
      "chal": 3259,
      "bet": 3260,
      "wat": 3261,
      "fun": 3262,
      "cv": 3263,
      "##acy": 3264,
      "людм": 3265,
      "ann": 3266,
      "camp": 3267,
      "lim": 3268,
      "cleaning": 3269,
      "learn": 3270,
      "plumbing": 3271,
      "sy": 3272,
      "##hová": 3273,
      "mit": 3274,
      "126": 3275,
      "bíl": 3276,
      "##išová": 3277,
      "yul": 3278,
      "jin": 3279,
      "##ua": 3280,
      "денис": 3281,
      "cla": 3282,
      "##ging": 3283,
      "##odym": 3284,
      "dur": 3285,
      "tem": 3286,
      "игорь": 3287,
      "##sen": 3288,
      "przemek": 3289,
      "антон": 3290,
      "zap": 3291,
      "dy": 3292,
      "##ěš": 3293,
      "újezd": 3294,
      "sub": 3295,
      "sev": 3296,
      "natálie": 3297,
      "rené": 3298,
      "pech": 3299,
      "hair": 3300,
      "##oup": 3301,
      "##lice": 3302,
      "google": 3303,
      "darek": 3304,
      "163": 3305,
      "##leb": 3306,
      "andr": 3307,
      "rak": 3308,
      "čer": 3309,
      "něm": 3310,
      "##ош": 3311,
      "##ising": 3312,
      "sbc": 3313,
      "##ega": 3314,
      "central": 3315,
      "przemysław": 3316,
      "##ney": 3317,
      "hart": 3318,
      "##уп": 3319,
      "##iner": 3320,
      "##íč": 3321,
      "gosia": 3322,
      "kraj": 3323,
      "##имов": 3324,
      "bohumil": 3325,
      "tadeusz": 3326,
      "михаил": 3327,
      "fran": 3328,
      "ky": 3329,
      "libuše": 3330,
      "mam": 3331,
      "##men": 3332,
      "##97": 3333,
      "ах": 3334,
      "outlook": 3335,
      "kri": 3336,
      "vladimíra": 3337,
      "fox": 3338,
      "##tex": 3339,
      "stanisław": 3340,
      "##inten": 3341,
      "##iał": 3342,
      "##ovy": 3343,
      "cy": 3344,
      "onet": 3345,
      "lat": 3346,
      "ин": 3347,
      "##etail": 3348,
      "iol": 3349,
      "людмила": 3350,
      "##ars": 3351,
      "frank": 3352,
      "##ternet": 3353,
      "lor": 3354,
      "emilia": 3355,
      "builders": 3356,
      "hrab": 3357,
      "##ison": 3358,
      "##ów": 3359,
      "volny": 3360,
      "##uv": 3361,
      "upc": 3362,
      "витал": 3363,
      "oks": 3364,
      "tot": 3365,
      "lead": 3366,
      "vojta": 3367,
      "##icová": 3368,
      "lum": 3369,
      "rap": 3370,
      "oak": 3371,
      "##fe": 3372,
      "hn": 3373,
      "zak": 3374,
      "##ůr": 3375,
      "kuz": 3376,
      "##gy": 3377,
      "legal": 3378,
      "libero": 3379,
      "##íd": 3380,
      "electron": 3381,
      "environ": 3382,
      "sfr": 3383,
      "tuta": 3384,
      "jó": 3385,
      "msn": 3386,
      "uol": 3387,
      "zach": 3388,
      "azet": 3389,
      "##ili": 3390,
      "smith": 3391,
      "aol": 3392,
      "##ны": 3393,
      "rambler": 3394,
      "interia": 3395,
      "golf": 3396,
      "##key": 3397,
      "##ose": 3398,
      "rej": 3399,
      "mailbox": 3400,
      "zen": 3401,
      "oy": 3402,
      "крис": 3403,
      "ey": 3404,
      "verizon": 3405,
      "seznam": 3406,
      "vu": 3407,
      "comcast": 3408,
      "skal": 3409,
      "pobox": 3410,
      "daum": 3411,
      "moh": 3412,
      "qual": 3413,
      "zoznam": 3414,
      "roh": 3415,
      "orangemail": 3416,
      "doub": 3417,
      "##anota": 3418,
      "freenet": 3419,
      "virgilio": 3420,
      "skiff": 3421,
      "sbcglobal": 3422,
      "sva": 3423,
      "rocketmail": 3424,
      "zoho": 3425,
      "tutanota": 3426,
      "##odová": 3427,
      "ymail": 3428,
      "keemail": 3429,
      "btin": 3430,
      "rediff": 3431,
      "fastmail": 3432,
      "hotmail": 3433,
      "gmail": 3434,
      "кат": 3435,
      "pit": 3436,
      "btinternet": 3437,
      "rediffmail": 3438,
      "tisc": 3439,
      "##átová": 3440,
      "naver": 3441,
      "##house": 3442,
      "##zslav": 3443,
      "talkt": 3444,
      "icloud": 3445,
      "posteo": 3446,
      "##win": 3447,
      "stonline": 3448,
      "nextra": 3449,
      "zo": 3450,
      "##gn": 3451,
      "tiscali": 3452,
      "dun": 3453,
      "##iště": 3454,
      "upcmail": 3455,
      "##raph": 3456,
      "talktalk": 3457,
      "googlemail": 3458,
      "protonmail": 3459,
      "laposte": 3460,
      "kim": 3461,
      "foods": 3462,
      "hanmail": 3463,
      "heating": 3464,
      "##ado": 3465,
      "pvp": 3466,
      "anita": 3467,
      "##aa": 3468,
      "##никова": 3469,
      "mainten": 3470,
      "олег": 3471,
      "##iors": 3472,
      "maciek": 3473,
      "##ude": 3474,
      "py": 3475,
      "##101": 3476,
      "##tl": 3477,
      "little": 3478,
      "lí": 3479,
      "##оф": 3480,
      "##shire": 3481,
      "das": 3482,
      "cred": 3483,
      "##иков": 3484,
      "пет": 3485,
      "wi": 3486,
      "zab": 3487,
      "oc": 3488,
      "express": 3489,
      "arts": 3490,
      "stanislava": 3491,
      "##ree": 3492,
      "korn": 3493,
      "##uff": 3494,
      "##34": 3495,
      "frantisek": 3496,
      "shar": 3497,
      "maintenance": 3498,
      "##eper": 3499,
      "ref": 3500,
      "kanc": 3501,
      "basia": 3502,
      "надеж": 3503,
      "##orm": 3504,
      "##ман": 3505,
      "##икова": 3506,
      "host": 3507,
      "svetlana": 3508,
      "sir": 3509,
      "##łom": 3510,
      "ken": 3511,
      "ján": 3512,
      "sławomir": 3513,
      "si": 3514,
      "##skaya": 3515,
      "pc": 3516,
      "##ei": 3517,
      "dyn": 3518,
      "pon": 3519,
      "pham": 3520,
      "cos": 3521,
      "connect": 3522,
      "oleksandr": 3523,
      "##bal": 3524,
      "##атов": 3525,
      "bez": 3526,
      "##ste": 3527,
      "laz": 3528,
      "##zak": 3529,
      "##lc": 3530,
      "conce": 3531,
      "wol": 3532,
      "dvoř": 3533,
      "##65": 3534,
      "##van": 3535,
      "hyn": 3536,
      "enterprise": 3537,
      "##ulová": 3538,
      "sedl": 3539,
      "ker": 3540,
      "##ovi": 3541,
      "paj": 3542,
      "##ugh": 3543,
      "##craft": 3544,
      "gh": 3545,
      "silvie": 3546,
      "edward": 3547,
      "##iety": 3548,
      "##kina": 3549,
      "elzbieta": 3550,
      "fitness": 3551,
      "##ml": 3552,
      "alp": 3553,
      "janina": 3554,
      "andrew": 3555,
      "mill": 3556,
      "##cre": 3557,
      "svět": 3558,
      "##cy": 3559,
      "##arski": 3560,
      "poh": 3561,
      "##ňková": 3562,
      "##nit": 3563,
      "надежда": 3564,
      "##ds": 3565,
      "##ids": 3566,
      "usa": 3567,
      "united": 3568,
      "##ient": 3569,
      "event": 3570,
      "zák": 3571,
      "krzys": 3572,
      "галина": 3573,
      "##eph": 3574,
      "zar": 3575,
      "best": 3576,
      "břez": 3577,
      "oksana": 3578,
      "svit": 3579,
      "hous": 3580,
      "кол": 3581,
      "rac": 3582,
      "may": 3583,
      "stru": 3584,
      "gul": 3585,
      "##sta": 3586,
      "og": 3587,
      "serg": 3588,
      "květ": 3589,
      "кур": 3590,
      "míš": 3591,
      "##ecom": 3592,
      "york": 3593,
      "advo": 3594,
      "ala": 3595,
      "##ysia": 3596,
      "вален": 3597,
      "byt": 3598,
      "volodym": 3599,
      "##do": 3600,
      "##nal": 3601,
      "##ti": 3602,
      "eduard": 3603,
      "stř": 3604,
      "##uła": 3605,
      "zim": 3606,
      "cast": 3607,
      "##exc": 3608,
      "##eda": 3609,
      "insp": 3610,
      "##ení": 3611,
      "##lec": 3612,
      "##una": 3613,
      "##67": 3614,
      "brad": 3615,
      "tan": 3616,
      "##illa": 3617,
      "plast": 3618,
      "##jon": 3619,
      "##cess": 3620,
      "##arov": 3621,
      "##цева": 3622,
      "supply": 3623,
      "##cia": 3624,
      "llm": 3625,
      "mortgage": 3626,
      "bozena": 3627,
      "rol": 3628,
      "##ва": 3629,
      "beauty": 3630,
      "##rowska": 3631,
      "mirosław": 3632,
      "coaching": 3633,
      "intel": 3634,
      "vej": 3635,
      "##ой": 3636,
      "##ез": 3637,
      "imp": 3638,
      "bož": 3639,
      "##car": 3640,
      "proch": 3641,
      "##64": 3642,
      "pola": 3643,
      "##avou": 3644,
      "sof": 3645,
      "films": 3646,
      "##cher": 3647,
      "ital": 3648,
      "##ights": 3649,
      "##chov": 3650,
      "state": 3651,
      "##anced": 3652,
      "##sw": 3653,
      "##nt": 3654,
      "moj": 3655,
      "##olová": 3656,
      "bri": 3657,
      "##sl": 3658,
      "fish": 3659,
      "nina": 3660,
      "maja": 3661,
      "gamer": 3662,
      "илья": 3663,
      "##cr": 3664,
      "volodymyr": 3665,
      "mez": 3666,
      "##ňák": 3667,
      "rz": 3668,
      "hop": 3669,
      "##rych": 3670,
      "##imierz": 3671,
      "##ough": 3672,
      "advokat": 3673,
      "long": 3674,
      "phil": 3675,
      "##gaming": 3676,
      "##lands": 3677,
      "hubert": 3678,
      "##ao": 3679,
      "learning": 3680,
      "environment": 3681,
      "##ting": 3682,
      "marl": 3683,
      "diamond": 3684,
      "##ential": 3685,
      "tit": 3686,
      "##kr": 3687,
      "##czyński": 3688,
      "link": 3689,
      "##pp": 3690,
      "##еб": 3691,
      "bru": 3692,
      "аль": 3693,
      "##35": 3694,
      "adriana": 3695,
      "vision": 3696,
      "##ěd": 3697,
      "equipment": 3698,
      "motor": 3699,
      "##ká": 3700,
      "society": 3701,
      "##works": 3702,
      "buch": 3703,
      "dus": 3704,
      "##ele": 3705,
      "##000": 3706,
      "ká": 3707,
      "##ołaj": 3708,
      "kancel": 3709,
      "sek": 3710,
      "##orate": 3711,
      "gaw": 3712,
      "computer": 3713,
      "fro": 3714,
      "lidia": 3715,
      "sergey": 3716,
      "ales": 3717,
      "std": 3718,
      "cel": 3719,
      "mary": 3720,
      "cool": 3721,
      "##drich": 3722,
      "grupo": 3723,
      "##fic": 3724,
      "rab": 3725,
      "ret": 3726,
      "мал": 3727,
      "jarda": 3728,
      "##zyński": 3729,
      "##rot": 3730,
      "##nd": 3731,
      "##zis": 3732,
      "##gi": 3733,
      "##ump": 3734,
      "##нов": 3735,
      "šeb": 3736,
      "its": 3737,
      "##elova": 3738,
      "sign": 3739,
      "thd": 3740,
      "sul": 3741,
      "##евич": 3742,
      "nurs": 3743,
      "lem": 3744,
      "gł": 3745,
      "##ges": 3746,
      "##та": 3747,
      "prim": 3748,
      "god": 3749,
      "pom": 3750,
      "николай": 3751,
      "hun": 3752,
      "král": 3753,
      "##owa": 3754,
      "##ít": 3755,
      "mikołaj": 3756,
      "##ém": 3757,
      "##ša": 3758,
      "##zo": 3759,
      "##еч": 3760,
      "ctp": 3761,
      "##anning": 3762,
      "ková": 3763,
      "wojt": 3764,
      "andrej": 3765,
      "##enia": 3766,
      "interiors": 3767,
      "##ekt": 3768,
      "vid": 3769,
      "##vin": 3770,
      "##ieva": 3771,
      "пр": 3772,
      "jcd": 3773,
      "safety": 3774,
      "vítě": 3775,
      "##led": 3776,
      "lak": 3777,
      "william": 3778,
      "lam": 3779,
      "##esova": 3780,
      "technical": 3781,
      "posp": 3782,
      "vrb": 3783,
      "spolec": 3784,
      "##inery": 3785,
      "grazyna": 3786,
      "hall": 3787,
      "##ville": 3788,
      "##ista": 3789,
      "lucka": 3790,
      "carp": 3791,
      "##oč": 3792,
      "krat": 3793,
      "scot": 3794,
      "zl": 3795,
      "##ášová": 3796,
      "end": 3797,
      "##ierz": 3798,
      "##арова": 3799,
      "##nek": 3800,
      "marine": 3801,
      "##37": 3802,
      "mech": 3803,
      "гор": 3804,
      "##ęb": 3805,
      "mind": 3806,
      "##чук": 3807,
      "##уст": 3808,
      "jew": 3809,
      "men": 3810,
      "ron": 3811,
      "бор": 3812,
      "##mannová": 3813,
      "##ислав": 3814,
      "cont": 3815,
      "##so": 3816,
      "##erk": 3817,
      "count": 3818,
      "##west": 3819,
      "catering": 3820,
      "pic": 3821,
      "##urová": 3822,
      "erik": 3823,
      "zav": 3824,
      "manuf": 3825,
      "stepan": 3826,
      "architects": 3827,
      "маг": 3828,
      "саша": 3829,
      "##říž": 3830,
      "jexc": 3831,
      "equity": 3832,
      "дарья": 3833,
      "##don": 3834,
      "##war": 3835,
      "dům": 3836,
      "##iecz": 3837,
      "štěpánka": 3838,
      "##ně": 3839,
      "som": 3840,
      "##nicka": 3841,
      "##ife": 3842,
      "##rey": 3843,
      "##vá": 3844,
      "##ax": 3845,
      "dobr": 3846,
      "radovan": 3847,
      "vý": 3848,
      "securities": 3849,
      "мур": 3850,
      "dep": 3851,
      "эль": 3852,
      "cafe": 3853,
      "vys": 3854,
      "karina": 3855,
      "general": 3856,
      "cod": 3857,
      "villa": 3858,
      "##95": 3859,
      "##ender": 3860,
      "cop": 3861,
      "rok": 3862,
      "kras": 3863,
      "roof": 3864,
      "##онов": 3865,
      "zub": 3866,
      "milada": 3867,
      "##cer": 3868,
      "pip": 3869,
      "##ils": 3870,
      "miss": 3871,
      "klara": 3872,
      "phys": 3873,
      "lux": 3874,
      "##din": 3875,
      "urb": 3876,
      "##čáková": 3877,
      "person": 3878,
      "##bury": 3879,
      "australia": 3880,
      "##ников": 3881,
      "##kater": 3882,
      "cs": 3883,
      "ксен": 3884,
      "##илл": 3885,
      "mok": 3886,
      "pec": 3887,
      "##šov": 3888,
      "supplies": 3889,
      "наст": 3890,
      "##awa": 3891,
      "##íž": 3892,
      "dog": 3893,
      "tatiana": 3894,
      "sis": 3895,
      "##ара": 3896,
      "living": 3897,
      "##ados": 3898,
      "wioletta": 3899,
      "corporate": 3900,
      "specialist": 3901,
      "##vey": 3902,
      "hap": 3903,
      "yv": 3904,
      "##kn": 3905,
      "##asová": 3906,
      "lav": 3907,
      "##ínek": 3908,
      "credit": 3909,
      "roy": 3910,
      "publish": 3911,
      "waldemar": 3912,
      "not": 3913,
      "pres": 3914,
      "##enková": 3915,
      "##jo": 3916,
      "ut": 3917,
      "##štof": 3918,
      "kaš": 3919,
      "##hel": 3920,
      "##alska": 3921,
      "##iová": 3922,
      "dita": 3923,
      "arn": 3924,
      "oleg": 3925,
      "мир": 3926,
      "кристина": 3927,
      "ped": 3928,
      "lucyna": 3929,
      "##rova": 3930,
      "chud": 3931,
      "sid": 3932,
      "ray": 3933,
      "ny": 3934,
      "чер": 3935,
      "paci": 3936,
      "##нова": 3937,
      "chm": 3938,
      "tecn": 3939,
      "chem": 3940,
      "##ois": 3941,
      "metal": 3942,
      "malgorzata": 3943,
      "retail": 3944,
      "sud": 3945,
      "##ww": 3946,
      "##eff": 3947,
      "jav": 3948,
      "aqu": 3949,
      "##enda": 3950,
      "аз": 3951,
      "##rika": 3952,
      "##ette": 3953,
      "bran": 3954,
      "##zel": 3955,
      "czech": 3956,
      "##manova": 3957,
      "alliance": 3958,
      "##iecka": 3959,
      "andrey": 3960,
      "##инов": 3961,
      "wo": 3962,
      "kuč": 3963,
      "form": 3964,
      "motors": 3965,
      "павел": 3966,
      "mira": 3967,
      "america": 3968,
      "zal": 3969,
      "manufact": 3970,
      "##ыш": 3971,
      "alan": 3972,
      "##ся": 3973,
      "anim": 3974,
      "##ladní": 3975,
      "mu": 3976,
      "nes": 3977,
      "##inec": 3978,
      "krzysiek": 3979,
      "skr": 3980,
      "##ách": 3981,
      "##orek": 3982,
      "sop": 3983,
      "aug": 3984,
      "cir": 3985,
      "afr": 3986,
      "km": 3987,
      "##enix": 3988,
      "access": 3989,
      "bos": 3990,
      "##eman": 3991,
      "vad": 3992,
      "никита": 3993,
      "gabriel": 3994,
      "##icek": 3995,
      "артем": 3996,
      "##fin": 3997,
      "let": 3998,
      "albert": 3999,
      "čech": 4000,
      "тим": 4001,
      "reh": 4002,
      "základní": 4003,
      "mand": 4004,
      "dia": 4005,
      "##ike": 4006,
      "solution": 4007,
      "##ave": 4008,
      "hed": 4009,
      "##hay": 4010,
      "nep": 4011,
      "maxim": 4012,
      "##oušková": 4013,
      "sokol": 4014,
      "koł": 4015,
      "tich": 4016,
      "iii": 4017,
      "lod": 4018,
      "##oke": 4019,
      "##ame": 4020,
      "rh": 4021,
      "##ieb": 4022,
      "graph": 4023,
      "anal": 4024,
      "kus": 4025,
      "##3r": 4026,
      "vítězslav": 4027,
      "ci": 4028,
      "##eed": 4029,
      "míša": 4030,
      "george": 4031,
      "anastasia": 4032,
      "dat": 4033,
      "nela": 4034,
      "hire": 4035,
      "##luk": 4036,
      "hof": 4037,
      "are": 4038,
      "##ball": 4039,
      "ludv": 4040,
      "jes": 4041,
      "exec": 4042,
      "##par": 4043,
      "mykola": 4044,
      "nar": 4045,
      "##oga": 4046,
      "##lar": 4047,
      "##ift": 4048,
      "tay": 4049,
      "peš": 4050,
      "wealth": 4051,
      "deb": 4052,
      "##iones": 4053,
      "paz": 4054,
      "##uan": 4055,
      "руслан": 4056,
      "cust": 4057,
      "tek": 4058,
      "advanced": 4059,
      "vik": 4060,
      "##nerova": 4061,
      "ska": 4062,
      "coast": 4063,
      "ze": 4064,
      "##ocka": 4065,
      "solar": 4066,
      "wild": 4067,
      "##54": 4068,
      "ксения": 4069,
      "artem": 4070,
      "henryk": 4071,
      "##ople": 4072,
      "##katerina": 4073,
      "los": 4074,
      "ад": 4075,
      "mem": 4076,
      "##akov": 4077,
      "sons": 4078,
      "cho": 4079,
      "##ret": 4080,
      "bě": 4081,
      "tet": 4082,
      "environmental": 4083,
      "##wide": 4084,
      "ess": 4085,
      "##iq": 4086,
      "škola": 4087,
      "works": 4088,
      "##fo": 4089,
      "labor": 4090,
      "##уг": 4091,
      "##ášek": 4092,
      "##che": 4093,
      "nek": 4094,
      "##asy": 4095,
      "##icky": 4096,
      "nos": 4097,
      "##иана": 4098,
      "##otová": 4099,
      "##js": 4100,
      "brod": 4101,
      "vn": 4102,
      "pte": 4103,
      "евгения": 4104,
      "kil": 4105,
      "##ackova": 4106,
      "##aba": 4107,
      "lena": 4108,
      "##tern": 4109,
      "cur": 4110,
      "##oper": 4111,
      "julie": 4112,
      "nl": 4113,
      "##xd": 4114,
      "jand": 4115,
      "##unka": 4116,
      "sł": 4117,
      "lé": 4118,
      "reb": 4119,
      "##38": 4120,
      "ip": 4121,
      "kin": 4122,
      "system": 4123,
      "agr": 4124,
      "landsc": 4125,
      "##ious": 4126,
      "нур": 4127,
      "laura": 4128,
      "serh": 4129,
      "eug": 4130,
      "ign": 4131,
      "hrub": 4132,
      "gur": 4133,
      "aga": 4134,
      "zaw": 4135,
      "mysl": 4136,
      "telecom": 4137,
      "##elková": 4138,
      "manufactur": 4139,
      "##ásková": 4140,
      "boj": 4141,
      "kg": 4142,
      "##57": 4143,
      "сал": 4144,
      "kod": 4145,
      "##hart": 4146,
      "blaž": 4147,
      "inte": 4148,
      "bag": 4149,
      "oliwia": 4150,
      "gn": 4151,
      "kav": 4152,
      "##jd": 4153,
      "##ký": 4154,
      "stas": 4155,
      "лар": 4156,
      "##ínková": 4157,
      "##sil": 4158,
      "##цев": 4159,
      "##ows": 4160,
      "production": 4161,
      "##68": 4162,
      "mobile": 4163,
      "##master": 4164,
      "christian": 4165,
      "pí": 4166,
      "pen": 4167,
      "steel": 4168,
      "brun": 4169,
      "fash": 4170,
      "мух": 4171,
      "##lab": 4172,
      "са": 4173,
      "##47": 4174,
      "sos": 4175,
      "dragon": 4176,
      "##оль": 4177,
      "##arth": 4178,
      "алина": 4179,
      "automot": 4180,
      "žaneta": 4181,
      "osk": 4182,
      "salon": 4183,
      "pavlina": 4184,
      "##anský": 4185,
      "štefan": 4186,
      "ras": 4187,
      "quality": 4188,
      "##ášková": 4189,
      "##oslava": 4190,
      "sdruž": 4191,
      "sarka": 4192,
      "kamen": 4193,
      "##enstvi": 4194,
      "zdzis": 4195,
      "accounting": 4196,
      "##kowiak": 4197,
      "leb": 4198,
      "##lon": 4199,
      "##ový": 4200,
      "##niku": 4201,
      "##ioł": 4202,
      "mg": 4203,
      "stach": 4204,
      "vš": 4205,
      "leona": 4206,
      "kristyna": 4207,
      "##sel": 4208,
      "##žb": 4209,
      "prov": 4210,
      "hard": 4211,
      "nin": 4212,
      "sat": 4213,
      "krup": 4214,
      "garden": 4215,
      "дима": 4216,
      "sap": 4217,
      "васил": 4218,
      "##nova": 4219,
      "rez": 4220,
      "##овь": 4221,
      "##can": 4222,
      "ten": 4223,
      "country": 4224,
      "##rid": 4225,
      "point": 4226,
      "fol": 4227,
      "##isová": 4228,
      "##árek": 4229,
      "zi": 4230,
      "##ikov": 4231,
      "sdružení": 4232,
      "ekaterina": 4233,
      "##orova": 4234,
      "##иров": 4235,
      "piz": 4236,
      "magaz": 4237,
      "ку": 4238,
      "prokop": 4239,
      "nut": 4240,
      "kač": 4241,
      "fort": 4242,
      "##ená": 4243,
      "##cil": 4244,
      "kancelář": 4245,
      "union": 4246,
      "och": 4247,
      "##eo": 4248,
      "##ning": 4249,
      "chi": 4250,
      "##sova": 4251,
      "##uw": 4252,
      "appl": 4253,
      "##oušek": 4254,
      "##yně": 4255,
      "mov": 4256,
      "##zia": 4257,
      "berg": 4258,
      "film": 4259,
      "arek": 4260,
      "rat": 4261,
      "jud": 4262,
      "##hen": 4263,
      "kitch": 4264,
      "zam": 4265,
      "mul": 4266,
      "river": 4267,
      "meg": 4268,
      "publishing": 4269,
      "##šice": 4270,
      "##olo": 4271,
      "##ism": 4272,
      "##hi": 4273,
      "##rowski": 4274,
      "##59": 4275,
      "hur": 4276,
      "pik": 4277,
      "hay": 4278,
      "seg": 4279,
      "jola": 4280,
      "##omíra": 4281,
      "ruslan": 4282,
      "##ený": 4283,
      "##tv": 4284,
      "marlena": 4285,
      "havl": 4286,
      "##ňáková": 4287,
      "custom": 4288,
      "vrat": 4289,
      "##ма": 4290,
      "naz": 4291,
      "kev": 4292,
      "bartłom": 4293,
      "##ána": 4294,
      "spolecenstvi": 4295,
      "cross": 4296,
      "кам": 4297,
      "heř": 4298,
      "class": 4299,
      "nicola": 4300,
      "prec": 4301,
      "##usova": 4302,
      "kova": 4303,
      "miluše": 4304,
      "##pen": 4305,
      "labem": 4306,
      "oil": 4307,
      "bronislav": 4308,
      "gem": 4309,
      "##tw": 4310,
      "expert": 4311,
      "gi": 4312,
      "##árková": 4313,
      "##raz": 4314,
      "##ień": 4315,
      "lov": 4316,
      "алена": 4317,
      "erika": 4318,
      "##31": 4319,
      "radosław": 4320,
      "##bow": 4321,
      "silver": 4322,
      "##адж": 4323,
      "iza": 4324,
      "planning": 4325,
      "pin": 4326,
      "сам": 4327,
      "##girl": 4328,
      "ner": 4329,
      "velké": 4330,
      "##tova": 4331,
      "nový": 4332,
      "##di": 4333,
      "pros": 4334,
      "yar": 4335,
      "execut": 4336,
      "georg": 4337,
      "bartłomiej": 4338,
      "##yy": 4339,
      "##iep": 4340,
      "labs": 4341,
      "##лов": 4342,
      "key": 4343,
      "##ож": 4344,
      "юрий": 4345,
      "##ров": 4346,
      "holub": 4347,
      "medic": 4348,
      "samuel": 4349,
      "##lor": 4350,
      "##ač": 4351,
      "201": 4352,
      "advisory": 4353,
      "10": 4354,
      "piotrek": 4355,
      "koch": 4356,
      "elite": 4357,
      "##elle": 4358,
      "##lery": 4359,
      "svaz": 4360,
      "coff": 4361,
      "##еш": 4362,
      "residents": 4363,
      "##los": 4364,
      "adela": 4365,
      "pul": 4366,
      "ast": 4367,
      "box": 4368,
      "##ckova": 4369,
      "валентина": 4370,
      "##hu": 4371,
      "rot": 4372,
      "##yer": 4373,
      "consultoria": 4374,
      "steph": 4375,
      "##ube": 4376,
      "ek": 4377,
      "mí": 4378,
      "##roz": 4379,
      "##lá": 4380,
      "cloud": 4381,
      "##ll": 4382,
      "rafal": 4383,
      "pacific": 4384,
      "integ": 4385,
      "grand": 4386,
      "##ušková": 4387,
      "##оев": 4388,
      "##rix": 4389,
      "miloslava": 4390,
      "pix": 4391,
      "plc": 4392,
      "александра": 4393,
      "prote": 4394,
      "pay": 4395,
      "##ria": 4396,
      "games": 4397,
      "##tory": 4398,
      "##cle": 4399,
      "##king": 4400,
      "lac": 4401,
      "##uto": 4402,
      "thanh": 4403,
      "fair": 4404,
      "mah": 4405,
      "##łowska": 4406,
      "vlastniku": 4407,
      "information": 4408,
      "##cu": 4409,
      "##umi": 4410,
      "##enberg": 4411,
      "##ásek": 4412,
      "esc": 4413,
      "##iter": 4414,
      "##aria": 4415,
      "##ific": 4416,
      "waw": 4417,
      "##oring": 4418,
      "haw": 4419,
      "##ucha": 4420,
      "##rava": 4421,
      "##ady": 4422,
      "ахм": 4423,
      "sant": 4424,
      "##inková": 4425,
      "kryštof": 4426,
      "bes": 4427,
      "##active": 4428,
      "bohdan": 4429,
      "##ray": 4430,
      "bhd": 4431,
      "##lu": 4432,
      "##mond": 4433,
      "regina": 4434,
      "žel": 4435,
      "##urek": 4436,
      "tool": 4437,
      "##ард": 4438,
      "lut": 4439,
      "##30": 4440,
      "##анд": 4441,
      "##cc": 4442,
      "##ouh": 4443,
      "grow": 4444,
      "##elly": 4445,
      "##icova": 4446,
      "##onka": 4447,
      "job": 4448,
      "press": 4449,
      "##gg": 4450,
      "advert": 4451,
      "józef": 4452,
      "##dra": 4453,
      "aer": 4454,
      "##mance": 4455,
      "lee": 4456,
      "firm": 4457,
      "natalie": 4458,
      "distric": 4459,
      "кал": 4460,
      "##bu": 4461,
      "dobrov": 4462,
      "um": 4463,
      "pł": 4464,
      "##áp": 4465,
      "golden": 4466,
      "chil": 4467,
      "alt": 4468,
      "##yne": 4469,
      "##lerova": 4470,
      "oz": 4471,
      "##стан": 4472,
      "esp": 4473,
      "вад": 4474,
      "##skyi": 4475,
      "integr": 4476,
      "##ben": 4477,
      "##gate": 4478,
      "magazine": 4479,
      "cit": 4480,
      "##кий": 4481,
      "search": 4482,
      "jaros": 4483,
      "naděž": 4484,
      "##orska": 4485,
      "aleksander": 4486,
      "кирилл": 4487,
      "##sol": 4488,
      "##ody": 4489,
      "euro": 4490,
      "roofing": 4491,
      "communication": 4492,
      "perfor": 4493,
      "boris": 4494,
      "human": 4495,
      "mig": 4496,
      "##ips": 4497,
      "place": 4498,
      "##otice": 4499,
      "automotive": 4500,
      "tes": 4501,
      "gil": 4502,
      "##fol": 4503,
      "sher": 4504,
      "bára": 4505,
      "##имова": 4506,
      "wy": 4507,
      "naděžda": 4508,
      "##lex": 4509,
      "##gu": 4510,
      "therapy": 4511,
      "smr": 4512,
      "atl": 4513,
      "district": 4514,
      "##100": 4515,
      "##eková": 4516,
      "tab": 4517,
      "nu": 4518,
      "##alski": 4519,
      "##201": 4520,
      "element": 4521,
      "schm": 4522,
      "blo": 4523,
      "##stant": 4524,
      "##ativ": 4525,
      "store": 4526,
      "##инова": 4527,
      "##wr": 4528,
      "##onova": 4529,
      "ję": 4530,
      "##čany": 4531,
      "merc": 4532,
      "##иля": 4533,
      "sdn": 4534,
      "сем": 4535,
      "advokátní": 4536,
      "##ely": 4537,
      "brown": 4538,
      "with": 4539,
      "mb": 4540,
      "##rock": 4541,
      "cook": 4542,
      "ел": 4543,
      "radomír": 4544,
      "scott": 4545,
      "hru": 4546,
      "hlad": 4547,
      "##tt": 4548,
      "любовь": 4549,
      "jay": 4550,
      "мам": 4551,
      "nam": 4552,
      "sing": 4553,
      "бел": 4554,
      "ró": 4555,
      "distribution": 4556,
      "promot": 4557,
      "##anská": 4558,
      "##arma": 4559,
      "##enský": 4560,
      "alžb": 4561,
      "bł": 4562,
      "##ić": 4563,
      "sus": 4564,
      "##acki": 4565,
      "##енкова": 4566,
      "mlad": 4567,
      "##nc": 4568,
      "manufacturing": 4569,
      "##erce": 4570,
      "##bach": 4571,
      "bac": 4572,
      "##upa": 4573,
      "che": 4574,
      "##ilov": 4575,
      "town": 4576,
      "sik": 4577,
      "##ын": 4578,
      "##var": 4579,
      "##nak": 4580,
      "##dle": 4581,
      "##омед": 4582,
      "people": 4583,
      "cad": 4584,
      "chod": 4585,
      "grab": 4586,
      "##eslav": 4587,
      "##hav": 4588,
      "cyb": 4589,
      "čp": 4590,
      "networks": 4591,
      "##87": 4592,
      "##56": 4593,
      "jindra": 4594,
      "int": 4595,
      "szym": 4596,
      "gon": 4597,
      "lom": 4598,
      "##ocz": 4599,
      "##niture": 4600,
      "бар": 4601,
      "eliz": 4602,
      "dru": 4603,
      "##ku": 4604,
      "imm": 4605,
      "##89": 4606,
      "##rin": 4607,
      "rain": 4608,
      "oskar": 4609,
      "pak": 4610,
      "rand": 4611,
      "biel": 4612,
      "##skova": 4613,
      "##яч": 4614,
      "hyd": 4615,
      "##otka": 4616,
      "##ords": 4617,
      "lukasz": 4618,
      "petro": 4619,
      "dost": 4620,
      "##cel": 4621,
      "##etice": 4622,
      "##cent": 4623,
      "cry": 4624,
      "cher": 4625,
      "souk": 4626,
      "##wicz": 4627,
      "##ида": 4628,
      "##nková": 4629,
      "##ige": 4630,
      "hra": 4631,
      "##илов": 4632,
      "##ione": 4633,
      "premier": 4634,
      "gw": 4635,
      "hoang": 4636,
      "cars": 4637,
      "##get": 4638,
      "##iko": 4639,
      "chot": 4640,
      "vasil": 4641,
      "gaming": 4642,
      "##ecz": 4643,
      "zlat": 4644,
      "##inek": 4645,
      "##иф": 4646,
      "august": 4647,
      "##ía": 4648,
      "##lawa": 4649,
      "kož": 4650,
      "kacz": 4651,
      "tree": 4652,
      "přem": 4653,
      "##mara": 4654,
      "zad": 4655,
      "stro": 4656,
      "##nap": 4657,
      "vojtech": 4658,
      "lind": 4659,
      "бр": 4660,
      "záv": 4661,
      "crow": 4662,
      "##atova": 4663,
      "mykhail": 4664,
      "##ues": 4665,
      "performance": 4666,
      "##nost": 4667,
      "civ": 4668,
      "pá": 4669,
      "leis": 4670,
      "##reen": 4671,
      "řeh": 4672,
      "##šť": 4673,
      "nick": 4674,
      "##ех": 4675,
      "fial": 4676,
      "##nia": 4677,
      "##onov": 4678,
      "edita": 4679,
      "commerce": 4680,
      "##bová": 4681,
      "šr": 4682,
      "innovation": 4683,
      "shadow": 4684,
      "dynam": 4685,
      "wiesław": 4686,
      "##гар": 4687,
      "вол": 4688,
      "##voj": 4689,
      "##32": 4690,
      "sin": 4691,
      "##wolf": 4692,
      "##fire": 4693,
      "furniture": 4694,
      "má": 4695,
      "staff": 4696,
      "##nka": 4697,
      "norbert": 4698,
      "indep": 4699,
      "##анна": 4700,
      "ahm": 4701,
      "cp": 4702,
      "##igo": 4703,
      "##áň": 4704,
      "broad": 4705,
      "mass": 4706,
      "sour": 4707,
      "##ren": 4708,
      "##ird": 4709,
      "kaw": 4710,
      "zm": 4711,
      "zuzanna": 4712,
      "##řiška": 4713,
      "book": 4714,
      "stol": 4715,
      "great": 4716,
      "##jak": 4717,
      "##etka": 4718,
      "##cat": 4719,
      "##iams": 4720,
      "##ér": 4721,
      "##rak": 4722,
      "##shore": 4723,
      "bou": 4724,
      "тр": 4725,
      "pho": 4726,
      "leoš": 4727,
      "##akar": 4728,
      "pepa": 4729,
      "plz": 4730,
      "##maz": 4731,
      "ay": 4732,
      "nast": 4733,
      "jarka": 4734,
      "##vr": 4735,
      "##une": 4736,
      "schw": 4737,
      "dream": 4738,
      "##lp": 4739,
      "truck": 4740,
      "##inský": 4741,
      "##ахм": 4742,
      "raz": 4743,
      "##sy": 4744,
      "mater": 4745,
      "advertising": 4746,
      "##lovice": 4747,
      "##mal": 4748,
      "pek": 4749,
      "##74": 4750,
      "##czys": 4751,
      "zw": 4752,
      "mn": 4753,
      "ali": 4754,
      "electronics": 4755,
      "bio": 4756,
      "tas": 4757,
      "##mund": 4758,
      "dmyt": 4759,
      "mast": 4760,
      "sor": 4761,
      "мат": 4762,
      "dry": 4763,
      "engineers": 4764,
      "##worth": 4765,
      "poz": 4766,
      "independ": 4767,
      "executive": 4768,
      "beč": 4769,
      "##ня": 4770,
      "##onom": 4771,
      "foot": 4772,
      "integra": 4773,
      "aff": 4774,
      "ladislava": 4775,
      "##maj": 4776,
      "##ridge": 4777,
      "cic": 4778,
      "##ones": 4779,
      "pokor": 4780,
      "hd": 4781,
      "bell": 4782,
      "##inity": 4783,
      "bd": 4784,
      "##lig": 4785,
      "pier": 4786,
      "vi": 4787,
      "chap": 4788,
      "##xy": 4789,
      "##isova": 4790,
      "14": 4791,
      "surg": 4792,
      "##eland": 4793,
      "naj": 4794,
      "alf": 4795,
      "aviation": 4796,
      "##ipal": 4797,
      "kit": 4798,
      "##amber": 4799,
      "duch": 4800,
      "hynek": 4801,
      "nej": 4802,
      "alpha": 4803,
      "swe": 4804,
      "лариса": 4805,
      "##iecki": 4806,
      "фед": 4807,
      "szczep": 4808,
      "mechan": 4809,
      "##íkov": 4810,
      "stří": 4811,
      "виталий": 4812,
      "hul": 4813,
      "##chova": 4814,
      "##94": 4815,
      "veter": 4816,
      "line": 4817,
      "##ract": 4818,
      "matyáš": 4819,
      "##hs": 4820,
      "##fs": 4821,
      "##omě": 4822,
      "gp": 4823,
      "bill": 4824,
      "sławek": 4825,
      "##omen": 4826,
      "kł": 4827,
      "##атова": 4828,
      "anh": 4829,
      "##ičky": 4830,
      "cha": 4831,
      "prog": 4832,
      "##ots": 4833,
      "way": 4834,
      "hoř": 4835,
      "##ertová": 4836,
      "jez": 4837,
      "šť": 4838,
      "kem": 4839,
      "sig": 4840,
      "fashion": 4841,
      "viol": 4842,
      "ran": 4843,
      "opport": 4844,
      "baz": 4845,
      "asoc": 4846,
      "nowak": 4847,
      "##yuk": 4848,
      "rel": 4849,
      "mykhailo": 4850,
      "##usek": 4851,
      "karp": 4852,
      "aur": 4853,
      "cu": 4854,
      "##izer": 4855,
      "glass": 4856,
      "plant": 4857,
      "##ación": 4858,
      "##imited": 4859,
      "анат": 4860,
      "##enská": 4861,
      "cour": 4862,
      "яна": 4863,
      "arc": 4864,
      "piv": 4865,
      "##ovičová": 4866,
      "coffee": 4867,
      "tok": 4868,
      "##íp": 4869,
      "##юш": 4870,
      "czes": 4871,
      "настя": 4872,
      "ак": 4873,
      "repair": 4874,
      "##hol": 4875,
      "nel": 4876,
      "cm": 4877,
      "##iles": 4878,
      "nas": 4879,
      "tym": 4880,
      "кост": 4881,
      "##anowska": 4882,
      "chris": 4883,
      "opportun": 4884,
      "mykhay": 4885,
      "mie": 4886,
      "nag": 4887,
      "alžběta": 4888,
      "##иза": 4889,
      "instal": 4890,
      "bond": 4891,
      "nové": 4892,
      "##untain": 4893,
      "pow": 4894,
      "##aco": 4895,
      "scotland": 4896,
      "##šovice": 4897,
      "##cov": 4898,
      "pach": 4899,
      "lys": 4900,
      "##иша": 4901,
      "české": 4902,
      "dim": 4903,
      "##aro": 4904,
      "lep": 4905,
      "##mad": 4906,
      "joseph": 4907,
      "ав": 4908,
      "rum": 4909,
      "kříž": 4910,
      "##inská": 4911,
      "##zova": 4912,
      "##upová": 4913,
      "lord": 4914,
      "maksym": 4915,
      "duc": 4916,
      "##aster": 4917,
      "##nad": 4918,
      "ide": 4919,
      "##onice": 4920,
      "háj": 4921,
      "dvor": 4922,
      "jones": 4923,
      "##sto": 4924,
      "architecture": 4925,
      "ft": 4926,
      "partner": 4927,
      "егор": 4928,
      "констан": 4929,
      "##ento": 4930,
      "##ival": 4931,
      "##etín": 4932,
      "how": 4933,
      "##apt": 4934,
      "вадим": 4935,
      "victoria": 4936,
      "stone": 4937,
      "ngoc": 4938,
      "sit": 4939,
      "lex": 4940,
      "##čan": 4941,
      "nikita": 4942,
      "kazimierz": 4943,
      "byst": 4944,
      "##ная": 4945,
      "francis": 4946,
      "leisure": 4947,
      "cult": 4948,
      "##utová": 4949,
      "canada": 4950,
      "bach": 4951,
      "gla": 4952,
      "##ries": 4953,
      "##uma": 4954,
      "##anska": 4955,
      "hong": 4956,
      "gate": 4957,
      "24": 4958,
      "anat": 4959,
      "##du": 4960,
      "cich": 4961,
      "tod": 4962,
      "compan": 4963,
      "##scy": 4964,
      "##enov": 4965,
      "ра": 4966,
      "tep": 4967,
      "darina": 4968,
      "##org": 4969,
      "##lej": 4970,
      "##osa": 4971,
      "paula": 4972,
      "pract": 4973,
      "info": 4974,
      "ondr": 4975,
      "##ičů": 4976,
      "vok": 4977,
      "young": 4978,
      "##lava": 4979,
      "girl": 4980,
      "lech": 4981,
      "eliska": 4982,
      "resort": 4983,
      "##asova": 4984,
      "fid": 4985,
      "##éna": 4986,
      "sára": 4987,
      "##edia": 4988,
      "кл": 4989,
      "mun": 4990,
      "nap": 4991,
      "рам": 4992,
      "vratislav": 4993,
      "##naj": 4994,
      "wel": 4995,
      "##ół": 4996,
      "##ites": 4997,
      "##oor": 4998,
      "##2000": 4999,
      "##ieł": 5000,
      "williams": 5001,
      "##ences": 5002,
      "##zynska": 5003,
      "##kv": 5004,
      "grzes": 5005,
      "zuzka": 5006,
      "##uro": 5007,
      "suk": 5008,
      "hanz": 5009,
      "neb": 5010,
      "##iki": 5011,
      "##mit": 5012,
      "krz": 5013,
      "##wal": 5014,
      "charles": 5015,
      "vide": 5016,
      "carol": 5017,
      "nom": 5018,
      "jolana": 5019,
      "олеся": 5020,
      "##ls": 5021,
      "trz": 5022,
      "you": 5023,
      "oper": 5024,
      "šaf": 5025,
      "choc": 5026,
      "tm": 5027,
      "##ther": 5028,
      "sound": 5029,
      "jord": 5030,
      "mut": 5031,
      "beach": 5032,
      "##head": 5033,
      "jim": 5034,
      "##jc": 5035,
      "servic": 5036,
      "wir": 5037,
      "southern": 5038,
      "##75": 5039,
      "brook": 5040,
      "##oms": 5041,
      "dmitry": 5042,
      "play": 5043,
      "константин": 5044,
      "accountants": 5045,
      "ti": 5046,
      "venture": 5047,
      "hat": 5048,
      "##kan": 5049,
      "##hov": 5050,
      "council": 5051,
      "##ост": 5052,
      "česká": 5053,
      "malá": 5054,
      "##etr": 5055,
      "dagmara": 5056,
      "##rád": 5057,
      "##лова": 5058,
      "bezd": 5059,
      "apart": 5060,
      "##terová": 5061,
      "china": 5062,
      "td": 5063,
      "hut": 5064,
      "##mak": 5065,
      "dobrovol": 5066,
      "##ense": 5067,
      "wanda": 5068,
      "matth": 5069,
      "zdena": 5070,
      "hans": 5071,
      "faj": 5072,
      "rental": 5073,
      "hora": 5074,
      "##tar": 5075,
      "biz": 5076,
      "dzi": 5077,
      "ah": 5078,
      "##řiv": 5079,
      "fot": 5080,
      "##eska": 5081,
      "##dek": 5082,
      "13": 5083,
      "##ports": 5084,
      "##uerová": 5085,
      "##udová": 5086,
      "virt": 5087,
      "spir": 5088,
      "pard": 5089,
      "##eka": 5090,
      "rail": 5091,
      "trus": 5092,
      "charl": 5093,
      "český": 5094,
      "nied": 5095,
      "##ese": 5096,
      "kay": 5097,
      "##eco": 5098,
      "hem": 5099,
      "19": 5100,
      "##esign": 5101,
      "total": 5102,
      "##ureau": 5103,
      "karla": 5104,
      "přemysl": 5105,
      "##kovský": 5106,
      "##bour": 5107,
      "sak": 5108,
      "##еслав": 5109,
      "##онова": 5110,
      "эд": 5111,
      "cot": 5112,
      "laur": 5113,
      "##vor": 5114,
      "ada": 5115,
      "dmitri": 5116,
      "##ogados": 5117,
      "unit": 5118,
      "##icals": 5119,
      "psych": 5120,
      "mk": 5121,
      "rose": 5122,
      "##бе": 5123,
      "servis": 5124,
      "mykhaylo": 5125,
      "##sn": 5126,
      "ald": 5127,
      "ou": 5128,
      "##cing": 5129,
      "##loy": 5130,
      "rest": 5131,
      "##recht": 5132,
      "про": 5133,
      "##fg": 5134,
      "соф": 5135,
      "internet": 5136,
      "zyg": 5137,
      "tours": 5138,
      "vaj": 5139,
      "antonin": 5140,
      "nur": 5141,
      "rp": 5142,
      "гол": 5143,
      "##chester": 5144,
      "##asa": 5145,
      "gav": 5146,
      "##kovská": 5147,
      "##бер": 5148,
      "##ochová": 5149,
      "##ati": 5150,
      "rut": 5151,
      "##zynski": 5152,
      "##col": 5153,
      "##ušová": 5154,
      "talent": 5155,
      "##fi": 5156,
      "##iba": 5157,
      "##bridge": 5158,
      "##abil": 5159,
      "##atová": 5160,
      "interactive": 5161,
      "miš": 5162,
      "buc": 5163,
      "катя": 5164,
      "##ode": 5165,
      "lich": 5166,
      "##chal": 5167,
      "kis": 5168,
      "housing": 5169,
      "##bn": 5170,
      "pd": 5171,
      "вяч": 5172,
      "vinc": 5173,
      "čerm": 5174,
      "##mil": 5175,
      "##ecraft": 5176,
      "dolež": 5177,
      "##elt": 5178,
      "love": 5179,
      "##omo": 5180,
      "band": 5181,
      "наталия": 5182,
      "tá": 5183,
      "terka": 5184,
      "rek": 5185,
      "##čovice": 5186,
      "##bon": 5187,
      "##ingham": 5188,
      "aleksandr": 5189,
      "##iot": 5190,
      "##ńczyk": 5191,
      "decor": 5192,
      "phoenix": 5193,
      "ula": 5194,
      "##jm": 5195,
      "din": 5196,
      "анатол": 5197,
      "jess": 5198,
      "##esta": 5199,
      "saw": 5200,
      "tecnolog": 5201,
      "jd": 5202,
      "vysok": 5203,
      "##ection": 5204,
      "munic": 5205,
      "##usta": 5206,
      "bend": 5207,
      "см": 5208,
      "repub": 5209,
      "##aty": 5210,
      "##max": 5211,
      "village": 5212,
      "tol": 5213,
      "mont": 5214,
      "wis": 5215,
      "milos": 5216,
      "lubos": 5217,
      "##42": 5218,
      "##enkova": 5219,
      "ingen": 5220,
      "##czewska": 5221,
      "karin": 5222,
      "prest": 5223,
      "##pal": 5224,
      "bah": 5225,
      "##aszek": 5226,
      "18": 5227,
      "gad": 5228,
      "ice": 5229,
      "goł": 5230,
      "strategic": 5231,
      "##mt": 5232,
      "##ета": 5233,
      "bow": 5234,
      "##agle": 5235,
      "##šín": 5236,
      "##ief": 5237,
      "##nicki": 5238,
      "rav": 5239,
      "kind": 5240,
      "koval": 5241,
      "##če": 5242,
      "anatol": 5243,
      "##nes": 5244,
      "hos": 5245,
      "und": 5246,
      "##mová": 5247,
      "##point": 5248,
      "##76": 5249,
      "ruz": 5250,
      "##ream": 5251,
      "bit": 5252,
      "gaz": 5253,
      "brasil": 5254,
      "##еня": 5255,
      "##atov": 5256,
      "investors": 5257,
      "lyn": 5258,
      "royal": 5259,
      "bot": 5260,
      "##orage": 5261,
      "##pts": 5262,
      "##niewska": 5263,
      "##ship": 5264,
      "##ocki": 5265,
      "##36": 5266,
      "brew": 5267,
      "rela": 5268,
      "мах": 5269,
      "##iera": 5270,
      "farms": 5271,
      "tať": 5272,
      "##oa": 5273,
      "##yana": 5274,
      "božena": 5275,
      "clear": 5276,
      "эл": 5277,
      "##stal": 5278,
      "пер": 5279,
      "##iti": 5280,
      "##ень": 5281,
      "ds": 5282,
      "taylor": 5283,
      "lop": 5284,
      "science": 5285,
      "worldwide": 5286,
      "michala": 5287,
      "##anovice": 5288,
      "rach": 5289,
      "test": 5290,
      "wester": 5291,
      "##view": 5292,
      "##udio": 5293,
      "##hova": 5294,
      "france": 5295,
      "venc": 5296,
      "arg": 5297,
      "##ём": 5298,
      "##owiak": 5299,
      "##zej": 5300,
      "ari": 5301,
      "##orf": 5302,
      "henry": 5303,
      "##fc": 5304,
      "que": 5305,
      "brothers": 5306,
      "##śc": 5307,
      "ер": 5308,
      "staré": 5309,
      "##yš": 5310,
      "ik": 5311,
      "tl": 5312,
      "run": 5313,
      "##аль": 5314,
      "##gro": 5315,
      "anth": 5316,
      "##enová": 5317,
      "##vest": 5318,
      "##plays": 5319,
      "slaw": 5320,
      "cooper": 5321,
      "cro": 5322,
      "##007": 5323,
      "kratoch": 5324,
      "вячеслав": 5325,
      "princ": 5326,
      "шам": 5327,
      "##čín": 5328,
      "##oman": 5329,
      "chlum": 5330,
      "##áša": 5331,
      "wall": 5332,
      "ld": 5333,
      "##ív": 5334,
      "##bar": 5335,
      "zag": 5336,
      "##izz": 5337,
      "##utions": 5338,
      "try": 5339,
      "pab": 5340,
      "nováková": 5341,
      "gri": 5342,
      "head": 5343,
      "theat": 5344,
      "##mír": 5345,
      "##sková": 5346,
      "european": 5347,
      "##oe": 5348,
      "##edy": 5349,
      "oce": 5350,
      "she": 5351,
      "lol": 5352,
      "impr": 5353,
      "stel": 5354,
      "andrii": 5355,
      "##ji": 5356,
      "jiř": 5357,
      "process": 5358,
      "##drová": 5359,
      "industry": 5360,
      "craft": 5361,
      "lighting": 5362,
      "sylva": 5363,
      "ctr": 5364,
      "irene": 5365,
      "##tage": 5366,
      "gran": 5367,
      "##ocha": 5368,
      "##85": 5369,
      "диана": 5370,
      "otakar": 5371,
      "vot": 5372,
      "bug": 5373,
      "##ocus": 5374,
      "sier": 5375,
      "##uková": 5376,
      "##hai": 5377,
      "time": 5378,
      "precision": 5379,
      "##uu": 5380,
      "ostr": 5381,
      "ell": 5382,
      "brok": 5383,
      "петр": 5384,
      "nie": 5385,
      "kevin": 5386,
      "start": 5387,
      "dmytro": 5388,
      "child": 5389,
      "15": 5390,
      "там": 5391,
      "##eds": 5392,
      "##imova": 5393,
      "##39": 5394,
      "##games": 5395,
      "##ubek": 5396,
      "##zw": 5397,
      "fine": 5398,
      "hov": 5399,
      "##cal": 5400,
      "offshore": 5401,
      "krás": 5402,
      "africa": 5403,
      "sbor": 5404,
      "ball": 5405,
      "##edd": 5406,
      "oliver": 5407,
      "marika": 5408,
      "##oon": 5409,
      "##skiy": 5410,
      "camb": 5411,
      "velká": 5412,
      "kum": 5413,
      "marián": 5414,
      "kola": 5415,
      "haz": 5416,
      "call": 5417,
      "epic": 5418,
      "magdaléna": 5419,
      "##itor": 5420,
      "##iser": 5421,
      "jež": 5422,
      "##ая": 5423,
      "alexey": 5424,
      "##ovcová": 5425,
      "##rus": 5426,
      "бер": 5427,
      "##kalová": 5428,
      "alois": 5429,
      "##inary": 5430,
      "kent": 5431,
      "intellig": 5432,
      "##ubová": 5433,
      "##jf": 5434,
      "гул": 5435,
      "##ży": 5436,
      "leo": 5437,
      "##layer": 5438,
      "vilém": 5439,
      "##vent": 5440,
      "ziel": 5441,
      "minh": 5442,
      "body": 5443,
      "crazy": 5444,
      "##irov": 5445,
      "bun": 5446,
      "coc": 5447,
      "acqu": 5448,
      "wiesława": 5449,
      "fi": 5450,
      "##ула": 5451,
      "exp": 5452,
      "##ный": 5453,
      "##shop": 5454,
      "pis": 5455,
      "cert": 5456,
      "20": 5457,
      "##ills": 5458,
      "##olution": 5459,
      "independent": 5460,
      "##pi": 5461,
      "fly": 5462,
      "данил": 5463,
      "perf": 5464,
      "##elli": 5465,
      "dej": 5466,
      "foj": 5467,
      "lá": 5468,
      "anež": 5469,
      "slo": 5470,
      "zbys": 5471,
      "анж": 5472,
      "##íšková": 5473,
      "##ďka": 5474,
      "vašek": 5475,
      "packa": 5476,
      "patric": 5477,
      "pllc": 5478,
      "##енков": 5479,
      "бур": 5480,
      "bytové": 5481,
      "kys": 5482,
      "admin": 5483,
      "##idad": 5484,
      "##oba": 5485,
      "##oni": 5486,
      "jeff": 5487,
      "square": 5488,
      "mountain": 5489,
      "news": 5490,
      "##wska": 5491,
      "##burg": 5492,
      "die": 5493,
      "##lap": 5494,
      "tamara": 5495,
      "ск": 5496,
      "##šte": 5497,
      "mys": 5498,
      "týn": 5499,
      "guz": 5500,
      "mechanical": 5501,
      "гуль": 5502,
      "##аков": 5503,
      "мус": 5504,
      "animal": 5505,
      "sag": 5506,
      "vlt": 5507,
      "pu": 5508,
      "wellness": 5509,
      "##ена": 5510,
      "wes": 5511,
      "jewel": 5512,
      "nez": 5513,
      "cie": 5514,
      "##tim": 5515,
      "jah": 5516,
      "cc": 5517,
      "ivona": 5518,
      "černá": 5519,
      "##dale": 5520,
      "##ošt": 5521,
      "tyr": 5522,
      "##bit": 5523,
      "дав": 5524,
      "kord": 5525,
      "21": 5526,
      "back": 5527,
      "vach": 5528,
      "personal": 5529,
      "##ků": 5530,
      "dos": 5531,
      "##omed": 5532,
      "risk": 5533,
      "lach": 5534,
      "northern": 5535,
      "##fx": 5536,
      "##84": 5537,
      "křiv": 5538,
      "eff": 5539,
      "##cká": 5540,
      "future": 5541,
      "leaders": 5542,
      "##92": 5543,
      "factory": 5544,
      "##cho": 5545,
      "anežka": 5546,
      "brid": 5547,
      "bernard": 5548,
      "##kar": 5549,
      "##eno": 5550,
      "##eckova": 5551,
      "block": 5552,
      "heart": 5553,
      "##ope": 5554,
      "hil": 5555,
      "##usion": 5556,
      "ill": 5557,
      "##ест": 5558,
      "##ucka": 5559,
      "tatyana": 5560,
      "##alo": 5561,
      "via": 5562,
      "сол": 5563,
      "##iasz": 5564,
      "##ulska": 5565,
      "hak": 5566,
      "koste": 5567,
      "math": 5568,
      "17": 5569,
      "##osova": 5570,
      "##динов": 5571,
      "##less": 5572,
      "clark": 5573,
      "##erka": 5574,
      "matouš": 5575,
      "ster": 5576,
      "fresh": 5577,
      "abdul": 5578,
      "neum": 5579,
      "már": 5580,
      "advent": 5581,
      "##iers": 5582,
      "##ancová": 5583,
      "##íšek": 5584,
      "##nička": 5585,
      "##low": 5586,
      "storage": 5587,
      "mił": 5588,
      "ман": 5589,
      "resource": 5590,
      "rid": 5591,
      "nig": 5592,
      "##улов": 5593,
      "hob": 5594,
      "##жон": 5595,
      "##vald": 5596,
      "thu": 5597,
      "##ěves": 5598,
      "bek": 5599,
      "ern": 5600,
      "dum": 5601,
      "pass": 5602,
      "##erland": 5603,
      "##mm": 5604,
      "##wh": 5605,
      "##ards": 5606,
      "ef": 5607,
      "růžena": 5608,
      "##rs": 5609,
      "aps": 5610,
      "minist": 5611,
      "тур": 5612,
      "##тов": 5613,
      "jagoda": 5614,
      "##90": 5615,
      "##ful": 5616,
      "cup": 5617,
      "gun": 5618,
      "jet": 5619,
      "##fox": 5620,
      "##czynska": 5621,
      "nord": 5622,
      "space": 5623,
      "fig": 5624,
      "##ětice": 5625,
      "pě": 5626,
      "##jt": 5627,
      "##oňová": 5628,
      "pink": 5629,
      "get": 5630,
      "companies": 5631,
      "##níček": 5632,
      "##ešov": 5633,
      "mike": 5634,
      "##jam": 5635,
      "šev": 5636,
      "radio": 5637,
      "##bla": 5638,
      "##atka": 5639,
      "hrom": 5640,
      "gardens": 5641,
      "lane": 5642,
      "leh": 5643,
      "mariya": 5644,
      "luž": 5645,
      "##mas": 5646,
      "##ryna": 5647,
      "шар": 5648,
      "income": 5649,
      "##ebr": 5650,
      "##ago": 5651,
      "##nikov": 5652,
      "syr": 5653,
      "##алов": 5654,
      "##ůl": 5655,
      "marg": 5656,
      "gest": 5657,
      "open": 5658,
      "##yi": 5659,
      "##уллина": 5660,
      "paint": 5661,
      "viv": 5662,
      "matt": 5663,
      "##91": 5664,
      "empr": 5665,
      "tyl": 5666,
      "four": 5667,
      "mex": 5668,
      "natural": 5669,
      "##ators": 5670,
      "##ather": 5671,
      "##erty": 5672,
      "##oul": 5673,
      "##ote": 5674,
      "##łowski": 5675,
      "##eil": 5676,
      "strategies": 5677,
      "##side": 5678,
      "##haus": 5679,
      "##елина": 5680,
      "##ecky": 5681,
      "wash": 5682,
      "dent": 5683,
      "ender": 5684,
      "вера": 5685,
      "eb": 5686,
      "stock": 5687,
      "##iend": 5688,
      "##96": 5689,
      "лил": 5690,
      "##ergy": 5691,
      "##media": 5692,
      "12": 5693,
      "drob": 5694,
      "cin": 5695,
      "##entry": 5696,
      "view": 5697,
      "##onek": 5698,
      "kid": 5699,
      "gut": 5700,
      "артур": 5701,
      "##pol": 5702,
      "plzeň": 5703,
      "##ehold": 5704,
      "jp": 5705,
      "eco": 5706,
      "##zn": 5707,
      "sylwester": 5708,
      "specialists": 5709,
      "lake": 5710,
      "nw": 5711,
      "brit": 5712,
      "##ular": 5713,
      "láz": 5714,
      "##kowicz": 5715,
      "youth": 5716,
      "##nis": 5717,
      "ble": 5718,
      "jung": 5719,
      "šed": 5720,
      "chor": 5721,
      "##lations": 5722,
      "cim": 5723,
      "wag": 5724,
      "pand": 5725,
      "hry": 5726,
      "##change": 5727,
      "##oes": 5728,
      "margar": 5729,
      "ni": 5730,
      "##kou": 5731,
      "collect": 5732,
      "bła": 5733,
      "fabric": 5734,
      "##skyy": 5735,
      "##zb": 5736,
      "bib": 5737,
      "kitchen": 5738,
      "lucia": 5739,
      "oliv": 5740,
      "##xa": 5741,
      "##ádek": 5742,
      "konstant": 5743,
      "mp": 5744,
      "elementary": 5745,
      "bout": 5746,
      "##ыч": 5747,
      "cloth": 5748,
      "##atr": 5749,
      "harris": 5750,
      "ana": 5751,
      "vs": 5752,
      "##mont": 5753,
      "##ankova": 5754,
      "chirop": 5755,
      "валерия": 5756,
      "##ages": 5757,
      "##kins": 5758,
      "##дар": 5759,
      "##илова": 5760,
      "wine": 5761,
      "ludvík": 5762,
      "нина": 5763,
      "oles": 5764,
      "gib": 5765,
      "agent": 5766,
      "##eration": 5767,
      "municipal": 5768,
      "pig": 5769,
      "##динова": 5770,
      "##leg": 5771,
      "standa": 5772,
      "каз": 5773,
      "##rom": 5774,
      "fest": 5775,
      "spring": 5776,
      "cb": 5777,
      "dlouh": 5778,
      "spark": 5779,
      "moon": 5780,
      "##50": 5781,
      "##dom": 5782,
      "cez": 5783,
      "cies": 5784,
      "bár": 5785,
      "##ori": 5786,
      "jindřiška": 5787,
      "construct": 5788,
      "##ht": 5789,
      "aven": 5790,
      "juraj": 5791,
      "šil": 5792,
      "##yka": 5793,
      "kej": 5794,
      "eye": 5795,
      "svitlana": 5796,
      "russ": 5797,
      "##43": 5798,
      "##ui": 5799,
      "dad": 5800,
      "fry": 5801,
      "##ente": 5802,
      "##vl": 5803,
      "kond": 5804,
      "gym": 5805,
      "childr": 5806,
      "think": 5807,
      "www": 5808,
      "##ews": 5809,
      "##anya": 5810,
      "dima": 5811,
      "##62": 5812,
      "##jb": 5813,
      "analyt": 5814,
      "šum": 5815,
      "kout": 5816,
      "buz": 5817,
      "##ąb": 5818,
      "юр": 5819,
      "##vy": 5820,
      "tic": 5821,
      "theb": 5822,
      "магомед": 5823,
      "##ąs": 5824,
      "##ified": 5825,
      "##ovich": 5826,
      "##wina": 5827,
      "text": 5828,
      "##ší": 5829,
      "iron": 5830,
      "##уч": 5831,
      "úst": 5832,
      "cut": 5833,
      "##light": 5834,
      "gajd": 5835,
      "visual": 5836,
      "полина": 5837,
      "ss": 5838,
      "##rah": 5839,
      "morgan": 5840,
      "rož": 5841,
      "##idl": 5842,
      "hro": 5843,
      "integrated": 5844,
      "dou": 5845,
      "##ante": 5846,
      "##2003": 5847,
      "edge": 5848,
      "##tka": 5849,
      "patrick": 5850,
      "andy": 5851,
      "sou": 5852,
      "##evich": 5853,
      "владислав": 5854,
      "хал": 5855,
      "##rade": 5856,
      "cw": 5857,
      "survey": 5858,
      "dance": 5859,
      "šul": 5860,
      "bear": 5861,
      "emb": 5862,
      "pharma": 5863,
      "##kel": 5864,
      "##83": 5865,
      "szw": 5866,
      "orth": 5867,
      "##anowski": 5868,
      "concepts": 5869,
      "action": 5870,
      "бал": 5871,
      "them": 5872,
      "pern": 5873,
      "##ingerová": 5874,
      "kral": 5875,
      "##oles": 5876,
      "ireneusz": 5877,
      "##níčková": 5878,
      "pes": 5879,
      "prin": 5880,
      "yuriy": 5881,
      "алё": 5882,
      "theatre": 5883,
      "velký": 5884,
      "vlas": 5885,
      "saj": 5886,
      "forest": 5887,
      "jirina": 5888,
      "##inkova": 5889,
      "##gam": 5890,
      "hospitality": 5891,
      "mario": 5892,
      "joinery": 5893,
      "yulia": 5894,
      "contracts": 5895,
      "##iszewska": 5896,
      "jaromir": 5897,
      "rys": 5898,
      "##рам": 5899,
      "##itas": 5900,
      "funds": 5901,
      "simpl": 5902,
      "##czynski": 5903,
      "sona": 5904,
      "eugen": 5905,
      "doh": 5906,
      "##унов": 5907,
      "miller": 5908,
      "gallery": 5909,
      "##93": 5910,
      "middle": 5911,
      "##tz": 5912,
      "chiropract": 5913,
      "mysliv": 5914,
      "##erw": 5915,
      "concept": 5916,
      "cand": 5917,
      "бог": 5918,
      "hug": 5919,
      "accountancy": 5920,
      "mend": 5921,
      "##aya": 5922,
      "##rie": 5923,
      "##nl": 5924,
      "centro": 5925,
      "landscap": 5926,
      "##mir": 5927,
      "szp": 5928,
      "nich": 5929,
      "roma": 5930,
      "dut": 5931,
      "##999": 5932,
      "##usa": 5933,
      "##opa": 5934,
      "western": 5935,
      "hoj": 5936,
      "##80": 5937,
      "def": 5938,
      "obec": 5939,
      "ба": 5940,
      "local": 5941,
      "natalya": 5942,
      "##aver": 5943,
      "##унова": 5944,
      "инна": 5945,
      "hou": 5946,
      "hř": 5947,
      "##mag": 5948,
      "##urn": 5949,
      "на": 5950,
      "briggen": 5951,
      "##encia": 5952,
      "kids": 5953,
      "noh": 5954,
      "zahrad": 5955,
      "##iper": 5956,
      "pict": 5957,
      "kram": 5958,
      "lob": 5959,
      "packaging": 5960,
      "##life": 5961,
      "##tp": 5962,
      "sut": 5963,
      "##fit": 5964,
      "##likova": 5965,
      "##ates": 5966,
      "vondr": 5967,
      "zy": 5968,
      "bui": 5969,
      "##ubov": 5970,
      "roks": 5971,
      "bb": 5972,
      "innovations": 5973,
      "yurii": 5974,
      "##рос": 5975,
      "##юша": 5976,
      "flow": 5977,
      "##ere": 5978,
      "comunic": 5979,
      "василий": 5980,
      "prime": 5981,
      "эр": 5982,
      "##ives": 5983,
      "вар": 5984,
      "residential": 5985,
      "uhl": 5986,
      "##atic": 5987,
      "koč": 5988,
      "##wick": 5989,
      "night": 5990,
      "student": 5991,
      "row": 5992,
      "automation": 5993,
      "##inja": 5994,
      "ace": 5995,
      "bh": 5996,
      "gb": 5997,
      "pers": 5998,
      "##abeth": 5999,
      "иб": 6000,
      "ří": 6001,
      "##ební": 6002,
      "##nie": 6003,
      "biał": 6004,
      "bukov": 6005,
      "printing": 6006,
      "žď": 6007,
      "bej": 6008,
      "hp": 6009,
      "##fish": 6010,
      "slez": 6011,
      "ful": 6012,
      "аня": 6013,
      "##raj": 6014,
      "lubomir": 6015,
      "##ilities": 6016,
      "##orov": 6017,
      "степ": 6018,
      "bogumi": 6019,
      "##ыг": 6020,
      "svoboda": 6021,
      "novotná": 6022,
      "тар": 6023,
      "ross": 6024,
      "bridge": 6025,
      "eth": 6026,
      "фар": 6027,
      "##rk": 6028,
      "chiropractic": 6029,
      "мухам": 6030,
      "##алова": 6031,
      "bernad": 6032,
      "practice": 6033,
      "uh": 6034,
      "hotels": 6035,
      "kirill": 6036,
      "##ějovice": 6037,
      "hrd": 6038,
      "snow": 6039,
      "portfol": 6040,
      "##nn": 6041,
      "engen": 6042,
      "##pson": 6043,
      "sb": 6044,
      "atlant": 6045,
      "viktorie": 6046,
      "##ikowska": 6047,
      "charter": 6048,
      "##otín": 6049,
      "##iar": 6050,
      "nicole": 6051,
      "##ecek": 6052,
      "brož": 6053,
      "cyr": 6054,
      "nv": 6055,
      "11": 6056,
      "błaż": 6057,
      "##игор": 6058,
      "grig": 6059,
      "živ": 6060,
      "абдул": 6061,
      "##tc": 6062,
      "##ирова": 6063,
      "##акова": 6064,
      "dk": 6065,
      "##del": 6066,
      "thed": 6067,
      "алла": 6068,
      "pir": 6069,
      "bath": 6070,
      "ez": 6071,
      "pf": 6072,
      "boc": 6073,
      "put": 6074,
      "chrom": 6075,
      "gust": 6076,
      "armgen": 6077,
      "##kos": 6078,
      "gór": 6079,
      "ян": 6080,
      "grzy": 6081,
      "ná": 6082,
      "##vice": 6083,
      "island": 6084,
      "##gm": 6085,
      "##tron": 6086,
      "dw": 6087,
      "johnson": 6088,
      "texas": 6089,
      "##urova": 6090,
      "##nel": 6091,
      "##esar": 6092,
      "yana": 6093,
      "##gre": 6094,
      "serhii": 6095,
      "##śka": 6096,
      "dok": 6097,
      "chamber": 6098,
      "koj": 6099,
      "šar": 6100,
      "##ally": 6101,
      "vitalii": 6102,
      "сав": 6103,
      "štef": 6104,
      "##pek": 6105,
      "nal": 6106,
      "killer": 6107,
      "nech": 6108,
      "##ellow": 6109,
      "##kas": 6110,
      "##rian": 6111,
      "nicol": 6112,
      "sew": 6113,
      "##72": 6114,
      "kę": 6115,
      "lett": 6116,
      "зар": 6117,
      "wioleta": 6118,
      "##hill": 6119,
      "ryd": 6120,
      "##hon": 6121,
      "лена": 6122,
      "olena": 6123,
      "##cikova": 6124,
      "před": 6125,
      "lj": 6126,
      "dest": 6127,
      "##itors": 6128,
      "pizza": 6129,
      "honz": 6130,
      "##ера": 6131,
      "iryna": 6132,
      "vond": 6133,
      "##lewska": 6134,
      "zbyszek": 6135,
      "cru": 6136,
      "depart": 6137,
      "hors": 6138,
      "наз": 6139,
      "nr": 6140,
      "##rafter": 6141,
      "naďa": 6142,
      "##ло": 6143,
      "mom": 6144,
      "##алиев": 6145,
      "moham": 6146,
      "dinh": 6147,
      "##2002": 6148,
      "nursery": 6149,
      "##řov": 6150,
      "##etislav": 6151,
      "анатолий": 6152,
      "mieczys": 6153,
      "video": 6154,
      "mia": 6155,
      "stráž": 6156,
      "tc": 6157,
      "##wo": 6158,
      "##narová": 6159,
      "##tal": 6160,
      "cec": 6161,
      "společnost": 6162,
      "ground": 6163,
      "stein": 6164,
      "šind": 6165,
      "дани": 6166,
      "bin": 6167,
      "pharmacy": 6168,
      "viet": 6169,
      "christop": 6170,
      "blah": 6171,
      "focus": 6172,
      "##iewska": 6173,
      "юля": 6174,
      "sylv": 6175,
      "malwina": 6176,
      "wiel": 6177,
      "ihor": 6178,
      "артём": 6179,
      "##ken": 6180,
      "##aga": 6181,
      "ced": 6182,
      "growth": 6183,
      "boutique": 6184,
      "kings": 6185,
      "##entos": 6186,
      "galina": 6187,
      "mans": 6188,
      "##haria": 6189,
      "##chen": 6190,
      "jacob": 6191,
      "voz": 6192,
      "##etic": 6193,
      "##лам": 6194,
      "hir": 6195,
      "##86": 6196,
      "##2004": 6197,
      "květa": 6198,
      "program": 6199,
      "chom": 6200,
      "universal": 6201,
      "##jl": 6202,
      "vost": 6203,
      "##aft": 6204,
      "io": 6205,
      "řez": 6206,
      "stoj": 6207,
      "##iley": 6208,
      "orl": 6209,
      "skor": 6210,
      "##yst": 6211,
      "gan": 6212,
      "##rol": 6213,
      "kant": 6214,
      "roc": 6215,
      "##ousek": 6216,
      "##czewski": 6217,
      "ocean": 6218,
      "číž": 6219,
      "##gin": 6220,
      "хам": 6221,
      "yev": 6222,
      "marianna": 6223,
      "##iler": 6224,
      "##бина": 6225,
      "chmel": 6226,
      "women": 6227,
      "##vat": 6228,
      "##itions": 6229,
      "records": 6230,
      "hlub": 6231,
      "inna": 6232,
      "##ných": 6233,
      "awes": 6234,
      "##hard": 6235,
      "##igan": 6236,
      "##cak": 6237,
      "sistem": 6238,
      "##uza": 6239,
      "##цова": 6240,
      "ward": 6241,
      "##ečka": 6242,
      "graphics": 6243,
      "##uchová": 6244,
      "pam": 6245,
      "tun": 6246,
      "##ration": 6247,
      "got": 6248,
      "бах": 6249,
      "delta": 6250,
      "tak": 6251,
      "karl": 6252,
      "##ečná": 6253,
      "##iesz": 6254,
      "##tors": 6255,
      "lup": 6256,
      "cd": 6257,
      "##уллин": 6258,
      "##ycl": 6259,
      "##ares": 6260,
      "hung": 6261,
      "puch": 6262,
      "##irova": 6263,
      "kraw": 6264,
      "staffing": 6265,
      "rb": 6266,
      "vob": 6267,
      "flooring": 6268,
      "##enova": 6269,
      "##3d": 6270,
      "infra": 6271,
      "peť": 6272,
      "cow": 6273,
      "speed": 6274,
      "##ílková": 6275,
      "##yslav": 6276,
      "svobodová": 6277,
      "lej": 6278,
      "##acova": 6279,
      "##jk": 6280,
      "##mg": 6281,
      "##uskova": 6282,
      "łuc": 6283,
      "vojt": 6284,
      "gał": 6285,
      "##ping": 6286,
      "assist": 6287,
      "##ves": 6288,
      "advoc": 6289,
      "##51": 6290,
      "arth": 6291,
      "##ws": 6292,
      "таня": 6293,
      "##žen": 6294,
      "##xl": 6295,
      "##lez": 6296,
      "##nyk": 6297,
      "mé": 6298,
      "##ulova": 6299,
      "hamp": 6300,
      "muh": 6301,
      "down": 6302,
      "garage": 6303,
      "prop": 6304,
      "##0n": 6305,
      "pust": 6306,
      "##emb": 6307,
      "strategy": 6308,
      "##niewski": 6309,
      "witold": 6310,
      "engenharia": 6311,
      "##hc": 6312,
      "zosia": 6313,
      "color": 6314,
      "##esová": 6315,
      "freehold": 6316,
      "aid": 6317,
      "site": 6318,
      "mec": 6319,
      "econom": 6320,
      "naw": 6321,
      "##east": 6322,
      "wid": 6323,
      "##това": 6324,
      "ум": 6325,
      "##wski": 6326,
      "##eny": 6327,
      "přib": 6328,
      "сар": 6329,
      "##ázková": 6330,
      "pej": 6331,
      "bogusław": 6332,
      "jędr": 6333,
      "if": 6334,
      "veh": 6335,
      "śl": 6336,
      "##onsult": 6337,
      "administ": 6338,
      "friend": 6339,
      "fib": 6340,
      "##řská": 6341,
      "ded": 6342,
      "##hun": 6343,
      "vltavou": 6344,
      "pé": 6345,
      "##eless": 6346,
      "hoff": 6347,
      "protection": 6348,
      "##cký": 6349,
      "валерий": 6350,
      "##xt": 6351,
      "department": 6352,
      "lucas": 6353,
      "##еле": 6354,
      "next": 6355,
      "##ize": 6356,
      "##ílek": 6357,
      "##48": 6358,
      "hey": 6359,
      "##aceut": 6360,
      "##ques": 6361,
      "pry": 6362,
      "##tee": 6363,
      "##2b": 6364,
      "sac": 6365,
      "entre": 6366,
      "##ured": 6367,
      "corn": 6368,
      "##šík": 6369,
      "##grová": 6370,
      "bright": 6371,
      "##очка": 6372,
      "##čko": 6373,
      "fond": 6374,
      "yan": 6375,
      "##iczek": 6376,
      "siw": 6377,
      "##imp": 6378,
      "##under": 6379,
      "##eting": 6380,
      "##dog": 6381,
      "##орг": 6382,
      "##ielska": 6383,
      "czy": 6384,
      "hv": 6385,
      "stand": 6386,
      "terezie": 6387,
      "##lich": 6388,
      "##su": 6389,
      "##jp": 6390,
      "florida": 6391,
      "##ýk": 6392,
      "ор": 6393,
      "radoslav": 6394,
      "eagle": 6395,
      "prot": 6396,
      "vop": 6397,
      "nataliya": 6398,
      "set": 6399,
      "##dova": 6400,
      "bey": 6401,
      "carl": 6402,
      "čep": 6403,
      "##73": 6404,
      "##chi": 6405,
      "##уж": 6406,
      "alla": 6407,
      "##asek": 6408,
      "##angel": 6409,
      "lun": 6410,
      "haus": 6411,
      "roksana": 6412,
      "kou": 6413,
      "pospíš": 6414,
      "wę": 6415,
      "ub": 6416,
      "##ukova": 6417,
      "##rag": 6418,
      "clar": 6419,
      "magic": 6420,
      "krop": 6421,
      "jizer": 6422,
      "clothing": 6423,
      "##owy": 6424,
      "gó": 6425,
      "##essa": 6426,
      "##ikowski": 6427,
      "moc": 6428,
      "##чик": 6429,
      "оля": 6430,
      "руст": 6431,
      "##уров": 6432,
      "mcc": 6433,
      "##aker": 6434,
      "за": 6435,
      "hunter": 6436,
      "field": 6437,
      "woł": 6438,
      "poch": 6439,
      "##ňovice": 6440,
      "##áňová": 6441,
      "##mes": 6442,
      "##encová": 6443,
      "##ха": 6444,
      "##itan": 6445,
      "##olas": 6446,
      "##rek": 6447,
      "##inet": 6448,
      "##gress": 6449,
      "taťána": 6450,
      "##oust": 6451,
      "##49": 6452,
      "asp": 6453,
      "mirosława": 6454,
      "lodge": 6455,
      "гер": 6456,
      "##ádková": 6457,
      "creek": 6458,
      "that": 6459,
      "six": 6460,
      "##ыл": 6461,
      "##sb": 6462,
      "##čil": 6463,
      "frý": 6464,
      "drahomíra": 6465,
      "senior": 6466,
      "happy": 6467,
      "##obil": 6468,
      "mud": 6469,
      "##uby": 6470,
      "castle": 6471,
      "xd": 6472,
      "kah": 6473,
      "##enec": 6474,
      "lock": 6475,
      "женя": 6476,
      "micro": 6477,
      "conc": 6478,
      "viktoria": 6479,
      "баб": 6480,
      "##iano": 6481,
      "мин": 6482,
      "sg": 6483,
      "##eline": 6484,
      "ce": 6485,
      "##ipping": 6486,
      "otto": 6487,
      "terezka": 6488,
      "fu": 6489,
      "##ifer": 6490,
      "radmila": 6491,
      "suc": 6492,
      "##jová": 6493,
      "mária": 6494,
      "маргар": 6495,
      "pool": 6496,
      "employ": 6497,
      "cezary": 6498,
      "##yo": 6499,
      "audio": 6500,
      "acquis": 6501,
      "##uś": 6502,
      "tadeáš": 6503,
      "##md": 6504,
      "mist": 6505,
      "##ysiak": 6506,
      "gog": 6507,
      "елиз": 6508,
      "##баев": 6509,
      "roj": 6510,
      "##79": 6511,
      "export": 6512,
      "smet": 6513,
      "wl": 6514,
      "пар": 6515,
      "antoni": 6516,
      "stephen": 6517,
      "##58": 6518,
      "##uber": 6519,
      "andrei": 6520,
      "soj": 6521,
      "##40": 6522,
      "##52": 6523,
      "dimi": 6524,
      "##tein": 6525,
      "лилия": 6526,
      "##išková": 6527,
      "nis": 6528,
      "virtual": 6529,
      "ми": 6530,
      "3d": 6531,
      "libr": 6532,
      "světlana": 6533,
      "bedřich": 6534,
      "pear": 6535,
      "add": 6536,
      "wilson": 6537,
      "##sd": 6538,
      "##vis": 6539,
      "prost": 6540,
      "mari": 6541,
      "##oka": 6542,
      "##killer": 6543,
      "ark": 6544,
      "chic": 6545,
      "##ten": 6546,
      "##łka": 6547,
      "kotr": 6548,
      "pila": 6549,
      "tecnologia": 6550,
      "hb": 6551,
      "struct": 6552,
      "ach": 6553,
      "ion": 6554,
      "##оника": 6555,
      "siv": 6556,
      "##аа": 6557,
      "##olska": 6558,
      "##andová": 6559,
      "stor": 6560,
      "mro": 6561,
      "##rh": 6562,
      "##wald": 6563,
      "prag": 6564,
      "##czka": 6565,
      "mej": 6566,
      "##imo": 6567,
      "mazur": 6568,
      "mt": 6569,
      "##bus": 6570,
      "##1234": 6571,
      "piech": 6572,
      "kula": 6573,
      "##more": 6574,
      "##ьев": 6575,
      "##link": 6576,
      "##urg": 6577,
      "мак": 6578,
      "pardub": 6579,
      "two": 6580,
      "quang": 6581,
      "taras": 6582,
      "##owiec": 6583,
      "ral": 6584,
      "##rát": 6585,
      "jal": 6586,
      "machine": 6587,
      "langu": 6588,
      "tj": 6589,
      "troj": 6590,
      "kohout": 6591,
      "bureau": 6592,
      "gord": 6593,
      "##ulov": 6594,
      "##lach": 6595,
      "neg": 6596,
      "mister": 6597,
      "kris": 6598,
      "stanislaw": 6599,
      "##rik": 6600,
      "##wich": 6601,
      "low": 6602,
      "##ых": 6603,
      "##ici": 6604,
      "heřman": 6605,
      "##zar": 6606,
      "рад": 6607,
      "##aja": 6608,
      "##mu": 6609,
      "chmiel": 6610,
      "##ól": 6611,
      "##щенко": 6612,
      "vadim": 6613,
      "dř": 6614,
      "##xc": 6615,
      "##eba": 6616,
      "##ornia": 6617,
      "##ёв": 6618,
      "##ířová": 6619,
      "strz": 6620,
      "##playz": 6621,
      "mika": 6622,
      "##ourek": 6623,
      "##odziej": 6624,
      "interior": 6625,
      "havr": 6626,
      "danil": 6627,
      "brat": 6628,
      "##uga": 6629,
      "janek": 6630,
      "phu": 6631,
      "opl": 6632,
      "##ieu": 6633,
      "grad": 6634,
      "##níky": 6635,
      "marsh": 6636,
      "say": 6637,
      "##rec": 6638,
      "##kon": 6639,
      "tul": 6640,
      "##360": 6641,
      "##iant": 6642,
      "##авета": 6643,
      "tony": 6644,
      "db": 6645,
      "gala": 6646,
      "##eni": 6647,
      "##acht": 6648,
      "calif": 6649,
      "groupe": 6650,
      "##icle": 6651,
      "ген": 6652,
      "kačka": 6653,
      "bartoš": 6654,
      "vyš": 6655,
      "sep": 6656,
      "jaw": 6657,
      "##fel": 6658,
      "##ела": 6659,
      "sej": 6660,
      "plat": 6661,
      "##иж": 6662,
      "##ouse": 6663,
      "mih": 6664,
      "pup": 6665,
      "kyn": 6666,
      "boy": 6667,
      "exper": 6668,
      "stop": 6669,
      "##igová": 6670,
      "parad": 6671,
      "##pan": 6672,
      "##illy": 6673,
      "dym": 6674,
      "##ohl": 6675,
      "katarína": 6676,
      "##itage": 6677,
      "dáša": 6678,
      "##zková": 6679,
      "##orski": 6680,
      "consultant": 6681,
      "##ůvka": 6682,
      "сергеи": 6683,
      "lot": 6684,
      "avenue": 6685,
      "area": 6686,
      "##enta": 6687,
      "město": 6688,
      "ryn": 6689,
      "zor": 6690,
      "##roll": 6691,
      "boř": 6692,
      "##štejn": 6693,
      "brick": 6694,
      "гар": 6695,
      "muse": 6696,
      "gov": 6697,
      "show": 6698,
      "błażej": 6699,
      "##eton": 6700,
      "pie": 6701,
      "miel": 6702,
      "drag": 6703,
      "##iman": 6704,
      "наташа": 6705,
      "vaň": 6706,
      "sci": 6707,
      "promotions": 6708,
      "lion": 6709,
      "informat": 6710,
      "bapt": 6711,
      "zed": 6712,
      "##erse": 6713,
      "zuzia": 6714,
      "григор": 6715,
      "ksenia": 6716,
      "board": 6717,
      "##ёва": 6718,
      "konop": 6719,
      "hend": 6720,
      "##uin": 6721,
      "##rowicz": 6722,
      "##yx": 6723,
      "gier": 6724,
      "##lia": 6725,
      "##ible": 6726,
      "рома": 6727,
      "muz": 6728,
      "dvořáková": 6729,
      "pun": 6730,
      "##инская": 6731,
      "sweet": 6732,
      "jev": 6733,
      "##ře": 6734,
      "##lewski": 6735,
      "pud": 6736,
      "##řovice": 6737,
      "##ój": 6738,
      "dusan": 6739,
      "anthony": 6740,
      "##46": 6741,
      "rata": 6742,
      "##rior": 6743,
      "##lk": 6744,
      "##53": 6745,
      "italia": 6746,
      "liz": 6747,
      "##iewski": 6748,
      "##alík": 6749,
      "bohumila": 6750,
      "##uszka": 6751,
      "louis": 6752,
      "cav": 6753,
      "##ист": 6754,
      "jindrich": 6755,
      "apartments": 6756,
      "##pová": 6757,
      "adrianna": 6758,
      "skrzy": 6759,
      "##70": 6760,
      "##yw": 6761,
      "##unova": 6762,
      "children": 6763,
      "loch": 6764,
      "куз": 6765,
      "16": 6766,
      "schmid": 6767,
      "##guy": 6768,
      "ры": 6769,
      "anička": 6770,
      "алёна": 6771,
      "lon": 6772,
      "stok": 6773,
      "##rig": 6774,
      "consultores": 6775,
      "craf": 6776,
      "карина": 6777,
      "tk": 6778,
      "szk": 6779,
      "orch": 6780,
      "##arc": 6781,
      "liber": 6782,
      "##ulski": 6783,
      "tka": 6784,
      "instru": 6785,
      "mes": 6786,
      "sov": 6787,
      "##eves": 6788,
      "casa": 6789,
      "kostel": 6790,
      "##ьева": 6791,
      "bast": 6792,
      "marysia": 6793,
      "mh": 6794,
      "##но": 6795,
      "jean": 6796,
      "laborator": 6797,
      "##cio": 6798,
      "##ских": 6799,
      "##айд": 6800,
      "yaroslav": 6801,
      "##lek": 6802,
      "jach": 6803,
      "та": 6804,
      "##ved": 6805,
      "ос": 6806,
      "ric": 6807,
      "select": 6808,
      "schools": 6809,
      "##icken": 6810,
      "sarah": 6811,
      "##pot": 6812,
      "##day": 6813,
      "slad": 6814,
      "exchange": 6815,
      "##iting": 6816,
      "leadership": 6817,
      "bien": 6818,
      "hedv": 6819,
      "style": 6820,
      "##zan": 6821,
      "mariana": 6822,
      "##zal": 6823,
      "##wi": 6824,
      "grill": 6825,
      "strat": 6826,
      "##71": 6827,
      "value": 6828,
      "hi": 6829,
      "zdzisław": 6830,
      "fojt": 6831,
      "banc": 6832,
      "##sr": 6833,
      "##munt": 6834,
      "lt": 6835,
      "tap": 6836,
      "chab": 6837,
      "jc": 6838,
      "##atel": 6839,
      "material": 6840,
      "вероника": 6841,
      "маргарита": 6842,
      "quant": 6843,
      "##ábková": 6844,
      "pharmaceut": 6845,
      "bamb": 6846,
      "bara": 6847,
      "assess": 6848,
      "kudr": 6849,
      "loun": 6850,
      "под": 6851,
      "##yová": 6852,
      "тол": 6853,
      "lok": 6854,
      "##ukal": 6855,
      "starý": 6856,
      "##ích": 6857,
      "whe": 6858,
      "bid": 6859,
      "##ulík": 6860,
      "hasičů": 6861,
      "stich": 6862,
      "merch": 6863,
      "crist": 6864,
      "dod": 6865,
      "##gb": 6866,
      "import": 6867,
      "strnad": 6868,
      "##ímová": 6869,
      "##ians": 6870,
      "impact": 6871,
      "##ят": 6872,
      "##limited": 6873,
      "dead": 6874,
      "koud": 6875,
      "vladislava": 6876,
      "ilya": 6877,
      "##ый": 6878,
      "##dol": 6879,
      "flex": 6880,
      "сан": 6881,
      "rainbow": 6882,
      "cis": 6883,
      "violetta": 6884,
      "mai": 6885,
      "##ables": 6886,
      "##mier": 6887,
      "dept": 6888,
      "zn": 6889,
      "solic": 6890,
      "gast": 6891,
      "##inder": 6892,
      "елизавета": 6893,
      "##ension": 6894,
      "pru": 6895,
      "##lev": 6896,
      "##ża": 6897,
      "california": 6898,
      "jb": 6899,
      "more": 6900,
      "##antová": 6901,
      "##iszewski": 6902,
      "##oto": 6903,
      "##hod": 6904,
      "beck": 6905,
      "novák": 6906,
      "миша": 6907,
      "##ops": 6908,
      "żaneta": 6909,
      "stará": 6910,
      "##fly": 6911,
      "##átková": 6912,
      "бат": 6913,
      "brokers": 6914,
      "##ims": 6915,
      "##asing": 6916,
      "sym": 6917,
      "cib": 6918,
      "##ways": 6919,
      "surgery": 6920,
      "##iang": 6921,
      "valentina": 6922,
      "midlands": 6923,
      "front": 6924,
      "machinery": 6925,
      "polina": 6926,
      "##ба": 6927,
      "##оров": 6928,
      "gum": 6929,
      "##nica": 6930,
      "##hin": 6931,
      "fan": 6932,
      "dab": 6933,
      "fern": 6934,
      "##nk": 6935,
      "non": 6936,
      "sea": 6937,
      "##едов": 6938,
      "мад": 6939,
      "##ovna": 6940,
      "##bauer": 6941,
      "driv": 6942,
      "wac": 6943,
      "##уф": 6944,
      "march": 6945,
      "##iyev": 6946,
      "##bin": 6947,
      "eli": 6948,
      "##oly": 6949,
      "rag": 6950,
      "miłosz": 6951,
      "buck": 6952,
      "##qr": 6953,
      "uc": 6954,
      "##ads": 6955,
      "##licka": 6956,
      "bech": 6957,
      "nc": 6958,
      "main": 6959,
      "##рова": 6960,
      "##мур": 6961,
      "##onová": 6962,
      "##overy": 6963,
      "arqu": 6964,
      "rou": 6965,
      "fedor": 6966,
      "pavol": 6967,
      "sach": 6968,
      "##adová": 6969,
      "het": 6970,
      "nan": 6971,
      "skop": 6972,
      "##šíková": 6973,
      "zla": 6974,
      "##шина": 6975,
      "##anger": 6976,
      "krum": 6977,
      "bros": 6978,
      "boss": 6979,
      "##gosia": 6980,
      "аг": 6981,
      "##jana": 6982,
      "##stová": 6983,
      "cov": 6984,
      "hein": 6985,
      "sham": 6986,
      "fiš": 6987,
      "kep": 6988,
      "##elo": 6989,
      "over": 6990,
      "##fm": 6991,
      "čms": 6992,
      "##gal": 6993,
      "sasha": 6994,
      "ota": 6995,
      "šťast": 6996,
      "##rac": 6997,
      "verča": 6998,
      "reich": 6999,
      "##ando": 7000,
      "##etová": 7001,
      "medicine": 7002,
      "bogumiła": 7003,
      "institut": 7004,
      "##enek": 7005,
      "source": 7006,
      "##rzy": 7007,
      "jiro": 7008,
      "asocia": 7009,
      "vet": 7010,
      "touch": 7011,
      "##ements": 7012,
      "##unov": 7013,
      "анг": 7014,
      "rust": 7015,
      "expl": 7016,
      "##fd": 7017,
      "##insky": 7018,
      "##ňany": 7019,
      "##kk": 7020,
      "##řany": 7021,
      "##lah": 7022,
      "ат": 7023,
      "zygmunt": 7024,
      "racing": 7025,
      "uher": 7026,
      "professionals": 7027,
      "##2005": 7028,
      "veterinary": 7029,
      "konstantin": 7030,
      "##41": 7031,
      "##gor": 7032,
      "##emia": 7033,
      "glas": 7034,
      "til": 7035,
      "wys": 7036,
      "jablon": 7037,
      "dobrovolných": 7038,
      "bier": 7039,
      "дмитр": 7040,
      "##jh": 7041,
      "ludek": 7042,
      "hania": 7043,
      "blat": 7044,
      "elizabeth": 7045,
      "civil": 7046,
      "wład": 7047,
      "##říčí": 7048,
      "##udz": 7049,
      "##stav": 7050,
      "shel": 7051,
      "##raž": 7052,
      "nadez": 7053,
      "steven": 7054,
      "primary": 7055,
      "тимур": 7056,
      "pixel": 7057,
      "core": 7058,
      "cob": 7059,
      "##írová": 7060,
      "borov": 7061,
      "geb": 7062,
      "##hof": 7063,
      "money": 7064,
      "nob": 7065,
      "вор": 7066,
      "##tková": 7067,
      "rene": 7068,
      "##water": 7069,
      "борис": 7070,
      "hyb": 7071,
      "fej": 7072,
      "##istor": 7073,
      "##icha": 7074,
      "hell": 7075,
      "##ewa": 7076,
      "cosmet": 7077,
      "##oska": 7078,
      "funding": 7079,
      "##81": 7080,
      "szab": 7081,
      "##erd": 7082,
      "shipping": 7083,
      "peč": 7084,
      "heritage": 7085,
      "##qs": 7086,
      "##ošť": 7087,
      "entrepr": 7088,
      "fabian": 7089,
      "easy": 7090,
      "did": 7091,
      "ist": 7092,
      "choice": 7093,
      "computers": 7094,
      "##oha": 7095,
      "czern": 7096,
      "spe": 7097,
      "##bram": 7098,
      "lag": 7099,
      "vlaďka": 7100,
      "danuše": 7101,
      "rov": 7102,
      "lea": 7103,
      "rig": 7104,
      "dh": 7105,
      "lc": 7106,
      "thes": 7107,
      "small": 7108,
      "рас": 7109,
      "##wear": 7110,
      "zuza": 7111,
      "##yak": 7112,
      "image": 7113,
      "kaja": 7114,
      "##rain": 7115,
      "##feld": 7116,
      "lv": 7117,
      "sto": 7118,
      "sib": 7119,
      "##ynets": 7120,
      "##brook": 7121,
      "даниил": 7122,
      "xuan": 7123,
      "prus": 7124,
      "hyp": 7125,
      "ingenier": 7126,
      "##xs": 7127,
      "eliza": 7128,
      "##ště": 7129,
      "##скии": 7130,
      "thuy": 7131,
      "analytics": 7132,
      "rent": 7133,
      "yorkshire": 7134,
      "hlin": 7135,
      "evžen": 7136,
      "стан": 7137,
      "##oky": 7138,
      "dět": 7139,
      "orlic": 7140,
      "##web": 7141,
      "břetislav": 7142,
      "knap": 7143,
      "##улова": 7144,
      "bord": 7145,
      "##atie": 7146,
      "police": 7147,
      "recycl": 7148,
      "##adz": 7149,
      "panda": 7150,
      "loan": 7151,
      "##iday": 7152,
      "ahmed": 7153,
      "schne": 7154,
      "##icon": 7155,
      "слав": 7156,
      "resp": 7157,
      "##ušek": 7158,
      "radom": 7159,
      "meh": 7160,
      "##ické": 7161,
      "distribut": 7162,
      "ian": 7163,
      "sáz": 7164,
      "rozs": 7165,
      "fix": 7166,
      "##avy": 7167,
      "václava": 7168,
      "##ávek": 7169,
      "gom": 7170,
      "##oi": 7171,
      "barn": 7172,
      "fik": 7173,
      "christopher": 7174,
      "##ли": 7175,
      "##етова": 7176,
      "solicitors": 7177,
      "kik": 7178,
      "lm": 7179,
      "roub": 7180,
      "veg": 7181,
      "lda": 7182,
      "staw": 7183,
      "##ench": 7184,
      "dir": 7185,
      "hope": 7186,
      "##emon": 7187,
      "cath": 7188,
      "barča": 7189,
      "amelia": 7190,
      "grace": 7191,
      "##шин": 7192,
      "baran": 7193,
      "##jw": 7194,
      "hý": 7195,
      "hradec": 7196,
      "brab": 7197,
      "##eme": 7198,
      "renew": 7199,
      "##fal": 7200,
      "##ulage": 7201,
      "##hrad": 7202,
      "product": 7203,
      "nh": 7204,
      "svatop": 7205,
      "ernest": 7206,
      "pardubice": 7207,
      "##heim": 7208,
      "##vová": 7209,
      "##цов": 7210,
      "##ько": 7211,
      "##ulková": 7212,
      "manor": 7213,
      "improv": 7214,
      "change": 7215,
      "reality": 7216,
      "lic": 7217,
      "##dar": 7218,
      "installations": 7219,
      "##ым": 7220,
      "##rc": 7221,
      "magn": 7222,
      "krejčí": 7223,
      "michalina": 7224,
      "bednar": 7225,
      "mikuláš": 7226,
      "##loch": 7227,
      "##imm": 7228,
      "know": 7229,
      "festival": 7230,
      "##ission": 7231,
      "creeper": 7232,
      "žiž": 7233,
      "##illing": 7234,
      "regional": 7235,
      "##ichova": 7236,
      "dani": 7237,
      "sys": 7238,
      "agro": 7239,
      "##log": 7240,
      "cond": 7241,
      "##ůrková": 7242,
      "##ství": 7243,
      "kaczmar": 7244,
      "voda": 7245,
      "mł": 7246,
      "крас": 7247,
      "oleš": 7248,
      "multi": 7249,
      "recovery": 7250,
      "##fp": 7251,
      "chval": 7252,
      "##gd": 7253,
      "##oměřice": 7254,
      "360": 7255,
      "jizerou": 7256,
      "haulage": 7257,
      "career": 7258,
      "kvas": 7259,
      "##hh": 7260,
      "##61": 7261,
      "misa": 7262,
      "absol": 7263,
      "těš": 7264,
      "szczy": 7265,
      "##wik": 7266,
      "riv": 7267,
      "##aton": 7268,
      "volf": 7269,
      "##зе": 7270,
      "##arik": 7271,
      "ester": 7272,
      "##zk": 7273,
      "саб": 7274,
      "orlicí": 7275,
      "stad": 7276,
      "květoslava": 7277,
      "##дий": 7278,
      "svc": 7279,
      "##rb": 7280,
      "soul": 7281,
      "света": 7282,
      "para": 7283,
      "##ilo": 7284,
      "##erb": 7285,
      "szt": 7286,
      "nd": 7287,
      "cern": 7288,
      "##ami": 7289,
      "emerg": 7290,
      "##ju": 7291,
      "##ěnice": 7292,
      "atel": 7293,
      "buj": 7294,
      "##gová": 7295,
      "##olova": 7296,
      "olsz": 7297,
      "бай": 7298,
      "##kus": 7299,
      "pant": 7300,
      "sot": 7301,
      "##kovič": 7302,
      "##pool": 7303,
      "bis": 7304,
      "##nor": 7305,
      "##ąg": 7306,
      "rah": 7307,
      "##uid": 7308,
      "##chod": 7309,
      "patricie": 7310,
      "##етов": 7311,
      "matthew": 7312,
      "comun": 7313,
      "##estyle": 7314,
      "slan": 7315,
      "dit": 7316,
      "miriam": 7317,
      "wan": 7318,
      "bm": 7319,
      "lamb": 7320,
      "dil": 7321,
      "dot": 7322,
      "##room": 7323,
      "ema": 7324,
      "svatopluk": 7325,
      "conf": 7326,
      "řep": 7327,
      "##qa": 7328,
      "sklen": 7329,
      "apple": 7330,
      "##tys": 7331,
      "lhot": 7332,
      "##istic": 7333,
      "стр": 7334,
      "##acional": 7335,
      "advogados": 7336,
      "odbor": 7337,
      "##aszkiewicz": 7338,
      "pawl": 7339,
      "cub": 7340,
      "nutr": 7341,
      "##omp": 7342,
      "##82": 7343,
      "##onín": 7344,
      "##etics": 7345,
      "klad": 7346,
      "##nr": 7347,
      "transportation": 7348,
      "##евская": 7349,
      "ori": 7350,
      "даша": 7351,
      "##eník": 7352,
      "cí": 7353,
      "ryan": 7354,
      "comple": 7355,
      "##ists": 7356,
      "##ilka": 7357,
      "кс": 7358,
      "dov": 7359,
      "##ského": 7360,
      "ур": 7361,
      "hedvika": 7362,
      "mou": 7363,
      "proc": 7364,
      "anet": 7365,
      "##char": 7366,
      "бек": 7367,
      "##2001": 7368,
      "heb": 7369,
      "krav": 7370,
      "brian": 7371,
      "lázně": 7372,
      "fc": 7373,
      "##olding": 7374,
      "##xp": 7375,
      "jour": 7376,
      "num": 7377,
      "lend": 7378,
      "ford": 7379,
      "zik": 7380,
      "ге": 7381,
      "##odor": 7382,
      "mm": 7383,
      "jane": 7384,
      "full": 7385,
      "##usia": 7386,
      "čej": 7387,
      "fd": 7388,
      "kier": 7389,
      "game": 7390,
      "windows": 7391,
      "imaging": 7392,
      "##arts": 7393,
      "##anz": 7394,
      "##odova": 7395,
      "##íkovice": 7396,
      "atlantic": 7397,
      "##gc": 7398,
      "kaf": 7399,
      "jap": 7400,
      "czap": 7401,
      "kach": 7402,
      "weld": 7403,
      "benef": 7404,
      "chyt": 7405,
      "nazar": 7406,
      "##žov": 7407,
      "bang": 7408,
      "indones": 7409,
      "must": 7410,
      "ил": 7411,
      "brands": 7412,
      "gregor": 7413,
      "tibor": 7414,
      "рустам": 7415,
      "дина": 7416,
      "steve": 7417,
      "##ábek": 7418,
      "##bb": 7419,
      "##sik": 7420,
      "pyt": 7421,
      "ear": 7422,
      "graf": 7423,
      "jackson": 7424,
      "##идов": 7425,
      "##čilová": 7426,
      "##ějov": 7427,
      "##itek": 7428,
      "ware": 7429,
      "bened": 7430,
      "##etti": 7431,
      "kornelia": 7432,
      "gd": 7433,
      "##xi": 7434,
      "##yj": 7435,
      "##unová": 7436,
      "##ětín": 7437,
      "vog": 7438,
      "вася": 7439,
      "oxford": 7440,
      "wholes": 7441,
      "under": 7442,
      "вика": 7443,
      "station": 7444,
      "arl": 7445,
      "petru": 7446,
      "prů": 7447,
      "raw": 7448,
      "jurek": 7449,
      "recycling": 7450,
      "##cool": 7451,
      "##utsch": 7452,
      "philip": 7453,
      "cell": 7454,
      "##erov": 7455,
      "##ielski": 7456,
      "##crete": 7457,
      "cip": 7458,
      "fm": 7459,
      "##rá": 7460,
      "bohd": 7461,
      "english": 7462,
      "##ecová": 7463,
      "football": 7464,
      "##dam": 7465,
      "##erman": 7466,
      "sens": 7467,
      "##obo": 7468,
      "gt": 7469,
      "##acion": 7470,
      "parts": 7471,
      "kd": 7472,
      "kněž": 7473,
      "##atory": 7474,
      "offices": 7475,
      "##уев": 7476,
      "orig": 7477,
      "##pc": 7478,
      "##ryn": 7479,
      "stej": 7480,
      "жанна": 7481,
      "stef": 7482,
      "др": 7483,
      "##vs": 7484,
      "paris": 7485,
      "##яна": 7486,
      "tin": 7487,
      "kak": 7488,
      "##ičín": 7489,
      "čap": 7490,
      "paper": 7491,
      "counsel": 7492,
      "altern": 7493,
      "baptist": 7494,
      "##ido": 7495,
      "library": 7496,
      "cep": 7497,
      "dul": 7498,
      "##chtová": 7499,
      "walter": 7500,
      "ved": 7501,
      "zám": 7502,
      "##cture": 7503,
      "сад": 7504,
      "veselá": 7505,
      "perfect": 7506,
      "##ervice": 7507,
      "##onic": 7508,
      "##oves": 7509,
      "ki": 7510,
      "##nicí": 7511,
      "szczepan": 7512,
      "room": 7513,
      "made": 7514,
      "##igg": 7515,
      "##ęp": 7516,
      "surf": 7517,
      "kratochví": 7518,
      "ingrid": 7519,
      "##icks": 7520,
      "##udek": 7521,
      "##the": 7522,
      "navrát": 7523,
      "ces": 7524,
      "captain": 7525,
      "##esth": 7526,
      "ка": 7527,
      "děd": 7528,
      "эду": 7529,
      "123": 7530,
      "##olak": 7531,
      "hills": 7532,
      "##ict": 7533,
      "boch": 7534,
      "##oli": 7535,
      "ink": 7536,
      "tad": 7537,
      "##gt": 7538,
      "sonia": 7539,
      "pure": 7540,
      "oleh": 7541,
      "шах": 7542,
      "##pel": 7543,
      "##улт": 7544,
      "js": 7545,
      "##bat": 7546,
      "##roslav": 7547,
      "фат": 7548,
      "tav": 7549,
      "černý": 7550,
      "míra": 7551,
      "mix": 7552,
      "pictures": 7553,
      "martyn": 7554,
      "svatava": 7555,
      "##pd": 7556,
      "##ijk": 7557,
      "voc": 7558,
      "##rr": 7559,
      "cih": 7560,
      "sha": 7561,
      "zaneta": 7562,
      "вова": 7563,
      "##jj": 7564,
      "пан": 7565,
      "novos": 7566,
      "nit": 7567,
      "##iii": 7568,
      "pog": 7569,
      "##alek": 7570,
      "##aszczyk": 7571,
      "ší": 7572,
      "##ehn": 7573,
      "##fil": 7574,
      "##fy": 7575,
      "au": 7576,
      "loj": 7577,
      "##icos": 7578,
      "lanc": 7579,
      "##chak": 7580,
      "maš": 7581,
      "jk": 7582,
      "фил": 7583,
      "##ales": 7584,
      "ústí": 7585,
      "##оя": 7586,
      "dek": 7587,
      "##ábová": 7588,
      "lig": 7589,
      "door": 7590,
      "##vd": 7591,
      "##ify": 7592,
      "##osová": 7593,
      "doug": 7594,
      "kał": 7595,
      "stichting": 7596,
      "##force": 7597,
      "koř": 7598,
      "pov": 7599,
      "active": 7600,
      "lewis": 7601,
      "##око": 7602,
      "ол": 7603,
      "##ardo": 7604,
      "language": 7605,
      "##ikh": 7606,
      "świ": 7607,
      "##ąd": 7608,
      "лев": 7609,
      "olha": 7610,
      "##ávková": 7611,
      "##rio": 7612,
      "ever": 7613,
      "earth": 7614,
      "##iac": 7615,
      "##én": 7616,
      "flam": 7617,
      "purple": 7618,
      "nak": 7619,
      "drozd": 7620,
      "##berry": 7621,
      "marz": 7622,
      "##chan": 7623,
      "ruda": 7624,
      "indonesia": 7625,
      "three": 7626,
      "ara": 7627,
      "maur": 7628,
      "##alia": 7629,
      "##plus": 7630,
      "##беков": 7631,
      "##qn": 7632,
      "corner": 7633,
      "##ean": 7634,
      "knight": 7635,
      "pack": 7636,
      "леон": 7637,
      "bella": 7638,
      "shen": 7639,
      "##uts": 7640,
      "##ační": 7641,
      "vanda": 7642,
      "##obili": 7643,
      "gill": 7644,
      "wach": 7645,
      "хас": 7646,
      "žďár": 7647,
      "scaff": 7648,
      "wend": 7649,
      "grzesiek": 7650,
      "hunt": 7651,
      "##power": 7652,
      "##alt": 7653,
      "sportov": 7654,
      "##just": 7655,
      "franta": 7656,
      "##rem": 7657,
      "kobyl": 7658,
      "piek": 7659,
      "##lé": 7660,
      "innovative": 7661,
      "##eky": 7662,
      "carpentry": 7663,
      "chad": 7664,
      "##uky": 7665,
      "##уков": 7666,
      "anderson": 7667,
      "bělá": 7668,
      "tetiana": 7669,
      "fisch": 7670,
      "##oot": 7671,
      "gross": 7672,
      "zbynek": 7673,
      "rentals": 7674,
      "##lock": 7675,
      "##iczak": 7676,
      "ďur": 7677,
      "brist": 7678,
      "##uras": 7679,
      "barton": 7680,
      "bull": 7681,
      "path": 7682,
      "эдуард": 7683,
      "mang": 7684,
      "эльв": 7685,
      "vitaliy": 7686,
      "##sty": 7687,
      "lumír": 7688,
      "hork": 7689,
      "##lý": 7690,
      "##wall": 7691,
      "vita": 7692,
      "##alik": 7693,
      "##roj": 7694,
      "##here": 7695,
      "infotech": 7696,
      "##áh": 7697,
      "crystal": 7698,
      "yak": 7699,
      "##ničková": 7700,
      "zer": 7701,
      "##lasová": 7702,
      "kill": 7703,
      "##urst": 7704,
      "spect": 7705,
      "##iedz": 7706,
      "##tag": 7707,
      "vítek": 7708,
      "##lays": 7709,
      "##авр": 7710,
      "ghost": 7711,
      "##bot": 7712,
      "##alov": 7713,
      "woź": 7714,
      "##ušice": 7715,
      "##ešovice": 7716,
      "pest": 7717,
      "##akowska": 7718,
      "adr": 7719,
      "janča": 7720,
      "podol": 7721,
      "су": 7722,
      "##iova": 7723,
      "yevhen": 7724,
      "##zg": 7725,
      "záb": 7726,
      "##ql": 7727,
      "soluc": 7728,
      "hack": 7729,
      "##ource": 7730,
      "electronic": 7731,
      "nyk": 7732,
      "##udmila": 7733,
      "agric": 7734,
      "praž": 7735,
      "fred": 7736,
      "melich": 7737,
      "##žice": 7738,
      "mck": 7739,
      "##rog": 7740,
      "ком": 7741,
      "##kid": 7742,
      "##арева": 7743,
      "julian": 7744,
      "lucky": 7745,
      "chern": 7746,
      "mateřská": 7747,
      "instituto": 7748,
      "glen": 7749,
      "bec": 7750,
      "##xn": 7751,
      "majer": 7752,
      "ud": 7753,
      "##žová": 7754,
      "dave": 7755,
      "allen": 7756,
      "##rm": 7757,
      "##ycle": 7758,
      "křiž": 7759,
      "phuong": 7760,
      "baum": 7761,
      "nest": 7762,
      "xxx": 7763,
      "chra": 7764,
      "##ávka": 7765,
      "duong": 7766,
      "dě": 7767,
      "nikolay": 7768,
      "эм": 7769,
      "wiola": 7770,
      "##лет": 7771,
      "optim": 7772,
      "##ibo": 7773,
      "ask": 7774,
      "##alíková": 7775,
      "##rzak": 7776,
      "glob": 7777,
      "aldona": 7778,
      "monkey": 7779,
      "syd": 7780,
      "republic": 7781,
      "pb": 7782,
      "davis": 7783,
      "nab": 7784,
      "cambridge": 7785,
      "cerv": 7786,
      "##баева": 7787,
      "##овна": 7788,
      "lettings": 7789,
      "andriy": 7790,
      "лиза": 7791,
      "gel": 7792,
      "##antage": 7793,
      "##uster": 7794,
      "##isp": 7795,
      "##nowska": 7796,
      "german": 7797,
      "##урова": 7798,
      "dop": 7799,
      "##wer": 7800,
      "##aki": 7801,
      "zlata": 7802,
      "##onia": 7803,
      "##lag": 7804,
      "tvrd": 7805,
      "##aczek": 7806,
      "sciences": 7807,
      "johana": 7808,
      "marin": 7809,
      "taj": 7810,
      "czarn": 7811,
      "##atice": 7812,
      "##ohn": 7813,
      "нар": 7814,
      "safe": 7815,
      "tag": 7816,
      "##ints": 7817,
      "choch": 7818,
      "modern": 7819,
      "chaloup": 7820,
      "death": 7821,
      "##štice": 7822,
      "sip": 7823,
      "fanda": 7824,
      "##fre": 7825,
      "##icas": 7826,
      "museum": 7827,
      "##3n": 7828,
      "##world": 7829,
      "mra": 7830,
      "##хан": 7831,
      "zr": 7832,
      "юра": 7833,
      "kadle": 7834,
      "pája": 7835,
      "tej": 7836,
      "##ske": 7837,
      "nederland": 7838,
      "morris": 7839,
      "gos": 7840,
      "##mach": 7841,
      "##oco": 7842,
      "folt": 7843,
      "##reb": 7844,
      "dyl": 7845,
      "strán": 7846,
      "opportunities": 7847,
      "cpa": 7848,
      "tesa": 7849,
      "landscape": 7850,
      "##umin": 7851,
      "коз": 7852,
      "zahrád": 7853,
      "niem": 7854,
      "##erková": 7855,
      "fen": 7856,
      "##2k": 7857,
      "brej": 7858,
      "альбина": 7859,
      "vč": 7860,
      "zat": 7861,
      "##vát": 7862,
      "##qq": 7863,
      "autos": 7864,
      "concrete": 7865,
      "planet": 7866,
      "##lord": 7867,
      "##ired": 7868,
      "rm": 7869,
      "olš": 7870,
      "insight": 7871,
      "dolej": 7872,
      "тан": 7873,
      "##quid": 7874,
      "bok": 7875,
      "##zs": 7876,
      "##isha": 7877,
      "##rip": 7878,
      "tools": 7879,
      "##tle": 7880,
      "##ьян": 7881,
      "pš": 7882,
      "arthur": 7883,
      "yoga": 7884,
      "##fb": 7885,
      "hai": 7886,
      "rý": 7887,
      "##iaková": 7888,
      "##zil": 7889,
      "##odzimierz": 7890,
      "cog": 7891,
      "##athan": 7892,
      "##aryan": 7893,
      "nata": 7894,
      "jaz": 7895,
      "##ovo": 7896,
      "srb": 7897,
      "bí": 7898,
      "horn": 7899,
      "##ука": 7900,
      "##far": 7901,
      "##óg": 7902,
      "sarl": 7903,
      "hc": 7904,
      "fryd": 7905,
      "susta": 7906,
      "přá": 7907,
      "aar": 7908,
      "##mun": 7909,
      "bork": 7910,
      "##spěv": 7911,
      "doubrav": 7912,
      "##оева": 7913,
      "metro": 7914,
      "##ador": 7915,
      "kard": 7916,
      "##eder": 7917,
      "##ыс": 7918,
      "piot": 7919,
      "julita": 7920,
      "##night": 7921,
      "##mac": 7922,
      "det": 7923,
      "##оа": 7924,
      "##isko": 7925,
      "##auer": 7926,
      "ярос": 7927,
      "станислав": 7928,
      "##borough": 7929,
      "##aru": 7930,
      "make": 7931,
      "##ovych": 7932,
      "sýk": 7933,
      "příspěv": 7934,
      "##żek": 7935,
      "май": 7936,
      "junior": 7937,
      "##dlová": 7938,
      "##уля": 7939,
      "##ulíková": 7940,
      "##esis": 7941,
      "lek": 7942,
      "natas": 7943,
      "коля": 7944,
      "unic": 7945,
      "tiger": 7946,
      "##oro": 7947,
      "isa": 7948,
      "educational": 7949,
      "##bell": 7950,
      "##oster": 7951,
      "rj": 7952,
      "##ierska": 7953,
      "##wan": 7954,
      "##4u": 7955,
      "ted": 7956,
      "majka": 7957,
      "##bank": 7958,
      "natali": 7959,
      "##ario": 7960,
      "##otova": 7961,
      "тамара": 7962,
      "matusz": 7963,
      "walker": 7964,
      "ange": 7965,
      "лид": 7966,
      "кот": 7967,
      "pag": 7968,
      "cia": 7969,
      "příspěvková": 7970,
      "kenn": 7971,
      "oto": 7972,
      "##riv": 7973,
      "kučerová": 7974,
      "byr": 7975,
      "mitch": 7976,
      "##čov": 7977,
      "emma": 7978,
      "ai": 7979,
      "phan": 7980,
      "szul": 7981,
      "defin": 7982,
      "mim": 7983,
      "sylvie": 7984,
      "gir": 7985,
      "##ounová": 7986,
      "##čina": 7987,
      "dang": 7988,
      "klein": 7989,
      "##sey": 7990,
      "zenon": 7991,
      "dasha": 7992,
      "kostelec": 7993,
      "##lash": 7994,
      "dip": 7995,
      "evgeny": 7996,
      "tow": 7997,
      "##nat": 7998,
      "##plová": 7999
    },
    "merges": [
      [
        "##a",
        "##n"
      ],
      [
        "##o",
        "##v"
      ],
      [
        "##e",
        "##r"
      ],
      [
        "##a",
        "##r"
      ],
      [
        "##i",
        "##n"
      ],
      [
        "##e",
        "##n"
      ],
      [
        "##o",
        "##n"
      ],
      [
        "##o",
        "##r"
      ],
      [
        "##i",
        "##c"
      ],
      [
        "##a",
        "##l"
      ],
      [
        "##t",
        "##e"
      ],
      [
        "##ov",
        "##á"
      ],
      [
        "##k",
        "##a"
      ],
      [
        "##l",
        "##a"
      ],
      [
        "##e",
        "##s"
      ],
      [
        "##o",
        "##m"
      ],
      [
        "##o",
        "##l"
      ],
      [
        "i",
        "##n"
      ],
      [
        "##i",
        "##m"
      ],
      [
        "##a",
        "##t"
      ],
      [
        "##s",
        "##t"
      ],
      [
        "##e",
        "##l"
      ],
      [
        "##c",
        "##h"
      ],
      [
        "##r",
        "##a"
      ],
      [
        "##i",
        "##l"
      ],
      [
        "##e",
        "##t"
      ],
      [
        "##r",
        "##o"
      ],
      [
        "##e",
        "##k"
      ],
      [
        "a",
        "##n"
      ],
      [
        "##te",
        "##d"
      ],
      [
        "##t",
        "##d"
      ],
      [
        "##i",
        "##s"
      ],
      [
        "##im",
        "##i"
      ],
      [
        "l",
        "##td"
      ],
      [
        "l",
        "##imi"
      ],
      [
        "limi",
        "##ted"
      ],
      [
        "##i",
        "##a"
      ],
      [
        "m",
        "##ar"
      ],
      [
        "##i",
        "##t"
      ],
      [
        "##in",
        "##g"
      ],
      [
        "##i",
        "##k"
      ],
      [
        "##ov",
        "##a"
      ],
      [
        "##o",
        "##s"
      ],
      [
        "##u",
        "##r"
      ],
      [
        "##a",
        "##d"
      ],
      [
        "##u",
        "##s"
      ],
      [
        "##a",
        "##m"
      ],
      [
        "##i",
        "##e"
      ],
      [
        "##a",
        "##s"
      ],
      [
        "an",
        "##d"
      ],
      [
        "##i",
        "##on"
      ],
      [
        "##k",
        "##ová"
      ],
      [
        "##s",
        "##k"
      ],
      [
        "##a",
        "##c"
      ],
      [
        "##r",
        "##e"
      ],
      [
        "##l",
        "##e"
      ],
      [
        "##en",
        "##t"
      ],
      [
        "##i",
        "##d"
      ],
      [
        "##an",
        "##a"
      ],
      [
        "##u",
        "##l"
      ],
      [
        "##n",
        "##a"
      ],
      [
        "c",
        "##om"
      ],
      [
        "##a",
        "##v"
      ],
      [
        "##o",
        "##w"
      ],
      [
        "in",
        "##g"
      ],
      [
        "##in",
        "##a"
      ],
      [
        "##о",
        "##в"
      ],
      [
        "##u",
        "##t"
      ],
      [
        "s",
        "##t"
      ],
      [
        "##o",
        "##t"
      ],
      [
        "##u",
        "##n"
      ],
      [
        "##e",
        "##d"
      ],
      [
        "in",
        "##c"
      ],
      [
        "##u",
        "##b"
      ],
      [
        "##u",
        "##d"
      ],
      [
        "##a",
        "##k"
      ],
      [
        "##la",
        "##v"
      ],
      [
        "##e",
        "##c"
      ],
      [
        "##e",
        "##m"
      ],
      [
        "##ic",
        "##e"
      ],
      [
        "##ic",
        "##h"
      ],
      [
        "##i",
        "##g"
      ],
      [
        "##s",
        "##ka"
      ],
      [
        "m",
        "##a"
      ],
      [
        "##н",
        "##а"
      ],
      [
        "##o",
        "##d"
      ],
      [
        "##i",
        "##r"
      ],
      [
        "##r",
        "##u"
      ],
      [
        "t",
        "##h"
      ],
      [
        "##an",
        "##d"
      ],
      [
        "##o",
        "##b"
      ],
      [
        "##e",
        "##v"
      ],
      [
        "##z",
        "##y"
      ],
      [
        "c",
        "##h"
      ],
      [
        "s",
        "##p"
      ],
      [
        "f",
        "##r"
      ],
      [
        "##a",
        "##b"
      ],
      [
        "c",
        "##on"
      ],
      [
        "##g",
        "##r"
      ],
      [
        "##r",
        "##i"
      ],
      [
        "##o",
        "##c"
      ],
      [
        "##or",
        "##p"
      ],
      [
        "p",
        "##ro"
      ],
      [
        "##o",
        "##p"
      ],
      [
        "##sk",
        "##i"
      ],
      [
        "a",
        "##l"
      ],
      [
        "##t",
        "##a"
      ],
      [
        "l",
        "##l"
      ],
      [
        "##u",
        "##p"
      ],
      [
        "##t",
        "##er"
      ],
      [
        "##a",
        "##w"
      ],
      [
        "p",
        "##et"
      ],
      [
        "a",
        "##d"
      ],
      [
        "s",
        "##er"
      ],
      [
        "##u",
        "##c"
      ],
      [
        "##i",
        "##v"
      ],
      [
        "##o",
        "##g"
      ],
      [
        "##y",
        "##s"
      ],
      [
        "##at",
        "##ion"
      ],
      [
        "a",
        "##r"
      ],
      [
        "##en",
        "##a"
      ],
      [
        "m",
        "##gr"
      ],
      [
        "##a",
        "##p"
      ],
      [
        "##u",
        "##k"
      ],
      [
        "##er",
        "##s"
      ],
      [
        "##r",
        "##y"
      ],
      [
        "a",
        "##s"
      ],
      [
        "j",
        "##an"
      ],
      [
        "##o",
        "##k"
      ],
      [
        "a",
        "##t"
      ],
      [
        "ll",
        "##c"
      ],
      [
        "##er",
        "##t"
      ],
      [
        "m",
        "##ich"
      ],
      [
        "##c",
        "##e"
      ],
      [
        "##u",
        "##m"
      ],
      [
        "##i",
        "##es"
      ],
      [
        "##а",
        "##н"
      ],
      [
        "##е",
        "##в"
      ],
      [
        "ser",
        "##v"
      ],
      [
        "##ов",
        "##а"
      ],
      [
        "##d",
        "##r"
      ],
      [
        "##i",
        "##ka"
      ],
      [
        "##or",
        "##a"
      ],
      [
        "s",
        "##k"
      ],
      [
        "##m",
        "##a"
      ],
      [
        "mar",
        "##t"
      ],
      [
        "c",
        "##o"
      ],
      [
        "##e",
        "##j"
      ],
      [
        "##ar",
        "##t"
      ],
      [
        "##ul",
        "##t"
      ],
      [
        "##es",
        "##t"
      ],
      [
        "t",
        "##om"
      ],
      [
        "##í",
        "##k"
      ],
      [
        "##и",
        "##на"
      ],
      [
        "##i",
        "##p"
      ],
      [
        "##k",
        "##o"
      ],
      [
        "##ar",
        "##d"
      ],
      [
        "sp",
        "##ol"
      ],
      [
        "##c",
        "##t"
      ],
      [
        "##e",
        "##w"
      ],
      [
        "p",
        "##av"
      ],
      [
        "##а",
        "##р"
      ],
      [
        "##ic",
        "##es"
      ],
      [
        "##v",
        "##o"
      ],
      [
        "##an",
        "##t"
      ],
      [
        "e",
        "##n"
      ],
      [
        "##m",
        "##b"
      ],
      [
        "k",
        "##ar"
      ],
      [
        "con",
        "##s"
      ],
      [
        "b",
        "##r"
      ],
      [
        "##e",
        "##b"
      ],
      [
        "##ac",
        "##i"
      ],
      [
        "##e",
        "##z"
      ],
      [
        "##a",
        "##g"
      ],
      [
        "##á",
        "##š"
      ],
      [
        "serv",
        "##ices"
      ],
      [
        "c",
        "##orp"
      ],
      [
        "##t",
        "##h"
      ],
      [
        "##o",
        "##h"
      ],
      [
        "th",
        "##e"
      ],
      [
        "j",
        "##ar"
      ],
      [
        "##v",
        "##a"
      ],
      [
        "m",
        "##i"
      ],
      [
        "##i",
        "##b"
      ],
      [
        "##o",
        "##j"
      ],
      [
        "d",
        "##e"
      ],
      [
        "p",
        "##h"
      ],
      [
        "##i",
        "##an"
      ],
      [
        "r",
        "##ad"
      ],
      [
        "v",
        "##la"
      ],
      [
        "##e",
        "##ch"
      ],
      [
        "cons",
        "##ult"
      ],
      [
        "##ion",
        "##s"
      ],
      [
        "fr",
        "##om"
      ],
      [
        "m",
        "##il"
      ],
      [
        "##o",
        "##u"
      ],
      [
        "##in",
        "##e"
      ],
      [
        "##m",
        "##an"
      ],
      [
        "##at",
        "##a"
      ],
      [
        "##a",
        "##st"
      ],
      [
        "##v",
        "##id"
      ],
      [
        "##k",
        "##ova"
      ],
      [
        "g",
        "##ro"
      ],
      [
        "##o",
        "##f"
      ],
      [
        "s",
        "##ol"
      ],
      [
        "d",
        "##an"
      ],
      [
        "l",
        "##ik"
      ],
      [
        "##m",
        "##ent"
      ],
      [
        "r",
        "##o"
      ],
      [
        "lik",
        "##vid"
      ],
      [
        "##es",
        "##s"
      ],
      [
        "##ř",
        "##í"
      ],
      [
        "likvid",
        "##aci"
      ],
      [
        "##e",
        "##p"
      ],
      [
        "s",
        "##h"
      ],
      [
        "pet",
        "##r"
      ],
      [
        "##an",
        "##y"
      ],
      [
        "##и",
        "##н"
      ],
      [
        "##a",
        "##j"
      ],
      [
        "##е",
        "##н"
      ],
      [
        "##d",
        "##a"
      ],
      [
        "##mb",
        "##h"
      ],
      [
        "b",
        "##ar"
      ],
      [
        "g",
        "##mbh"
      ],
      [
        "##ic",
        "##z"
      ],
      [
        "k",
        "##r"
      ],
      [
        "p",
        "##r"
      ],
      [
        "##e",
        "##g"
      ],
      [
        "##on",
        "##ika"
      ],
      [
        "##et",
        "##a"
      ],
      [
        "e",
        "##l"
      ],
      [
        "##y",
        "##n"
      ],
      [
        "##i",
        "##el"
      ],
      [
        "##i",
        "##o"
      ],
      [
        "c",
        "##z"
      ],
      [
        "##а",
        "##л"
      ],
      [
        "##a",
        "##te"
      ],
      [
        "##us",
        "##z"
      ],
      [
        "##ru",
        "##ž"
      ],
      [
        "##е",
        "##р"
      ],
      [
        "o",
        "##n"
      ],
      [
        "##a",
        "##y"
      ],
      [
        "p",
        "##l"
      ],
      [
        "##e",
        "##f"
      ],
      [
        "##c",
        "##z"
      ],
      [
        "##u",
        "##st"
      ],
      [
        "a",
        "##g"
      ],
      [
        "i",
        "##v"
      ],
      [
        "##or",
        "##t"
      ],
      [
        "d",
        "##r"
      ],
      [
        "##ro",
        "##s"
      ],
      [
        "##а",
        "##т"
      ],
      [
        "o",
        "##l"
      ],
      [
        "##g",
        "##e"
      ],
      [
        "b",
        "##c"
      ],
      [
        "gro",
        "##up"
      ],
      [
        "##an",
        "##c"
      ],
      [
        "##st",
        "##vo"
      ],
      [
        "##ov",
        "##ice"
      ],
      [
        "##i",
        "##st"
      ],
      [
        "##á",
        "##n"
      ],
      [
        "com",
        "##p"
      ],
      [
        "d",
        "##ruž"
      ],
      [
        "druž",
        "##stvo"
      ],
      [
        "mart",
        "##in"
      ],
      [
        "k",
        "##o"
      ],
      [
        "##ow",
        "##ska"
      ],
      [
        "##i",
        "##z"
      ],
      [
        "inc",
        "##orp"
      ],
      [
        "t",
        "##r"
      ],
      [
        "incorp",
        "##ora"
      ],
      [
        "d",
        "##om"
      ],
      [
        "incorpora",
        "##ted"
      ],
      [
        "o",
        "##f"
      ],
      [
        "##a",
        "##f"
      ],
      [
        "##u",
        "##z"
      ],
      [
        "##s",
        "##z"
      ],
      [
        "##is",
        "##lav"
      ],
      [
        "##и",
        "##к"
      ],
      [
        "##it",
        "##y"
      ],
      [
        "##em",
        "##ent"
      ],
      [
        "##e",
        "##la"
      ],
      [
        "sol",
        "##ut"
      ],
      [
        "z",
        "##d"
      ],
      [
        "##ic",
        "##k"
      ],
      [
        "##os",
        "##lav"
      ],
      [
        "##l",
        "##o"
      ],
      [
        "l",
        "##e"
      ],
      [
        "##i",
        "##č"
      ],
      [
        "v",
        "##er"
      ],
      [
        "##í",
        "##n"
      ],
      [
        "##a",
        "##ch"
      ],
      [
        "##i",
        "##f"
      ],
      [
        "##i",
        "##š"
      ],
      [
        "j",
        "##i"
      ],
      [
        "##л",
        "##а"
      ],
      [
        "##ana",
        "##g"
      ],
      [
        "##l",
        "##er"
      ],
      [
        "##s",
        "##c"
      ],
      [
        "solut",
        "##ions"
      ],
      [
        "##h",
        "##a"
      ],
      [
        "g",
        "##r"
      ],
      [
        "mar",
        "##k"
      ],
      [
        "##n",
        "##í"
      ],
      [
        "##t",
        "##on"
      ],
      [
        "m",
        "##anag"
      ],
      [
        "##e",
        "##č"
      ],
      [
        "##ig",
        "##n"
      ],
      [
        "##л",
        "##е"
      ],
      [
        "n",
        "##et"
      ],
      [
        "l",
        "##uc"
      ],
      [
        "r",
        "##om"
      ],
      [
        "mich",
        "##a"
      ],
      [
        "##ud",
        "##r"
      ],
      [
        "m",
        "##at"
      ],
      [
        "k",
        "##l"
      ],
      [
        "##a",
        "##z"
      ],
      [
        "j",
        "##ana"
      ],
      [
        "##e",
        "##al"
      ],
      [
        "##ie",
        "##w"
      ],
      [
        "mich",
        "##al"
      ],
      [
        "manag",
        "##ement"
      ],
      [
        "##e",
        "##y"
      ],
      [
        "##i",
        "##al"
      ],
      [
        "in",
        "##ter"
      ],
      [
        "##un",
        "##d"
      ],
      [
        "##p",
        "##l"
      ],
      [
        "##y",
        "##l"
      ],
      [
        "##о",
        "##р"
      ],
      [
        "h",
        "##o"
      ],
      [
        "pav",
        "##el"
      ],
      [
        "##en",
        "##ka"
      ],
      [
        "##ra",
        "##d"
      ],
      [
        "##ow",
        "##ski"
      ],
      [
        "##e",
        "##x"
      ],
      [
        "t",
        "##er"
      ],
      [
        "##i",
        "##er"
      ],
      [
        "##ol",
        "##d"
      ],
      [
        "##c",
        "##zy"
      ],
      [
        "s",
        "##z"
      ],
      [
        "m",
        "##ed"
      ],
      [
        "##sk",
        "##á"
      ],
      [
        "##ar",
        "##e"
      ],
      [
        "t",
        "##ech"
      ],
      [
        "an",
        "##na"
      ],
      [
        "s",
        "##v"
      ],
      [
        "p",
        "##a"
      ],
      [
        "o",
        "##p"
      ],
      [
        "b",
        "##o"
      ],
      [
        "##il",
        "##l"
      ],
      [
        "##q",
        "##u"
      ],
      [
        "##on",
        "##a"
      ],
      [
        "as",
        "##s"
      ],
      [
        "##i",
        "##la"
      ],
      [
        "s",
        "##ch"
      ],
      [
        "##ig",
        "##h"
      ],
      [
        "##á",
        "##k"
      ],
      [
        "##и",
        "##я"
      ],
      [
        "##en",
        "##d"
      ],
      [
        "o",
        "##r"
      ],
      [
        "d",
        "##av"
      ],
      [
        "##it",
        "##al"
      ],
      [
        "##ma",
        "##il"
      ],
      [
        "##0",
        "##0"
      ],
      [
        "##л",
        "##ь"
      ],
      [
        "k",
        "##am"
      ],
      [
        "##g",
        "##a"
      ],
      [
        "##l",
        "##ová"
      ],
      [
        "consult",
        "##ing"
      ],
      [
        "##ев",
        "##а"
      ],
      [
        "a",
        "##b"
      ],
      [
        "##n",
        "##er"
      ],
      [
        "##y",
        "##na"
      ],
      [
        "##ł",
        "##aw"
      ],
      [
        "##el",
        "##l"
      ],
      [
        "s",
        "##a"
      ],
      [
        "j",
        "##ak"
      ],
      [
        "comp",
        "##any"
      ],
      [
        "##sk",
        "##ý"
      ],
      [
        "##t",
        "##s"
      ],
      [
        "mi",
        "##ros"
      ],
      [
        "##u",
        "##š"
      ],
      [
        "##í",
        "##ková"
      ],
      [
        "##ol",
        "##og"
      ],
      [
        "a",
        "##le"
      ],
      [
        "##í",
        "##r"
      ],
      [
        "##j",
        "##a"
      ],
      [
        "ma",
        "##g"
      ],
      [
        "ad",
        "##v"
      ],
      [
        "##y",
        "##a"
      ],
      [
        "d",
        "##es"
      ],
      [
        "a",
        "##m"
      ],
      [
        "##o",
        "##la"
      ],
      [
        "m",
        "##al"
      ],
      [
        "##te",
        "##k"
      ],
      [
        "##u",
        "##ch"
      ],
      [
        "r",
        "##ev"
      ],
      [
        "##er",
        "##n"
      ],
      [
        "k",
        "##at"
      ],
      [
        "c",
        "##ent"
      ],
      [
        "##o",
        "##st"
      ],
      [
        "##o",
        "##š"
      ],
      [
        "##ia",
        "##k"
      ],
      [
        "##и",
        "##м"
      ],
      [
        "p",
        "##at"
      ],
      [
        "vla",
        "##d"
      ],
      [
        "##in",
        "##d"
      ],
      [
        "ji",
        "##ří"
      ],
      [
        "##ar",
        "##a"
      ],
      [
        "##iv",
        "##e"
      ],
      [
        "##t",
        "##y"
      ],
      [
        "s",
        "##o"
      ],
      [
        "b",
        "##e"
      ],
      [
        "##c",
        "##k"
      ],
      [
        "##t",
        "##or"
      ],
      [
        "##m",
        "##s"
      ],
      [
        "##b",
        "##a"
      ],
      [
        "s",
        "##te"
      ],
      [
        "s",
        "##m"
      ],
      [
        "e",
        "##d"
      ],
      [
        "e",
        "##x"
      ],
      [
        "##ic",
        "##al"
      ],
      [
        "##is",
        "##h"
      ],
      [
        "ar",
        "##ch"
      ],
      [
        "p",
        "##i"
      ],
      [
        "dav",
        "##id"
      ],
      [
        "##p",
        "##ert"
      ],
      [
        "g",
        "##en"
      ],
      [
        "tom",
        "##áš"
      ],
      [
        "e",
        "##m"
      ],
      [
        "##s",
        "##h"
      ],
      [
        "n",
        "##at"
      ],
      [
        "##á",
        "##r"
      ],
      [
        "tech",
        "##n"
      ],
      [
        "##á",
        "##t"
      ],
      [
        "##a",
        "##h"
      ],
      [
        "jar",
        "##oslav"
      ],
      [
        "jak",
        "##ub"
      ],
      [
        "r",
        "##en"
      ],
      [
        "##er",
        "##g"
      ],
      [
        "##t",
        "##ě"
      ],
      [
        "b",
        "##l"
      ],
      [
        "##c",
        "##o"
      ],
      [
        "##an",
        "##g"
      ],
      [
        "##ar",
        "##k"
      ],
      [
        "m",
        "##onika"
      ],
      [
        "j",
        "##os"
      ],
      [
        "##i",
        "##te"
      ],
      [
        "miros",
        "##lav"
      ],
      [
        "##ri",
        "##st"
      ],
      [
        "##ra",
        "##p"
      ],
      [
        "##p",
        "##r"
      ],
      [
        "##n",
        "##y"
      ],
      [
        "in",
        "##d"
      ],
      [
        "r",
        "##ob"
      ],
      [
        "##к",
        "##с"
      ],
      [
        "v",
        "##al"
      ],
      [
        "u",
        "##k"
      ],
      [
        "##or",
        "##k"
      ],
      [
        "##á",
        "##č"
      ],
      [
        "##и",
        "##й"
      ],
      [
        "##o",
        "##ur"
      ],
      [
        "##и",
        "##р"
      ],
      [
        "##к",
        "##а"
      ],
      [
        "u",
        "##n"
      ],
      [
        "##i",
        "##re"
      ],
      [
        "mar",
        "##ek"
      ],
      [
        "##on",
        "##d"
      ],
      [
        "rom",
        "##an"
      ],
      [
        "##or",
        "##z"
      ],
      [
        "##ě",
        "##k"
      ],
      [
        "##к",
        "##о"
      ],
      [
        "##or",
        "##d"
      ],
      [
        "pet",
        "##ra"
      ],
      [
        "##ń",
        "##ska"
      ],
      [
        "a",
        "##c"
      ],
      [
        "f",
        "##il"
      ],
      [
        "##u",
        "##ka"
      ],
      [
        "##or",
        "##s"
      ],
      [
        "c",
        "##l"
      ],
      [
        "##o",
        "##od"
      ],
      [
        "##á",
        "##ková"
      ],
      [
        "##an",
        "##s"
      ],
      [
        "##ation",
        "##al"
      ],
      [
        "##у",
        "##р"
      ],
      [
        "l",
        "##ib"
      ],
      [
        "l",
        "##enka"
      ],
      [
        "ad",
        "##am"
      ],
      [
        "pro",
        "##pert"
      ],
      [
        "##о",
        "##н"
      ],
      [
        "r",
        "##es"
      ],
      [
        "##u",
        "##la"
      ],
      [
        "##а",
        "##с"
      ],
      [
        "ass",
        "##oc"
      ],
      [
        "##z",
        "##a"
      ],
      [
        "st",
        "##an"
      ],
      [
        "##и",
        "##л"
      ],
      [
        "j",
        "##o"
      ],
      [
        "##а",
        "##м"
      ],
      [
        "f",
        "##or"
      ],
      [
        "##e",
        "##š"
      ],
      [
        "vla",
        "##st"
      ],
      [
        "n",
        "##ad"
      ],
      [
        "n",
        "##ik"
      ],
      [
        "i",
        "##r"
      ],
      [
        "d",
        "##is"
      ],
      [
        "in",
        "##v"
      ],
      [
        "##ř",
        "##ina"
      ],
      [
        "##k",
        "##ov"
      ],
      [
        "##as",
        "##z"
      ],
      [
        "##al",
        "##l"
      ],
      [
        "##y",
        "##t"
      ],
      [
        "##e",
        "##h"
      ],
      [
        "##w",
        "##a"
      ],
      [
        "luc",
        "##ie"
      ],
      [
        "on",
        "##d"
      ],
      [
        "bar",
        "##b"
      ],
      [
        "m",
        "##udr"
      ],
      [
        "e",
        "##va"
      ],
      [
        "i",
        "##t"
      ],
      [
        "l",
        "##uk"
      ],
      [
        "##ic",
        "##s"
      ],
      [
        "##u",
        "##g"
      ],
      [
        "com",
        "##m"
      ],
      [
        "mar",
        "##c"
      ],
      [
        "##u",
        "##ra"
      ],
      [
        "techn",
        "##olog"
      ],
      [
        "des",
        "##ign"
      ],
      [
        "##er",
        "##ová"
      ],
      [
        "k",
        "##ub"
      ],
      [
        "##en",
        "##c"
      ],
      [
        "kar",
        "##ol"
      ],
      [
        "b",
        "##ro"
      ],
      [
        "##te",
        "##l"
      ],
      [
        "and",
        "##re"
      ],
      [
        "h",
        "##an"
      ],
      [
        "dan",
        "##iel"
      ],
      [
        "inter",
        "##n"
      ],
      [
        "##czy",
        "##k"
      ],
      [
        "c",
        "##ar"
      ],
      [
        "##n",
        "##á"
      ],
      [
        "p",
        "##art"
      ],
      [
        "jos",
        "##ef"
      ],
      [
        "##ing",
        "##s"
      ],
      [
        "k",
        "##s"
      ],
      [
        "##ot",
        "##a"
      ],
      [
        "##k",
        "##y"
      ],
      [
        "##ic",
        "##a"
      ],
      [
        "z",
        "##uz"
      ],
      [
        "а",
        "##н"
      ],
      [
        "##te",
        "##s"
      ],
      [
        "h",
        "##or"
      ],
      [
        "e",
        "##v"
      ],
      [
        "ale",
        "##x"
      ],
      [
        "zd",
        "##en"
      ],
      [
        "##n",
        "##o"
      ],
      [
        "##1",
        "##2"
      ],
      [
        "##r",
        "##z"
      ],
      [
        "p",
        "##ol"
      ],
      [
        "##о",
        "##л"
      ],
      [
        "##и",
        "##с"
      ],
      [
        "##h",
        "##er"
      ],
      [
        "##n",
        "##ík"
      ],
      [
        "##ie",
        "##la"
      ],
      [
        "##y",
        "##m"
      ],
      [
        "##igh",
        "##t"
      ],
      [
        "h",
        "##ana"
      ],
      [
        "##á",
        "##l"
      ],
      [
        "##iew",
        "##icz"
      ],
      [
        "inv",
        "##est"
      ],
      [
        "##la",
        "##s"
      ],
      [
        "mart",
        "##ina"
      ],
      [
        "##z",
        "##ka"
      ],
      [
        "k",
        "##ate"
      ],
      [
        "##и",
        "##т"
      ],
      [
        "##oc",
        "##k"
      ],
      [
        "en",
        "##g"
      ],
      [
        "t",
        "##ra"
      ],
      [
        "##ek",
        "##s"
      ],
      [
        "g",
        "##l"
      ],
      [
        "##o",
        "##x"
      ],
      [
        "##ur",
        "##e"
      ],
      [
        "##an",
        "##ce"
      ],
      [
        "##it",
        "##a"
      ],
      [
        "b",
        "##u"
      ],
      [
        "c",
        "##ap"
      ],
      [
        "##o",
        "##ol"
      ],
      [
        "d",
        "##ar"
      ],
      [
        "##а",
        "##д"
      ],
      [
        "##е",
        "##й"
      ],
      [
        "m",
        "##ac"
      ],
      [
        "j",
        "##ir"
      ],
      [
        "m",
        "##ik"
      ],
      [
        "mil",
        "##an"
      ],
      [
        "m",
        "##e"
      ],
      [
        "##d",
        "##al"
      ],
      [
        "s",
        "##r"
      ],
      [
        "dom",
        "##in"
      ],
      [
        "##ń",
        "##ski"
      ],
      [
        "d",
        "##ev"
      ],
      [
        "v",
        "##oj"
      ],
      [
        "##en",
        "##s"
      ],
      [
        "intern",
        "##ational"
      ],
      [
        "##i",
        "##x"
      ],
      [
        "ver",
        "##onika"
      ],
      [
        "##д",
        "##р"
      ],
      [
        "h",
        "##el"
      ],
      [
        "##in",
        "##t"
      ],
      [
        "а",
        "##ле"
      ],
      [
        "##y",
        "##k"
      ],
      [
        "g",
        "##ab"
      ],
      [
        "g",
        "##re"
      ],
      [
        "##i",
        "##usz"
      ],
      [
        "v",
        "##os"
      ],
      [
        "s",
        "##im"
      ],
      [
        "p",
        "##ra"
      ],
      [
        "##n",
        "##ik"
      ],
      [
        "kate",
        "##řina"
      ],
      [
        "rob",
        "##ert"
      ],
      [
        "##е",
        "##т"
      ],
      [
        "s",
        "##c"
      ],
      [
        "f",
        "##in"
      ],
      [
        "##il",
        "##d"
      ],
      [
        "l",
        "##ad"
      ],
      [
        "e",
        "##le"
      ],
      [
        "##i",
        "##i"
      ],
      [
        "pro",
        "##f"
      ],
      [
        "##al",
        "##ová"
      ],
      [
        "p",
        "##aw"
      ],
      [
        "##ot",
        "##r"
      ],
      [
        "##s",
        "##on"
      ],
      [
        "##n",
        "##ers"
      ],
      [
        "h",
        "##ol"
      ],
      [
        "v",
        "##á"
      ],
      [
        "##p",
        "##ort"
      ],
      [
        "##ment",
        "##s"
      ],
      [
        "a",
        "##p"
      ],
      [
        "micha",
        "##ela"
      ],
      [
        "##y",
        "##b"
      ],
      [
        "##у",
        "##л"
      ],
      [
        "k",
        "##a"
      ],
      [
        "s",
        "##ro"
      ],
      [
        "z",
        "##s"
      ],
      [
        "##t",
        "##r"
      ],
      [
        "m",
        "##on"
      ],
      [
        "ter",
        "##ez"
      ],
      [
        "##o",
        "##ch"
      ],
      [
        "i",
        "##l"
      ],
      [
        "st",
        "##ud"
      ],
      [
        "##er",
        "##ing"
      ],
      [
        "k",
        "##on"
      ],
      [
        "d",
        "##en"
      ],
      [
        "##ec",
        "##k"
      ],
      [
        "p",
        "##od"
      ],
      [
        "pro",
        "##d"
      ],
      [
        "##and",
        "##ra"
      ],
      [
        "l",
        "##a"
      ],
      [
        "g",
        "##ra"
      ],
      [
        "##ь",
        "##я"
      ],
      [
        "k",
        "##rist"
      ],
      [
        "##ys",
        "##te"
      ],
      [
        "##o",
        "##z"
      ],
      [
        "##st",
        "##ru"
      ],
      [
        "luk",
        "##áš"
      ],
      [
        "kr",
        "##zy"
      ],
      [
        "op",
        "##s"
      ],
      [
        "##c",
        "##l"
      ],
      [
        "##ct",
        "##ion"
      ],
      [
        "c",
        "##re"
      ],
      [
        "b",
        "##la"
      ],
      [
        "k",
        "##ra"
      ],
      [
        "s",
        "##al"
      ],
      [
        "rad",
        "##ek"
      ],
      [
        "##an",
        "##na"
      ],
      [
        "##us",
        "##e"
      ],
      [
        "##eal",
        "##th"
      ],
      [
        "s",
        "##up"
      ],
      [
        "##m",
        "##ar"
      ],
      [
        "##ec",
        "##t"
      ],
      [
        "##с",
        "##т"
      ],
      [
        "nat",
        "##al"
      ],
      [
        "##č",
        "##ková"
      ],
      [
        "l",
        "##ub"
      ],
      [
        "##u",
        "##y"
      ],
      [
        "##on",
        "##g"
      ],
      [
        "s",
        "##l"
      ],
      [
        "fil",
        "##ip"
      ],
      [
        "b",
        "##art"
      ],
      [
        "part",
        "##ners"
      ],
      [
        "##ac",
        "##k"
      ],
      [
        "h",
        "##om"
      ],
      [
        "b",
        "##oh"
      ],
      [
        "##el",
        "##op"
      ],
      [
        "##l",
        "##d"
      ],
      [
        "##sk",
        "##y"
      ],
      [
        "##ow",
        "##icz"
      ],
      [
        "h",
        "##old"
      ],
      [
        "i",
        "##m"
      ],
      [
        "m",
        "##r"
      ],
      [
        "##a",
        "##ł"
      ],
      [
        "##ol",
        "##f"
      ],
      [
        "##l",
        "##y"
      ],
      [
        "##ar",
        "##m"
      ],
      [
        "assoc",
        "##ia"
      ],
      [
        "s",
        "##yste"
      ],
      [
        "h",
        "##r"
      ],
      [
        "##i",
        "##en"
      ],
      [
        "##t",
        "##ra"
      ],
      [
        "але",
        "##кс"
      ],
      [
        "mark",
        "##et"
      ],
      [
        "b",
        "##us"
      ],
      [
        "a",
        "##k"
      ],
      [
        "##y",
        "##r"
      ],
      [
        "kar",
        "##el"
      ],
      [
        "med",
        "##ia"
      ],
      [
        "pav",
        "##l"
      ],
      [
        "##p",
        "##er"
      ],
      [
        "mar",
        "##ie"
      ],
      [
        "##v",
        "##í"
      ],
      [
        "ag",
        "##n"
      ],
      [
        "##t",
        "##m"
      ],
      [
        "l",
        "##ud"
      ],
      [
        "z",
        "##b"
      ],
      [
        "dev",
        "##elop"
      ],
      [
        "##p",
        "##t"
      ],
      [
        "##as",
        "##h"
      ],
      [
        "##s",
        "##a"
      ],
      [
        "iv",
        "##an"
      ],
      [
        "prod",
        "##uc"
      ],
      [
        "##h",
        "##o"
      ],
      [
        "al",
        "##ena"
      ],
      [
        "##l",
        "##and"
      ],
      [
        "q",
        "##u"
      ],
      [
        "##zy",
        "##na"
      ],
      [
        "##en",
        "##ko"
      ],
      [
        "k",
        "##ry"
      ],
      [
        "##f",
        "##f"
      ],
      [
        "м",
        "##ар"
      ],
      [
        "pi",
        "##otr"
      ],
      [
        "h",
        "##e"
      ],
      [
        "f",
        "##re"
      ],
      [
        "м",
        "##а"
      ],
      [
        "ar",
        "##t"
      ],
      [
        "c",
        "##ol"
      ],
      [
        "eng",
        "##ine"
      ],
      [
        "##in",
[...]
