{
  "version": "1.0",
  "truncation": null,
  "padding": null,
  "added_tokens": [
    {
      "id": 0,
      "content": "[UNK]",
      "single_word": false,
      "lstrip": false,
      "rstrip": false,
      "normalized": false,
      "special": true
    },
    {
      "id": 1,
      "content": "[PAD]",
      "single_word": false,
      "lstrip": false,
      "rstrip": false,
      "normalized": false,
      "special": true
    }
  ],
  "normalizer": {
    "type": "Sequence",
    "normalizers": [
      {
        "type": "NFKC"
      }
    ]
  },
  "pre_tokenizer": {
    "type": "BertPreTokenizer"
  },
  "post_processor": null,
  "decoder": null,
  "model": {
    "type": "BPE",
    "dropout": null,
    "unk_token": "[UNK]",
    "continuing_subword_prefix": "##",
    "end_of_word_suffix": null,
    "fuse_unk": false,
    "byte_fallback": false,
    "ignore_merges": false,
    "vocab": {
      "[UNK]": 0,
      "[PAD]": 1,
      "!": 2,
      "\"": 3,
      "&": 4,
      "'": 5,
      "(": 6,
      ")": 7,
      "+": 8,
      ",": 9,
      "-": 10,
      ".": 11,
      "/": 12,
      "0": 13,
      "1": 14,
      "2": 15,
      "3": 16,
      "4": 17,
      "5": 18,
      "6": 19,
      "7": 20,
      "8": 21,
      "9": 22,
      ":": 23,
      ";": 24,
      "@": 25,
      "[": 26,
      "\\": 27,
      "]": 28,
      "_": 29,
      "a": 30,
      "b": 31,
      "c": 32,
      "d": 33,
      "e": 34,
      "f": 35,
      "g": 36,
      "h": 37,
      "i": 38,
      "j": 39,
      "k": 40,
      "l": 41,
      "m": 42,
      "n": 43,
      "o": 44,
      "p": 45,
      "q": 46,
      "r": 47,
      "s": 48,
      "t": 49,
      "u": 50,
      "v": 51,
      "w": 52,
      "x": 53,
      "y": 54,
      "z": 55,
      "|": 56,
      "á": 57,
      "ä": 58,
      "é": 59,
      "í": 60,
      "ó": 61,
      "ô": 62,
      "ú": 63,
      "ý": 64,
      "ą": 65,
      "ć": 66,
      "č": 67,
      "ď": 68,
      "ę": 69,
      "ě": 70,
      "ĺ": 71,
      "ľ": 72,
      "ł": 73,
      "ń": 74,
      "ň": 75,
      "ŕ": 76,
      "ř": 77,
      "ś": 78,
      "š": 79,
      "ť": 80,
      "ů": 81,
      "ź": 82,
      "ż": 83,
      "ž": 84,
      "а": 85,
      "б": 86,
      "в": 87,
      "г": 88,
      "д": 89,
      "е": 90,
      "ж": 91,
      "з": 92,
      "и": 93,
      "й": 94,
      "к": 95,
      "л": 96,
      "м": 97,
      "н": 98,
      "о": 99,
      "п": 100,
      "р": 101,
      "с": 102,
      "т": 103,
      "у": 104,
      "ф": 105,
      "х": 106,
      "ц": 107,
      "ч": 108,
      "ш": 109,
      "щ": 110,
      "ъ": 111,
      "ы": 112,
      "ь": 113,
      "э": 114,
      "ю": 115,
      "я": 116,
      "ё": 117,
      "–": 118,
      "—": 119,
      "„": 120,
      "##z": 121,
      "##á": 122,
      "##v": 123,
      "##o": 124,
      "##d": 125,
      "##ě": 126,
      "##a": 127,
      "##n": 128,
      "##y": 129,
      "##c": 130,
      "##k": 131,
      "##š": 132,
      "##l": 133,
      "##e": 134,
      "##h": 135,
      "##t": 136,
      "##i": 137,
      "##ý": 138,
      "##ř": 139,
      "##í": 140,
      "##ž": 141,
      "##ď": 142,
      "##s": 143,
      "##m": 144,
      "##b": 145,
      "##r": 146,
      "##p": 147,
      "##u": 148,
      "##j": 149,
      "##ů": 150,
      "##f": 151,
      "##g": 152,
      "##é": 153,
      "##x": 154,
      "##е": 155,
      "##г": 156,
      "##о": 157,
      "##р": 158,
      "##č": 159,
      "##ť": 160,
      "##q": 161,
      "##у": 162,
      "##с": 163,
      "##н": 164,
      "##а": 165,
      "##к": 166,
      "##л": 167,
      "##и": 168,
      "##в": 169,
      "##4": 170,
      "##м": 171,
      "##ú": 172,
      "##w": 173,
      "##8": 174,
      "##0": 175,
      "##1": 176,
      "##9": 177,
      "##2": 178,
      "##ä": 179,
      "##3": 180,
      "##ň": 181,
      "##5": 182,
      "##ć": 183,
      "##ó": 184,
      "##д": 185,
      "##я": 186,
      "##ł": 187,
      "##7": 188,
      "##ж": 189,
      "##6": 190,
      "##ч": 191,
      "##ľ": 192,
      "##б": 193,
      "##ь": 194,
      "##й": 195,
      "##ю": 196,
      "##т": 197,
      "##ш": 198,
      "##з": 199,
      "##щ": 200,
      "##х": 201,
      "##п": 202,
      "##ц": 203,
      "##ŕ": 204,
      "##ы": 205,
      "##ę": 206,
      "##ф": 207,
      "##ё": 208,
      "##ż": 209,
      "##э": 210,
      "##ĺ": 211,
      "##ń": 212,
      "##ś": 213,
      "##ô": 214,
      "##ą": 215,
      "##ъ": 216,
      "##ź": 217,
      "##ov": 218,
      "##an": 219,
      "##ová": 220,
      "##st": 221,
      "##en": 222,
      "##la": 223,
      "##ro": 224,
      "##ka": 225,
      "##ch": 226,
      "##ra": 227,
      "##te": 228,
      "np": 229,
      "##ol": 230,
      "##ar": 231,
      "##in": 232,
      "##al": 233,
      "##er": 234,
      "##or": 235,
      "##ik": 236,
      "##ce": 237,
      "##on": 238,
      "##ní": 239,
      "##da": 240,
      "nm": 241,
      "##ova": 242,
      "##vi": 243,
      "ns": 244,
      "##el": 245,
      "nv": 246,
      "##ej": 247,
      "##ek": 248,
      "nn": 249,
      "##sk": 250,
      "##ci": 251,
      "##om": 252,
      "##il": 253,
      "##ou": 254,
      "nz": 255,
      "##ková": 256,
      "##pol": 257,
      "##et": 258,
      "##od": 259,
      "##ěj": 260,
      "##no": 261,
      "##ší": 262,
      "##uj": 263,
      "##at": 264,
      "##em": 265,
      "##li": 266,
      "##ed": 267,
      "##eč": 268,
      "nd": 269,
      "##ob": 270,
      "##ější": 271,
      "##av": 272,
      "##ni": 273,
      "lik": 274,
      "##vida": 275,
      "nb": 276,
      "likvida": 277,
      "likvidaci": 278,
      "nj": 279,
      "##es": 280,
      "na": 281,
      "##it": 282,
      "##na": 283,
      "##va": 284,
      "##ru": 285,
      "##stv": 286,
      "spol": 287,
      "nk": 288,
      "##lu": 289,
      "##ana": 290,
      "##ice": 291,
      "##ho": 292,
      "##ut": 293,
      "##rom": 294,
      "##ri": 295,
      "##mi": 296,
      "##os": 297,
      "##ník": 298,
      "##me": 299,
      "vla": 300,
      "##ec": 301,
      "##is": 302,
      "##ří": 303,
      "##tel": 304,
      "##lá": 305,
      "##ství": 306,
      "nt": 307,
      "##ečen": 308,
      "##rá": 309,
      "##ina": 310,
      "##as": 311,
      "##ot": 312,
      "nh": 313,
      "##ez": 314,
      "vlast": 315,
      "mar": 316,
      "##op": 317,
      "nvy": 318,
      "##níků": 319,
      "##nější": 320,
      "##nd": 321,
      "##ub": 322,
      "##ečenství": 323,
      "##ir": 324,
      "st": 325,
      "##ká": 326,
      "##le": 327,
      "##lav": 328,
      "##ad": 329,
      "vlastníků": 330,
      "##ic": 331,
      "##ak": 332,
      "##ich": 333,
      "##lí": 334,
      "nspol": 335,
      "##ev": 336,
      "npř": 337,
      "pro": 338,
      "##im": 339,
      "##ul": 340,
      "##ská": 341,
      "nnej": 342,
      "##ta": 343,
      "##re": 344,
      "##za": 345,
      "##ma": 346,
      "##oč": 347,
      "##vá": 348,
      "##ani": 349,
      "##oz": 350,
      "in": 351,
      "##ně": 352,
      "##us": 353,
      "##iv": 354,
      "nro": 355,
      "##št": 356,
      "##ud": 357,
      "nmar": 358,
      "##ep": 359,
      "##ab": 360,
      "##ena": 361,
      "##ok": 362,
      "##up": 363,
      "##ent": 364,
      "##ovan": 365,
      "and": 366,
      "##ran": 367,
      "##rad": 368,
      "##ech": 369,
      "nprom": 370,
      "##am": 371,
      "nf": 372,
      "##oval": 373,
      "##ná": 374,
      "##oh": 375,
      "##ič": 376,
      "##tek": 377,
      "##ům": 378,
      "##ny": 379,
      "##eš": 380,
      "##ost": 381,
      "##ing": 382,
      "nspolečenství": 383,
      "##ur": 384,
      "##ora": 385,
      "##eb": 386,
      "##kova": 387,
      "vy": 388,
      "##oj": 389,
      "##ruž": 390,
      "nka": 391,
      "ma": 392,
      "##ný": 393,
      "nej": 394,
      "##ák": 395,
      "nod": 396,
      "nroz": 397,
      "##ter": 398,
      "##ovice": 399,
      "##ha": 400,
      "##ský": 401,
      "##lad": 402,
      "##mu": 403,
      "##edno": 404,
      "##est": 405,
      "nu": 406,
      "##ela": 407,
      "##ros": 408,
      "##ko": 409,
      "dom": 410,
      "jedno": 411,
      "ch": 412,
      "ka": 413,
      "nad": 414,
      "pet": 415,
      "lu": 416,
      "##og": 417,
      "ng": 418,
      "##nost": 419,
      "##ti": 420,
      "##cí": 421,
      "##áš": 422,
      "nst": 423,
      "##ky": 424,
      "nr": 425,
      "##án": 426,
      "##lová": 427,
      "jednotek": 428,
      "li": 429,
      "nl": 430,
      "##tin": 431,
      "nlu": 432,
      "##uje": 433,
      "fir": 434,
      "##yt": 435,
      "pra": 436,
      "##um": 437,
      "##oboč": 438,
      "npro": 439,
      "od": 440,
      "ne": 441,
      "nza": 442,
      "nna": 443,
      "##ie": 444,
      "npromovan": 445,
      "nc": 446,
      "nš": 447,
      "##and": 448,
      "##obočka": 449,
      "##uš": 450,
      "##lo": 451,
      "##ín": 452,
      "je": 453,
      "##ry": 454,
      "##ení": 455,
      "##kov": 456,
      "##stvo": 457,
      "##gani": 458,
      "cz": 459,
      "##ské": 460,
      "##ganiza": 461,
      "##enka": 462,
      "##bor": 463,
      "společenství": 464,
      "##ist": 465,
      "##ly": 466,
      "or": 467,
      "##orp": 468,
      "##nut": 469,
      "roz": 470,
      "##id": 471,
      "##erová": 472,
      "##ště": 473,
      "##ys": 474,
      "##oš": 475,
      "jan": 476,
      "##telnější": 477,
      "##ika": 478,
      "##ganizace": 479,
      "pav": 480,
      "##ři": 481,
      "##uz": 482,
      "##ero": 483,
      "##ion": 484,
      "##vě": 485,
      "##čí": 486,
      "##ili": 487,
      "##ted": 488,
      "##ružstvo": 489,
      "##un": 490,
      "##ký": 491,
      "##aj": 492,
      "ob": 493,
      "mich": 494,
      "##ali": 495,
      "##ne": 496,
      "družstvo": 497,
      "npet": 498,
      "##lub": 499,
      "##ové": 500,
      "##né": 501,
      "inc": 502,
      "##ba": 503,
      "##eta": 504,
      "ji": 505,
      "nob": 506,
      "##por": 507,
      "##ál": 508,
      "##ia": 509,
      "##rov": 510,
      "##eme": 511,
      "##any": 512,
      "tom": 513,
      "##res": 514,
      "nal": 515,
      "firma": 516,
      "##ár": 517,
      "pobočka": 518,
      "##ké": 519,
      "##vid": 520,
      "##čková": 521,
      "domu": 522,
      "##ac": 523,
      "##lé": 524,
      "##art": 525,
      "##man": 526,
      "##lou": 527,
      "##ír": 528,
      "##ef": 529,
      "##áz": 530,
      "##roslav": 531,
      "##ig": 532,
      "##teř": 533,
      "##áv": 534,
      "##ap": 535,
      "##oc": 536,
      "##eh": 537,
      "rad": 538,
      "##ož": 539,
      "##ku": 540,
      "##dr": 541,
      "nč": 542,
      "##ty": 543,
      "pod": 544,
      "##cie": 545,
      "an": 546,
      "##dě": 547,
      "##tě": 548,
      "dr": 549,
      "praha": 550,
      "##rod": 551,
      "##olog": 552,
      "##ola": 553,
      "zd": 554,
      "jak": 555,
      "petr": 556,
      "##ča": 557,
      "##ervi": 558,
      "##of": 559,
      "##mé": 560,
      "##ner": 561,
      "al": 562,
      "##och": 563,
      "př": 564,
      "##yd": 565,
      "##uch": 566,
      "##ový": 567,
      "##rav": 568,
      "##íš": 569,
      "##mb": 570,
      "##nika": 571,
      "##ěst": 572,
      "##roup": 573,
      "iv": 574,
      "##méno": 575,
      "nmich": 576,
      "nch": 577,
      "##eni": 578,
      "##ečnost": 579,
      "nan": 580,
      "npři": 581,
      "##oř": 582,
      "##tina": 583,
      "##ard": 584,
      "mil": 585,
      "##ska": 586,
      "če": 587,
      "da": 588,
      "npav": 589,
      "##pl": 590,
      "##jí": 591,
      "##áková": 592,
      "##ěji": 593,
      "##lava": 594,
      "##tová": 595,
      "##cová": 596,
      "ja": 597,
      "br": 598,
      "martin": 599,
      "organizace": 600,
      "##vest": 601,
      "##ond": 602,
      "##nou": 603,
      "za": 604,
      "##ček": 605,
      "ar": 606,
      "##nu": 607,
      "##rist": 608,
      "mi": 609,
      "##port": 610,
      "jana": 611,
      "##ík": 612,
      "##ona": 613,
      "group": 614,
      "##uk": 615,
      "##yn": 616,
      "##ává": 617,
      "##ži": 618,
      "servi": 619,
      "ll": 620,
      "npromovaný": 621,
      "re": 622,
      "npromovaná": 623,
      "##eronika": 624,
      "##my": 625,
      "##ím": 626,
      "nma": 627,
      "##ený": 628,
      "kar": 629,
      "##islav": 630,
      "npra": 631,
      "##ují": 632,
      "##tor": 633,
      "se": 634,
      "ntom": 635,
      "##kola": 636,
      "nda": 637,
      "##ych": 638,
      "##áklad": 639,
      "##ust": 640,
      "##ert": 641,
      "nor": 642,
      "##ovi": 643,
      "nzd": 644,
      "nin": 645,
      "at": 646,
      "##nice": 647,
      "##káš": 648,
      "##sp": 649,
      "ph": 650,
      "npod": 651,
      "##ákladní": 652,
      "corp": 653,
      "##lan": 654,
      "##aela": 655,
      "##liv": 656,
      "##rat": 657,
      "##ala": 658,
      "##enější": 659,
      "sp": 660,
      "##sc": 661,
      "##eny": 662,
      "nrad": 663,
      "spolek": 664,
      "hor": 665,
      "njan": 666,
      "##by": 667,
      "##ga": 668,
      "op": 669,
      "dům": 670,
      "##end": 671,
      "##nic": 672,
      "##mě": 673,
      "##cích": 674,
      "hol": 675,
      "##čka": 676,
      "##rand": 677,
      "invest": 678,
      "##teřina": 679,
      "##alová": 680,
      "##iš": 681,
      "naut": 682,
      "##vaz": 683,
      "##ata": 684,
      "##druž": 685,
      "##rová": 686,
      "##ích": 687,
      "##td": 688,
      "##onika": 689,
      "##ily": 690,
      "##lova": 691,
      "sv": 692,
      "klub": 693,
      "npetr": 694,
      "##era": 695,
      "##ult": 696,
      "##ujme": 697,
      "##mila": 698,
      "##eno": 699,
      "niv": 700,
      "##družení": 701,
      "sk": 702,
      "##omp": 703,
      "nji": 704,
      "##rt": 705,
      "ltd": 706,
      "škola": 707,
      "##ons": 708,
      "##át": 709,
      "##val": 710,
      "##oci": 711,
      "##ujete": 712,
      "##uju": 713,
      "##iz": 714,
      "##mited": 715,
      "##uc": 716,
      "##lov": 717,
      "##osef": 718,
      "michal": 719,
      "##ast": 720,
      "##šek": 721,
      "limited": 722,
      "from": 723,
      "nmil": 724,
      "dob": 725,
      "##eza": 726,
      "mat": 727,
      "bar": 728,
      "##ovali": 729,
      "##ovalo": 730,
      "njana": 731,
      "##ujte": 732,
      "pavel": 733,
      "##mbh": 734,
      "gmbh": 735,
      "ad": 736,
      "##ví": 737,
      "##eň": 738,
      "nmartin": 739,
      "ter": 740,
      "##ind": 741,
      "##ejte": 742,
      "##ejme": 743,
      "nce": 744,
      "##ex": 745,
      "##ujeme": 746,
      "##ilo": 747,
      "trad": 748,
      "as": 749,
      "##orpora": 750,
      "##ám": 751,
      "incorpora": 752,
      "llc": 753,
      "##ujou": 754,
      "petra": 755,
      "##hlá": 756,
      "incorporated": 757,
      "##ovaly": 758,
      "nli": 759,
      "##yk": 760,
      "##zd": 761,
      "##yb": 762,
      "##ja": 763,
      "##ční": 764,
      "##uješ": 765,
      "##řej": 766,
      "##uji": 767,
      "##nik": 768,
      "##íková": 769,
      "##ovat": 770,
      "##irka": 771,
      "##rea": 772,
      "čp": 773,
      "rom": 774,
      "tomáš": 775,
      "ond": 776,
      "##ář": 777,
      "nsp": 778,
      "stav": 779,
      "pří": 780,
      "ol": 781,
      "nel": 782,
      "lenka": 783,
      "kr": 784,
      "##itka": 785,
      "##ných": 786,
      "##ěk": 787,
      "##ád": 788,
      "##ěsto": 789,
      "##lán": 790,
      "mal": 791,
      "ndo": 792,
      "##ovala": 793,
      "sa": 794,
      "svaz": 795,
      "##rum": 796,
      "nž": 797,
      "kub": 798,
      "##vatel": 799,
      "##chová": 800,
      "##dam": 801,
      "##rab": 802,
      "##ác": 803,
      "ex": 804,
      "nne": 805,
      "##tá": 806,
      "nja": 807,
      "##aniel": 808,
      "nsk": 809,
      "##lína": 810,
      "##sko": 811,
      "##rb": 812,
      "##ous": 813,
      "ba": 814,
      "##ura": 815,
      "##onza": 816,
      "nspolečnost": 817,
      "##rd": 818,
      "nre": 819,
      "kra": 820,
      "lucie": 821,
      "##uzana": 822,
      "nmi": 823,
      "##rh": 824,
      "##ilip": 825,
      "nop": 826,
      "##ment": 827,
      "##mar": 828,
      "nbrand": 829,
      "##pa": 830,
      "##ičů": 831,
      "david": 832,
      "##lin": 833,
      "pa": 834,
      "##ita": 835,
      "la": 836,
      "jiří": 837,
      "pol": 838,
      "##ca": 839,
      "##hlás": 840,
      "##sa": 841,
      "##ula": 842,
      "##ekt": 843,
      "nw": 844,
      "##šová": 845,
      "##ejší": 846,
      "norganizace": 847,
      "##yp": 848,
      "##ška": 849,
      "nve": 850,
      "##zová": 851,
      "##áč": 852,
      "pe": 853,
      "##io": 854,
      "##liště": 855,
      "##ler": 856,
      "##aly": 857,
      "##ber": 858,
      "sch": 859,
      "sm": 860,
      "##ička": 861,
      "nik": 862,
      "eva": 863,
      "sdružení": 864,
      "##nová": 865,
      "han": 866,
      "##lik": 867,
      "nter": 868,
      "npavel": 869,
      "nbyd": 870,
      "##lice": 871,
      "##kol": 872,
      "##tech": 873,
      "##enis": 874,
      "##ilová": 875,
      "##yl": 876,
      "nnejn": 877,
      "##ře": 878,
      "##rik": 879,
      "##yst": 880,
      "##rů": 881,
      "##sky": 882,
      "##ant": 883,
      "nmichal": 884,
      "##uč": 885,
      "martina": 886,
      "##kéta": 887,
      "nadres": 888,
      "##ila": 889,
      "njméno": 890,
      "nla": 891,
      "##ity": 892,
      "nuži": 893,
      "##cuje": 894,
      "nnáz": 895,
      "##ická": 896,
      "th": 897,
      "nměsto": 898,
      "npetra": 899,
      "##rodil": 900,
      "os": 901,
      "npřihlás": 902,
      "##lep": 903,
      "nuživatel": 904,
      "nnarodil": 905,
      "ncelé": 906,
      "nadresa": 907,
      "jméno": 908,
      "firmy": 909,
      "##uro": 910,
      "nbydliště": 911,
      "##mat": 912,
      "jako": 913,
      "nnázev": 914,
      "rev": 915,
      "jakub": 916,
      "boh": 917,
      "byt": 918,
      "##řed": 919,
      "čer": 920,
      "npřihlásit": 921,
      "npobočka": 922,
      "nautor": 923,
      "ntomáš": 924,
      "##lus": 925,
      "##rz": 926,
      "##ít": 927,
      "le": 928,
      "##něji": 929,
      "##vět": 930,
      "##ip": 931,
      "comp": 932,
      "##inka": 933,
      "##nov": 934,
      "##ského": 935,
      "nlenka": 936,
      "##ib": 937,
      "real": 938,
      "ok": 939,
      "npracuje": 940,
      "člán": 941,
      "pl": 942,
      "##ation": 943,
      "##raz": 944,
      "##roz": 945,
      "článku": 946,
      "##ých": 947,
      "voj": 948,
      "##kon": 949,
      "##nějšího": 950,
      "vl": 951,
      "##ýna": 952,
      "##cela": 953,
      "nrom": 954,
      "veronika": 955,
      "has": 956,
      "##anová": 957,
      "kol": 958,
      "po": 959,
      "##ecký": 960,
      "základní": 961,
      "nú": 962,
      "##ance": 963,
      "jar": 964,
      "nlucie": 965,
      "##nějšímu": 966,
      "service": 967,
      "##nul": 968,
      "##lat": 969,
      "ndom": 970,
      "##ňová": 971,
      "nos": 972,
      "nat": 973,
      "##íme": 974,
      "arch": 975,
      "##itel": 976,
      "##lic": 977,
      "##íte": 978,
      "##oup": 979,
      "brno": 980,
      "fran": 981,
      "trade": 982,
      "mik": 983,
      "##nějších": 984,
      "va": 985,
      "##ěl": 986,
      "bu": 987,
      "ren": 988,
      "##ms": 989,
      "vel": 990,
      "##hod": 991,
      "##alo": 992,
      "vlad": 993,
      "##ební": 994,
      "far": 995,
      "##bora": 996,
      "prom": 997,
      "##ym": 998,
      "cons": 999,
      "##dp": 1000,
      "##roslava": 1001,
      "##ráv": 1002,
      "##nějším": 1003,
      "##ět": 1004,
      "nol": 1005,
      "##ěv": 1006,
      "ro": 1007,
      "##abri": 1008,
      "nar": 1009,
      "##per": 1010,
      "el": 1011,
      "##her": 1012,
      "ag": 1013,
      "hana": 1014,
      "nvi": 1015,
      "lukáš": 1016,
      "michaela": 1017,
      "10": 1018,
      "##sta": 1019,
      "tech": 1020,
      "##nějšími": 1021,
      "neva": 1022,
      "##las": 1023,
      "sbor": 1024,
      "##ont": 1025,
      "##šková": 1026,
      "##ezd": 1027,
      "##ků": 1028,
      "##áb": 1029,
      "ndavid": 1030,
      "kateřina": 1031,
      "nsv": 1032,
      "##cy": 1033,
      "servis": 1034,
      "##tion": 1035,
      "##len": 1036,
      "##roj": 1037,
      "krist": 1038,
      "dol": 1039,
      "med": 1040,
      "nle": 1041,
      "při": 1042,
      "##ický": 1043,
      "nmartina": 1044,
      "##ovská": 1045,
      "zden": 1046,
      "sh": 1047,
      "monika": 1048,
      "nand": 1049,
      "##čová": 1050,
      "##rovol": 1051,
      "val": 1052,
      "##if": 1053,
      "czech": 1054,
      "##ton": 1055,
      "##lík": 1056,
      "mora": 1057,
      "##řeb": 1058,
      "nbar": 1059,
      "##lád": 1060,
      "##ňa": 1061,
      "##elena": 1062,
      "nzp": 1063,
      "##stav": 1064,
      "ste": 1065,
      "nem": 1066,
      "josef": 1067,
      "vý": 1068,
      "njiří": 1069,
      "nsh": 1070,
      "##ás": 1071,
      "##áclav": 1072,
      "##íra": 1073,
      "pr": 1074,
      "##pán": 1075,
      "##íl": 1076,
      "##entrum": 1077,
      "zah": 1078,
      "nveronika": 1079,
      "ha": 1080,
      "##ikova": 1081,
      "##ějším": 1082,
      "consult": 1083,
      "roman": 1084,
      "krá": 1085,
      "##ess": 1086,
      "pat": 1087,
      "ra": 1088,
      "##arová": 1089,
      "##árka": 1090,
      "##rans": 1091,
      "dobrovol": 1092,
      "njak": 1093,
      "##ete": 1094,
      "##řová": 1095,
      "nnik": 1096,
      "nvyp": 1097,
      "##ram": 1098,
      "ale": 1099,
      "tr": 1100,
      "##ers": 1101,
      "sport": 1102,
      "kon": 1103,
      "nkar": 1104,
      "ni": 1105,
      "company": 1106,
      "prof": 1107,
      "##ež": 1108,
      "##ějšími": 1109,
      "společnost": 1110,
      "##pt": 1111,
      "##gr": 1112,
      "##řel": 1113,
      "##áj": 1114,
      "##kovice": 1115,
      "##ge": 1116,
      "kom": 1117,
      "##ron": 1118,
      "##dová": 1119,
      "##ějšímu": 1120,
      "sim": 1121,
      "marek": 1122,
      "##kou": 1123,
      "hav": 1124,
      "##ťa": 1125,
      "##cova": 1126,
      "##inová": 1127,
      "nte": 1128,
      "##yz": 1129,
      "##ava": 1130,
      "lab": 1131,
      "##ine": 1132,
      "njakub": 1133,
      "##uli": 1134,
      "milan": 1135,
      "nejn": 1136,
      "##už": 1137,
      "##led": 1138,
      "##sková": 1139,
      "tereza": 1140,
      "sol": 1141,
      "##ian": 1142,
      "ště": 1143,
      "11": 1144,
      "čms": 1145,
      "stan": 1146,
      "##ějšího": 1147,
      "##ára": 1148,
      "aut": 1149,
      "##něme": 1150,
      "##eg": 1151,
      "##itelnější": 1152,
      "##sek": 1153,
      "dobrovolných": 1154,
      "nvý": 1155,
      "am": 1156,
      "rod": 1157,
      "##abriela": 1158,
      "##udr": 1159,
      "rep": 1160,
      "alena": 1161,
      "nnejp": 1162,
      "št": 1163,
      "##ány": 1164,
      "##sová": 1165,
      "hasičů": 1166,
      "##ém": 1167,
      "##líková": 1168,
      "marie": 1169,
      "npřed": 1170,
      "adam": 1171,
      "nren": 1172,
      "##ěra": 1173,
      "em": 1174,
      "nho": 1175,
      "ost": 1176,
      "##anka": 1177,
      "nzákladní": 1178,
      "##eř": 1179,
      "kam": 1180,
      "nvlad": 1181,
      "##oud": 1182,
      "nlukáš": 1183,
      "nov": 1184,
      "##yna": 1185,
      "##rob": 1186,
      "##čan": 1187,
      "##ách": 1188,
      "nmichaela": 1189,
      "hrad": 1190,
      "##íd": 1191,
      "nkateřina": 1192,
      "##cl": 1193,
      "##ovaný": 1194,
      "##ding": 1195,
      "##kas": 1196,
      "npa": 1197,
      "nond": 1198,
      "##ováno": 1199,
      "##lára": 1200,
      "##let": 1201,
      "##ována": 1202,
      "radek": 1203,
      "##rád": 1204,
      "anna": 1205,
      "##šk": 1206,
      "ps": 1207,
      "daniel": 1208,
      "##emi": 1209,
      "dv": 1210,
      "##luž": 1211,
      "jaroslav": 1212,
      "ve": 1213,
      "##erova": 1214,
      "nnat": 1215,
      "##ějších": 1216,
      "nzap": 1217,
      "##ang": 1218,
      "filip": 1219,
      "##qu": 1220,
      "##ováni": 1221,
      "##řich": 1222,
      "##rol": 1223,
      "##tern": 1224,
      "##ya": 1225,
      "njar": 1226,
      "nnep": 1227,
      "nhana": 1228,
      "##ovány": 1229,
      "##tej": 1230,
      "not": 1231,
      "eli": 1232,
      "##ován": 1233,
      "##cek": 1234,
      "jitka": 1235,
      "##ck": 1236,
      "nmonika": 1237,
      "##olf": 1238,
      "ber": 1239,
      "npo": 1240,
      "no": 1241,
      "##ána": 1242,
      "##skova": 1243,
      "##our": 1244,
      "nzden": 1245,
      "et": 1246,
      "12": 1247,
      "nsm": 1248,
      "nvz": 1249,
      "##vy": 1250,
      "##tka": 1251,
      "##lec": 1252,
      "##ožka": 1253,
      "sr": 1254,
      "##hop": 1255,
      "honza": 1256,
      "##ného": 1257,
      "nvoj": 1258,
      "##áp": 1259,
      "nkrist": 1260,
      "nmat": 1261,
      "ivana": 1262,
      "kop": 1263,
      "ec": 1264,
      "zuzana": 1265,
      "nab": 1266,
      "##řez": 1267,
      "##elová": 1268,
      "##rap": 1269,
      "##af": 1270,
      "##něte": 1271,
      "soci": 1272,
      "##áno": 1273,
      "##átel": 1274,
      "npop": 1275,
      "##neš": 1276,
      "##ově": 1277,
      "##ovní": 1278,
      "vos": 1279,
      "miroslav": 1280,
      "##kem": 1281,
      "##last": 1282,
      "##chod": 1283,
      "ben": 1284,
      "##rej": 1285,
      "##teřská": 1286,
      "##ovský": 1287,
      "bi": 1288,
      "npol": 1289,
      "##evel": 1290,
      "##inik": 1291,
      "##oda": 1292,
      "ks": 1293,
      "ge": 1294,
      "nroman": 1295,
      "##če": 1296,
      "##kal": 1297,
      "##okol": 1298,
      "nvys": 1299,
      "##rava": 1300,
      "lib": 1301,
      "##spěv": 1302,
      "andrea": 1303,
      "##gmar": 1304,
      "ny": 1305,
      "##enisa": 1306,
      "consulting": 1307,
      "ul": 1308,
      "příspěv": 1309,
      "njosef": 1310,
      "karel": 1311,
      "nová": 1312,
      "ta": 1313,
      "příspěvková": 1314,
      "##itek": 1315,
      "##kař": 1316,
      "##rich": 1317,
      "npr": 1318,
      "##nuto": 1319,
      "nru": 1320,
      "##ysliv": 1321,
      "ntereza": 1322,
      "nth": 1323,
      "##out": 1324,
      "nče": 1325,
      "ves": 1326,
      "plus": 1327,
      "sro": 1328,
      "##lob": 1329,
      "##šť": 1330,
      "##nerová": 1331,
      "##pe": 1332,
      "repub": 1333,
      "stud": 1334,
      "##imír": 1335,
      "lé": 1336,
      "di": 1337,
      "nkon": 1338,
      "nas": 1339,
      "nok": 1340,
      "škol": 1341,
      "##cka": 1342,
      "bud": 1343,
      "car": 1344,
      "##áte": 1345,
      "nra": 1346,
      "nmarek": 1347,
      "nzak": 1348,
      "plz": 1349,
      "centrum": 1350,
      "##čice": 1351,
      "zs": 1352,
      "bor": 1353,
      "##oub": 1354,
      "##int": 1355,
      "nspolek": 1356,
      "kor": 1357,
      "##rý": 1358,
      "##ův": 1359,
      "##enice": 1360,
      "##tišek": 1361,
      "nak": 1362,
      "##uf": 1363,
      "vp": 1364,
      "##van": 1365,
      "en": 1366,
      "fil": 1367,
      "##lý": 1368,
      "##áh": 1369,
      "##mus": 1370,
      "lub": 1371,
      "kat": 1372,
      "nnad": 1373,
      "13": 1374,
      "##ork": 1375,
      "nrt": 1376,
      "nup": 1377,
      "##uh": 1378,
      "ngen": 1379,
      "##áčková": 1380,
      "##lejší": 1381,
      "##ouk": 1382,
      "##ution": 1383,
      "##ďa": 1384,
      "nba": 1385,
      "##osti": 1386,
      "##áni": 1387,
      "dan": 1388,
      "nmilan": 1389,
      "##nuta": 1390,
      "npat": 1391,
      "##neme": 1392,
      "##nuti": 1393,
      "##kop": 1394,
      "kot": 1395,
      "markéta": 1396,
      "##for": 1397,
      "vys": 1398,
      "##bal": 1399,
      "##chov": 1400,
      "##vat": 1401,
      "nalena": 1402,
      "##go": 1403,
      "##kat": 1404,
      "kal": 1405,
      "##ary": 1406,
      "odbor": 1407,
      "##nete": 1408,
      "české": 1409,
      "##rub": 1410,
      "##ign": 1411,
      "##nout": 1412,
      "##aniela": 1413,
      "##men": 1414,
      "přátel": 1415,
      "##osp": 1416,
      "nrozp": 1417,
      "##ij": 1418,
      "##ris": 1419,
      "lud": 1420,
      "##áme": 1421,
      "##ěh": 1422,
      "##ecká": 1423,
      "##říz": 1424,
      "##žený": 1425,
      "##ital": 1426,
      "##tr": 1427,
      "##kům": 1428,
      "mark": 1429,
      "##anova": 1430,
      "##ct": 1431,
      "##oun": 1432,
      "star": 1433,
      "##istor": 1434,
      "šim": 1435,
      "##uška": 1436,
      "rob": 1437,
      "nex": 1438,
      "20": 1439,
      "##nuty": 1440,
      "dra": 1441,
      "nradek": 1442,
      "zb": 1443,
      "npok": 1444,
      "nzas": 1445,
      "nodp": 1446,
      "ops": 1447,
      "nbyt": 1448,
      "bla": 1449,
      "fin": 1450,
      "lad": 1451,
      "##gu": 1452,
      "nanna": 1453,
      "##ace": 1454,
      "##ným": 1455,
      "zp": 1456,
      "##ox": 1457,
      "mon": 1458,
      "##lanka": 1459,
      "ned": 1460,
      "bart": 1461,
      "##ve": 1462,
      "marcela": 1463,
      "##evelop": 1464,
      "##les": 1465,
      "nmarie": 1466,
      "architek": 1467,
      "##anda": 1468,
      "##rost": 1469,
      "njitka": 1470,
      "##lon": 1471,
      "##rop": 1472,
      "##az": 1473,
      "ver": 1474,
      "##iktor": 1475,
      "nus": 1476,
      "##gy": 1477,
      "##rolína": 1478,
      "nfran": 1479,
      "##ého": 1480,
      "pop": 1481,
      "##ement": 1482,
      "##ational": 1483,
      "njaroslav": 1484,
      "nzb": 1485,
      "pavla": 1486,
      "##rot": 1487,
      "vz": 1488,
      "nhonza": 1489,
      "sokol": 1490,
      "##co": 1491,
      "##éla": 1492,
      "##vis": 1493,
      "trans": 1494,
      "nzuzana": 1495,
      "##lerová": 1496,
      "ondřej": 1497,
      "bytové": 1498,
      "##uše": 1499,
      "14": 1500,
      "##ěř": 1501,
      "nvyk": 1502,
      "##rn": 1503,
      "##áli": 1504,
      "bal": 1505,
      "##rk": 1506,
      "##ičt": 1507,
      "services": 1508,
      "##telnějšího": 1509,
      "##vice": 1510,
      "##lid": 1511,
      "for": 1512,
      "15": 1513,
      "bez": 1514,
      "##oložka": 1515,
      "##ze": 1516,
      "nmiroslav": 1517,
      "##cel": 1518,
      "##ží": 1519,
      "club": 1520,
      "##to": 1521,
      "nzah": 1522,
      "pp": 1523,
      "##áček": 1524,
      "dis": 1525,
      "kř": 1526,
      "umě": 1527,
      "ndaniel": 1528,
      "mach": 1529,
      "phd": 1530,
      "nzab": 1531,
      "develop": 1532,
      "noh": 1533,
      "##lín": 1534,
      "##číková": 1535,
      "lho": 1536,
      "nivana": 1537,
      "##eli": 1538,
      "nev": 1539,
      "václav": 1540,
      "nzm": 1541,
      "gen": 1542,
      "nsim": 1543,
      "intern": 1544,
      "##ood": 1545,
      "##ruš": 1546,
      "mí": 1547,
      "holding": 1548,
      "nandrea": 1549,
      "ku": 1550,
      "sed": 1551,
      "te": 1552,
      "##ecen": 1553,
      "svazu": 1554,
      "##alova": 1555,
      "##ovy": 1556,
      "##ráž": 1557,
      "nut": 1558,
      "barbora": 1559,
      "##imi": 1560,
      "##fa": 1561,
      "mate": 1562,
      "##ůž": 1563,
      "##ink": 1564,
      "šp": 1565,
      "nvyb": 1566,
      "dana": 1567,
      "##ii": 1568,
      "český": 1569,
      "##tem": 1570,
      "##ěž": 1571,
      "hon": 1572,
      "jirka": 1573,
      "##yr": 1574,
      "ct": 1575,
      "solution": 1576,
      "nkarel": 1577,
      "nzk": 1578,
      "npot": 1579,
      "##rig": 1580,
      "nom": 1581,
      "euro": 1582,
      "##níková": 1583,
      "histor": 1584,
      "nmarkéta": 1585,
      "##lab": 1586,
      "##ečková": 1587,
      "##ánková": 1588,
      "##ája": 1589,
      "##vají": 1590,
      "fond": 1591,
      "##ан": 1592,
      "##íč": 1593,
      "des": 1594,
      "##ive": 1595,
      "##vit": 1596,
      "tomas": 1597,
      "ener": 1598,
      "##th": 1599,
      "##lech": 1600,
      "ndop": 1601,
      "##ína": 1602,
      "zdeněk": 1603,
      "16": 1604,
      "##nými": 1605,
      "nboh": 1606,
      "nhon": 1607,
      "##ešová": 1608,
      "##ném": 1609,
      "prod": 1610,
      "morav": 1611,
      "##ect": 1612,
      "horní": 1613,
      "##lap": 1614,
      "##rán": 1615,
      "##nému": 1616,
      "17": 1617,
      "psych": 1618,
      "##ysl": 1619,
      "##ence": 1620,
      "nbr": 1621,
      "##manová": 1622,
      "van": 1623,
      "##ark": 1624,
      "##akova": 1625,
      "##raj": 1626,
      "##ouc": 1627,
      "net": 1628,
      "##stvi": 1629,
      "mot": 1630,
      "##raf": 1631,
      "##ální": 1632,
      "csc": 1633,
      "kost": 1634,
      "ir": 1635,
      "##ému": 1636,
      "koz": 1637,
      "##mo": 1638,
      "renata": 1639,
      "##řík": 1640,
      "nbytové": 1641,
      "dsc": 1642,
      "##ea": 1643,
      "nmag": 1644,
      "dp": 1645,
      "##dal": 1646,
      "##vič": 1647,
      "okres": 1648,
      "nver": 1649,
      "farma": 1650,
      "ab": 1651,
      "##isk": 1652,
      "uni": 1653,
      "nvyh": 1654,
      "štěpán": 1655,
      "ko": 1656,
      "společen": 1657,
      "##íša": 1658,
      "alex": 1659,
      "##ým": 1660,
      "##ras": 1661,
      "##ců": 1662,
      "##řina": 1663,
      "vol": 1664,
      "jind": 1665,
      "lékař": 1666,
      "čr": 1667,
      "jr": 1668,
      "##andra": 1669,
      "nnev": 1670,
      "ot": 1671,
      "syst": 1672,
      "drsc": 1673,
      "iveta": 1674,
      "##lož": 1675,
      "nikola": 1676,
      "nzam": 1677,
      "nag": 1678,
      "sta": 1679,
      "mba": 1680,
      "nprof": 1681,
      "ampl": 1682,
      "international": 1683,
      "her": 1684,
      "amplmus": 1685,
      "eccl": 1686,
      "##kář": 1687,
      "nnejz": 1688,
      "##ánek": 1689,
      "##tí": 1690,
      "chem": 1691,
      "##ven": 1692,
      "##uba": 1693,
      "vdp": 1694,
      "nrob": 1695,
      "vldp": 1696,
      "##ica": 1697,
      "exc": 1698,
      "##rus": 1699,
      "nfilip": 1700,
      "##čanské": 1701,
      "##ver": 1702,
      "nph": 1703,
      "společenstvo": 1704,
      "kristýna": 1705,
      "##rch": 1706,
      "##ické": 1707,
      "##yš": 1708,
      "helena": 1709,
      "##ug": 1710,
      "investment": 1711,
      "nlad": 1712,
      "##iny": 1713,
      "##ovatel": 1714,
      "nnap": 1715,
      "##těch": 1716,
      "##žen": 1717,
      "##ory": 1718,
      "##arm": 1719,
      "con": 1720,
      "##ůr": 1721,
      "##ování": 1722,
      "mateřská": 1723,
      "nadam": 1724,
      "##ih": 1725,
      "##terina": 1726,
      "##niku": 1727,
      "šárka": 1728,
      "##ecenstvi": 1729,
      "##ním": 1730,
      "npos": 1731,
      "##voj": 1732,
      "##ěš": 1733,
      "ner": 1734,
      "##cz": 1735,
      "mas": 1736,
      "##mí": 1737,
      "rodičů": 1738,
      "##vala": 1739,
      "sl": 1740,
      "radka": 1741,
      "plzeň": 1742,
      "##ouch": 1743,
      "maj": 1744,
      "##děl": 1745,
      "vod": 1746,
      "##leh": 1747,
      "ev": 1748,
      "##telnějšímu": 1749,
      "práv": 1750,
      "##čík": 1751,
      "##arova": 1752,
      "ndok": 1753,
      "šk": 1754,
      "pot": 1755,
      "tru": 1756,
      "nir": 1757,
      "##old": 1758,
      "##nolog": 1759,
      "dolní": 1760,
      "##raž": 1761,
      "nzav": 1762,
      "##ow": 1763,
      "nmarcela": 1764,
      "part": 1765,
      "nstan": 1766,
      "##irek": 1767,
      "mag": 1768,
      "##enz": 1769,
      "ivan": 1770,
      "ryb": 1771,
      "labem": 1772,
      "##rova": 1773,
      "##eček": 1774,
      "npří": 1775,
      "kl": 1776,
      "ekon": 1777,
      "nště": 1778,
      "nsdružení": 1779,
      "##ýn": 1780,
      "stra": 1781,
      "proj": 1782,
      "npoh": 1783,
      "##ely": 1784,
      "19": 1785,
      "com": 1786,
      "##dag": 1787,
      "##ván": 1788,
      "pok": 1789,
      "##lář": 1790,
      "ed": 1791,
      "##yslivecký": 1792,
      "##ael": 1793,
      "##íp": 1794,
      "##stí": 1795,
      "ros": 1796,
      "fyz": 1797,
      "nvel": 1798,
      "##rac": 1799,
      "npl": 1800,
      "##jezd": 1801,
      "##rna": 1802,
      "nzat": 1803,
      "gabriela": 1804,
      "třeb": 1805,
      "ekonom": 1806,
      "nek": 1807,
      "vlastniku": 1808,
      "npavla": 1809,
      "rozp": 1810,
      "18": 1811,
      "les": 1812,
      "##telnějšími": 1813,
      "##ovo": 1814,
      "##ouš": 1815,
      "##stru": 1816,
      "nšp": 1817,
      "nondřej": 1818,
      "##yc": 1819,
      "bro": 1820,
      "##ových": 1821,
      "nbarbora": 1822,
      "##osof": 1823,
      "per": 1824,
      "##ceut": 1825,
      "matěj": 1826,
      "##ord": 1827,
      "##vad": 1828,
      "nlub": 1829,
      "cho": 1830,
      "nav": 1831,
      "nzh": 1832,
      "ndana": 1833,
      "ju": 1834,
      "##vin": 1835,
      "##aný": 1836,
      "patrik": 1837,
      "##rech": 1838,
      "im": 1839,
      "klára": 1840,
      "##vr": 1841,
      "##eňka": 1842,
      "obchod": 1843,
      "##mann": 1844,
      "21": 1845,
      "##sob": 1846,
      "##kt": 1847,
      "co": 1848,
      "lit": 1849,
      "##iška": 1850,
      "iva": 1851,
      "pal": 1852,
      "trading": 1853,
      "##ore": 1854,
      "ndob": 1855,
      "zem": 1856,
      "##ell": 1857,
      "kraj": 1858,
      "##sch": 1859,
      "##ah": 1860,
      "vac": 1861,
      "##áž": 1862,
      "##líž": 1863,
      "česká": 1864,
      "njirka": 1865,
      "jednota": 1866,
      "simona": 1867,
      "##zp": 1868,
      "##oň": 1869,
      "npor": 1870,
      "reality": 1871,
      "development": 1872,
      "npom": 1873,
      "##řím": 1874,
      "##ger": 1875,
      "##ff": 1876,
      "##líd": 1877,
      "##ěd": 1878,
      "nhor": 1879,
      "nzv": 1880,
      "##are": 1881,
      "zm": 1882,
      "##ovic": 1883,
      "##cím": 1884,
      "nep": 1885,
      "##líč": 1886,
      "##tes": 1887,
      "##ht": 1888,
      "##ure": 1889,
      "ac": 1890,
      "ho": 1891,
      "##dační": 1892,
      "pedag": 1893,
      "rich": 1894,
      "##one": 1895,
      "architekt": 1896,
      "nkol": 1897,
      "##und": 1898,
      "nvla": 1899,
      "##ních": 1900,
      "fa": 1901,
      "nci": 1902,
      "farmaceut": 1903,
      "##epa": 1904,
      "služ": 1905,
      "##kad": 1906,
      "nejp": 1907,
      "niveta": 1908,
      "obec": 1909,
      "##íř": 1910,
      "##ičková": 1911,
      "technolog": 1912,
      "##nit": 1913,
      "##oslav": 1914,
      "nvyt": 1915,
      "##ráb": 1916,
      "nšt": 1917,
      "střed": 1918,
      "ondra": 1919,
      "kos": 1920,
      "nnas": 1921,
      "nrenata": 1922,
      "nzdeněk": 1923,
      "cap": 1924,
      "##rah": 1925,
      "kry": 1926,
      "##se": 1927,
      "sil": 1928,
      "##ag": 1929,
      "il": 1930,
      "oh": 1931,
      "##jed": 1932,
      "matemat": 1933,
      "filosof": 1934,
      "system": 1935,
      "##šín": 1936,
      "nkristýna": 1937,
      "##lam": 1938,
      "##ulka": 1939,
      "věra": 1940,
      "##šov": 1941,
      "nnak": 1942,
      "nim": 1943,
      "svob": 1944,
      "log": 1945,
      "##ke": 1946,
      "ntomas": 1947,
      "dagmar": 1948,
      "##lek": 1949,
      "anton": 1950,
      "exp": 1951,
      "nnikola": 1952,
      "##jr": 1953,
      "nbez": 1954,
      "nradka": 1955,
      "##inova": 1956,
      "eliška": 1957,
      "ladislav": 1958,
      "solutions": 1959,
      "##tec": 1960,
      "nnez": 1961,
      "##ociace": 1962,
      "kun": 1963,
      "npe": 1964,
      "dub": 1965,
      "nhelena": 1966,
      "##telnějších": 1967,
      "nobec": 1968,
      "npan": 1969,
      "##endula": 1970,
      "npoz": 1971,
      "jiri": 1972,
      "such": 1973,
      "##han": 1974,
      "ham": 1975,
      "ndol": 1976,
      "##ino": 1977,
      "lhota": 1978,
      "##vol": 1979,
      "##mer": 1980,
      "team": 1981,
      "ndan": 1982,
      "nzn": 1983,
      "nšárka": 1984,
      "##áta": 1985,
      "gal": 1986,
      "##avou": 1987,
      "npřek": 1988,
      "##říková": 1989,
      "pavlína": 1990,
      "olom": 1991,
      "##vali": 1992,
      "##nička": 1993,
      "##ají": 1994,
      "svat": 1995,
      "##ěr": 1996,
      "##ouč": 1997,
      "pla": 1998,
      "##tví": 1999,
      "dominik": 2000,
      "nms": 2001,
      "##ovaná": 2002,
      "met": 2003,
      "##íh": 2004,
      "##aliz": 2005,
      "fr": 2006,
      "##fe": 2007,
      "ntr": 2008,
      "##ski": 2009,
      "##gue": 2010,
      "ning": 2011,
      "nuk": 2012,
      "zahrád": 2013,
      "##lej": 2014,
      "##oňa": 2015,
      "##mel": 2016,
      "nsport": 2017,
      "nmon": 2018,
      "denisa": 2019,
      "kad": 2020,
      "kli": 2021,
      "##inika": 2022,
      "slav": 2023,
      "##telnějším": 2024,
      "##zi": 2025,
      "##mil": 2026,
      "##enko": 2027,
      "lukas": 2028,
      "nalex": 2029,
      "##ach": 2030,
      "ndi": 2031,
      "##ektro": 2032,
      "hom": 2033,
      "##ená": 2034,
      "nval": 2035,
      "##islava": 2036,
      "##ilova": 2037,
      "nes": 2038,
      "hal": 2039,
      "záv": 2040,
      "##var": 2041,
      "nnav": 2042,
      "##luč": 2043,
      "nvyz": 2044,
      "organiza": 2045,
      "22": 2046,
      "vladimír": 2047,
      "##ite": 2048,
      "mod": 2049,
      "##str": 2050,
      "nváclav": 2051,
      "##nosti": 2052,
      "##álie": 2053,
      "25": 2054,
      "##hy": 2055,
      "##rát": 2056,
      "jir": 2057,
      "kru": 2058,
      "##ičová": 2059,
      "ska": 2060,
      "##stit": 2061,
      "##ér": 2062,
      "nnejv": 2063,
      "##nulo": 2064,
      "rud": 2065,
      "##ovit": 2066,
      "nap": 2067,
      "ngabriela": 2068,
      "hod": 2069,
      "zap": 2070,
      "##rou": 2071,
      "de": 2072,
      "##ovna": 2073,
      "král": 2074,
      "##íj": 2075,
      "##bu": 2076,
      "nprop": 2077,
      "##kr": 2078,
      "##ix": 2079,
      "irena": 2080,
      "aleš": 2081,
      "##lač": 2082,
      "nmal": 2083,
      "nzt": 2084,
      "gre": 2085,
      "##elka": 2086,
      "nnejne": 2087,
      "##oká": 2088,
      "lin": 2089,
      "##ss": 2090,
      "nodb": 2091,
      "hel": 2092,
      "pan": 2093,
      "##rim": 2094,
      "##ort": 2095,
      "##vie": 2096,
      "kap": 2097,
      "stavební": 2098,
      "vin": 2099,
      "##ěn": 2100,
      "##erg": 2101,
      "npře": 2102,
      "mana": 2103,
      "##met": 2104,
      "krej": 2105,
      "nde": 2106,
      "##něn": 2107,
      "aneta": 2108,
      "##ívá": 2109,
      "ví": 2110,
      "ak": 2111,
      "ně": 2112,
      "##ule": 2113,
      "##ral": 2114,
      "##bo": 2115,
      "##emia": 2116,
      "františek": 2117,
      "robert": 2118,
      "##říž": 2119,
      "produc": 2120,
      "zh": 2121,
      "##iště": 2122,
      "nšk": 2123,
      "##imir": 2124,
      "##řen": 2125,
      "##nictví": 2126,
      "umělec": 2127,
      "my": 2128,
      "##tice": 2129,
      "npov": 2130,
      "##iková": 2131,
      "nzal": 2132,
      "ndoc": 2133,
      "ná": 2134,
      "##eným": 2135,
      "##álková": 2136,
      "viktor": 2137,
      "man": 2138,
      "ven": 2139,
      "##kl": 2140,
      "##ostí": 2141,
      "romana": 2142,
      "##há": 2143,
      "##unka": 2144,
      "##orová": 2145,
      "zel": 2146,
      "##vej": 2147,
      "##řes": 2148,
      "##sova": 2149,
      "neliška": 2150,
      "##enějšího": 2151,
      "lí": 2152,
      "jaroslava": 2153,
      "##nická": 2154,
      "##nuly": 2155,
      "nnes": 2156,
      "##ráš": 2157,
      "nikol": 2158,
      "mak": 2159,
      "ap": 2160,
      "daniela": 2161,
      "##sh": 2162,
      "##cha": 2163,
      "hej": 2164,
      "nklára": 2165,
      "libor": 2166,
      "##dělá": 2167,
      "českého": 2168,
      "##ld": 2169,
      "##ardub": 2170,
      "mel": 2171,
      "##kar": 2172,
      "cer": 2173,
      "##kách": 2174,
      "he": 2175,
      "zv": 2176,
      "bur": 2177,
      "npřep": 2178,
      "nmot": 2179,
      "##raš": 2180,
      "##ery": 2181,
      "ostrava": 2182,
      "poz": 2183,
      "##ies": 2184,
      "proper": 2185,
      "nklub": 2186,
      "liber": 2187,
      "nen": 2188,
      "nsch": 2189,
      "nvyst": 2190,
      "##imil": 2191,
      "niva": 2192,
      "ga": 2193,
      "ncz": 2194,
      "partner": 2195,
      "##ckova": 2196,
      "##nat": 2197,
      "24": 2198,
      "##ов": 2199,
      "nkom": 2200,
      "nčeský": 2201,
      "nsimona": 2202,
      "##mr": 2203,
      "##či": 2204,
      "##zy": 2205,
      "##omír": 2206,
      "olomouc": 2207,
      "##řep": 2208,
      "uh": 2209,
      "vit": 2210,
      "##tis": 2211,
      "nvyd": 2212,
      "##ového": 2213,
      "##abina": 2214,
      "nnejs": 2215,
      "sob": 2216,
      "radim": 2217,
      "nlib": 2218,
      "npob": 2219,
      "poh": 2220,
      "up": 2221,
      "nejz": 2222,
      "##věd": 2223,
      "npros": 2224,
      "##kovi": 2225,
      "npatrik": 2226,
      "##usová": 2227,
      "##rud": 2228,
      "vas": 2229,
      "bab": 2230,
      "##ota": 2231,
      "##maz": 2232,
      "media": 2233,
      "blanka": 2234,
      "dop": 2235,
      "karolína": 2236,
      "zk": 2237,
      "##anov": 2238,
      "katka": 2239,
      "nil": 2240,
      "##nes": 2241,
      "##hal": 2242,
      "be": 2243,
      "nstav": 2244,
      "##řev": 2245,
      "##00": 2246,
      "europe": 2247,
      "##nova": 2248,
      "sam": 2249,
      "##řeh": 2250,
      "##teli": 2251,
      "##ouz": 2252,
      "sportovní": 2253,
      "nmik": 2254,
      "##ervis": 2255,
      "nladislav": 2256,
      "##tova": 2257,
      "##uer": 2258,
      "stavby": 2259,
      "##řiv": 2260,
      "njiri": 2261,
      "vyb": 2262,
      "ndenisa": 2263,
      "zahrádkář": 2264,
      "##cen": 2265,
      "##enějším": 2266,
      "zo": 2267,
      "nnal": 2268,
      "nčer": 2269,
      "sem": 2270,
      "nvěra": 2271,
      "nkr": 2272,
      "##ide": 2273,
      "měst": 2274,
      "ndes": 2275,
      "adéla": 2276,
      "nlud": 2277,
      "##še": 2278,
      "##něž": 2279,
      "##elo": 2280,
      "stanislav": 2281,
      "##lada": 2282,
      "lip": 2283,
      "26": 2284,
      "zá": 2285,
      "##eva": 2286,
      "nam": 2287,
      "##ouse": 2288,
      "hradec": 2289,
      "##lím": 2290,
      "pel": 2291,
      "##řice": 2292,
      "##laz": 2293,
      "zdenek": 2294,
      "hora": 2295,
      "##ety": 2296,
      "míst": 2297,
      "##ženýr": 2298,
      "nhan": 2299,
      "studio": 2300,
      "##nostem": 2301,
      "nnab": 2302,
      "olga": 2303,
      "##gement": 2304,
      "hub": 2305,
      "##ián": 2306,
      "neuro": 2307,
      "hlav": 2308,
      "##ici": 2309,
      "esta": 2310,
      "##hová": 2311,
      "##run": 2312,
      "##usin": 2313,
      "prague": 2314,
      "##lem": 2315,
      "bo": 2316,
      "nta": 2317,
      "pardub": 2318,
      "vav": 2319,
      "tur": 2320,
      "odp": 2321,
      "##enějšímu": 2322,
      "work": 2323,
      "hu": 2324,
      "##ís": 2325,
      "##ovec": 2326,
      "nfr": 2327,
      "noz": 2328,
      "šte": 2329,
      "eng": 2330,
      "##šp": 2331,
      "23": 2332,
      "##říd": 2333,
      "##zace": 2334,
      "reg": 2335,
      "lyk": 2336,
      "##mez": 2337,
      "ústí": 2338,
      "max": 2339,
      "##tiv": 2340,
      "##enská": 2341,
      "om": 2342,
      "##на": 2343,
      "##wa": 2344,
      "min": 2345,
      "##ými": 2346,
      "promovaná": 2347,
      "##br": 2348,
      "##íz": 2349,
      "##enějších": 2350,
      "nhonební": 2351,
      "##liz": 2352,
      "##ony": 2353,
      "##uzka": 2354,
      "##ved": 2355,
      "##ency": 2356,
      "##lina": 2357,
      "promovaný": 2358,
      "vi": 2359,
      "##loup": 2360,
      "nmed": 2361,
      "kamila": 2362,
      "##nuli": 2363,
      "nfrantišek": 2364,
      "##cial": 2365,
      "npavlína": 2366,
      "jur": 2367,
      "##slav": 2368,
      "auto": 2369,
      "##katol": 2370,
      "##teč": 2371,
      "nproh": 2372,
      "nodk": 2373,
      "##ajd": 2374,
      "ndominik": 2375,
      "##aneta": 2376,
      "##skoč": 2377,
      "zahrádkářského": 2378,
      "##vyda": 2379,
      "##rač": 2380,
      "nned": 2381,
      "zav": 2382,
      "##lovice": 2383,
      "##plk": 2384,
      "nic": 2385,
      "vil": 2386,
      "##řeš": 2387,
      "nper": 2388,
      "management": 2389,
      "hanka": 2390,
      "##via": 2391,
      "##hoř": 2392,
      "mac": 2393,
      "##enějšími": 2394,
      "design": 2395,
      "kla": 2396,
      "##ors": 2397,
      "nmudr": 2398,
      "##rid": 2399,
      "##oft": 2400,
      "##stup": 2401,
      "##cház": 2402,
      "závod": 2403,
      "urb": 2404,
      "psycholog": 2405,
      "njind": 2406,
      "##čin": 2407,
      "ndagmar": 2408,
      "nirena": 2409,
      "sal": 2410,
      "##icka": 2411,
      "##ack": 2412,
      "##ýb": 2413,
      "##ějovice": 2414,
      "nondra": 2415,
      "##los": 2416,
      "##valy": 2417,
      "nez": 2418,
      "tu": 2419,
      "vesel": 2420,
      "nprov": 2421,
      "npřip": 2422,
      "##lobal": 2423,
      "##fik": 2424,
      "nspolecenstvi": 2425,
      "##tu": 2426,
      "##nostmi": 2427,
      "28": 2428,
      "##iž": 2429,
      "##ens": 2430,
      "nanton": 2431,
      "nrobert": 2432,
      "nvladimír": 2433,
      "kob": 2434,
      "nova": 2435,
      "čech": 2436,
      "##cov": 2437,
      "##čer": 2438,
      "##orm": 2439,
      "kuba": 2440,
      "pri": 2441,
      "vyh": 2442,
      "##skokatol": 2443,
      "bed": 2444,
      "nrozk": 2445,
      "nis": 2446,
      "##ash": 2447,
      "farnost": 2448,
      "capital": 2449,
      "##nil": 2450,
      "obchodní": 2451,
      "qu": 2452,
      "naleš": 2453,
      "finance": 2454,
      "vít": 2455,
      "nnam": 2456,
      "##lex": 2457,
      "nmod": 2458,
      "tá": 2459,
      "nštěpán": 2460,
      "kou": 2461,
      "šum": 2462,
      "##ster": 2463,
      "##ností": 2464,
      "##íčková": 2465,
      "##ics": 2466,
      "##cn": 2467,
      "nná": 2468,
      "##ung": 2469,
      "kur": 2470,
      "##chova": 2471,
      "##líb": 2472,
      "joh": 2473,
      "##ruz": 2474,
      "##amp": 2475,
      "zdrav": 2476,
      "nva": 2477,
      "market": 2478,
      "ndaniela": 2479,
      "energy": 2480,
      "##íž": 2481,
      "nsil": 2482,
      "zdenka": 2483,
      "##gi": 2484,
      "ass": 2485,
      "ii": 2486,
      "npoch": 2487,
      "##rám": 2488,
      "##štěp": 2489,
      "num": 2490,
      "top": 2491,
      "##ori": 2492,
      "##léd": 2493,
      "sociolog": 2494,
      "klad": 2495,
      "res": 2496,
      "slož": 2497,
      "králové": 2498,
      "##ever": 2499,
      "pedagog": 2500,
      "mez": 2501,
      "##net": 2502,
      "##íček": 2503,
      "historik": 2504,
      "nvym": 2505,
      "naneta": 2506,
      "nmyslivecký": 2507,
      "jih": 2508,
      "pom": 2509,
      "##čín": 2510,
      "bol": 2511,
      "břez": 2512,
      "##vod": 2513,
      "##lum": 2514,
      "##zer": 2515,
      "agency": 2516,
      "geolog": 2517,
      "nrozt": 2518,
      "##romír": 2519,
      "nnejnep": 2520,
      "##ey": 2521,
      "jab": 2522,
      "zt": 2523,
      "nsam": 2524,
      "##ishop": 2525,
      "##esta": 2526,
      "nivan": 2527,
      "zas": 2528,
      "ndos": 2529,
      "fyzik": 2530,
      "lou": 2531,
      "##si": 2532,
      "hus": 2533,
      "koc": 2534,
      "duš": 2535,
      "##lana": 2536,
      "##andr": 2537,
      "vojta": 2538,
      "npřeh": 2539,
      "dě": 2540,
      "##ari": 2541,
      "njaroslava": 2542,
      "bě": 2543,
      "##anc": 2544,
      "##teri": 2545,
      "##astro": 2546,
      "ulice": 2547,
      "vyš": 2548,
      "27": 2549,
      "##čet": 2550,
      "##něk": 2551,
      "##álek": 2552,
      "##vejte": 2553,
      "och": 2554,
      "##yka": 2555,
      "##gen": 2556,
      "nzo": 2557,
      "##kého": 2558,
      "##tyn": 2559,
      "art": 2560,
      "##níky": 2561,
      "##ong": 2562,
      "nlibor": 2563,
      "bohemia": 2564,
      "biolog": 2565,
      "míša": 2566,
      "vr": 2567,
      "##átor": 2568,
      "##fin": 2569,
      "kut": 2570,
      "mirka": 2571,
      "nkatka": 2572,
      "nnikol": 2573,
      "dvoř": 2574,
      "##arma": 2575,
      "##rek": 2576,
      "nromana": 2577,
      "##lup": 2578,
      "##zna": 2579,
      "##noj": 2580,
      "##red": 2581,
      "nkarolína": 2582,
      "svobod": 2583,
      "##leb": 2584,
      "##ulová": 2585,
      "občanské": 2586,
      "nnejb": 2587,
      "nub": 2588,
      "##vrd": 2589,
      "##min": 2590,
      "##řet": 2591,
      "nzad": 2592,
      "matematik": 2593,
      "dět": 2594,
      "elektro": 2595,
      "36": 2596,
      "zš": 2597,
      "##hor": 2598,
      "školy": 2599,
      "##nula": 2600,
      "složka": 2601,
      "ml": 2602,
      "non": 2603,
      "tep": 2604,
      "pé": 2605,
      "##řů": 2606,
      "##po": 2607,
      "##ša": 2608,
      "nsa": 2609,
      "##vány": 2610,
      "újezd": 2611,
      "##ďka": 2612,
      "##láš": 2613,
      "láz": 2614,
      "##rž": 2615,
      "##ps": 2616,
      "nblanka": 2617,
      "jarda": 2618,
      "##mot": 2619,
      "##lit": 2620,
      "novot": 2621,
      "rych": 2622,
      "##roč": 2623,
      "##rolina": 2624,
      "si": 2625,
      "##řik": 2626,
      "jarmila": 2627,
      "nlukas": 2628,
      "##ostmi": 2629,
      "##wer": 2630,
      "kas": 2631,
      "us": 2632,
      "##enda": 2633,
      "nolga": 2634,
      "chemik": 2635,
      "nstanislav": 2636,
      "liberec": 2637,
      "pob": 2638,
      "##én": 2639,
      "##lavice": 2640,
      "nadéla": 2641,
      "něm": 2642,
      "##skokatolická": 2643,
      "mer": 2644,
      "##pě": 2645,
      "##hot": 2646,
      "##ánová": 2647,
      "##ati": 2648,
      "##lič": 2649,
      "vojtěch": 2650,
      "bob": 2651,
      "npost": 2652,
      "ind": 2653,
      "nzá": 2654,
      "nsta": 2655,
      "hud": 2656,
      "vč": 2657,
      "##uda": 2658,
      "nhanka": 2659,
      "bel": 2660,
      "terez": 2661,
      "koš": 2662,
      "##cvič": 2663,
      "29": 2664,
      "##ání": 2665,
      "##vejme": 2666,
      "růž": 2667,
      "##ynek": 2668,
      "##lár": 2669,
      "npřes": 2670,
      "##usiness": 2671,
      "sou": 2672,
      "karlov": 2673,
      "##uri": 2674,
      "##ňková": 2675,
      "##ill": 2676,
      "nejv": 2677,
      "##išť": 2678,
      "brod": 2679,
      "právník": 2680,
      "pardubice": 2681,
      "##nek": 2682,
      "##roub": 2683,
      "##fer": 2684,
      "nradim": 2685,
      "##hav": 2686,
      "##arka": 2687,
      "noč": 2688,
      "##luš": 2689,
      "mus": 2690,
      "nost": 2691,
      "nvlast": 2692,
      "nnejroz": 2693,
      "##lát": 2694,
      "##ima": 2695,
      "nmark": 2696,
      "slez": 2697,
      "##ůsob": 2698,
      "##orav": 2699,
      "organizační": 2700,
      "##bě": 2701,
      "##etka": 2702,
      "nuh": 2703,
      "koč": 2704,
      "##áša": 2705,
      "##ením": 2706,
      "##form": 2707,
      "hoř": 2708,
      "mlad": 2709,
      "##je": 2710,
      "ilona": 2711,
      "##tex": 2712,
      "##valo": 2713,
      "estate": 2714,
      "nhol": 2715,
      "por": 2716,
      "nrozm": 2717,
      "nrev": 2718,
      "##štof": 2719,
      "##rych": 2720,
      "##rak": 2721,
      "##váš": 2722,
      "##ávána": 2723,
      "richard": 2724,
      "pap": 2725,
      "marta": 2726,
      "nnejd": 2727,
      "noch": 2728,
      "##kám": 2729,
      "pí": 2730,
      "##lod": 2731,
      "##ůl": 2732,
      "noš": 2733,
      "##řek": 2734,
      "##vána": 2735,
      "republic": 2736,
      "svět": 2737,
      "##pal": 2738,
      "žel": 2739,
      "sz": 2740,
      "##ňák": 2741,
      "logist": 2742,
      "město": 2743,
      "##lom": 2744,
      "##zova": 2745,
      "##kalová": 2746,
      "nviktor": 2747,
      "ca": 2748,
      "sek": 2749,
      "##pr": 2750,
      "##nostech": 2751,
      "zdeňka": 2752,
      "##rtm": 2753,
      "peter": 2754,
      "##isa": 2755,
      "##něny": 2756,
      "nfa": 2757,
      "##vor": 2758,
      "##enc": 2759,
      "systems": 2760,
      "nvyv": 2761,
      "##ade": 2762,
      "ngu": 2763,
      "nzdenek": 2764,
      "##nici": 2765,
      "##říš": 2766,
      "##di": 2767,
      "npřem": 2768,
      "##ělo": 2769,
      "##he": 2770,
      "##ního": 2771,
      "property": 2772,
      "##ávám": 2773,
      "on": 2774,
      "npřel": 2775,
      "##ét": 2776,
      "##orld": 2777,
      "##ezid": 2778,
      "##nám": 2779,
      "production": 2780,
      "koh": 2781,
      "##nar": 2782,
      "##gor": 2783,
      "##čen": 2784,
      "##lor": 2785,
      "##son": 2786,
      "##urová": 2787,
      "michael": 2788,
      "pi": 2789,
      "##pro": 2790,
      "nodst": 2791,
      "##elova": 2792,
      "vš": 2793,
      "vs": 2794,
      "soch": 2795,
      "nbla": 2796,
      "##ki": 2797,
      "kamil": 2798,
      "služby": 2799,
      "ncard": 2800,
      "nový": 2801,
      "zam": 2802,
      "##fan": 2803,
      "##čt": 2804,
      "##icích": 2805,
      "##ress": 2806,
      "živ": 2807,
      "npřet": 2808,
      "##líz": 2809,
      "##řov": 2810,
      "nmateřská": 2811,
      "fed": 2812,
      "we": 2813,
      "jiřina": 2814,
      "##áčová": 2815,
      "hab": 2816,
      "engine": 2817,
      "byst": 2818,
      "mirek": 2819,
      "nkor": 2820,
      "lucka": 2821,
      "##ošová": 2822,
      "fer": 2823,
      "nrich": 2824,
      "ninženýr": 2825,
      "ludmila": 2826,
      "par": 2827,
      "vlasta": 2828,
      "do": 2829,
      "fi": 2830,
      "domě": 2831,
      "medic": 2832,
      "nkamila": 2833,
      "nmatěj": 2834,
      "me": 2835,
      "##ovatelů": 2836,
      "har": 2837,
      "##olová": 2838,
      "##leš": 2839,
      "spe": 2840,
      "##una": 2841,
      "##něna": 2842,
      "vyk": 2843,
      "##mannová": 2844,
      "kance": 2845,
      "##lar": 2846,
      "host": 2847,
      "##ole": 2848,
      "##dat": 2849,
      "npřev": 2850,
      "asociace": 2851,
      "##nal": 2852,
      "nsportovní": 2853,
      "30": 2854,
      "transport": 2855,
      "dem": 2856,
      "sla": 2857,
      "##rouš": 2858,
      "##ostem": 2859,
      "##árová": 2860,
      "##ářová": 2861,
      "##inec": 2862,
      "nejne": 2863,
      "ková": 2864,
      "##ric": 2865,
      "##anička": 2866,
      "instit": 2867,
      "pech": 2868,
      "##fi": 2869,
      "##chy": 2870,
      "nmin": 2871,
      "##iss": 2872,
      "maty": 2873,
      "jindřich": 2874,
      "32": 2875,
      "hof": 2876,
      "haj": 2877,
      "##níš": 2878,
      "##vitel": 2879,
      "nvp": 2880,
      "nuz": 2881,
      "##él": 2882,
      "adv": 2883,
      "nové": 2884,
      "nkuba": 2885,
      "##byněk": 2886,
      "park": 2887,
      "##hr": 2888,
      "dar": 2889,
      "kul": 2890,
      "odštěp": 2891,
      "rozt": 2892,
      "##áváme": 2893,
      "jel": 2894,
      "nmaj": 2895,
      "##mec": 2896,
      "##tip": 2897,
      "##istr": 2898,
      "global": 2899,
      "##terová": 2900,
      "sy": 2901,
      "corpora": 2902,
      "ser": 2903,
      "##ald": 2904,
      "nur": 2905,
      "to": 2906,
      "##uka": 2907,
      "kancelář": 2908,
      "##álová": 2909,
      "hrab": 2910,
      "##lb": 2911,
      "nud": 2912,
      "##ele": 2913,
      "##niv": 2914,
      "nha": 2915,
      "katerina": 2916,
      "##loud": 2917,
      "nám": 2918,
      "var": 2919,
      "##ěna": 2920,
      "nzdenka": 2921,
      "##kom": 2922,
      "nejd": 2923,
      "##láv": 2924,
      "gab": 2925,
      "omez": 2926,
      "##sku": 2927,
      "juli": 2928,
      "##čáková": 2929,
      "nvyš": 2930,
      "##lít": 2931,
      "##ovič": 2932,
      "##ick": 2933,
      "vyz": 2934,
      "uk": 2935,
      "##isko": 2936,
      "luboš": 2937,
      "##tisek": 2938,
      "dig": 2939,
      "zahrad": 2940,
      "kri": 2941,
      "len": 2942,
      "##čák": 2943,
      "nadační": 2944,
      "nods": 2945,
      "vyt": 2946,
      "##ečka": 2947,
      "##ských": 2948,
      "vej": 2949,
      "##mit": 2950,
      "##ар": 2951,
      "##ske": 2952,
      "zat": 2953,
      "##nutel": 2954,
      "rok": 2955,
      "##mp": 2956,
      "##ovska": 2957,
      "##rach": 2958,
      "nprob": 2959,
      "nobčanské": 2960,
      "nmy": 2961,
      "##kán": 2962,
      "prost": 2963,
      "vrb": 2964,
      "zak": 2965,
      "šv": 2966,
      "##kové": 2967,
      "##ával": 2968,
      "##nerova": 2969,
      "slu": 2970,
      "##váno": 2971,
      "nnah": 2972,
      "bou": 2973,
      "nx": 2974,
      "##erie": 2975,
      "nmirka": 2976,
      "nsou": 2977,
      "plan": 2978,
      "šeb": 2979,
      "##okoj": 2980,
      "mor": 2981,
      "most": 2982,
      "##vo": 2983,
      "##lici": 2984,
      "bub": 2985,
      "##ал": 2986,
      "##entura": 2987,
      "##aty": 2988,
      "##use": 2989,
      "##car": 2990,
      "##endy": 2991,
      "##něni": 2992,
      "vond": 2993,
      "##zek": 2994,
      "##ovol": 2995,
      "##emy": 2996,
      "##říte": 2997,
      "##něno": 2998,
      "jed": 2999,
      "##áťa": 3000,
      "##řim": 3001,
      "##uerová": 3002,
      "##kyně": 3003,
      "org": 3004,
      "přel": 3005,
      "tábor": 3006,
      "##esova": 3007,
      "##istri": 3008,
      "odštěpný": 3009,
      "maz": 3010,
      "##kovská": 3011,
      "##táh": 3012,
      "partners": 3013,
      "hrd": 3014,
      "ky": 3015,
      "##cem": 3016,
      "##oslava": 3017,
      "gastro": 3018,
      "##ts": 3019,
      "##ínová": 3020,
      "##kový": 3021,
      "ruč": 3022,
      "vendula": 3023,
      "##ump": 3024,
      "nbp": 3025,
      "souk": 3026,
      "##šice": 3027,
      "##gová": 3028,
      "##nicí": 3029,
      "business": 3030,
      "##nis": 3031,
      "##ešov": 3032,
      "##číme": 3033,
      "dok": 3034,
      "##ťme": 3035,
      "##ráva": 3036,
      "##loub": 3037,
      "##áváš": 3038,
      "kult": 3039,
      "nvol": 3040,
      "chal": 3041,
      "bož": 3042,
      "nví": 3043,
      "##ury": 3044,
      "##řitel": 3045,
      "31": 3046,
      "poch": 3047,
      "##we": 3048,
      "##uty": 3049,
      "led": 3050,
      "##ejí": 3051,
      "zal": 3052,
      "republik": 3053,
      "npoš": 3054,
      "##elková": 3055,
      "nkamil": 3056,
      "##ávala": 3057,
      "nčet": 3058,
      "fot": 3059,
      "##lák": 3060,
      "##ávány": 3061,
      "old": 3062,
      "##ař": 3063,
      "##že": 3064,
      "##sy": 3065,
      "technology": 3066,
      "ton": 3067,
      "tich": 3068,
      "##nan": 3069,
      "ninter": 3070,
      "nreal": 3071,
      "omezeným": 3072,
      "njarmila": 3073,
      "hosp": 3074,
      "##alie": 3075,
      "ndot": 3076,
      "ručením": 3077,
      "##inger": 3078,
      "##enta": 3079,
      "##ish": 3080,
      "##ěřice": 3081,
      "rt": 3082,
      "sup": 3083,
      "##važ": 3084,
      "##com": 3085,
      "vyd": 3086,
      "mo": 3087,
      "bíl": 3088,
      "##vih": 3089,
      "nvac": 3090,
      "kro": 3091,
      "##manova": 3092,
      "rek": 3093,
      "##níme": 3094,
      "##vám": 3095,
      "##váte": 3096,
      "##nický": 3097,
      "nvojta": 3098,
      "##alibor": 3099,
      "miroslava": 3100,
      "##šovice": 3101,
      "##ema": 3102,
      "##váni": 3103,
      "##rč": 3104,
      "##ávejme": 3105,
      "##hrad": 3106,
      "##ýr": 3107,
      "eu": 3108,
      "kuč": 3109,
      "##ěděl": 3110,
      "nvojtěch": 3111,
      "soňa": 3112,
      "##ďme": 3113,
      "dominika": 3114,
      "rozs": 3115,
      "budějovice": 3116,
      "kostel": 3117,
      "nrichard": 3118,
      "nprů": 3119,
      "nkrá": 3120,
      "##asa": 3121,
      "33": 3122,
      "##lh": 3123,
      "##írá": 3124,
      "##rož": 3125,
      "##drž": 3126,
      "hanz": 3127,
      "prov": 3128,
      "uz": 3129,
      "nko": 3130,
      "vyp": 3131,
      "nejb": 3132,
      "##ínek": 3133,
      "##dalena": 3134,
      "##yen": 3135,
      "cent": 3136,
      "ub": 3137,
      "##inal": 3138,
      "nkop": 3139,
      "kv": 3140,
      "nlin": 3141,
      "rozk": 3142,
      "narch": 3143,
      "nř": 3144,
      "##živ": 3145,
      "##ávat": 3146,
      "##ující": 3147,
      "háj": 3148,
      "npřis": 3149,
      "velké": 3150,
      "ry": 3151,
      "nkla": 3152,
      "posp": 3153,
      "##trh": 3154,
      "##ira": 3155,
      "tř": 3156,
      "##iky": 3157,
      "##níč": 3158,
      "##amb": 3159,
      "bytových": 3160,
      "odborového": 3161,
      "npraha": 3162,
      "##ěni": 3163,
      "nlucka": 3164,
      "##olar": 3165,
      "let": 3166,
      "##cia": 3167,
      "vary": 3168,
      "##ering": 3169,
      "nmirek": 3170,
      "vaclav": 3171,
      "doub": 3172,
      "pos": 3173,
      "rej": 3174,
      "roh": 3175,
      "svit": 3176,
      "##uková": 3177,
      "##ouf": 3178,
      "##lev": 3179,
      "##čím": 3180,
      "##áňa": 3181,
      "##lez": 3182,
      "##ove": 3183,
      "gar": 3184,
      "praž": 3185,
      "nneod": 3186,
      "##etín": 3187,
      "##ecké": 3188,
      "col": 3189,
      "den": 3190,
      "##mová": 3191,
      "##med": 3192,
      "##ickova": 3193,
      "##ister": 3194,
      "prů": 3195,
      "##ко": 3196,
      "##ile": 3197,
      "nrud": 3198,
      "##ďte": 3199,
      "##ůj": 3200,
      "nmarta": 3201,
      "##akt": 3202,
      "##ášová": 3203,
      "um": 3204,
      "njoh": 3205,
      "marcel": 3206,
      "rak": 3207,
      "nps": 3208,
      "nkry": 3209,
      "agro": 3210,
      "krat": 3211,
      "##ěch": 3212,
      "##pan": 3213,
      "##ovka": 3214,
      "##stal": 3215,
      "##rup": 3216,
      "er": 3217,
      "##zb": 3218,
      "##ráz": 3219,
      "##váme": 3220,
      "nprod": 3221,
      "nzach": 3222,
      "njarda": 3223,
      "nludmila": 3224,
      "dlou": 3225,
      "##ávali": 3226,
      "##likova": 3227,
      "kyn": 3228,
      "##gel": 3229,
      "ndoh": 3230,
      "nbal": 3231,
      "##maj": 3232,
      "##ен": 3233,
      "##ecka": 3234,
      "jaro": 3235,
      "sad": 3236,
      "znoj": 3237,
      "corporation": 3238,
      "trav": 3239,
      "##ass": 3240,
      "##louz": 3241,
      "advis": 3242,
      "##ini": 3243,
      "nkaterina": 3244,
      "pře": 3245,
      "nluboš": 3246,
      "republiky": 3247,
      "nmíša": 3248,
      "##šík": 3249,
      "##řež": 3250,
      "vladimir": 3251,
      "##ňáková": 3252,
      "##cent": 3253,
      "##kali": 3254,
      "##níkem": 3255,
      "##nikova": 3256,
      "amb": 3257,
      "zlín": 3258,
      "##resli": 3259,
      "kan": 3260,
      "nsed": 3261,
      "hrub": 3262,
      "##ier": 3263,
      "ntj": 3264,
      "ntop": 3265,
      "ing": 3266,
      "tes": 3267,
      "world": 3268,
      "nzast": 3269,
      "nnadační": 3270,
      "nbc": 3271,
      "nbi": 3272,
      "nčeská": 3273,
      "kladno": 3274,
      "zab": 3275,
      "##host": 3276,
      "nprost": 3277,
      "nilona": 3278,
      "nela": 3279,
      "##uska": 3280,
      "nvlasta": 3281,
      "##work": 3282,
      "##váž": 3283,
      "nrek": 3284,
      "brand": 3285,
      "##řad": 3286,
      "##ré": 3287,
      "##iska": 3288,
      "lid": 3289,
      "alb": 3290,
      "buil": 3291,
      "##voř": 3292,
      "nnic": 3293,
      "##lác": 3294,
      "nejs": 3295,
      "##áván": 3296,
      "frý": 3297,
      "house": 3298,
      "##lení": 3299,
      "##itt": 3300,
      "##vání": 3301,
      "bytů": 3302,
      "natálie": 3303,
      "lan": 3304,
      "pou": 3305,
      "sec": 3306,
      "##lok": 3307,
      "##riana": 3308,
      "##káme": 3309,
      "luc": 3310,
      "##ěs": 3311,
      "##ition": 3312,
      "npřeb": 3313,
      "##ávejte": 3314,
      "npad": 3315,
      "##emp": 3316,
      "##číte": 3317,
      "ci": 3318,
      "##uman": 3319,
      "##ávaly": 3320,
      "##áváte": 3321,
      "##nková": 3322,
      "##mon": 3323,
      "##líš": 3324,
      "##náš": 3325,
      "nterez": 3326,
      "##ng": 3327,
      "##laš": 3328,
      "nmet": 3329,
      "##níku": 3330,
      "nrtm": 3331,
      "místní": 3332,
      "bř": 3333,
      "##dy": 3334,
      "##hon": 3335,
      "nnejnev": 3336,
      "ti": 3337,
      "##anská": 3338,
      "nczech": 3339,
      "35": 3340,
      "bí": 3341,
      "fry": 3342,
      "rus": 3343,
      "##jem": 3344,
      "##enec": 3345,
      "nkpt": 3346,
      "##ostech": 3347,
      "nrozd": 3348,
      "opava": 3349,
      "vlt": 3350,
      "##vak": 3351,
      "##ise": 3352,
      "denis": 3353,
      "##ínková": 3354,
      "##line": 3355,
      "pil": 3356,
      "karlovy": 3357,
      "san": 3358,
      "of": 3359,
      "zn": 3360,
      "##ody": 3361,
      "##ějov": 3362,
      "##šíková": 3363,
      "##icová": 3364,
      "##rest": 3365,
      "šimon": 3366,
      "nri": 3367,
      "poj": 3368,
      "##čany": 3369,
      "##rag": 3370,
      "nge": 3371,
      "##ávalo": 3372,
      "heř": 3373,
      "rost": 3374,
      "##ávají": 3375,
      "##cká": 3376,
      "##lét": 3377,
      "nzdeňka": 3378,
      "nrtn": 3379,
      "honební": 3380,
      "zdravot": 3381,
      "včela": 3382,
      "pala": 3383,
      "jič": 3384,
      "milena": 3385,
      "bára": 3386,
      "kři": 3387,
      "##árna": 3388,
      "tro": 3389,
      "spolecenstvi": 3390,
      "nejroz": 3391,
      "##áváno": 3392,
      "nsvob": 3393,
      "it": 3394,
      "kuch": 3395,
      "##ather": 3396,
      "nmgr": 3397,
      "ndar": 3398,
      "sáz": 3399,
      "šm": 3400,
      "##enková": 3401,
      "vyst": 3402,
      "kud": 3403,
      "##dan": 3404,
      "nvod": 3405,
      "char": 3406,
      "##lerova": 3407,
      "autom": 3408,
      "shop": 3409,
      "##fil": 3410,
      "nzem": 3411,
      "voz": 3412,
      "##ťte": 3413,
      "##inková": 3414,
      "##lis": 3415,
      "ivo": 3416,
      "##ůst": 3417,
      "##čů": 3418,
      "gym": 3419,
      "nbu": 3420,
      "neod": 3421,
      "dav": 3422,
      "nbca": 3423,
      "bran": 3424,
      "##voz": 3425,
      "##rm": 3426,
      "##rada": 3427,
      "##vap": 3428,
      "nuni": 3429,
      "ly": 3430,
      "##ovsky": 3431,
      "jes": 3432,
      "peš": 3433,
      "##rc": 3434,
      "nmichael": 3435,
      "distri": 3436,
      "n1": 3437,
      "záb": 3438,
      "##rady": 3439,
      "rudolf": 3440,
      "fol": 3441,
      "kav": 3442,
      "##átová": 3443,
      "##ool": 3444,
      "npar": 3445,
      "##eri": 3446,
      "nkub": 3447,
      "inter": 3448,
      "##nění": 3449,
      "marketa": 3450,
      "##níte": 3451,
      "nsvět": 3452,
      "nstar": 3453,
      "constru": 3454,
      "sc": 3455,
      "šť": 3456,
      "##cej": 3457,
      "##luk": 3458,
      "mol": 3459,
      "npast": 3460,
      "ndcn": 3461,
      "yv": 3462,
      "##uel": 3463,
      "##enský": 3464,
      "##inská": 3465,
      "##odob": 3466,
      "##lika": 3467,
      "##nad": 3468,
      "del": 3469,
      "raj": 3470,
      "nprok": 3471,
      "odk": 3472,
      "##čích": 3473,
      "39": 3474,
      "##pust": 3475,
      "##esel": 3476,
      "nabp": 3477,
      "beč": 3478,
      "uher": 3479,
      "##invest": 3480,
      "nvendula": 3481,
      "##cit": 3482,
      "##cion": 3483,
      "nplk": 3484,
      "pepa": 3485,
      "##gl": 3486,
      "npla": 3487,
      "##níkům": 3488,
      "##ental": 3489,
      "chovatelů": 3490,
      "mudr": 3491,
      "##21": 3492,
      "##roba": 3493,
      "##eks": 3494,
      "##ase": 3495,
      "npřik": 3496,
      "##perk": 3497,
      "nejnep": 3498,
      "##ějí": 3499,
      "jarka": 3500,
      "lázně": 3501,
      "##dova": 3502,
      "##rba": 3503,
      "##isch": 3504,
      "food": 3505,
      "jon": 3506,
      "nřím": 3507,
      "##ер": 3508,
      "npoč": 3509,
      "##líčková": 3510,
      "##cemi": 3511,
      "nse": 3512,
      "##ýš": 3513,
      "##20": 3514,
      "##eroz": 3515,
      "projekt": 3516,
      "##věta": 3517,
      "##lék": 3518,
      "##žitel": 3519,
      "##berg": 3520,
      "43": 3521,
      "##lak": 3522,
      "##kaz": 3523,
      "nmjr": 3524,
      "holub": 3525,
      "jablon": 3526,
      "dud": 3527,
      "##uran": 3528,
      "##ečná": 3529,
      "##ndr": 3530,
      "lada": 3531,
      "cre": 3532,
      "##éna": 3533,
      "##vil": 3534,
      "##ria": 3535,
      "nfot": 3536,
      "miloš": 3537,
      "##all": 3538,
      "njuli": 3539,
      "pep": 3540,
      "##ěno": 3541,
      "##boř": 3542,
      "##cili": 3543,
      "vlastimil": 3544,
      "nvyf": 3545,
      "luka": 3546,
      "##vý": 3547,
      "##mav": 3548,
      "myslivecký": 3549,
      "##ráp": 3550,
      "##ávej": 3551,
      "včelařů": 3552,
      "nkat": 3553,
      "##árková": 3554,
      "##ářský": 3555,
      "středisko": 3556,
      "kříž": 3557,
      "kh": 3558,
      "##lop": 3559,
      "##ovar": 3560,
      "##omb": 3561,
      "##rade": 3562,
      "kova": 3563,
      "off": 3564,
      "##lež": 3565,
      "lang": 3566,
      "##vili": 3567,
      "##eton": 3568,
      "nada": 3569,
      "ntri": 3570,
      "power": 3571,
      "piv": 3572,
      "vo": 3573,
      "mikul": 3574,
      "vašek": 3575,
      "works": 3576,
      "pon": 3577,
      "nmí": 3578,
      "##ších": 3579,
      "##ograf": 3580,
      "##ezidence": 3581,
      "##čit": 3582,
      "nsvaz": 3583,
      "##těž": 3584,
      "##tory": 3585,
      "##růst": 3586,
      "mlád": 3587,
      "##hart": 3588,
      "nvs": 3589,
      "nzaš": 3590,
      "antonín": 3591,
      "nmd": 3592,
      "nmas": 3593,
      "##ett": 3594,
      "##otová": 3595,
      "npřiv": 3596,
      "##číš": 3597,
      "skup": 3598,
      "44": 3599,
      "##zab": 3600,
      "ant": 3601,
      "rož": 3602,
      "##ešk": 3603,
      "##jat": 3604,
      "##ste": 3605,
      "nzes": 3606,
      "##nutí": 3607,
      "##onín": 3608,
      "nbe": 3609,
      "nrs": 3610,
      "ek": 3611,
      "von": 3612,
      "nmga": 3613,
      "ndov": 3614,
      "nprot": 3615,
      "ndominika": 3616,
      "nprofes": 3617,
      "##kap": 3618,
      "##andová": 3619,
      "česk": 3620,
      "nhorní": 3621,
      "engineering": 3622,
      "leh": 3623,
      "mš": 3624,
      "ty": 3625,
      "nbrig": 3626,
      "##ologický": 3627,
      "##ignor": 3628,
      "##zv": 3629,
      "##ýk": 3630,
      "nrozh": 3631,
      "přeh": 3632,
      "home": 3633,
      "fri": 3634,
      "##ye": 3635,
      "##jan": 3636,
      "porad": 3637,
      "tel": 3638,
      "vis": 3639,
      "##01": 3640,
      "nrozv": 3641,
      "posti": 3642,
      "##olí": 3643,
      "##erov": 3644,
      "nhel": 3645,
      "prá": 3646,
      "##etice": 3647,
      "sab": 3648,
      "##nič": 3649,
      "##láďa": 3650,
      "nfin": 3651,
      "chod": 3652,
      "##umil": 3653,
      "##ušková": 3654,
      "##ifik": 3655,
      "is": 3656,
      "##iki": 3657,
      "nman": 3658,
      "seb": 3659,
      "npoj": 3660,
      "##vas": 3661,
      "nodv": 3662,
      "indust": 3663,
      "rac": 3664,
      "vrch": 3665,
      "##ls": 3666,
      "nbro": 3667,
      "##ovany": 3668,
      "nnast": 3669,
      "kok": 3670,
      "květ": 3671,
      "lev": 3672,
      "luk": 3673,
      "ngre": 3674,
      "34": 3675,
      "mir": 3676,
      "##ělový": 3677,
      "##hova": 3678,
      "##uv": 3679,
      "##not": 3680,
      "##imíra": 3681,
      "njiřina": 3682,
      "kle": 3683,
      "nart": 3684,
      "##uká": 3685,
      "nzar": 3686,
      "##hoz": 3687,
      "##lám": 3688,
      "##asová": 3689,
      "nrozs": 3690,
      "mr": 3691,
      "vala": 3692,
      "##sol": 3693,
      "##éz": 3694,
      "nsoňa": 3695,
      "příb": 3696,
      "vera": 3697,
      "##atová": 3698,
      "##líček": 3699,
      "kož": 3700,
      "zuzka": 3701,
      "##lt": 3702,
      "chom": 3703,
      "##ologie": 3704,
      "##ělovýchov": 3705,
      "nnek": 3706,
      "##ouž": 3707,
      "##oušková": 3708,
      "nstud": 3709,
      "##erou": 3710,
      "nlí": 3711,
      "zad": 3712,
      "##oni": 3713,
      "mari": 3714,
      "nasociace": 3715,
      "dost": 3716,
      "voda": 3717,
      "##ív": 3718,
      "nšim": 3719,
      "před": 3720,
      "nmiroslava": 3721,
      "drah": 3722,
      "nřímskokatolická": 3723,
      "##óz": 3724,
      "nzac": 3725,
      "hala": 3726,
      "##ness": 3727,
      "npal": 3728,
      "vyv": 3729,
      "renáta": 3730,
      "bil": 3731,
      "##řil": 3732,
      "##be": 3733,
      "##nož": 3734,
      "nkomp": 3735,
      "malá": 3736,
      "##bou": 3737,
      "##ěstí": 3738,
      "terka": 3739,
      "jihlava": 3740,
      "nbor": 3741,
      "##mech": 3742,
      "nfor": 3743,
      "jež": 3744,
      "dos": 3745,
      "##byt": 3746,
      "nvas": 3747,
      "##žených": 3748,
      "expert": 3749,
      "##vál": 3750,
      "lykvyda": 3751,
      "##bot": 3752,
      "##ank": 3753,
      "nben": 3754,
      "acad": 3755,
      "ce": 3756,
      "mad": 3757,
      "wa": 3758,
      "nauto": 3759,
      "cír": 3760,
      "##ional": 3761,
      "##dek": 3762,
      "##ware": 3763,
      "##enk": 3764,
      "##uta": 3765,
      "proh": 3766,
      "nest": 3767,
      "tra": 3768,
      "##py": 3769,
      "##vát": 3770,
      "nmiloš": 3771,
      "project": 3772,
      "fre": 3773,
      "kab": 3774,
      "pac": 3775,
      "sabina": 3776,
      "##24": 3777,
      "##obočný": 3778,
      "rozm": 3779,
      "##árek": 3780,
      "ndolní": 3781,
      "nvaclav": 3782,
      "travel": 3783,
      "duch": 3784,
      "fal": 3785,
      "pov": 3786,
      "nfir": 3787,
      "##děn": 3788,
      "kovo": 3789,
      "##covi": 3790,
      "##tra": 3791,
      "##luv": 3792,
      "##ichová": 3793,
      "##těz": 3794,
      "investments": 3795,
      "##cům": 3796,
      "##ander": 3797,
      "nmax": 3798,
      "péče": 3799,
      "gr": 3800,
      "npřez": 3801,
      "##kadem": 3802,
      "du": 3803,
      "poč": 3804,
      "soft": 3805,
      "##yal": 3806,
      "##itní": 3807,
      "##acon": 3808,
      "kamen": 3809,
      "37": 3810,
      "lom": 3811,
      "##ella": 3812,
      "##nila": 3813,
      "##ush": 3814,
      "nnejnez": 3815,
      "pokor": 3816,
      "##ělocvič": 3817,
      "##ťák": 3818,
      "##12": 3819,
      "##eslav": 3820,
      "##ruč": 3821,
      "nfil": 3822,
      "##ičky": 3823,
      "##rodní": 3824,
      "enter": 3825,
      "linda": 3826,
      "jav": 3827,
      "tri": 3828,
      "##ěny": 3829,
      "##ute": 3830,
      "nmaty": 3831,
      "ateli": 3832,
      "nsol": 3833,
      "cha": 3834,
      "jy": 3835,
      "##sl": 3836,
      "nnem": 3837,
      "##lich": 3838,
      "##edi": 3839,
      "##eník": 3840,
      "finan": 3841,
      "##cility": 3842,
      "hlad": 3843,
      "##anek": 3844,
      "##říb": 3845,
      "ncom": 3846,
      "##áváni": 3847,
      "pobočný": 3848,
      "##icek": 3849,
      "##štíp": 3850,
      "##jíž": 3851,
      "##jím": 3852,
      "nreg": 3853,
      "cen": 3854,
      "der": 3855,
      "ulici": 3856,
      "##eji": 3857,
      "##rother": 3858,
      "##kalář": 3859,
      "nber": 3860,
      "nku": 3861,
      "##káte": 3862,
      "kač": 3863,
      "##ón": 3864,
      "npon": 3865,
      "nres": 3866,
      "prap": 3867,
      "odst": 3868,
      "kup": 3869,
      "vot": 3870,
      "##oušek": 3871,
      "nah": 3872,
      "##ělovýchovná": 3873,
      "círk": 3874,
      "moh": 3875,
      "##vou": 3876,
      "nden": 3877,
      "##kovský": 3878,
      "orli": 3879,
      "##do": 3880,
      "nvzd": 3881,
      "##ejch": 3882,
      "##ějme": 3883,
      "##lesk": 3884,
      "kre": 3885,
      "##kala": 3886,
      "nmost": 3887,
      "ondrej": 3888,
      "nul": 3889,
      "##íná": 3890,
      "##low": 3891,
      "rozvoj": 3892,
      "38": 3893,
      "tre": 3894,
      "vid": 3895,
      "nbára": 3896,
      "jaromír": 3897,
      "nbrno": 3898,
      "mych": 3899,
      "##pi": 3900,
      "##rouh": 3901,
      "naz": 3902,
      "##vač": 3903,
      "matej": 3904,
      "##ote": 3905,
      "##chyt": 3906,
      "npepa": 3907,
      "##oma": 3908,
      "##usova": 3909,
      "##ochová": 3910,
      "vzdělá": 3911,
      "##ор": 3912,
      "##ere": 3913,
      "nseb": 3914,
      "##eld": 3915,
      "45": 3916,
      "zes": 3917,
      "ov": 3918,
      "##mír": 3919,
      "##pová": 3920,
      "občan": 3921,
      "červen": 3922,
      "##lass": 3923,
      "kratoch": 3924,
      "ud": 3925,
      "##čov": 3926,
      "##ets": 3927,
      "##řích": 3928,
      "marketing": 3929,
      "jas": 3930,
      "ms": 3931,
      "nož": 3932,
      "##řství": 3933,
      "##stat": 3934,
      "##eněji": 3935,
      "##rák": 3936,
      "nrc": 3937,
      "nsc": 3938,
      "nac": 3939,
      "alice": 3940,
      "##luh": 3941,
      "##isová": 3942,
      "stát": 3943,
      "nmarcel": 3944,
      "nig": 3945,
      "##tl": 3946,
      "##mid": 3947,
      "##ářů": 3948,
      "##ýnka": 3949,
      "dum": 3950,
      "pit": 3951,
      "##etr": 3952,
      "##lička": 3953,
      "valent": 3954,
      "mul": 3955,
      "syn": 3956,
      "##nilo": 3957,
      "##bová": 3958,
      "##uni": 3959,
      "##oba": 3960,
      "##echy": 3961,
      "##aja": 3962,
      "hotel": 3963,
      "kel": 3964,
      "rat": 3965,
      "##ten": 3966,
      "nduš": 3967,
      "##láková": 3968,
      "##kány": 3969,
      "lykvida": 3970,
      "střel": 3971,
      "##urk": 3972,
      "nodm": 3973,
      "ncar": 3974,
      "uměl": 3975,
      "nses": 3976,
      "##liš": 3977,
      "nkot": 3978,
      "vym": 3979,
      "doc": 3980,
      "web": 3981,
      "##aš": 3982,
      "##rez": 3983,
      "##10": 3984,
      "##říčí": 3985,
      "štěpánka": 3986,
      "academy": 3987,
      "##ла": 3988,
      "##ano": 3989,
      "##lach": 3990,
      "narm": 3991,
      "dušan": 3992,
      "hru": 3993,
      "pola": 3994,
      "##iro": 3995,
      "##mut": 3996,
      "##bar": 3997,
      "nnov": 3998,
      "nnejh": 3999,
      "##ostav": 4000,
      "nles": 4001,
      "nemovit": 4002,
      "46": 4003,
      "##bi": 4004,
      "##rš": 4005,
      "##čes": 4006,
      "##líme": 4007,
      "##onsignor": 4008,
      "nq": 4009,
      "žiž": 4010,
      "##gar": 4011,
      "##ка": 4012,
      "alfa": 4013,
      "nováková": 4014,
      "honz": 4015,
      "##líte": 4016,
      "##plet": 4017,
      "červ": 4018,
      "##itelnějších": 4019,
      "znojmo": 4020,
      "lo": 4021,
      "šaf": 4022,
      "##de": 4023,
      "##ren": 4024,
      "praze": 4025,
      "##alia": 4026,
      "nmilena": 4027,
      "##cik": 4028,
      "##armdr": 4029,
      "střední": 4030,
      "land": 4031,
      "pek": 4032,
      "žaneta": 4033,
      "orlicí": 4034,
      "gold": 4035,
      "ntel": 4036,
      "zlat": 4037,
      "##oul": 4038,
      "##ulková": 4039,
      "nivo": 4040,
      "##itelnějšího": 4041,
      "njarka": 4042,
      "energ": 4043,
      "##vik": 4044,
      "facility": 4045,
      "fu": 4046,
      "##bel": 4047,
      "##drová": 4048,
      "nvlastimil": 4049,
      "vltavou": 4050,
      "rec": 4051,
      "##ač": 4052,
      "##sen": 4053,
      "##11": 4054,
      "ods": 4055,
      "##nické": 4056,
      "nguyen": 4057,
      "##káz": 4058,
      "baj": 4059,
      "##ction": 4060,
      "nvít": 4061,
      "peť": 4062,
      "buch": 4063,
      "past": 4064,
      "##nily": 4065,
      "##iová": 4066,
      "##04": 4067,
      "##ňany": 4068,
      "##eče": 4069,
      "nkost": 4070,
      "##tivi": 4071,
      "život": 4072,
      "postižených": 4073,
      "troj": 4074,
      "wal": 4075,
      "##rok": 4076,
      "##láč": 4077,
      "##išová": 4078,
      "silvie": 4079,
      "hr": 4080,
      "##žbě": 4081,
      "##úč": 4082,
      "##ším": 4083,
      "##rána": 4084,
      "##nět": 4085,
      "smol": 4086,
      "##avy": 4087,
      "##ivní": 4088,
      "lá": 4089,
      "mu": 4090,
      "zaj": 4091,
      "řez": 4092,
      "##ýt": 4093,
      "##ft": 4094,
      "bra": 4095,
      "##eda": 4096,
      "##orf": 4097,
      "##láp": 4098,
      "##berk": 4099,
      "dy": 4100,
      "npap": 4101,
      "nvl": 4102,
      "nkos": 4103,
      "štef": 4104,
      "nantonín": 4105,
      "av": 4106,
      "##až": 4107,
      "##lům": 4108,
      "##ling": 4109,
      "##ин": 4110,
      "nsy": 4111,
      "nvin": 4112,
      "nkap": 4113,
      "##ňováno": 4114,
      "ger": 4115,
      "loc": 4116,
      "vor": 4117,
      "##mát": 4118,
      "##ňuju": 4119,
      "cheb": 4120,
      "černá": 4121,
      "technologies": 4122,
      "nisou": 4123,
      "hyd": 4124,
      "pad": 4125,
      "##teg": 4126,
      "nzuzka": 4127,
      "jura": 4128,
      "krum": 4129,
      "syl": 4130,
      "##list": 4131,
      "vyf": 4132,
      "staré": 4133,
      "mládež": 4134,
      "##rast": 4135,
      "##omir": 4136,
      "##šti": 4137,
      "fyzička": 4138,
      "stráž": 4139,
      "nvladimir": 4140,
      "psycholožka": 4141,
      "nvera": 4142,
      "nton": 4143,
      "nzaz": 4144,
      "##řih": 4145,
      "laz": 4146,
      "nvit": 4147,
      "sázavou": 4148,
      "čap": 4149,
      "##anovice": 4150,
      "##ličková": 4151,
      "mart": 4152,
      "##eral": 4153,
      "socioložka": 4154,
      "01": 4155,
      "ut": 4156,
      "zám": 4157,
      "##kají": 4158,
      "##káni": 4159,
      "##leg": 4160,
      "##vědč": 4161,
      "##18": 4162,
      "##anský": 4163,
      "nnejza": 4164,
      "nnatálie": 4165,
      "neb": 4166,
      "##ené": 4167,
      "##rouž": 4168,
      "nold": 4169,
      "aud": 4170,
      "##mjr": 4171,
      "##uard": 4172,
      "##ankova": 4173,
      "##emen": 4174,
      "likvyda": 4175,
      "lékařka": 4176,
      "chud": 4177,
      "blaž": 4178,
      "ekonomka": 4179,
      "litom": 4180,
      "##eddr": 4181,
      "##vař": 4182,
      "architektka": 4183,
      "nmarketa": 4184,
      "ntech": 4185,
      "pec": 4186,
      "##tera": 4187,
      "##haj": 4188,
      "nvid": 4189,
      "##nících": 4190,
      "##mis": 4191,
      "luž": 4192,
      "##zováno": 4193,
      "krás": 4194,
      "hradiště": 4195,
      "nyv": 4196,
      "##rous": 4197,
      "nher": 4198,
      "přez": 4199,
      "velká": 4200,
      "##ělocvičná": 4201,
      "##16": 4202,
      "##etř": 4203,
      "zdena": 4204,
      "bioložka": 4205,
      "matematička": 4206,
      "57": 4207,
      "out": 4208,
      "ru": 4209,
      "##ňujete": 4210,
      "##arch": 4211,
      "želez": 4212,
      "jen": 4213,
      "rap": 4214,
      "žď": 4215,
      "##hi": 4216,
      "##ída": 4217,
      "##ас": 4218,
      "nzne": 4219,
      "njezd": 4220,
      "bohus": 4221,
      "##que": 4222,
      "ndoktor": 4223,
      "##ism": 4224,
      "ntrans": 4225,
      "nrost": 4226,
      "vaš": 4227,
      "##itelnějšími": 4228,
      "associ": 4229,
      "blan": 4230,
      "účet": 4231,
      "##25": 4232,
      "##enství": 4233,
      "store": 4234,
      "##ozef": 4235,
      "##drba": 4236,
      "office": 4237,
      "kola": 4238,
      "nec": 4239,
      "##tní": 4240,
      "##03": 4241,
      "nmak": 4242,
      "##nak": 4243,
      "nkont": 4244,
      "npřil": 4245,
      "npřih": 4246,
      "smet": 4247,
      "agentura": 4248,
      "##žběta": 4249,
      "brat": 4250,
      "nád": 4251,
      "oš": 4252,
      "##klid": 4253,
      "##bishop": 4254,
      "##onice": 4255,
      "##lean": 4256,
      "nluc": 4257,
      "49": 4258,
      "##eng": 4259,
      "nbud": 4260,
      "##říh": 4261,
      "miloslav": 4262,
      "##zovány": 4263,
      "čerm": 4264,
      "kolín": 4265,
      "nexp": 4266,
      "skupina": 4267,
      "##ňovaly": 4268,
      "nmv": 4269,
      "##rika": 4270,
      "##iční": 4271,
      "##řiška": 4272,
      "##íšková": 4273,
      "historička": 4274,
      "řím": 4275,
      "##dina": 4276,
      "##mgr": 4277,
      "##bit": 4278,
      "prokop": 4279,
      "nprap": 4280,
      "building": 4281,
      "##yle": 4282,
      "##utová": 4283,
      "tat": 4284,
      "##zována": 4285,
      "nprofesor": 4286,
      "su": 4287,
      "##oňová": 4288,
      "##05": 4289,
      "nvan": 4290,
      "ntru": 4291,
      "##ott": 4292,
      "okresní": 4293,
      "56": 4294,
      "byd": 4295,
      "##hu": 4296,
      "##22": 4297,
      "divad": 4298,
      "##ůvod": 4299,
      "pedagožka": 4300,
      "kod": 4301,
      "##čil": 4302,
      "##org": 4303,
      "##asova": 4304,
      "##vár": 4305,
      "černo": 4306,
      "morava": 4307,
      "standa": 4308,
      "##tejn": 4309,
      "sociální": 4310,
      "nbakalář": 4311,
      "##lárka": 4312,
      "##ští": 4313,
      "##větl": 4314,
      "cars": 4315,
      "běl": 4316,
      "es": 4317,
      "hrom": 4318,
      "ndra": 4319,
      "ndem": 4320,
      "##urity": 4321,
      "dolež": 4322,
      "47": 4323,
      "hlin": 4324,
      "nв": 4325,
      "##hib": 4326,
      "##mont": 4327,
      "##fo": 4328,
      "##ňme": 4329,
      "##ňovice": 4330,
      "marian": 4331,
      "lux": 4332,
      "##itelnějšímu": 4333,
      "plzni": 4334,
      "nmother": 4335,
      "bul": 4336,
      "##ий": 4337,
      "##ňte": 4338,
      "##rian": 4339,
      "##řít": 4340,
      "##oky": 4341,
      "center": 4342,
      "pub": 4343,
      "tob": 4344,
      "##zk": 4345,
      "##07": 4346,
      "##inu": 4347,
      "nkř": 4348,
      "nhav": 4349,
      "karolina": 4350,
      "##ořád": 4351,
      "jindra": 4352,
      "##kademie": 4353,
      "umělkyně": 4354,
      "nčí": 4355,
      "síd": 4356,
      "##olana": 4357,
      "##tají": 4358,
      "##lyn": 4359,
      "nsvat": 4360,
      "mok": 4361,
      "##con": 4362,
      "##23": 4363,
      "##ecky": 4364,
      "nvych": 4365,
      "nuch": 4366,
      "##álka": 4367,
      "nlada": 4368,
      "chomut": 4369,
      "dřev": 4370,
      "nvš": 4371,
      "##ějte": 4372,
      "nkv": 4373,
      "##itelnějším": 4374,
      "chemička": 4375,
      "filosofka": 4376,
      "npep": 4377,
      "##obil": 4378,
      "##icí": 4379,
      "##louž": 4380,
      "##kouš": 4381,
      "hlub": 4382,
      "zbyněk": 4383,
      "##ев": 4384,
      "##áky": 4385,
      "jirá": 4386,
      "kristina": 4387,
      "škole": 4388,
      "##jedná": 4389,
      "institut": 4390,
      "55": 4391,
      "muz": 4392,
      "npeter": 4393,
      "krup": 4394,
      "pas": 4395,
      "##cs": 4396,
      "nsup": 4397,
      "##eckova": 4398,
      "procház": 4399,
      "##ušová": 4400,
      "jiz": 4401,
      "děčín": 4402,
      "fit": 4403,
      "zim": 4404,
      "##can": 4405,
      "##kaly": 4406,
      "##onka": 4407,
      "njudr": 4408,
      "##věc": 4409,
      "libuše": 4410,
      "ali": 4411,
      "n3": 4412,
      "post": 4413,
      "##ium": 4414,
      "##14": 4415,
      "njed": 4416,
      "##telného": 4417,
      "##ire": 4418,
      "##reg": 4419,
      "andrej": 4420,
      "point": 4421,
      "geoložka": 4422,
      "seni": 4423,
      "tj": 4424,
      "##ácích": 4425,
      "##hel": 4426,
      "nbob": 4427,
      "##láz": 4428,
      "interi": 4429,
      "kačka": 4430,
      "##ynka": 4431,
      "the": 4432,
      "luděk": 4433,
      "medical": 4434,
      "48": 4435,
      "##ásková": 4436,
      "##ěla": 4437,
      "##enová": 4438,
      "npharmdr": 4439,
      "kys": 4440,
      "vent": 4441,
      "##02": 4442,
      "ana": 4443,
      "bit": 4444,
      "zac": 4445,
      "##17": 4446,
      "##kalo": 4447,
      "##ilejší": 4448,
      "##ověd": 4449,
      "npastor": 4450,
      "cor": 4451,
      "gol": 4452,
      "##něd": 4453,
      "##ásob": 4454,
      "nlinda": 4455,
      "##zích": 4456,
      "##vrz": 4457,
      "##čovice": 4458,
      "##rozum": 4459,
      "boj": 4460,
      "cs": 4461,
      "rub": 4462,
      "npou": 4463,
      "npřim": 4464,
      "##ířov": 4465,
      "nrsdr": 4466,
      "yn": 4467,
      "##hou": 4468,
      "##aba": 4469,
      "##ures": 4470,
      "best": 4471,
      "cest": 4472,
      "n4": 4473,
      "##pris": 4474,
      "##ина": 4475,
      "nlé": 4476,
      "##right": 4477,
      "nmddr": 4478,
      "##zo": 4479,
      "##27": 4480,
      "##iko": 4481,
      "nvk": 4482,
      "##ingerová": 4483,
      "nlet": 4484,
      "frantisek": 4485,
      "iii": 4486,
      "##nech": 4487,
      "##narová": 4488,
      "##rof": 4489,
      "##orge": 4490,
      "nzan": 4491,
      "##telný": 4492,
      "nfather": 4493,
      "njaromír": 4494,
      "alexandra": 4495,
      "nmsdr": 4496,
      "ze": 4497,
      "zub": 4498,
      "##13": 4499,
      "nmonsignor": 4500,
      "##asy": 4501,
      "##louch": 4502,
      "leg": 4503,
      "dvůr": 4504,
      "ndeacon": 4505,
      "nsister": 4506,
      "##eková": 4507,
      "nnp": 4508,
      "##ross": 4509,
      "ngenpor": 4510,
      "construction": 4511,
      "fab": 4512,
      "jam": 4513,
      "sof": 4514,
      "nvyč": 4515,
      "##icky": 4516,
      "odd": 4517,
      "hum": 4518,
      "##land": 4519,
      "##cht": 4520,
      "##ravi": 4521,
      "nsabina": 4522,
      "farmaceutka": 4523,
      "mit": 4524,
      "##ávis": 4525,
      "##ůd": 4526,
      "nsal": 4527,
      "##nop": 4528,
      "##atr": 4529,
      "##štová": 4530,
      "veřej": 4531,
      "stará": 4532,
      "##onal": 4533,
      "nmysliv": 4534,
      "andre": 4535,
      "nga": 4536,
      "nlen": 4537,
      "pavlina": 4538,
      "##ravy": 4539,
      "lubomír": 4540,
      "nrtdr": 4541,
      "šev": 4542,
      "##ks": 4543,
      "##ýp": 4544,
      "##jev": 4545,
      "##ght": 4546,
      "nmez": 4547,
      "nnet": 4548,
      "tan": 4549,
      "un": 4550,
      "##děč": 4551,
      "právnička": 4552,
      "dětí": 4553,
      "kout": 4554,
      "ndost": 4555,
      "str": 4556,
      "hy": 4557,
      "sen": 4558,
      "##vrt": 4559,
      "##bert": 4560,
      "##ryt": 4561,
      "nmr": 4562,
      "##nam": 4563,
      "##mex": 4564,
      "##oké": 4565,
      "##áků": 4566,
      "##resl": 4567,
      "smart": 4568,
      "nmsgr": 4569,
      "blu": 4570,
      "hro": 4571,
      "řeh": 4572,
      "##vní": 4573,
      "##cu": 4574,
      "##xi": 4575,
      "##06": 4576,
      "##15": 4577,
      "##rog": 4578,
      "##inek": 4579,
      "##ášková": 4580,
      "lac": 4581,
      "rez": 4582,
      "nppor": 4583,
      "nbishop": 4584,
      "##yslav": 4585,
      "verča": 4586,
      "##způsob": 4587,
      "54": 4588,
      "gru": 4589,
      "##div": 4590,
      "##ji": 4591,
      "##kav": 4592,
      "##dav": 4593,
      "ndenis": 4594,
      "##ozor": 4595,
      "nodbor": 4596,
      "ncon": 4597,
      "nterka": 4598,
      "sandra": 4599,
      "##vín": 4600,
      "##19": 4601,
      "##ans": 4602,
      "##roh": 4603,
      "nnová": 4604,
      "ndr": 4605,
      "##mir": 4606,
      "nnejod": 4607,
      "hra": 4608,
      "sun": 4609,
      "##šova": 4610,
      "##lých": 4611,
      "npri": 4612,
      "##otřeb": 4613,
      "##lete": 4614,
      "##tions": 4615,
      "julie": 4616,
      "##29": 4617,
      "nslav": 4618,
      "##skup": 4619,
      "##nos": 4620,
      "##děk": 4621,
      "ndocent": 4622,
      "slan": 4623,
      "##ála": 4624,
      "martyn": 4625,
      "##násob": 4626,
      "##urní": 4627,
      "miš": 4628,
      "ngenplk": 4629,
      "nana": 4630,
      "npplk": 4631,
      "##oli": 4632,
      "nred": 4633,
      "nind": 4634,
      "##škrt": 4635,
      "nvery": 4636,
      "zeměděl": 4637,
      "klat": 4638,
      "##zem": 4639,
      "##28": 4640,
      "##níkovi": 4641,
      "##38": 4642,
      "##orova": 4643,
      "naj": 4644,
      "##děni": 4645,
      "nrudolf": 4646,
      "jičín": 4647,
      "##jas": 4648,
      "##ль": 4649,
      "##enské": 4650,
      "##omat": 4651,
      "##mara": 4652,
      "##ohrad": 4653,
      "nodh": 4654,
      "npaeddr": 4655,
      "nvašek": 4656,
      "nrcdr": 4657,
      "nech": 4658,
      "rot": 4659,
      "sala": 4660,
      "##áci": 4661,
      "##hosp": 4662,
      "nnejk": 4663,
      "##eba": 4664,
      "##lejšímu": 4665,
      "nmagistr": 4666,
      "oldřich": 4667,
      "mont": 4668,
      "##cer": 4669,
      "##inkova": 4670,
      "nsyl": 4671,
      "##říme": 4672,
      "##ley": 4673,
      "##měš": 4674,
      "##ektiv": 4675,
      "urban": 4676,
      "pre": 4677,
      "##row": 4678,
      "mira": 4679,
      "##tejme": 4680,
      "nabbot": 4681,
      "##áň": 4682,
      "##oka": 4683,
      "##níčková": 4684,
      "njir": 4685,
      "##rie": 4686,
      "##štěd": 4687,
      "##okátní": 4688,
      "náměstí": 4689,
      "anička": 4690,
      "sd": 4691,
      "##zková": 4692,
      "nnpor": 4693,
      "##štice": 4694,
      "nstřed": 4695,
      "##ických": 4696,
      "nrenáta": 4697,
      "číž": 4698,
      "##áňová": 4699,
      "##níček": 4700,
      "##ejd": 4701,
      "##esa": 4702,
      "neu": 4703,
      "export": 4704,
      "nthdr": 4705,
      "nthlic": 4706,
      "bero": 4707,
      "##37": 4708,
      "nsest": 4709,
      "nnela": 4710,
      "##lila": 4711,
      "##osa": 4712,
      "nalice": 4713,
      "lys": 4714,
      "##36": 4715,
      "##stas": 4716,
      "nmorav": 4717,
      "nškpt": 4718,
      "69": 4719,
      "##čr": 4720,
      "##iná": 4721,
      "nnejnes": 4722,
      "##ápad": 4723,
      "divi": 4724,
      "ngenmjr": 4725,
      "masary": 4726,
      "hart": 4727,
      "##ýhod": 4728,
      "##ces": 4729,
      "nmel": 4730,
      "##ith": 4731,
      "terezka": 4732,
      "enterpris": 4733,
      "##hol": 4734,
      "##tková": 4735,
      "##08": 4736,
      "##lavi": 4737,
      "##eck": 4738,
      "nšrtm": 4739,
      "mysliv": 4740,
      "mlý": 4741,
      "##nili": 4742,
      "stroj": 4743,
      "nkarolina": 4744,
      "nphdr": 4745,
      "bár": 4746,
      "##kána": 4747,
      "rada": 4748,
      "projek": 4749,
      "kryštof": 4750,
      "##ова": 4751,
      "noc": 4752,
      "sever": 4753,
      "zuz": 4754,
      "##lů": 4755,
      "likvidacy": 4756,
      "chrud": 4757,
      "pracov": 4758,
      "rozd": 4759,
      "##zován": 4760,
      "magda": 4761,
      "brož": 4762,
      "narchbishop": 4763,
      "jizerou": 4764,
      "##26": 4765,
      "nbo": 4766,
      "##ošková": 4767,
      "##ousek": 4768,
      "smr": 4769,
      "komu": 4770,
      "nnprap": 4771,
      "nkra": 4772,
      "nryb": 4773,
      "příbram": 4774,
      "šind": 4775,
      "##áda": 4776,
      "##nav": 4777,
      "##ial": 4778,
      "##mol": 4779,
      "##fr": 4780,
      "##otín": 4781,
      "npřest": 4782,
      "jarom": 4783,
      "chalup": 4784,
      "ota": 4785,
      "##ňovalo": 4786,
      "nakad": 4787,
      "##telnou": 4788,
      "domy": 4789,
      "##drej": 4790,
      "##lery": 4791,
      "##cye": 4792,
      "přih": 4793,
      "nphmr": 4794,
      "fac": 4795,
      "##lích": 4796,
      "##ista": 4797,
      "##léz": 4798,
      "barča": 4799,
      "patri": 4800,
      "klim": 4801,
      "64": 4802,
      "bat": 4803,
      "vran": 4804,
      "##cký": 4805,
      "##tik": 4806,
      "##09": 4807,
      "##alth": 4808,
      "nvzp": 4809,
      "don": 4810,
      "jand": 4811,
      "##ejbal": 4812,
      "##ecová": 4813,
      "odb": 4814,
      "##ists": 4815,
      "##íšek": 4816,
      "mis": 4817,
      "moj": 4818,
      "nof": 4819,
      "one": 4820,
      "##inský": 4821,
      "##maž": 4822,
      "nstep": 4823,
      "##tyna": 4824,
      "správa": 4825,
      "njindřich": 4826,
      "##cikova": 4827,
      "##štejn": 4828,
      "##iva": 4829,
      "##stala": 4830,
      "##enského": 4831,
      "maria": 4832,
      "##ners": 4833,
      "nšprap": 4834,
      "nštěpánka": 4835,
      "poš": 4836,
      "sur": 4837,
      "##cin": 4838,
      "##íkov": 4839,
      "nnrtm": 4840,
      "nzre": 4841,
      "##naj": 4842,
      "##ruška": 4843,
      "##káno": 4844,
      "nlid": 4845,
      "##qua": 4846,
      "nthmgr": 4847,
      "##daléna": 4848,
      "##armon": 4849,
      "ncardinal": 4850,
      "rostislav": 4851,
      "##eo": 4852,
      "##ild": 4853,
      "nrozb": 4854,
      "nrůž": 4855,
      "##ryz": 4856,
      "security": 4857,
      "sev": 4858,
      "new": 4859,
      "karla": 4860,
      "dalibor": 4861,
      "gu": 4862,
      "had": 4863,
      "##ěli": 4864,
      "##ml": 4865,
      "##ope": 4866,
      "ngab": 4867,
      "##lická": 4868,
      "##jedn": 4869,
      "59": 4870,
      "hyp": 4871,
      "##oust": 4872,
      "##unk": 4873,
      "hran": 4874,
      "kuk": 4875,
      "##30": 4876,
      "##cest": 4877,
      "nzkon": 4878,
      "ndel": 4879,
      "marián": 4880,
      "nnada": 4881,
      "velký": 4882,
      "církve": 4883,
      "bala": 4884,
      "cos": 4885,
      "jo": 4886,
      "lov": 4887,
      "rol": 4888,
      "##ret": 4889,
      "nven": 4890,
      "##ito": 4891,
      "npaní": 4892,
      "lykvydacy": 4893,
      "bak": 4894,
      "##ик": 4895,
      "ndušan": 4896,
      "kej": 4897,
      "ská": 4898,
      "##vík": 4899,
      "##lot": 4900,
      "##ит": 4901,
      "##war": 4902,
      "##ňujeme": 4903,
      "##ňujou": 4904,
      "nvě": 4905,
      "##telném": 4906,
      "##ostř": 4907,
      "##lický": 4908,
      "bukov": 4909,
      "##lejším": 4910,
      "rov": 4911,
      "ša": 4912,
      "##mraz": 4913,
      "nsub": 4914,
      "ndružstvo": 4915,
      "##rách": 4916,
      "##icova": 4917,
      "nrod": 4918,
      "caf": 4919,
      "šil": 4920,
      "##ertová": 4921,
      "##etail": 4922,
      "##měr": 4923,
      "poradenství": 4924,
      "nright": 4925,
      "##ění": 4926,
      "##hov": 4927,
      "##ií": 4928,
      "##ле": 4929,
      "ndrah": 4930,
      "nkli": 4931,
      "nti": 4932,
      "ngal": 4933,
      "nrndr": 4934,
      "##řila": 4935,
      "nondrej": 4936,
      "##dinace": 4937,
      "58": 4938,
      "mou": 4939,
      "war": 4940,
      "##ejb": 4941,
      "ndek": 4942,
      "##rál": 4943,
      "##yng": 4944,
      "##měk": 4945,
      "##ext": 4946,
      "card": 4947,
      "oč": 4948,
      "čet": 4949,
      "##yan": 4950,
      "##řič": 4951,
      "##eční": 4952,
      "##haz": 4953,
      "milada": 4954,
      "nejnez": 4955,
      "svoboda": 4956,
      "erika": 4957,
      "jezd": 4958,
      "kov": 4959,
      "men": 4960,
      "sára": 4961,
      "##erv": 4962,
      "nzel": 4963,
      "nstanda": 4964,
      "ncentrum": 4965,
      "##átky": 4966,
      "##zováni": 4967,
      "robin": 4968,
      "##ického": 4969,
      "boleslav": 4970,
      "fam": 4971,
      "resta": 4972,
      "##cou": 4973,
      "nhal": 4974,
      "matyáš": 4975,
      "66": 4976,
      "skal": 4977,
      "čep": 4978,
      "##rout": 4979,
      "##edl": 4980,
      "##iti": 4981,
      "stanislava": 4982,
      "import": 4983,
      "ast": 4984,
      "##log": 4985,
      "##erka": 4986,
      "nsem": 4987,
      "##omorav": 4988,
      "nbab": 4989,
      "##áčk": 4990,
      "nejnev": 4991,
      "green": 4992,
      "##adeáš": 4993,
      "67": 4994,
      "dita": 4995,
      "plu": 4996,
      "##eska": 4997,
      "##řín": 4998,
      "##lás": 4999,
      "##hala": 5000,
      "domov": 5001,
      "##iskut": 5002,
      "boř": 5003,
      "hur": 5004,
      "sud": 5005,
      "##omas": 5006,
      "npřit": 5007,
      "leona": 5008,
      "bon": 5009,
      "gabri": 5010,
      "krom": 5011,
      "míra": 5012,
      "py": 5013,
      "##ňují": 5014,
      "##anta": 5015,
      "##enova": 5016,
      "##tev": 5017,
      "moravia": 5018,
      "diana": 5019,
      "nmvdr": 5020,
      "akademie": 5021,
      "dáša": 5022,
      "týn": 5023,
      "nbrother": 5024,
      "nmiloslav": 5025,
      "nhonz": 5026,
      "občanů": 5027,
      "by": 5028,
      "bos": 5029,
      "cb": 5030,
      "fut": 5031,
      "ts": 5032,
      "##eně": 5033,
      "##ejš": 5034,
      "nju": 5035,
      "##hošť": 5036,
      "miku": 5037,
      "blat": 5038,
      "foj": 5039,
      "##eleb": 5040,
      "##isova": 5041,
      "nžaneta": 5042,
      "##lejších": 5043,
      "faj": 5044,
      "vaj": 5045,
      "##roš": 5046,
      "nmych": 5047,
      "##kován": 5048,
      "##tah": 5049,
      "nejod": 5050,
      "eco": 5051,
      "software": 5052,
      "dal": 5053,
      "oz": 5054,
      "zají": 5055,
      "##hoří": 5056,
      "klara": 5057,
      "##žka": 5058,
      "##pon": 5059,
      "##enov": 5060,
      "##nyka": 5061,
      "rodin": 5062,
      "ri": 5063,
      "šust": 5064,
      "##zu": 5065,
      "##čeny": 5066,
      "##richová": 5067,
      "ntur": 5068,
      "##oklub": 5069,
      "##ties": 5070,
      "##fek": 5071,
      "##omíra": 5072,
      "##ráčková": 5073,
      "nnejob": 5074,
      "nmari": 5075,
      "nodd": 5076,
      "76": 5077,
      "##hm": 5078,
      "##rin": 5079,
      "##anu": 5080,
      "##orů": 5081,
      "##ělejší": 5082,
      "magdalena": 5083,
      "##redit": 5084,
      "chomutov": 5085,
      "úp": 5086,
      "##yer": 5087,
      "##řany": 5088,
      "##onova": 5089,
      "nvst": 5090,
      "ndoj": 5091,
      "##evní": 5092,
      "##tila": 5093,
      "##děny": 5094,
      "##emium": 5095,
      "nkristina": 5096,
      "racing": 5097,
      "pracovníků": 5098,
      "sel": 5099,
      "##ias": 5100,
      "##racová": 5101,
      "naďa": 5102,
      "##telným": 5103,
      "přeb": 5104,
      "##ených": 5105,
      "republika": 5106,
      "network": 5107,
      "žďár": 5108,
      "68": 5109,
      "tour": 5110,
      "##omen": 5111,
      "77": 5112,
      "fak": 5113,
      "vzd": 5114,
      "šed": 5115,
      "nsek": 5116,
      "##odop": 5117,
      "##noc": 5118,
      "##abil": 5119,
      "##kys": 5120,
      "##kovy": 5121,
      "##igh": 5122,
      "school": 5123,
      "##ěves": 5124,
      "##kův": 5125,
      "šumperk": 5126,
      "##ůjč": 5127,
      "nuj": 5128,
      "##des": 5129,
      "##dař": 5130,
      "##ulance": 5131,
      "##vít": 5132,
      "city": 5133,
      "dot": 5134,
      "igor": 5135,
      "nsun": 5136,
      "##lib": 5137,
      "vlas": 5138,
      "##rás": 5139,
      "##lavou": 5140,
      "##řiž": 5141,
      "##lém": 5142,
      "##ílková": 5143,
      "##koum": 5144,
      "metal": 5145,
      "ačr": 5146,
      "bre": 5147,
      "jin": 5148,
      "kpt": 5149,
      "lap": 5150,
      "má": 5151,
      "nqu": 5152,
      "##yg": 5153,
      "##hled": 5154,
      "##lip": 5155,
      "##osova": 5156,
      "##ream": 5157,
      "ostrov": 5158,
      "nnevy": 5159,
      "teplice": 5160,
      "digital": 5161,
      "dlouhá": 5162,
      "rent": 5163,
      "vic": 5164,
      "##tnov": 5165,
      "nast": 5166,
      "##rázd": 5167,
      "nhu": 5168,
      "##měř": 5169,
      "##ářství": 5170,
      "města": 5171,
      "region": 5172,
      "kynologický": 5173,
      "lykvidaci": 5174,
      "mládeže": 5175,
      "vob": 5176,
      "wood": 5177,
      "##vent": 5178,
      "##leč": 5179,
      "##ňuješ": 5180,
      "##rami": 5181,
      "##říč": 5182,
      "nluděk": 5183,
      "havlíč": 5184,
      "##yšl": 5185,
      "brun": 5186,
      "gajd": 5187,
      "rem": 5188,
      "##kod": 5189,
      "vladislav": 5190,
      "##mannova": 5191,
      "nsilvie": 5192,
      "mezi": 5193,
      "ker": 5194,
      "##vyk": 5195,
      "##bl": 5196,
      "##rem": 5197,
      "##ancová": 5198,
      "##onom": 5199,
      "##telní": 5200,
      "nmagda": 5201,
      "beroun": 5202,
      "##alka": 5203,
      "ndoz": 5204,
      "##ráni": 5205,
      "##lovala": 5206,
      "lípa": 5207,
      "tran": 5208,
      "##šen": 5209,
      "ntro": 5210,
      "##očková": 5211,
      "##áku": 5212,
      "nust": 5213,
      "kara": 5214,
      "nly": 5215,
      "bau": 5216,
      "kras": 5217,
      "##pto": 5218,
      "starý": 5219,
      "fiš": 5220,
      "jez": 5221,
      "lor": 5222,
      "rab": 5223,
      "vok": 5224,
      "šer": 5225,
      "##vová": 5226,
      "##ovací": 5227,
      "##elní": 5228,
      "nnel": 5229,
      "##ruh": 5230,
      "##tyř": 5231,
      "##uchová": 5232,
      "nživ": 5233,
      "soukup": 5234,
      "dus": 5235,
      "##rům": 5236,
      "##kaš": 5237,
      "arm": 5238,
      "##linika": 5239,
      "fanda": 5240,
      "kněž": 5241,
      "slab": 5242,
      "##ňuji": 5243,
      "ndis": 5244,
      "##ical": 5245,
      "##plý": 5246,
      "arena": 5247,
      "krč": 5248,
      "##ůvka": 5249,
      "novotná": 5250,
      "logistics": 5251,
      "advisory": 5252,
      "npadre": 5253,
      "##řeni": 5254,
      "##lata": 5255,
      "##etlana": 5256,
      "##nie": 5257,
      "##láb": 5258,
      "##udová": 5259,
      "##řehled": 5260,
      "brab": 5261,
      "##dl": 5262,
      "##kan": 5263,
      "nmer": 5264,
      "nsob": 5265,
      "ndřev": 5266,
      "nkal": 5267,
      "##ladni": 5268,
      "nlou": 5269,
      "janča": 5270,
      "zach": 5271,
      "nmira": 5272,
      "care": 5273,
      "mys": 5274,
      "nit": 5275,
      "vend": 5276,
      "##ákova": 5277,
      "##ns": 5278,
      "##řit": 5279,
      "##39": 5280,
      "##laj": 5281,
      "##arv": 5282,
      "nbon": 5283,
      "vlaďka": 5284,
      "##něný": 5285,
      "##echová": 5286,
      "kašp": 5287,
      "obyt": 5288,
      "ales": 5289,
      "emil": 5290,
      "odborová": 5291,
      "##ůrková": 5292,
      "jung": 5293,
      "lich": 5294,
      "šta": 5295,
      "##toč": 5296,
      "##ejt": 5297,
      "##etta": 5298,
      "nlog": 5299,
      "komenského": 5300,
      "advokátní": 5301,
      "nrostislav": 5302,
      "##áka": 5303,
      "##33": 5304,
      "nneh": 5305,
      "##edla": 5306,
      "ndiv": 5307,
      "##něv": 5308,
      "luci": 5309,
      "##ock": 5310,
      "profi": 5311,
      "npatri": 5312,
      "central": 5313,
      "římskokatolická": 5314,
      "78": 5315,
      "děd": 5316,
      "##skyt": 5317,
      "##oservis": 5318,
      "chro": 5319,
      "##ytka": 5320,
      "nzdena": 5321,
      "royal": 5322,
      "institute": 5323,
      "##cp": 5324,
      "##ňovala": 5325,
      "##skovice": 5326,
      "##ráková": 5327,
      "natalie": 5328,
      "elekt": 5329,
      "kristyna": 5330,
      "association": 5331,
      "bry": 5332,
      "drob": 5333,
      "roud": 5334,
      "skola": 5335,
      "vost": 5336,
      "##yová": 5337,
      "##ýč": 5338,
      "##ico": 5339,
      "##unt": 5340,
      "paul": 5341,
      "stej": 5342,
      "##struk": 5343,
      "heřman": 5344,
      "hed": 5345,
      "##hlas": 5346,
      "##sana": 5347,
      "##moč": 5348,
      "nhod": 5349,
      "##nách": 5350,
      "##nicemi": 5351,
      "hory": 5352,
      "likvydaci": 5353,
      "ane": 5354,
      "hand": 5355,
      "##eci": 5356,
      "##31": 5357,
      "##chovice": 5358,
      "##eko": 5359,
      "nzbyněk": 5360,
      "##edik": 5361,
      "bytového": 5362,
      "pozem": 5363,
      "##way": 5364,
      "75": 5365,
      "hem": 5366,
      "ох": 5367,
      "##ue": 5368,
      "npre": 5369,
      "nmíra": 5370,
      "##ome": 5371,
      "nbed": 5372,
      "##říl": 5373,
      "##otice": 5374,
      "republice": 5375,
      "##ránková": 5376,
      "trutnov": 5377,
      "svobodová": 5378,
      "65": 5379,
      "cry": 5380,
      "tvrd": 5381,
      "vrat": 5382,
      "##zl": 5383,
      "##vob": 5384,
      "##rati": 5385,
      "##ale": 5386,
      "nsb": 5387,
      "##rut": 5388,
      "adél": 5389,
      "steh": 5390,
      "##ount": 5391,
      "commu": 5392,
      "hydro": 5393,
      "band": 5394,
      "ruz": 5395,
      "##nka": 5396,
      "##čar": 5397,
      "##ovičová": 5398,
      "nbož": 5399,
      "nalexandra": 5400,
      "ani": 5401,
      "koval": 5402,
      "##oková": 5403,
      "##lil": 5404,
      "##rtová": 5405,
      "nkoz": 5406,
      "##hoda": 5407,
      "##říbr": 5408,
      "##říjem": 5409,
      "nnejt": 5410,
      "##áře": 5411,
      "##ourek": 5412,
      "jablonec": 5413,
      "slad": 5414,
      "tě": 5415,
      "wolf": 5416,
      "##rala": 5417,
      "npí": 5418,
      "##onová": 5419,
      "##vička": 5420,
      "##ents": 5421,
      "##enými": 5422,
      "nthe": 5423,
      "##lehč": 5424,
      "lesní": 5425,
      "##itect": 5426,
      "turist": 5427,
      "special": 5428,
      "##ýs": 5429,
      "##ovcová": 5430,
      "nnejm": 5431,
      "nrez": 5432,
      "##ánů": 5433,
      "labs": 5434,
      "##lejšími": 5435,
      "nimp": 5436,
      "šťast": 5437,
      "dep": 5438,
      "nanička": 5439,
      "solar": 5440,
      "##saný": 5441,
      "##кс": 5442,
      "##telných": 5443,
      "##leha": 5444,
      "ang": 5445,
      "bohu": 5446,
      "dvora": 5447,
      "atelier": 5448,
      "##odoprava": 5449,
      "line": 5450,
      "##vav": 5451,
      "##cuc": 5452,
      "##др": 5453,
      "##ane": 5454,
      "nblu": 5455,
      "nkačka": 5456,
      "##poru": 5457,
      "npřib": 5458,
      "exhib": 5459,
      "##ňováni": 5460,
      "hodonín": 5461,
      "nlibuše": 5462,
      "sub": 5463,
      "třebíč": 5464,
      "apart": 5465,
      "nnejbez": 5466,
      "kostelec": 5467,
      "nterezka": 5468,
      "bod": 5469,
      "bea": 5470,
      "pája": 5471,
      "sí": 5472,
      "sat": 5473,
      "##dol": 5474,
      "##ělá": 5475,
      "##laž": 5476,
      "##chuk": 5477,
      "##vaři": 5478,
      "##urova": 5479,
      "##lyš": 5480,
      "pharma": 5481,
      "saf": 5482,
      "bp": 5483,
      "dor": 5484,
      "káťa": 5485,
      "nм": 5486,
      "čs": 5487,
      "##merová": 5488,
      "##vika": 5489,
      "##max": 5490,
      "rené": 5491,
      "stepan": 5492,
      "##ěnice": 5493,
      "##ňujme": 5494,
      "##olt": 5495,
      "##ady": 5496,
      "##ánky": 5497,
      "nproš": 5498,
      "##bara": 5499,
      "##ílek": 5500,
      "npeť": 5501,
      "nznep": 5502,
      "pospíš": 5503,
      "n2": 5504,
      "##ат": 5505,
      "##hoj": 5506,
      "##očí": 5507,
      "kaz": 5508,
      "##plik": 5509,
      "nrep": 5510,
      "kryst": 5511,
      "nklara": 5512,
      "nfirma": 5513,
      "vzdělávání": 5514,
      "cr": 5515,
      "##nem": 5516,
      "##atá": 5517,
      "kraje": 5518,
      "gymná": 5519,
      "bog": 5520,
      "mand": 5521,
      "sarka": 5522,
      "##eum": 5523,
      "##32": 5524,
      "##iku": 5525,
      "##oté": 5526,
      "##zační": 5527,
      "##nák": 5528,
      "##ohlav": 5529,
      "##essional": 5530,
      "beneš": 5531,
      "nšimon": 5532,
      "hola": 5533,
      "zu": 5534,
      "##ida": 5535,
      "##91": 5536,
      "##alek": 5537,
      "nseš": 5538,
      "nkan": 5539,
      "##ovanějšímu": 5540,
      "##linka": 5541,
      "nlubomír": 5542,
      "hb": 5543,
      "los": 5544,
      "nina": 5545,
      "pul": 5546,
      "čej": 5547,
      "##ph": 5548,
      "##laď": 5549,
      "ntělovýchovná": 5550,
      "pros": 5551,
      "nzask": 5552,
      "##idl": 5553,
      "česko": 5554,
      "npavlina": 5555,
      "##táže": 5556,
      "organizací": 5557,
      "##tězslav": 5558,
      "kn": 5559,
      "niz": 5560,
      "vět": 5561,
      "##90": 5562,
      "##34": 5563,
      "##ňoval": 5564,
      "##enci": 5565,
      "nme": 5566,
      "##umb": 5567,
      "##děno": 5568,
      "##ičtějším": 5569,
      "moto": 5570,
      "clean": 5571,
      "gry": 5572,
      "ke": 5573,
      "chlum": 5574,
      "nnaz": 5575,
      "##ásek": 5576,
      "draho": 5577,
      "chrudim": 5578,
      "dej": 5579,
      "flor": 5580,
      "sko": 5581,
      "##ban": 5582,
      "##broj": 5583,
      "##ťuk": 5584,
      "##itor": 5585,
      "##telná": 5586,
      "##lášt": 5587,
      "ntan": 5588,
      "##mund": 5589,
      "##ášek": 5590,
      "##čast": 5591,
      "benešov": 5592,
      "novák": 5593,
      "nagro": 5594,
      "kadlec": 5595,
      "květa": 5596,
      "sw": 5597,
      "srb": 5598,
      "tal": 5599,
      "##eth": 5600,
      "ndita": 5601,
      "prog": 5602,
      "##real": 5603,
      "##iag": 5604,
      "podnik": 5605,
      "nnejned": 5606,
      "##rávan": 5607,
      "##trp": 5608,
      "bend": 5609,
      "druž": 5610,
      "##telnými": 5611,
      "##opat": 5612,
      "##ivějším": 5613,
      "brz": 5614,
      "brněn": 5615,
      "dent": 5616,
      "doh": 5617,
      "kir": 5618,
      "sva": 5619,
      "##ux": 5620,
      "##99": 5621,
      "##35": 5622,
      "npas": 5623,
      "ndep": 5624,
      "##itz": 5625,
      "##ráč": 5626,
      "nkam": 5627,
      "nejm": 5628,
      "##ight": 5629,
      "karvin": 5630,
      "##rozen": 5631,
      "práce": 5632,
      "reh": 5633,
      "##ňuje": 5634,
      "##ovíd": 5635,
      "##lie": 5636,
      "##nicích": 5637,
      "nmilada": 5638,
      "ochran": 5639,
      "##lášter": 5640,
      "financial": 5641,
      "74": 5642,
      "dany": 5643,
      "kuz": 5644,
      "##tim": 5645,
      "##ňujte": 5646,
      "nmir": 5647,
      "nejza": 5648,
      "rozv": 5649,
      "nelektro": 5650,
      "rý": 5651,
      "vero": 5652,
      "váv": 5653,
      "##lečen": 5654,
      "##pla": 5655,
      "ndalibor": 5656,
      "kaj": 5657,
      "luky": 5658,
      "##tisk": 5659,
      "life": 5660,
      "##alizace": 5661,
      "adriana": 5662,
      "edita": 5663,
      "##ěrka": 5664,
      "ambulance": 5665,
      "automot": 5666,
      "kratochví": 5667,
      "dur": 5668,
      "roub": 5669,
      "zne": 5670,
      "##lovi": 5671,
      "##sled": 5672,
      "##ůz": 5673,
      "##níci": 5674,
      "nska": 5675,
      "nsyn": 5676,
      "ndu": 5677,
      "##láte": 5678,
      "strna": 5679,
      "nkač": 5680,
      "nšť": 5681,
      "##ošť": 5682,
      "##yber": 5683,
      "nverča": 5684,
      "dz": 5685,
      "hen": 5686,
      "kni": 5687,
      "měl": 5688,
      "žal": 5689,
      "##ást": 5690,
      "##ůvě": 5691,
      "nrozš": 5692,
      "##tering": 5693,
      "ordinace": 5694,
      "vladimíra": 5695,
      "##škub": 5696,
      "eko": 5697,
      "lep": 5698,
      "ncí": 5699,
      "##ien": 5700,
      "nsof": 5701,
      "##els": 5702,
      "##ounová": 5703,
      "ndvoj": 5704,
      "nproj": 5705,
      "nelekt": 5706,
      "##růz": 5707,
      "vaň": 5708,
      "##tejte": 5709,
      "##ičtěji": 5710,
      "mladá": 5711,
      "vision": 5712,
      "cp": 5713,
      "dov": 5714,
      "sho": 5715,
      "šul": 5716,
      "##har": 5717,
      "##inter": 5718,
      "nzlat": 5719,
      "prok": 5720,
      "##ušice": 5721,
      "soukrom": 5722,
      "njulie": 5723,
      "bru": 5724,
      "##fouk": 5725,
      "##viz": 5726,
      "ndod": 5727,
      "##ryj": 5728,
      "##teřské": 5729,
      "nfrantisek": 5730,
      "sedlá": 5731,
      "koub": 5732,
      "red": 5733,
      "##mysl": 5734,
      "##stan": 5735,
      "##jící": 5736,
      "školní": 5737,
      "doprava": 5738,
      "grand": 5739,
      "nid": 5740,
      "vep": 5741,
      "##gerová": 5742,
      "npája": 5743,
      "##etová": 5744,
      "##osta": 5745,
      "##estř": 5746,
      "##řiz": 5747,
      "##nicka": 5748,
      "##áhnu": 5749,
      "sokolov": 5750,
      "##enzion": 5751,
      "##klop": 5752,
      "písek": 5753,
      "nejbez": 5754,
      "druz": 5755,
      "##rani": 5756,
      "##níka": 5757,
      "nslu": 5758,
      "##vald": 5759,
      "komora": 5760,
      "rokyt": 5761,
      "boz": 5762,
      "hrb": 5763,
      "##iu": 5764,
      "##iích": 5765,
      "##glová": 5766,
      "##cept": 5767,
      "##ouskova": 5768,
      "nbel": 5769,
      "##eco": 5770,
      "##eclav": 5771,
      "npřej": 5772,
      "nmarian": 5773,
      "##ojed": 5774,
      "##děla": 5775,
      "##ňován": 5776,
      "nbarča": 5777,
      "anežka": 5778,
      "gard": 5779,
      "šub": 5780,
      "npož": 5781,
      "nsára": 5782,
      "##skos": 5783,
      "ntran": 5784,
      "staveb": 5785,
      "architect": 5786,
      "gallery": 5787,
      "vsetín": 5788,
      "##éd": 5789,
      "##ич": 5790,
      "##ňuj": 5791,
      "##orská": 5792,
      "##emb": 5793,
      "##obili": 5794,
      "ntu": 5795,
      "##ešovice": 5796,
      "##oraz": 5797,
      "michala": 5798,
      "nžel": 5799,
      "franta": 5800,
      "nejnes": 5801,
      "##forma": 5802,
      "zapsaný": 5803,
      "rd": 5804,
      "##žd": 5805,
      "nzdr": 5806,
      "ndef": 5807,
      "nkur": 5808,
      "##írová": 5809,
      "výbor": 5810,
      "chotě": 5811,
      "##držba": 5812,
      "klu": 5813,
      "zone": 5814,
      "##yce": 5815,
      "##ezp": 5816,
      "##líně": 5817,
      "npřid": 5818,
      "##oče": 5819,
      "##kovit": 5820,
      "přem": 5821,
      "black": 5822,
      "john": 5823,
      "tonda": 5824,
      "##sz": 5825,
      "##orov": 5826,
      "nsep": 5827,
      "nsandra": 5828,
      "ndáša": 5829,
      "##riz": 5830,
      "chmel": 5831,
      "##ider": 5832,
      "nchar": 5833,
      "nandrej": 5834,
      "nstanislava": 5835,
      "88": 5836,
      "85": 5837,
      "tenis": 5838,
      "##yně": 5839,
      "##chol": 5840,
      "##ike": 5841,
      "nsab": 5842,
      "nnen": 5843,
      "stol": 5844,
      "nlit": 5845,
      "##verz": 5846,
      "skaut": 5847,
      "hoj": 5848,
      "koř": 5849,
      "##par": 5850,
      "nmo": 5851,
      "##ativ": 5852,
      "##ative": 5853,
      "##ganiz": 5854,
      "##bau": 5855,
      "##ární": 5856,
      "adela": 5857,
      "factory": 5858,
      "klob": 5859,
      "oleš": 5860,
      "##uště": 5861,
      "nzob": 5862,
      "##lij": 5863,
      "ndon": 5864,
      "##nár": 5865,
      "nejh": 5866,
      "nlo": 5867,
      "##ourková": 5868,
      "veselá": 5869,
      "ngreen": 5870,
      "bc": 5871,
      "ban": 5872,
      "jer": 5873,
      "paj": 5874,
      "ruda": 5875,
      "rezidence": 5876,
      "sb": 5877,
      "##vers": 5878,
      "##pek": 5879,
      "##ран": 5880,
      "##stová": 5881,
      "##skov": 5882,
      "##ilka": 5883,
      "nnejú": 5884,
      "nmaz": 5885,
      "krnov": 5886,
      "nleh": 5887,
      "valaš": 5888,
      "enterprise": 5889,
      "hut": 5890,
      "leb": 5891,
      "##žní": 5892,
      "nkáťa": 5893,
      "nhub": 5894,
      "chlu": 5895,
      "##tiš": 5896,
      "motor": 5897,
      "nezávis": 5898,
      "bystřice": 5899,
      "hospod": 5900,
      "obytného": 5901,
      "bas": 5902,
      "brad": 5903,
      "koud": 5904,
      "pur": 5905,
      "volf": 5906,
      "##98": 5907,
      "##roc": 5908,
      "nvar": 5909,
      "nkul": 5910,
      "##řís": 5911,
      "nfer": 5912,
      "nšm": 5913,
      "##bach": 5914,
      "##táno": 5915,
      "nsmr": 5916,
      "nerika": 5917,
      "organy": 5918,
      "mlýn": 5919,
      "ada": 5920,
      "##lč": 5921,
      "##ící": 5922,
      "##ол": 5923,
      "##incová": 5924,
      "nmis": 5925,
      "nměst": 5926,
      "##vic": 5927,
      "nvr": 5928,
      "##ilov": 5929,
      "##itu": 5930,
      "##tala": 5931,
      "nca": 5932,
      "steel": 5933,
      "##ordin": 5934,
      "##zpívá": 5935,
      "sobot": 5936,
      "njindra": 5937,
      "##ruzeni": 5938,
      "go": 5939,
      "jos": 5940,
      "tiš": 5941,
      "##oři": 5942,
      "##ňovali": 5943,
      "ncyk": 5944,
      "##teřyna": 5945,
      "##lant": 5946,
      "sped": 5947,
      "##ňována": 5948,
      "##lickova": 5949,
      "##ičtějšími": 5950,
      "služeb": 5951,
      "##leji": 5952,
      "blá": 5953,
      "koj": 5954,
      "nyk": 5955,
      "pne": 5956,
      "tý": 5957,
      "##su": 5958,
      "##čem": 5959,
      "##liž": 5960,
      "##říká": 5961,
      "npřich": 5962,
      "##spěš": 5963,
      "realitní": 5964,
      "katar": 5965,
      "trust": 5966,
      "speed": 5967,
      "bří": 5968,
      "##ей": 5969,
      "##77": 5970,
      "##olu": 5971,
      "npřist": 5972,
      "nnejch": 5973,
      "petrov": 5974,
      "##ackova": 5975,
      "miluše": 5976,
      "investiční": 5977,
      "erik": 5978,
      "gas": 5979,
      "koci": 5980,
      "oliv": 5981,
      "##ew": 5982,
      "##ша": 5983,
      "npil": 5984,
      "nsuch": 5985,
      "ntělocvičná": 5986,
      "nhyp": 5987,
      "nros": 5988,
      "ort": 5989,
      "##mburk": 5990,
      "##angel": 5991,
      "ndiana": 5992,
      "##ashion": 5993,
      "##ařová": 5994,
      "##inov": 5995,
      "njy": 5996,
      "chval": 5997,
      "##nutý": 5998,
      "##ětice": 5999,
      "##lasová": 6000,
      "bezdě": 6001,
      "gam": 6002,
      "jí": 6003,
      "náb": 6004,
      "vk": 6005,
      "zko": 6006,
      "##leny": 6007,
      "##řeno": 6008,
      "nneb": 6009,
      "##odstat": 6010,
      "naf": 6011,
      "nfar": 6012,
      "nfarma": 6013,
      "nproz": 6014,
      "nrobin": 6015,
      "commer": 6016,
      "krejčí": 6017,
      "nkryštof": 6018,
      "tří": 6019,
      "čel": 6020,
      "šva": 6021,
      "##álu": 6022,
      "##leni": 6023,
      "##íla": 6024,
      "##ins": 6025,
      "nnejna": 6026,
      "nejob": 6027,
      "karo": 6028,
      "simon": 6029,
      "##rádek": 6030,
      "břeclav": 6031,
      "bca": 6032,
      "sýk": 6033,
      "##zen": 6034,
      "##rali": 6035,
      "##elna": 6036,
      "njas": 6037,
      "##telné": 6038,
      "nmartyn": 6039,
      "master": 6040,
      "nejk": 6041,
      "nled": 6042,
      "##ustitel": 6043,
      "elect": 6044,
      "nandre": 6045,
      "nmagdalena": 6046,
      "albrech": 6047,
      "95": 6048,
      "mrk": 6049,
      "vst": 6050,
      "##jak": 6051,
      "##93": 6052,
      "nzáv": 6053,
      "nkok": 6054,
      "##imp": 6055,
      "mah": 6056,
      "havířov": 6057,
      "energo": 6058,
      "plast": 6059,
      "##řem": 6060,
      "##řena": 6061,
      "##telnému": 6062,
      "##lejšího": 6063,
      "moravský": 6064,
      "km": 6065,
      "vě": 6066,
      "##ěb": 6067,
      "##loh": 6068,
      "##pet": 6069,
      "##éry": 6070,
      "nzuz": 6071,
      "##liance": 6072,
      "nrezidence": 6073,
      "prakt": 6074,
      "##ínská": 6075,
      "##áclava": 6076,
      "##linic": 6077,
      "bohumil": 6078,
      "##ňovány": 6079,
      "buri": 6080,
      "blah": 6081,
      "bio": 6082,
      "iz": 6083,
      "klí": 6084,
      "lis": 6085,
      "##ág": 6086,
      "nnejvy": 6087,
      "nnaš": 6088,
      "moravská": 6089,
      "unie": 6090,
      "nvlaďka": 6091,
      "slun": 6092,
      "nigor": 6093,
      "lup": 6094,
      "ret": 6095,
      "##tů": 6096,
      "##arvi": 6097,
      "##eves": 6098,
      "nstra": 6099,
      "podporu": 6100,
      "nneú": 6101,
      "nleg": 6102,
      "premium": 6103,
      "sedla": 6104,
      "exhibition": 6105,
      "camp": 6106,
      "duk": 6107,
      "ep": 6108,
      "gor": 6109,
      "kája": 6110,
      "##pí": 6111,
      "npi": 6112,
      "##inska": 6113,
      "nhe": 6114,
      "##kárna": 6115,
      "chyt": 6116,
      "##mark": 6117,
      "černý": 6118,
      "nemil": 6119,
      "nrené": 6120,
      "npood": 6121,
      "logistic": 6122,
      "účetnictví": 6123,
      "bot": 6124,
      "lok": 6125,
      "louč": 6126,
      "so": 6127,
      "##vka": 6128,
      "##66": 6129,
      "ndoš": 6130,
      "##itul": 6131,
      "##echovice": 6132,
      "neh": 6133,
      "nnew": 6134,
      "union": 6135,
      "##tíž": 6136,
      "express": 6137,
      "dž": 6138,
      "son": 6139,
      "##ěříž": 6140,
      "##iím": 6141,
      "##iků": 6142,
      "##očít": 6143,
      "##ument": 6144,
      "##eníková": 6145,
      "##ýchod": 6146,
      "elena": 6147,
      "sekce": 6148,
      "hov": 6149,
      "##zel": 6150,
      "##lena": 6151,
      "##fová": 6152,
      "##gh": 6153,
      "##44": 6154,
      "nbol": 6155,
      "first": 6156,
      "nnač": 6157,
      "##ratice": 6158,
      "českých": 6159,
      "kučerová": 6160,
      "njezdecký": 6161,
      "ká": 6162,
      "##vart": 6163,
      "##iova": 6164,
      "##bc": 6165,
      "##star": 6166,
      "##encová": 6167,
      "nser": 6168,
      "nbart": 6169,
      "nvyj": 6170,
      "ncent": 6171,
      "##istů": 6172,
      "##istovi": 6173,
      "ntep": 6174,
      "vysoč": 6175,
      "křiv": 6176,
      "nicol": 6177,
      "dvořáková": 6178,
      "collec": 6179,
      "industry": 6180,
      "kno": 6181,
      "mě": 6182,
      "vop": 6183,
      "vever": 6184,
      "##fal": 6185,
      "##čena": 6186,
      "##cho": 6187,
      "##erková": 6188,
      "nsan": 6189,
      "nset": 6190,
      "nzj": 6191,
      "##nyk": 6192,
      "nrem": 6193,
      "##řip": 6194,
      "##urace": 6195,
      "bydlení": 6196,
      "bl": 6197,
      "mam": 6198,
      "##čova": 6199,
      "##40": 6200,
      "nmor": 6201,
      "##omet": 6202,
      "##ousková": 6203,
      "##ráček": 6204,
      "nhar": 6205,
      "professional": 6206,
      "prodej": 6207,
      "prostějov": 6208,
      "family": 6209,
      "fe": 6210,
      "zed": 6211,
      "zlíně": 6212,
      "##blová": 6213,
      "##76": 6214,
      "##60": 6215,
      "##elle": 6216,
      "##riam": 6217,
      "##opa": 6218,
      "nadriana": 6219,
      "nluci": 6220,
      "##act": 6221,
      "##átková": 6222,
      "##ystem": 6223,
      "nleona": 6224,
      "nvladislav": 6225,
      "vyškov": 6226,
      "air": 6227,
      "##iemi": 6228,
      "##éf": 6229,
      "##78": 6230,
      "##elská": 6231,
      "##taž": 6232,
      "nfal": 6233,
      "odv": 6234,
      "##ovými": 6235,
      "##ořice": 6236,
      "##nica": 6237,
      "##rhan": 6238,
      "nkristyna": 6239,
      "národní": 6240,
      "hous": 6241,
      "jozef": 6242,
      "liv": 6243,
      "tem": 6244,
      "##zor": 6245,
      "##klad": 6246,
      "##ťuká": 6247,
      "##ир": 6248,
      "nmlad": 6249,
      "##ečný": 6250,
      "##ničková": 6251,
      "##estav": 6252,
      "domů": 6253,
      "##ěstnan": 6254,
      "brna": 6255,
      "karin": 6256,
      "step": 6257,
      "nhost": 6258,
      "navrát": 6259,
      "properties": 6260,
      "novak": 6261,
      "bělá": 6262,
      "##lávek": 6263,
      "krumlov": 6264,
      "data": 6265,
      "fle": 6266,
      "ras": 6267,
      "sop": 6268,
      "slová": 6269,
      "úklid": 6270,
      "##ker": 6271,
      "##mos": 6272,
      "##45": 6273,
      "##ener": 6274,
      "##orka": 6275,
      "nnar": 6276,
      "##ichova": 6277,
      "##kovat": 6278,
      "anet": 6279,
      "nmatej": 6280,
      "bern": 6281,
      "nusp": 6282,
      "rybářský": 6283,
      "litvín": 6284,
      "npsych": 6285,
      "nzeměděl": 6286,
      "stejska": 6287,
      "aero": 6288,
      "řep": 6289,
      "##kli": 6290,
      "##ovník": 6291,
      "##inc": 6292,
      "##ovaz": 6293,
      "##oušová": 6294,
      "##eto": 6295,
      "nkob": 6296,
      "##děna": 6297,
      "##plan": 6298,
      "##astian": 6299,
      "ventures": 6300,
      "##řený": 6301,
      "nprav": 6302,
      "##rác": 6303,
      "nadél": 6304,
      "verunka": 6305,
      "rychnov": 6306,
      "dani": 6307,
      "zob": 6308,
      "švá": 6309,
      "žab": 6310,
      "##trová": 6311,
      "##řská": 6312,
      "##so": 6313,
      "##ňovat": 6314,
      "##osová": 6315,
      "##kovičová": 6316,
      "pavlov": 6317,
      "##ionýr": 6318,
      "přerov": 6319,
      "stein": 6320,
      "##áže": 6321,
      "bad": 6322,
      "reb": 6323,
      "nvero": 6324,
      "nneroz": 6325,
      "##sklad": 6326,
      "radovan": 6327,
      "opat": 6328,
      "ther": 6329,
      "druzstvo": 6330,
      "##dala": 6331,
      "##mela": 6332,
      "##udeb": 6333,
      "ncer": 6334,
      "##ochov": 6335,
      "nstavební": 6336,
      "##atiana": 6337,
      "federa": 6338,
      "nmyslivecké": 6339,
      "az": 6340,
      "ústav": 6341,
      "čás": 6342,
      "##zka": 6343,
      "##kejte": 6344,
      "##42": 6345,
      "##94": 6346,
      "##92": 6347,
      "##97": 6348,
      "##cep": 6349,
      "nham": 6350,
      "##ivější": 6351,
      "##terova": 6352,
      "nuš": 6353,
      "##ovým": 6354,
      "pole": 6355,
      "##nitní": 6356,
      "vítek": 6357,
      "plat": 6358,
      "##kej": 6359,
      "##bur": 6360,
      "##lac": 6361,
      "##tep": 6362,
      "nsarka": 6363,
      "##atý": 6364,
      "##itová": 6365,
      "nkup": 6366,
      "nhrad": 6367,
      "nvysp": 6368,
      "##icu": 6369,
      "maš": 6370,
      "nnaďa": 6371,
      "mates": 6372,
      "##ištění": 6373,
      "rtn": 6374,
      "advisors": 6375,
      "jem": 6376,
      "lar": 6377,
      "pik": 6378,
      "pila": 6379,
      "zka": 6380,
      "##xa": 6381,
      "##anna": 6382,
      "##esová": 6383,
      "##isť": 6384,
      "##muž": 6385,
      "nzaj": 6386,
      "##kovic": 6387,
      "##rovna": 6388,
      "angel": 6389,
      "spv": 6390,
      "115": 6391,
      "nmatyáš": 6392,
      "lak": 6393,
      "mb": 6394,
      "mgr": 6395,
      "squ": 6396,
      "##ckého": 6397,
      "npit": 6398,
      "nzma": 6399,
      "##eder": 6400,
      "ndub": 6401,
      "##mix": 6402,
      "nhyd": 6403,
      "nmaria": 6404,
      "ngold": 6405,
      "##věz": 6406,
      "nmiluše": 6407,
      "nweb": 6408,
      "fund": 6409,
      "jil": 6410,
      "čist": 6411,
      "##eném": 6412,
      "##chop": 6413,
      "##ining": 6414,
      "nnor": 6415,
      "##ečky": 6416,
      "nbou": 6417,
      "nbub": 6418,
      "nkou": 6419,
      "##rial": 6420,
      "stř": 6421,
      "##nělo": 6422,
      "ngar": 6423,
      "nrych": 6424,
      "##ucha": 6425,
      "nžal": 6426,
      "pazd": 6427,
      "viktorie": 6428,
      "štefan": 6429,
      "crew": 6430,
      "mychal": 6431,
      "bet": 6432,
      "cel": 6433,
      "muž": 6434,
      "wer": 6435,
      "##tan": 6436,
      "##41": 6437,
      "##eného": 6438,
      "##kalova": 6439,
      "nnest": 6440,
      "##telněji": 6441,
      "maruška": 6442,
      "stup": 6443,
      "innova": 6444,
      "inženýr": 6445,
      "nrozst": 6446,
      "##lout": 6447,
      "##ynová": 6448,
      "nint": 6449,
      "##ájem": 6450,
      "nnatalie": 6451,
      "##ovicích": 6452,
      "##zium": 6453,
      "n5": 6454,
      "tim": 6455,
      "##běh": 6456,
      "##gon": 6457,
      "##raly": 6458,
      "##avská": 6459,
      "##luch": 6460,
      "##něl": 6461,
      "##efon": 6462,
      "vysoké": 6463,
      "alexandr": 6464,
      "outlet": 6465,
      "kvas": 6466,
      "nali": 6467,
      "##yla": 6468,
      "##kujme": 6469,
      "##umi": 6470,
      "##49": 6471,
      "##inst": 6472,
      "##lish": 6473,
      "andy": 6474,
      "##tiz": 6475,
      "alžběta": 6476,
      "technik": 6477,
      "novos": 6478,
      "catering": 6479,
      "kyj": 6480,
      "buj": 6481,
      "hk": 6482,
      "kna": 6483,
      "wil": 6484,
      "##nom": 6485,
      "##boj": 6486,
      "##ет": 6487,
      "##86": 6488,
      "##skem": 6489,
      "ndět": 6490,
      "##nač": 6491,
      "ntat": 6492,
      "##zala": 6493,
      "##rychová": 6494,
      "alliance": 6495,
      "##myla": 6496,
      "##ářská": 6497,
      "place": 6498,
      "doubrav": 6499,
      "lucinka": 6500,
      "cib": 6501,
      "duf": 6502,
      "kus": 6503,
      "zkon": 6504,
      "##74": 6505,
      "nbur": 6506,
      "nkoč": 6507,
      "##ráj": 6508,
      "nemoc": 6509,
      "##rostřed": 6510,
      "ohří": 6511,
      "božena": 6512,
      "gy": 6513,
      "west": 6514,
      "##fel": 6515,
      "npé": 6516,
      "nboj": 6517,
      "ntra": 6518,
      "proch": 6519,
      "##ania": 6520,
      "##žila": 6521,
      "spa": 6522,
      "##saz": 6523,
      "health": 6524,
      "hospital": 6525,
      "##iagnost": 6526,
      "class": 6527,
      "kní": 6528,
      "mga": 6529,
      "##nor": 6530,
      "##tov": 6531,
      "##řme": 6532,
      "##pat": 6533,
      "##им": 6534,
      "##odová": 6535,
      "ndez": 6536,
      "nje": 6537,
      "##něli": 6538,
      "nfanda": 6539,
      "nmichala": 6540,
      "nanet": 6541,
      "##livější": 6542,
      "olš": 6543,
      "##áchym": 6544,
      "metro": 6545,
      "beta": 6546,
      "##ály": 6547,
      "##vet": 6548,
      "##grová": 6549,
      "##antová": 6550,
      "##enou": 6551,
      "##dak": 6552,
      "##ěje": 6553,
      "njam": 6554,
      "##akov": 6555,
      "##ulova": 6556,
      "ins": 6557,
      "##ánská": 6558,
      "##idy": 6559,
      "přírod": 6560,
      "plk": 6561,
      "pošt": 6562,
      "výstav": 6563,
      "online": 6564,
      "frýdek": 6565,
      "noldřich": 6566,
      "##vu": 6567,
      "##novice": 6568,
      "njk": 6569,
      "nty": 6570,
      "style": 6571,
      "nfut": 6572,
      "nkad": 6573,
      "nejch": 6574,
      "##ákem": 6575,
      "kaš": 6576,
      "nrov": 6577,
      "##ydl": 6578,
      "horách": 6579,
      "matouš": 6580,
      "pood": 6581,
      "výrob": 6582,
      "##ugust": 6583,
      "nošk": 6584,
      "darina": 6585,
      "karviná": 6586,
      "sik": 6587,
      "##řaz": 6588,
      "##jová": 6589,
      "##kovány": 6590,
      "##avá": 6591,
      "##utná": 6592,
      "nnejst": 6593,
      "mateřské": 6594,
      "##větin": 6595,
      "poděb": 6596,
      "zaz": 6597,
      "nsmart": 6598,
      "imp": 6599,
      "resid": 6600,
      "##táhnu": 6601,
      "##енко": 6602,
      "hruš": 6603,
      "kuc": 6604,
      "nс": 6605,
      "náv": 6606,
      "seh": 6607,
      "tyr": 6608,
      "žd": 6609,
      "##ěm": 6610,
      "##žov": 6611,
      "##wo": 6612,
      "##65": 6613,
      "##novská": 6614,
      "##ěles": 6615,
      "eliska": 6616,
      "nedita": 6617,
      "kapit": 6618,
      "němec": 6619,
      "digi": 6620,
      "job": 6621,
      "ur": 6622,
      "##bs": 6623,
      "##jana": 6624,
      "##fková": 6625,
      "nsi": 6626,
      "##elkova": 6627,
      "##eti": 6628,
      "ndeb": 6629,
      "##ovanějšího": 6630,
      "chr": 6631,
      "##kovič": 6632,
      "##rový": 6633,
      "prům": 6634,
      "sportov": 6635,
      "##ůrek": 6636,
      "охран": 6637,
      "automotive": 6638,
      "hok": 6639,
      "hrn": 6640,
      "just": 6641,
      "vik": 6642,
      "žid": 6643,
      "##hyb": 6644,
      "##ýl": 6645,
      "##70": 6646,
      "##race": 6647,
      "##ato": 6648,
      "##hos": 6649,
      "npřef": 6650,
      "nobs": 6651,
      "##nerv": 6652,
      "ninvest": 6653,
      "##tána": 6654,
      "vojtech": 6655,
      "draž": 6656,
      "##vinut": 6657,
      "chaloup": 6658,
      "veřejná": 6659,
      "wareh": 6660,
      "golf": 6661,
      "jit": 6662,
      "ki": 6663,
      "slád": 6664,
      "záh": 6665,
      "##tal": 6666,
      "##46": 6667,
      "##ovída": 6668,
      "##orková": 6669,
      "##atka": 6670,
      "nkult": 6671,
      "##imov": 6672,
      "nkamen": 6673,
      "##ákům": 6674,
      "##rovi": 6675,
      "nota": 6676,
      "2000": 6677,
      "##rážd": 6678,
      "##ránek": 6679,
      "cab": 6680,
      "dcn": 6681,
      "koch": 6682,
      "klárka": 6683,
      "rh": 6684,
      "sav": 6685,
      "##řeny": 6686,
      "##wi": 6687,
      "##67": 6688,
      "##oly": 6689,
      "nze": 6690,
      "přich": 6691,
      "##ontrol": 6692,
      "##rolog": 6693,
      "##ičtějšího": 6694,
      "mariánské": 6695,
      "lod": 6696,
      "n8": 6697,
      "zbor": 6698,
      "##íně": 6699,
      "##sal": 6700,
      "##ťas": 6701,
      "##ód": 6702,
      "##72": 6703,
      "##níd": 6704,
      "nsešk": 6705,
      "nejt": 6706,
      "nšte": 6707,
      "##unová": 6708,
      "krajský": 6709,
      "clinic": 6710,
      "fej": 6711,
      "gi": 6712,
      "klášter": 6713,
      "lim": 6714,
      "mc": 6715,
      "trh": 6716,
      "##vrat": 6717,
      "##ham": 6718,
      "##mal": 6719,
      "##win": 6720,
      "nzka": 6721,
      "nkov": 6722,
      "##telů": 6723,
      "andr": 6724,
      "##ákovi": 6725,
      "nodep": 6726,
      "jeř": 6727,
      "##kovec": 6728,
      "obcí": 6729,
      "##berger": 6730,
      "##ěžda": 6731,
      "nbohus": 6732,
      "umělecká": 6733,
      "ntonda": 6734,
      "jm": 6735,
      "sej": 6736,
      "##ňov": 6737,
      "##olka": 6738,
      "##šíš": 6739,
      "ndus": 6740,
      "nká": 6741,
      "chrom": 6742,
      "liga": 6743,
      "nales": 6744,
      "přer": 6745,
      "svoj": 6746,
      "##hodnoc": 6747,
      "krát": 6748,
      "bartoš": 6749,
      "nerik": 6750,
      "místek": 6751,
      "křiž": 6752,
      "##stalace": 6753,
      "nší": 6754,
      "##ěly": 6755,
      "##iáš": 6756,
      "##43": 6757,
      "nsel": 6758,
      "nzú": 6759,
      "nzvě": 6760,
      "ntroj": 6761,
      "marké": 6762,
      "nprog": 6763,
      "neuman": 6764,
      "##livějšími": 6765,
      "sklen": 6766,
      "##centr": 6767,
      "kačenka": 6768,
      "nemovitosti": 6769,
      "litoměřice": 6770,
      "organyzace": 6771,
      "cuk": 6772,
      "equ": 6773,
      "gro": 6774,
      "leš": 6775,
      "sky": 6776,
      "##žeh": 6777,
      "##éč": 6778,
      "npiv": 6779,
      "nves": 6780,
      "##rust": 6781,
      "nkvěta": 6782,
      "##ešice": 6783,
      "mala": 6784,
      "rozš": 6785,
      "##konice": 6786,
      "natali": 6787,
      "nvladimíra": 6788,
      "society": 6789,
      "##znač": 6790,
      "pražská": 6791,
      "procházková": 6792,
      "cih": 6793,
      "port": 6794,
      "ron": 6795,
      "sar": 6796,
      "sos": 6797,
      "##íb": 6798,
      "##gan": 6799,
      "##anice": 6800,
      "##ente": 6801,
      "##inut": 6802,
      "ndig": 6803,
      "##idu": 6804,
      "##ětín": 6805,
      "uherské": 6806,
      "kuž": 6807,
      "oli": 6808,
      "ram": 6809,
      "tar": 6810,
      "##ši": 6811,
      "##ýř": 6812,
      "##put": 6813,
      "##ukova": 6814,
      "##85": 6815,
      "##ciz": 6816,
      "stoj": 6817,
      "##taži": 6818,
      "##ree": 6819,
      "nmart": 6820,
      "radost": 6821,
      "nang": 6822,
      "##itelný": 6823,
      "trn": 6824,
      "##balový": 6825,
      "frýd": 6826,
      "fitness": 6827,
      "dro": 6828,
      "div": 6829,
      "ten": 6830,
      "zik": 6831,
      "##ecek": 6832,
      "##61": 6833,
      "##rouc": 6834,
      "npel": 6835,
      "nvět": 6836,
      "nzu": 6837,
      "##láme": 6838,
      "##asing": 6839,
      "##lována": 6840,
      "rozh": 6841,
      "##ido": 6842,
      "nchud": 6843,
      "milos": 6844,
      "nalexandr": 6845,
      "palackého": 6846,
      "oddíl": 6847,
      "beauty": 6848,
      "pě": 6849,
      "údržba": 6850,
      "##yková": 6851,
      "##kuju": 6852,
      "##alov": 6853,
      "##oblova": 6854,
      "##tium": 6855,
      "nmates": 6856,
      "spot": 6857,
      "##itelnému": 6858,
      "orgánů": 6859,
      "rtm": 6860,
      "aqua": 6861,
      "end": 6862,
      "šu": 6863,
      "##ua": 6864,
      "##ťan": 6865,
      "##wal": 6866,
      "##84": 6867,
      "##stop": 6868,
      "##usp": 6869,
      "##ivějších": 6870,
      "##ertova": 6871,
      "##itelnou": 6872,
      "lubos": 6873,
      "linhart": 6874,
      "bečvou": 6875,
      "státních": 6876,
      "mělník": 6877,
      "gav": 6878,
      "hak": 6879,
      "id": 6880,
      "##fl": 6881,
      "##64": 6882,
      "##aná": 6883,
      "##lax": 6884,
      "##livě": 6885,
      "nder": 6886,
      "##uly": 6887,
      "##ovanějším": 6888,
      "##ryk": 6889,
      "##rovná": 6890,
      "nlip": 6891,
      "##řete": 6892,
      "jirina": 6893,
      "nádraž": 6894,
      "##stasia": 6895,
      "dez": 6896,
      "fast": 6897,
      "las": 6898,
      "mjr": 6899,
      "ral": 6900,
      "uj": 6901,
      "##té": 6902,
      "##iat": 6903,
      "##mova": 6904,
      "##éb": 6905,
      "##71": 6906,
      "##ene": 6907,
      "##alog": 6908,
      "##dají": 6909,
      "##avě": 6910,
      "namb": 6911,
      "##imová": 6912,
      "##žij": 6913,
      "##ments": 6914,
      "haus": 6915,
      "npředp": 6916,
      "melich": 6917,
      "péťa": 6918,
      "kohout": 6919,
      "##voboz": 6920,
      "ple": 6921,
      "##luz": 6922,
      "##ivějšími": 6923,
      "malé": 6924,
      "trp": 6925,
      "komise": 6926,
      "##íčko": 6927,
      "antonin": 6928,
      "kroměříž": 6929,
      "cí": 6930,
      "nlep": 6931,
      "pust": 6932,
      "##atec": 6933,
      "##čům": 6934,
      "##96": 6935,
      "nmoh": 6936,
      "nsla": 6937,
      "##omíná": 6938,
      "nbit": 6939,
      "stod": 6940,
      "christ": 6941,
      "ivona": 6942,
      "##měl": 6943,
      "malý": 6944,
      "vojt": 6945,
      "bure": 6946,
      "štěp": 6947,
      "##áchod": 6948,
      "##yrka": 6949,
      "kadeř": 6950,
      "nvalent": 6951,
      "aj": 6952,
      "fur": 6953,
      "fashion": 6954,
      "jud": 6955,
      "lut": 6956,
      "pho": 6957,
      "rs": 6958,
      "sha": 6959,
      "čt": 6960,
      "##žou": 6961,
      "##uter": 6962,
      "##89": 6963,
      "##ern": 6964,
      "##vák": 6965,
      "##vář": 6966,
      "##hají": 6967,
      "neg": 6968,
      "##ímová": 6969,
      "skop": 6970,
      "##víj": 6971,
      "##ants": 6972,
      "vach": 6973,
      "davyd": 6974,
      "javor": 6975,
      "kudr": 6976,
      "zvě": 6977,
      "##kuš": 6978,
      "##pp": 6979,
      "##83": 6980,
      "##95": 6981,
      "##79": 6982,
      "##ejová": 6983,
      "nbest": 6984,
      "##rix": 6985,
      "##koš": 6986,
      "##isto": 6987,
      "##livějšímu": 6988,
      "horáková": 6989,
      "njohn": 6990,
      "láďa": 6991,
      "sylva": 6992,
      "divadlo": 6993,
      "buk": 6994,
      "cla": 6995,
      "ciz": 6996,
      "hob": 6997,
      "jolana": 6998,
      "##írav": 6999,
      "##ířová": 7000,
      "##olice": 7001,
      "##erz": 7002,
      "nmora": 7003,
      "##ejs": 7004,
      "##lia": 7005,
      "ndor": 7006,
      "njí": 7007,
      "##vací": 7008,
      "nkraj": 7009,
      "##řístup": 7010,
      "##upy": 7011,
      "prem": 7012,
      "##ičtější": 7013,
      "super": 7014,
      "ptá": 7015,
      "rela": 7016,
      "voh": 7017,
      "wol": 7018,
      "##řk": 7019,
      "##rg": 7020,
      "##faj": 7021,
      "##get": 7022,
      "##48": 7023,
      "##enému": 7024,
      "nplu": 7025,
      "##lách": 7026,
      "nhlad": 7027,
      "##ejšími": 7028,
      "##ábková": 7029,
      "prch": 7030,
      "kamenice": 7031,
      "##ijou": 7032,
      "model": 7033,
      "novakova": 7034,
      "novotný": 7035,
      "bohuslav": 7036,
      "specialists": 7037,
      "cal": 7038,
      "tera": 7039,
      "##átek": 7040,
      "##bek": 7041,
      "##он": 7042,
      "##čina": 7043,
      "##62": 7044,
      "nson": 7045,
      "##ruby": 7046,
      "##isek": 7047,
      "##haus": 7048,
      "stavba": 7049,
      "třebová": 7050,
      "cim": 7051,
      "retail": 7052,
      "slá": 7053,
      "##til": 7054,
      "##tlač": 7055,
      "##ferová": 7056,
      "##87": 7057,
      "##ňka": 7058,
      "##75": 7059,
      "##ikov": 7060,
      "nmiš": 7061,
      "##vilo": 7062,
      "nvesel": 7063,
      "##šími": 7064,
      "##hořel": 7065,
      "##rání": 7066,
      "nhom": 7067,
      "##štil": 7068,
      "nstat": 7069,
      "nluky": 7070,
      "##ysová": 7071,
      "nmach": 7072,
      "galerie": 7073,
      "třem": 7074,
      "státní": 7075,
      "fox": 7076,
      "hou": 7077,
      "uch": 7078,
      "zre": 7079,
      "zál": 7080,
      "##ada": 7081,
      "##cak": 7082,
      "##carová": 7083,
      "##kujete": 7084,
      "##lost": 7085,
      "##ee": 7086,
      "##ия": 7087,
      "nkun": 7088,
      "##miz": 7089,
      "ntřeb": 7090,
      "nhaj": 7091,
      "strej": 7092,
      "##ovanějších": 7093,
      "##nych": 7094,
      "nadela": 7095,
      "nškol": 7096,
      "##bauer": 7097,
      "přej": 7098,
      "nhosp": 7099,
      "##línka": 7100,
      "##strukce": 7101,
      "cech": 7102,
      "mud": 7103,
      "ryš": 7104,
      "vendy": 7105,
      "šrám": 7106,
      "##yo": 7107,
      "##reč": 7108,
      "##ůca": 7109,
      "##ťána": 7110,
      "##ил": 7111,
      "##room": 7112,
      "##erk": 7113,
      "nmul": 7114,
      "nsat": 7115,
      "nsym": 7116,
      "nvik": 7117,
      "##otion": 7118,
      "##ružní": 7119,
      "osob": 7120,
      "louny": 7121,
      "##oufal": 7122,
      "##urant": 7123,
      "regionální": 7124,
      "kroup": 7125,
      "tadeáš": 7126,
      "well": 7127,
      "##áři": 7128,
      "##nus": 7129,
      "##tro": 7130,
      "##kováni": 7131,
      "njo": 7132,
      "ntaj": 7133,
      "stora": 7134,
      "##mah": 7135,
      "##amat": 7136,
      "##rys": 7137,
      "miloslava": 7138,
      "králová": 7139,
      "kulturní": 7140,
      "svitavy": 7141,
      "experts": 7142,
      "dat": 7143,
      "hři": 7144,
      "těš": 7145,
      "##nalová": 7146,
      "##halová": 7147,
      "##rana": 7148,
      "##63": 7149,
      "npy": 7150,
      "##nia": 7151,
      "##oper": 7152,
      "##icz": 7153,
      "##evin": 7154,
      "##drb": 7155,
      "##lovská": 7156,
      "poříčí": 7157,
      "stefan": 7158,
      "lhot": 7159,
      "abp": 7160,
      "fair": 7161,
      "znep": 7162,
      "pokorná": 7163,
      "ynvest": 7164,
      "42": 7165,
      "dri": 7166,
      "fra": 7167,
      "loj": 7168,
      "rou": 7169,
      "ráj": 7170,
      "##ýv": 7171,
      "##sad": 7172,
      "##rovice": 7173,
      "##82": 7174,
      "##69": 7175,
      "##skrom": 7176,
      "njura": 7177,
      "ntř": 7178,
      "nejed": 7179,
      "jednotka": 7180,
      "##andl": 7181,
      "##štěm": 7182,
      "neli": 7183,
      "105": 7184,
      "##ičtějšímu": 7185,
      "##ана": 7186,
      "nbohumil": 7187,
      "##táhnutel": 7188,
      "chodov": 7189,
      "##účel": 7190,
      "##hospoda": 7191,
      "fojt": 7192,
      "fid": 7193,
      "hřeb": 7194,
      "lon": 7195,
      "nou": 7196,
      "nran": 7197,
      "##zerová": 7198,
      "##rv": 7199,
      "##iner": 7200,
      "nmac": 7201,
      "nvej": 7202,
      "nbran": 7203,
      "nhrd": 7204,
      "##ivý": 7205,
      "##echt": 7206,
      "nlom": 7207,
      "##viditel": 7208,
      "npodk": 7209,
      "horvat": 7210,
      "nstavby": 7211,
      "box": 7212,
      "base": 7213,
      "tab": 7214,
      "##mak": 7215,
      "##ulíková": 7216,
      "nsd": 7217,
      "##ečt": 7218,
      "##utěš": 7219,
      "##říp": 7220,
      "nhrub": 7221,
      "##upa": 7222,
      "##resh": 7223,
      "##ychová": 7224,
      "next": 7225,
      "lesy": 7226,
      "foto": 7227,
      "distribu": 7228,
      "sídliště": 7229,
      "meziříčí": 7230,
      "fro": 7231,
      "hynek": 7232,
      "mut": 7233,
      "nlá": 7234,
      "smi": 7235,
      "slep": 7236,
      "##top": 7237,
      "##rp": 7238,
      "##81": 7239,
      "##68": 7240,
      "npovy": 7241,
      "##skop": 7242,
      "info": 7243,
      "nrej": 7244,
      "nanež": 7245,
      "multi": 7246,
      "storage": 7247,
      "##yč": 7248,
      "##uru": 7249,
      "##čili": 7250,
      "njon": 7251,
      "nkni": 7252,
      "##iser": 7253,
      "##ilia": 7254,
      "##thová": 7255,
      "univers": 7256,
      "hyb": 7257,
      "komp": 7258,
      "pin": 7259,
      "##zar": 7260,
      "##tm": 7261,
      "##ovná": 7262,
      "##anet": 7263,
      "##nín": 7264,
      "nvep": 7265,
      "##now": 7266,
      "nkoh": 7267,
      "##udova": 7268,
      "##ept": 7269,
      "kačí": 7270,
      "nluk": 7271,
      "nnaf": 7272,
      "nnach": 7273,
      "##kových": 7274,
      "##oškola": 7275,
      "##olas": 7276,
      "npodp": 7277,
      "print": 7278,
      "eduard": 7279,
      "nnejneod": 7280,
      "vilém": 7281,
      "dvořák": 7282,
      "nkatar": 7283,
      "legal": 7284,
      "fel": 7285,
      "gott": 7286,
      "kuli": 7287,
      "lam": 7288,
      "vrz": 7289,
      "vláďa": 7290,
      "ří": 7291,
      "##nel": 7292,
      "##yj": 7293,
      "##47": 7294,
      "##lali": 7295,
      "nsoci": 7296,
      "##avý": 7297,
      "##nislav": 7298,
      "nbul": 7299,
      "njedno": 7300,
      "##mist": 7301,
      "stad": 7302,
      "##reb": 7303,
      "odděl": 7304,
      "nzač": 7305,
      "##lého": 7306,
      "ndav": 7307,
      "míla": 7308,
      "acc": 7309,
      "služba": 7310,
      "##hotov": 7311,
      "fc": 7312,
      "hc": 7313,
      "sul": 7314,
      "těles": 7315,
      "wag": 7316,
      "ška": 7317,
      "špa": 7318,
      "##nt": 7319,
      "##ečko": 7320,
      "##avější": 7321,
      "##oslov": 7322,
      "nten": 7323,
      "mary": 7324,
      "##adu": 7325,
      "##ivějšího": 7326,
      "##lován": 7327,
      "##lock": 7328,
      "rozst": 7329,
      "jiř": 7330,
      "mila": 7331,
      "##onsult": 7332,
      "##valit": 7333,
      "##lovský": 7334,
      "##ábina": 7335,
      "dvor": 7336,
      "george": 7337,
      "##ičtějších": 7338,
      "##vánková": 7339,
      "metují": 7340,
      "veselí": 7341,
      "košť": 7342,
      "komunitní": 7343,
      "show": 7344,
      "nanežka": 7345,
      "běh": 7346,
      "dim": 7347,
      "dam": 7348,
      "mur": 7349,
      "pš": 7350,
      "sas": 7351,
      "šik": 7352,
      "##hl": 7353,
      "##iru": 7354,
      "ndisk": 7355,
      "npřeš": 7356,
      "##anič": 7357,
      "##ovanější": 7358,
      "njarom": 7359,
      "##ejšího": 7360,
      "nrus": 7361,
      "greg": 7362,
      "uhlí": 7363,
      "##operat": 7364,
      "hip": 7365,
      "kont": 7366,
      "tet": 7367,
      "vet": 7368,
      "##oušt": 7369,
      "##atice": 7370,
      "nkvět": 7371,
      "nhej": 7372,
      "chrá": 7373,
      "##vězd": 7374,
      "nelena": 7375,
      "nkarin": 7376,
      "##ronom": 7377,
      "nnatali": 7378,
      "tax": 7379,
      "##řízení": 7380,
      "ndivad": 7381,
      "němcová": 7382,
      "hájková": 7383,
      "družst": 7384,
      "bes": 7385,
      "gra": 7386,
      "osa": 7387,
      "týna": 7388,
      "##yly": 7389,
      "##ža": 7390,
      "##rošová": 7391,
      "nzák": 7392,
      "##lux": 7393,
      "ncap": 7394,
      "petrovice": 7395,
      "njanča": 7396,
      "nbohemia": 7397,
      "##raft": 7398,
      "suchá": 7399,
      "bedná": 7400,
      "dd": 7401,
      "erb": 7402,
      "hrádek": 7403,
      "plav": 7404,
      "##dana": 7405,
      "##dolí": 7406,
      "##servis": 7407,
      "##80": 7408,
      "##aněji": 7409,
      "nsvě": 7410,
      "##šíme": 7411,
      "##nity": 7412,
      "stáj": 7413,
      "npřič": 7414,
      "proz": 7415,
      "##ánov": 7416,
      "##itace": 7417,
      "poly": 7418,
      "consor": 7419,
      "čáslav": 7420,
      "ošk": 7421,
      "šíp": 7422,
      "švih": 7423,
      "##kor": 7424,
      "##roch": 7425,
      "npek": 7426,
      "nml": 7427,
      "nmad": 7428,
      "nno": 7429,
      "##aví": 7430,
      "nban": 7431,
      "marina": 7432,
      "nnejop": 7433,
      "domaž": 7434,
      "##ocentrum": 7435,
      "##děte": 7436,
      "nejned": 7437,
      "bezp": 7438,
      "lída": 7439,
      "workshop": 7440,
      "sku": 7441,
      "vina": 7442,
      "##cové": 7443,
      "##tk": 7444,
      "##ýsek": 7445,
      "##ovad": 7446,
      "nsec": 7447,
      "nslep": 7448,
      "nvoz": 7449,
      "nnos": 7450,
      "##anie": 7451,
      "chvoj": 7452,
      "prach": 7453,
      "nčtyř": 7454,
      "all": 7455,
      "brej": 7456,
      "bach": 7457,
      "##ejších": 7458,
      "125": 7459,
      "nfranta": 7460,
      "nagentura": 7461,
      "sobě": 7462,
      "quick": 7463,
      "klatovy": 7464,
      "projekty": 7465,
      "bus": 7466,
      "misa": 7467,
      "pes": 7468,
      "zách": 7469,
      "##ěme": 7470,
      "##kus": 7471,
      "##kovalo": 7472,
      "##rohod": 7473,
      "nvm": 7474,
      "##iment": 7475,
      "##toria": 7476,
      "##urou": 7477,
      "straš": 7478,
      "samuel": 7479,
      "husova": 7480,
      "nádražní": 7481,
      "oc": 7482,
      "pic": 7483,
      "tox": 7484,
      "##tive": 7485,
      "##išt": 7486,
      "##ulík": 7487,
      "##73": 7488,
      "nplav": 7489,
      "nposp": 7490,
      "nslab": 7491,
      "nner": 7492,
      "##ouště": 7493,
      "##vařitel": 7494,
      "##icha": 7495,
      "##mač": 7496,
      "kada": 7497,
      "nšed": 7498,
      "##loš": 7499,
      "brně": 7500,
      "##vída": 7501,
      "neliska": 7502,
      "##ůvky": 7503,
      "ndarina": 7504,
      "som": 7505,
      "čin": 7506,
      "##kejme": 7507,
      "##tlová": 7508,
      "##buz": 7509,
      "##rní": 7510,
      "##ис": 7511,
      "npul": 7512,
      "npoc": 7513,
      "##ánka": 7514,
      "##umul": 7515,
      "##kově": 7516,
      "##dělan": 7517,
      "##off": 7518,
      "desig": 7519,
      "##valifik": 7520,
      "support": 7521,
      "architects": 7522,
      "kali": 7523,
      "mráz": 7524,
      "náchod": 7525,
      "sešk": 7526,
      "##izace": 7527,
      "##uť": 7528,
      "##88": 7529,
      "nsw": 7530,
      "nzná": 7531,
      "##ecko": 7532,
      "##ráno": 7533,
      "nhas": 7534,
      "##ako": 7535,
      "nspolu": 7536,
      "npřež": 7537,
      "nglobal": 7538,
      "nzají": 7539,
      "##iaková": 7540,
      "space": 7541,
      "byty": 7542,
      "leoš": 7543,
      "terezie": 7544,
      "nmíla": 7545,
      "lužnicí": 7546,
      "tělesně": 7547,
      "##operative": 7548,
      "consortium": 7549,
      "klap": 7550,
      "neč": 7551,
      "pej": 7552,
      "##mk": 7553,
      "nmok": 7554,
      "nvo": 7555,
      "##etková": 7556,
      "nbrat": 7557,
      "##itý": 7558,
      "##rány": 7559,
      "nvyž": 7560,
      "##něly": 7561,
      "##ivěji": 7562,
      "nstef": 7563,
      "nall": 7564,
      "##ávka": 7565,
      "##továny": 7566,
      "horák": 7567,
      "##licka": 7568,
      "nlev": 7569,
      "##erson": 7570,
      "##inkr": 7571,
      "majer": 7572,
      "magdaléna": 7573,
      "expo": 7574,
      "zvon": 7575,
      "engineers": 7576,
      "pivovar": 7577,
      "střelecký": 7578,
      "sdruzeni": 7579,
      "nřez": 7580,
      "tor": 7581,
      "taj": 7582,
      "##gas": 7583,
      "##účt": 7584,
      "##wood": 7585,
      "##lah": 7586,
      "##chenko": 7587,
      "nmus": 7588,
      "##cis": 7589,
      "njolana": 7590,
      "##essa": 7591,
      "##ings": 7592,
      "##tika": 7593,
      "##igová": 7594,
      "nintern": 7595,
      "##íchová": 7596,
      "hané": 7597,
      "oslavou": 7598,
      "přib": 7599,
      "##čována": 7600,
      "červená": 7601,
      "ochranu": 7602,
      "af": 7603,
      "kim": 7604,
      "klen": 7605,
      "mič": 7606,
      "sov": 7607,
      "vii": 7608,
      "žer": 7609,
      "##wn": 7610,
      "##ronic": 7611,
      "##eru": 7612,
      "##vily": 7613,
      "##ode": 7614,
      "##anace": 7615,
      "marková": 7616,
      "##ínka": 7617,
      "##ysel": 7618,
      "##rován": 7619,
      "##hlářství": 7620,
      "##itelů": 7621,
      "##itelných": 7622,
      "forest": 7623,
      "křes": 7624,
      "cooperative": 7625,
      "##skeho": 7626,
      "blansko": 7627,
      "cej": 7628,
      "dev": 7629,
      "jk": 7630,
      "jenda": 7631,
      "##opol": 7632,
      "##řeč": 7633,
      "##mik": 7634,
      "##čeno": 7635,
      "##rakt": 7636,
      "##šího": 7637,
      "nklárka": 7638,
      "##štát": 7639,
      "lucye": 7640,
      "laura": 7641,
      "odborový": 7642,
      "českoslov": 7643,
      "mohel": 7644,
      "dest": 7645,
      "gast": 7646,
      "hero": 7647,
      "máj": 7648,
      "nide": 7649,
      "řeč": 7650,
      "ан": 7651,
      "##dlová": 7652,
      "##ierová": 7653,
      "##íčka": 7654,
      "##žová": 7655,
      "##ро": 7656,
      "##ра": 7657,
      "##wide": 7658,
      "##anějším": 7659,
      "##ováž": 7660,
      "nmam": 7661,
      "nsbor": 7662,
      "ndv": 7663,
      "ndany": 7664,
      "ndlou": 7665,
      "##lány": 7666,
      "##oty": 7667,
      "nzaf": 7668,
      "##ysa": 7669,
      "ninstit": 7670,
      "nradovan": 7671,
      "##lovat": 7672,
      "##táme": 7673,
      "konop": 7674,
      "kopřiv": 7675,
      "zavad": 7676,
      "##černi": 7677,
      "##lítost": 7678,
      "##inkrement": 7679,
      "dráb": 7680,
      "slov": 7681,
      "tělovýchovná": 7682,
      "usp": 7683,
      "##áží": 7684,
      "##ěte": 7685,
      "##ovějšímu": 7686,
      "##sti": 7687,
      "##enkova": 7688,
      "##arik": 7689,
      "nsez": 7690,
      "##odor": 7691,
      "##nicím": 7692,
      "nkája": 7693,
      "##adová": 7694,
      "nmaruška": 7695,
      "prav": 7696,
      "##lof": 7697,
      "##istro": 7698,
      "nalfa": 7699,
      "reich": 7700,
      "##átko": 7701,
      "##zduš": 7702,
      "smej": 7703,
      "leasing": 7704,
      "nvic": 7705,
      "nandy": 7706,
      "doprav": 7707,
      "estates": 7708,
      "růžena": 7709,
      "energie": 7710,
      "nbožena": 7711,
      "hron": 7712,
      "neš": 7713,
      "pam": 7714,
      "sez": 7715,
      "vad": 7716,
      "vita": 7717,
      "##šim": 7718,
      "##tál": 7719,
      "##iel": 7720,
      "##ply": 7721,
      "##elice": 7722,
      "nvrat": 7723,
      "nzub": 7724,
      "##kována": 7725,
      "##isy": 7726,
      "##rárna": 7727,
      "stru": 7728,
      "lucia": 7729,
      "ncuk": 7730,
      "##uzd": 7731,
      "nchyt": 7732,
      "##spir": 7733,
      "krem": 7734,
      "zdenda": 7735,
      "##íraly": 7736,
      "##gener": 7737,
      "rapid": 7738,
      "##skoslez": 7739,
      "důl": 7740,
      "kd": 7741,
      "lej": 7742,
      "lat": 7743,
      "lop": 7744,
      "oil": 7745,
      "sona": 7746,
      "##bution": 7747,
      "##podob": 7748,
      "##čel": 7749,
      "##ralo": 7750,
      "##inů": 7751,
      "##lut": 7752,
      "##řínek": 7753,
      "nvyšk": 7754,
      "##ovaněji": 7755,
      "nuv": 7756,
      "nef": 7757,
      "schwar": 7758,
      "monča": 7759,
      "plaza": 7760,
      "světlana": 7761,
      "rožnov": 7762,
      "garden": 7763,
      "cy": 7764,
      "kvap": 7765,
      "##kin": 7766,
      "##mek": 7767,
      "##wald": 7768,
      "##ovou": 7769,
      "##anech": 7770,
      "##alíková": 7771,
      "##eman": 7772,
      "ntich": 7773,
      "martyna": 7774,
      "##rex": 7775,
      "##oček": 7776,
      "##štějšími": 7777,
      "##isty": 7778,
      "nalžběta": 7779,
      "anal": 7780,
      "##myš": 7781,
      "##livějšího": 7782,
      "nneob": 7783,
      "nresta": 7784,
      "##андр": 7785,
      "strateg": 7786,
      "strakonice": 7787,
      "salon": 7788,
      "delta": 7789,
      "dod": 7790,
      "hlava": 7791,
      "hyn": 7792,
      "krop": 7793,
      "mos": 7794,
      "put": 7795,
      "ran": 7796,
      "riz": 7797,
      "suk": 7798,
      "##den": 7799,
      "##nec": 7800,
      "##řátel": 7801,
      "##ísek": 7802,
      "##rs": 7803,
      "##anec": 7804,
      "##nízd": 7805,
      "##omu": 7806,
      "##nohor": 7807,
      "##lichová": 7808,
      "##avová": 7809,
      "##oth": 7810,
      "strán": 7811,
      "##evě": 7812,
      "##iver": 7813,
      "mast": 7814,
      "##kow": 7815,
      "pavli": 7816,
      "jazy": 7817,
      "nleoš": 7818,
      "##íral": 7819,
      "nprvní": 7820,
      "student": 7821,
      "##tection": 7822,
      "venca": 7823,
      "zdraví": 7824,
      "##účtová": 7825,
      "bast": 7826,
      "brig": 7827,
      "fl": 7828,
      "heg": 7829,
      "kum": 7830,
      "mk": 7831,
      "nži": 7832,
      "soj": 7833,
      "srd": 7834,
      "vide": 7835,
      "šar": 7836,
      "žil": 7837,
      "##ei": 7838,
      "##hn": 7839,
      "##sil": 7840,
      "##rit": 7841,
      "##oru": 7842,
      "nnena": 7843,
      "station": 7844,
      "##leská": 7845,
      "npřeč": 7846,
      "##bytek": 7847,
      "##endová": 7848,
      "##novu": 7849,
      "##minist": 7850,
      "way": 7851,
      "kin": 7852,
      "mára": 7853,
      "pf": 7854,
      "sig": 7855,
      "##pad": 7856,
      "##émy": 7857,
      "##olo": 7858,
      "##ití": 7859,
      "nnejsp": 7860,
      "##oral": 7861,
      "##íků": 7862,
      "nneop": 7863,
      "baz": 7864,
      "nox": 7865,
      "montáže": 7866,
      "educ": 7867,
      "nlubos": 7868,
      "##orient": 7869,
      "professionals": 7870,
      "bej": 7871,
      "est": 7872,
      "keb": 7873,
      "##юк": 7874,
      "##sts": 7875,
      "##orní": 7876,
      "##etiz": 7877,
      "ndž": 7878,
      "ndosp": 7879,
      "nby": 7880,
      "##mic": 7881,
      "ntor": 7882,
      "naty": 7883,
      "nema": 7884,
      "motors": 7885,
      "evrop": 7886,
      "nantonin": 7887,
      "resort": 7888,
      "##eksandr": 7889,
      "zámeč": 7890,
      "##ůvodně": 7891,
      "nsuper": 7892,
      "přírody": 7893,
      "hos": 7894,
      "lind": 7895,
      "tej": 7896,
      "šest": 7897,
      "##čo": 7898,
      "##cher": 7899,
      "##olova": 7900,
      "nnech": 7901,
      "##omal": 7902,
      "stuch": 7903,
      "##ulta": 7904,
      "##ohled": 7905,
      "##much": 7906,
      "##lováni": 7907,
      "##ávková": 7908,
      "nmiloslava": 7909,
      "##ousová": 7910,
      "bohdan": 7911,
      "zaplet": 7912,
      "vasil": 7913,
      "městský": 7914,
      "veselý": 7915,
      "##ovičky": 7916,
      "cv": 7917,
      "ded": 7918,
      "ema": 7919,
      "lex": 7920,
      "pen": 7921,
      "pís": 7922,
      "viz": 7923,
      "vrab": 7924,
      "václava": 7925,
      "šen": 7926,
      "##kuje": 7927,
      "##sed": 7928,
      "##ulí": 7929,
      "##ané": 7930,
      "##olková": 7931,
      "nservis": 7932,
      "##emož": 7933,
      "nbra": 7934,
      "##zač": 7935,
      "##štíková": 7936,
      "prag": 7937,
      "##kovo": 7938,
      "##iga": 7939,
      "##tány": 7940,
      "zahrada": 7941,
      "##ájezd": 7942,
      "nkonf": 7943,
      "vzp": 7944,
      "ntrp": 7945,
      "zakladni": 7946,
      "corner": 7947,
      "chlumec": 7948,
      "warehouse": 7949,
      "cik": 7950,
      "ků": 7951,
      "mech": 7952,
      "n6": 7953,
      "plá": 7954,
      "sand": 7955,
      "##clová": 7956,
      "##kresli": 7957,
      "nsev": 7958,
      "ndům": 7959,
      "##ruba": 7960,
      "nkuch": 7961,
      "##ref": 7962,
      "##ušek": 7963,
      "##aliza": 7964,
      "##děli": 7965,
      "##oudř": 7966,
      "nmonča": 7967,
      "zdravotnictví": 7968,
      "##ůstoj": 7969,
      "nsylva": 7970,
      "##armoniz": 7971,
      "jení": 7972,
      "ozv": 7973,
      "otev": 7974,
      "pru": 7975,
      "třeš": 7976,
      "##zult": 7977,
      "##uř": 7978,
      "##gova": 7979,
      "##alis": 7980,
      "nnáv": 7981,
      "##ound": 7982,
      "##ované": 7983,
      "##urek": 7984,
      "nlucia": 7985,
      "nšv": 7986,
      "##léč": 7987,
      "##ády": 7988,
      "##ural": 7989,
      "nhotel": 7990,
      "##menová": 7991,
      "collective": 7992,
      "august": 7993,
      "eg": 7994,
      "kind": 7995,
      "šef": 7996,
      "##cd": 7997,
      "##kuj": 7998,
      "##kos": 7999,
      "##iak": 8000,
      "##ovace": 8001,
      "##ektor": 8002,
      "nnový": 8003,
      "njozef": 8004,
      "naud": 8005,
      "##ivě": 8006,
      "nform": 8007,
      "odep": 8008,
      "neda": 8009,
      "adám": 8010,
      "##ront": 8011,
      "nymburk": 8012,
      "borov": 8013,
      "##fort": 8014,
      "vasyl": 8015,
      "quar": 8016,
      "##skuteč": 8017,
      "worldwide": 8018,
      "distribution": 8019,
      "##štědř": 8020,
      "lob": 8021,
      "mni": 8022,
      "win": 8023,
      "zj": 8024,
      "##áchová": 8025,
      "##kly": 8026,
      "##řovice": 8027,
      "##mů": 8028,
      "##ovu": 8029,
      "##ině": 8030,
      "##atova": 8031,
      "##niční": 8032,
      "nbat": 8033,
      "nmarké": 8034,
      "##ologická": 8035,
      "ninf": 8036,
      "##eřice": 8037,
      "cool": 8038,
      "##board": 8039,
      "nenerg": 8040,
      "federal": 8041,
      "##vozd": 8042,
      "distribuce": 8043,
      "alo": 8044,
      "bri": 8045,
      "cas": 8046,
      "mý": 8047,
      "zez": 8048,
      "šol": 8049,
      "##ábor": 8050,
      "##narova": 8051,
      "##ylová": 8052,
      "##tul": 8053,
      "##bon": 8054,
      "##vičková": 8055,
      "ndě": 8056,
      "nkřes": 8057,
      "##káč": 8058,
      "nrozes": 8059,
      "ngo": 8060,
      "nstup": 8061,
      "##acova": 8062,
      "seif": 8063,
      "ski": 8064,
      "peťa": 8065,
      "ladislava": 8066,
      "##veřej": 8067,
      "moravské": 8068,
      "nvelké": 8069,
      "nreality": 8070,
      "jonáš": 8071,
      "training": 8072,
      "masarykova": 8073,
      "##instalová": 8074,
      "npéťa": 8075,
      "prochaz": 8076,
      "but": 8077,
      "buz": 8078,
      "loch": 8079,
      "mic": 8080,
      "vož": 8081,
      "čas": 8082,
      "##žel": 8083,
      "##uma": 8084,
      "##ук": 8085,
      "##atiz": 8086,
      "njež": 8087,
      "nhed": 8088,
      "kac": 8089,
      "##řitelnějšího": 8090,
      "##offe": 8091,
      "nmilos": 8092,
      "dobrá": 8093,
      "schne": 8094,
      "##licek": 8095,
      "okružní": 8096,
      "##cling": 8097,
      "elite": 8098,
      "nzdenda": 8099,
      "truck": 8100,
      "slavkov": 8101,
      "##zervat": 8102,
      "##ativa": 8103,
      "rokyc": 8104,
      "nkryst": 8105,
      "patricie": 8106,
      "hend": 8107,
      "jac": 8108,
      "jáchym": 8109,
      "md": 8110,
      "nláďa": 8111,
      "pionýr": 8112,
      "rand": 8113,
      "##hý": 8114,
      "##organiz": 8115,
      "nmuz": 8116,
      "nbod": 8117,
      "nklad": 8118,
      "stříbr": 8119,
      "##kár": 8120,
      "ncomp": 8121,
      "##idla": 8122,
      "##appy": 8123,
      "##íkem": 8124,
      "nprague": 8125,
      "svetlana": 8126,
      "slezský": 8127,
      "tichá": 8128,
      "nkrás": 8129,
      "jeseník": 8130,
      "##ерг": 8131,
      "creative": 8132,
      "nstudio": 8133,
      "valašské": 8134,
      "buč": 8135,
      "good": 8136,
      "ig": 8137,
      "lili": 8138,
      "zar": 8139,
      "##der": 8140,
      "##rské": 8141,
      "##oltice": 8142,
      "##insky": 8143,
      "nsur": 8144,
      "nsouk": 8145,
      "##elná": 8146,
      "nvend": 8147,
      "##oměřice": 8148,
      "ndev": 8149,
      "##obal": 8150,
      "nateli": 8151,
      "ntob": 8152,
      "nhřeb": 8153,
      "kateřyna": 8154,
      "ngastro": 8155,
      "##kyp": 8156,
      "##istou": 8157,
      "alenka": 8158,
      "zask": 8159,
      "##táte": 8160,
      "##ábová": 8161,
      "form": 8162,
      "umění": 8163,
      "moravou": 8164,
      "svitavou": 8165,
      "rakovník": 8166,
      "time": 8167,
      "district": 8168,
      "local": 8169,
      "njirina": 8170,
      "hyper": 8171,
      "přerově": 8172,
      "showroom": 8173,
      "ah": 8174,
      "cyk": 8175,
      "gon": 8176,
      "kond": 8177,
      "tyl": 8178,
      "vrá": 8179,
      "říh": 8180,
      "švar": 8181,
      "švej": 8182,
      "##otech": 8183,
      "##centrum": 8184,
      "##eka": 8185,
      "##test": 8186,
      "##cet": 8187,
      "nmá": 8188,
      "nmyst": 8189,
      "##esh": 8190,
      "marika": 8191,
      "##taj": 8192,
      "##rei": 8193,
      "petrá": 8194,
      "##yty": 8195,
      "##isti": 8196,
      "##istech": 8197,
      "##iger": 8198,
      "nčt": 8199,
      "##nuc": 8200,
      "jelínková": 8201,
      "červený": 8202,
      "jezdecký": 8203,
      "hil": 8204,
      "jun": 8205,
      "jíd": 8206,
      "plo": 8207,
      "##oří": 8208,
      "##knut": 8209,
      "##slavice": 8210,
      "##rsk": 8211,
      "##rací": 8212,
      "##cil": 8213,
      "##telefon": 8214,
      "npřer": 8215,
      "##imo": 8216,
      "##tažitel": 8217,
      "##oje": 8218,
      "nejst": 8219,
      "chovan": 8220,
      "kaf": 8221,
      "##cík": 8222,
      "ncla": 8223,
      "##ryn": 8224,
      "lach": 8225,
      "##ejším": 8226,
      "servisní": 8227,
      "benešová": 8228,
      "drag": 8229,
      "historie": 8230,
      "nbohu": 8231,
      "##krv": 8232,
      "##ladatel": 8233,
      "##čerp": 8234,
      "civili": 8235,
      "šindel": 8236,
      "nzemědělské": 8237,
      "klou": 8238,
      "moz": 8239,
      "pyt": 8240,
      "tou": 8241,
      "západ": 8242,
      "##dar": 8243,
      "##kovaly": 8244,
      "##ein": 8245,
      "##tín": 8246,
      "##mou": 8247,
      "##ping": 8248,
      "##ovod": 8249,
      "##anou": 8250,
      "##enska": 8251,
      "##larová": 8252,
      "##alík": 8253,
      "nsmě": 8254,
      "##ouká": 8255,
      "njit": 8256,
      "nkož": 8257,
      "##romova": 8258,
      "##rávě": 8259,
      "vyč": 8260,
      "main": 8261,
      "nnaj": 8262,
      "##ney": 8263,
      "opravy": 8264,
      "dobro": 8265,
      "##matiz": 8266,
      "králov": 8267,
      "psč": 8268,
      "135": 8269,
      "veru": 8270,
      "alexander": 8271,
      "##uger": 8272,
      "vasek": 8273,
      "neurope": 8274,
      "##lávka": 8275,
      "##stein": 8276,
      "nemovitostí": 8277,
      "pneum": 8278,
      "dental": 8279,
      "sliv": 8280,
      "ved": 8281,
      "##tc": 8282,
      "nmě": 8283,
      "nsen": 8284,
      "##elt": 8285,
      "nvet": 8286,
      "##láno": 8287,
      "##ull": 8288,
      "##tain": 8289,
      "neum": 8290,
      "nalb": 8291,
      "radio": 8292,
      "complex": 8293,
      "franc": 8294,
      "nvil": 8295,
      "přiby": 8296,
      "vysoká": 8297,
      "##ctive": 8298,
      "##řetislav": 8299,
      "nnicole": 8300,
      "divize": 8301,
      "relax": 8302,
      "fisch": 8303,
      "hul": 8304,
      "sn": 8305,
      "##cni": 8306,
      "##ýšov": 8307,
      "##řilo": 8308,
      "##gs": 8309,
      "npříz": 8310,
      "##inh": 8311,
      "nsl": 8312,
      "##eky": 8313,
      "##omot": 8314,
      "##ouň": 8315,
      "##ruch": 8316,
      "nhlav": 8317,
      "##mala": 8318,
      "nfol": 8319,
      "##isté": 8320,
      "rozmaz": 8321,
      "##štění": 8322,
      "##kých": 8323,
      "podnika": 8324,
      "niky": 8325,
      "promotion": 8326,
      "novo": 8327,
      "##ůrka": 8328,
      "juni": 8329,
      "##key": 8330,
      "synd": 8331,
      "bílá": 8332,
      "nmíst": 8333,
      "nkačenka": 8334,
      "cyber": 8335,
      "hot": 8336,
      "hlou": 8337,
      "ori": 8338,
      "sym": 8339,
      "##ning": 8340,
      "##řech": 8341,
      "##íkova": 8342,
      "##žte": 8343,
      "##ovická": 8344,
      "##latá": 8345,
      "##das": 8346,
      "##omín": 8347,
      "nask": 8348,
      "##itiv": 8349,
      "##ulinka": 8350,
      "##kyt": 8351,
      "##ytí": 8352,
      "ncol": 8353,
      "##andard": 8354,
      "##bala": 8355,
      "##loust": 8356,
      "nref": 8357,
      "nlap": 8358,
      "consultants": 8359,
      "nozv": 8360,
      "prostřed": 8361,
      "nnicol": 8362,
      "energet": 8363,
      "##tivity": 8364,
      "luxus": 8365,
      "muzeum": 8366,
      "ai": 8367,
      "kep": 8368,
      "tip": 8369,
      "zák": 8370,
      "údolí": 8371,
      "##kul": 8372,
      "##rlová": 8373,
      "##ны": 8374,
      "##wan": 8375,
      "##ange": 8376,
      "nnás": 8377,
      "nkut": 8378,
      "nhab": 8379,
      "##štík": 8380,
      "##amed": 8381,
      "##nát": 8382,
      "numí": 8383,
      "chý": 8384,
      "nlux": 8385,
      "firm": 8386,
      "##idi": 8387,
      "##rovská": 8388,
      "##těles": 8389,
      "##skal": 8390,
      "karp": 8391,
      "npraž": 8392,
      "leon": 8393,
      "vladka": 8394,
      "výs": 8395,
      "nkarla": 8396,
      "tachov": 8397,
      "film": 8398,
      "##ball": 8399,
      "neduard": 8400,
      "internet": 8401,
      "otro": 8402,
      "##vánek": 8403,
      "juri": 8404,
      "mini": 8405,
      "hoff": 8406,
      "##vitelství": 8407,
      "##řimov": 8408,
      "jyří": 8409,
      "nlucinka": 8410,
      "cin": 8411,
      "credit": 8412,
      "svá": 8413,
      "вас": 8414,
      "##vys": 8415,
      "##kujeme": 8416,
      "##tp": 8417,
      "##ser": 8418,
      "##anější": 8419,
      "nnova": 8420,
      "##edová": 8421,
      "nkrej": 8422,
      "##lust": 8423,
      "##roma": 8424,
      "##oprav": 8425,
      "protection": 8426,
      "##oga": 8427,
      "##tiva": 8428,
      "nlov": 8429,
      "##iala": 8430,
      "##plh": 8431,
      "##exp": 8432,
      "para": 8433,
      "##liková": 8434,
      "nús": 8435,
      "autodoprava": 8436,
      "##řichov": 8437,
      "##lým": 8438,
      "##lými": 8439,
      "produk": 8440,
      "nicole": 8441,
      "##gien": 8442,
      "května": 8443,
      "restaurant": 8444,
      "vysočina": 8445,
      "##lishing": 8446,
      "družstevní": 8447,
      "quarter": 8448,
      "cit": 8449,
      "ján": 8450,
      "mv": 8451,
      "tělocvičná": 8452,
      "##dorf": 8453,
      "##cuk": 8454,
      "##bám": 8455,
      "##plová": 8456,
      "##fé": 8457,
      "##ality": 8458,
      "##ikem": 8459,
      "##skvr": 8460,
      "##lim": 8461,
      "ndož": 8462,
      "##ries": 8463,
      "##ising": 8464,
      "nhrab": 8465,
      "##icko": 8466,
      "##reen": 8467,
      "light": 8468,
      "##istům": 8469,
      "bohum": 8470,
      "mike": 8471,
      "irina": 8472,
      "univerz": 8473,
      "jindřiška": 8474,
      "pelik": 8475,
      "růžičková": 8476,
      "soubor": 8477,
      "demo": 8478,
      "planá": 8479,
      "záchran": 8480,
      "ester": 8481,
      "laj": 8482,
      "nrap": 8483,
      "sid": 8484,
      "tele": 8485,
      "uv": 8486,
      "vanda": 8487,
      "##kujte": 8488,
      "##bova": 8489,
      "##ante": 8490,
      "npart": 8491,
      "##ními": 8492,
      "nmys": 8493,
      "nmrz": 8494,
      "nsokol": 8495,
      "##ečku": 8496,
      "nbet": 8497,
      "nks": 8498,
      "ntvrd": 8499,
      "nhc": 8500,
      "##icím": 8501,
      "nstr": 8502,
      "##ysek": 8503,
      "nneup": 8504,
      "##táni": 8505,
      "bah": 8506,
      "bara": 8507,
      "##růhled": 8508,
      "dvoj": 8509,
      "##richova": 8510,
      "popel": 8511,
      "abd": 8512,
      "ateliér": 8513,
      "future": 8514,
      "mikuláš": 8515,
      "crypto": 8516,
      "classic": 8517,
      "designers": 8518,
      "bir": 8519,
      "dir": 8520,
      "deb": 8521,
      "fo": 8522,
      "fun": 8523,
      "gaj": 8524,
      "rum": 8525,
      "šam": 8526,
      "##vlád": 8527,
      "##yv": 8528,
      "##tán": 8529,
      "##mož": 8530,
      "##rst": 8531,
      "##кий": 8532,
      "##ince": 8533,
      "nsona": 8534,
      "##ekova": 8535,
      "##its": 8536,
      "##eca": 8537,
      "##ráte": 8538,
      "marš": 8539,
      "ngym": 8540,
      "ngabri": 8541,
      "nret": 8542,
      "##nickova": 8543,
      "##víř": 8544,
      "thomas": 8545,
      "##oubek": 8546,
      "nmagdaléna": 8547,
      "plach": 8548,
      "gregor": 8549,
      "macro": 8550,
      "##nicipal": 8551,
      "kohou": 8552,
      "##robami": 8553,
      "senior": 8554,
      "nhonzík": 8555,
      "hedvika": 8556,
      "diagnost": 8557,
      "gero": 8558,
      "nip": 8559,
      "pip": 8560,
      "##lk": 8561,
      "##lily": 8562,
      "##anějšímu": 8563,
      "##tet": 8564,
      "nvendy": 8565,
      "##kování": 8566,
      "##ecz": 8567,
      "##tiška": 8568,
      "##zdob": 8569,
      "nvýs": 8570,
      "buděj": 8571,
      "daně": 8572,
      "nzkomp": 8573,
      "nverunka": 8574,
      "chorobami": 8575,
      "community": 8576,
      "ion": 8577,
      "jára": 8578,
      "vom": 8579,
      "věd": 8580,
      "zma": 8581,
      "šal": 8582,
      "##care": 8583,
      "##řský": 8584,
      "##sť": 8585,
      "##ming": 8586,
      "##prav": 8587,
      "##éh": 8588,
      "##évol": 8589,
      "##lama": 8590,
      "##infik": 8591,
      "nmk": 8592,
      "##vita": 8593,
      "##eliz": 8594,
      "nzáp": 8595,
      "##ovanějšími": 8596,
      "nušk": 8597,
      "##cováni": 8598,
      "##ender": 8599,
      "##řeží": 8600,
      "compani": 8601,
      "sportu": 8602,
      "ntem": 8603,
      "nrub": 8604,
      "míru": 8605,
      "šmíd": 8606,
      "location": 8607,
      "nvide": 8608,
      "blue": 8609,
      "account": 8610,
      "bechy": 8611,
      "cep": 8612,
      "lp": 8613,
      "myk": 8614,
      "puch": 8615,
      "tis": 8616,
      "úst": 8617,
      "##ělová": 8618,
      "##yčů": 8619,
      "##ešín": 8620,
      "##žena": 8621,
      "##pková": 8622,
      "##úra": 8623,
      "##ravě": 8624,
      "npís": 8625,
      "nnut": 8626,
      "##ciová": 8627,
      "##omil": 8628,
      "##avor": 8629,
      "nbřez": 8630,
      "##esí": 8631,
      "##lud": 8632,
      "##asír": 8633,
      "##leby": 8634,
      "##ivo": 8635,
      "##radice": 8636,
      "nflor": 8637,
      "nstroj": 8638,
      "##tiny": 8639,
      "##roduk": 8640,
      "##továni": 8641,
      "nord": 8642,
      "opom": 8643,
      "balog": 8644,
      "nikolka": 8645,
      "nener": 8646,
      "pelh": 8647,
      "nviktorie": 8648,
      "##níčko": 8649,
      "municipal": 8650,
      "cestovní": 8651,
      "##začními": 8652,
      "mina": 8653,
      "rys": 8654,
      "##dím": 8655,
      "##trans": 8656,
      "##ících": 8657,
      "##ovějším": 8658,
      "nslov": 8659,
      "nvad": 8660,
      "nzch": 8661,
      "njel": 8662,
      "nax": 8663,
      "##mešová": 8664,
      "ntk": 8665,
      "##rásk": 8666,
      "##rácen": 8667,
      "##eze": 8668,
      "##ákovice": 8669,
      "##idel": 8670,
      "##idlová": 8671,
      "##eform": 8672,
      "podíl": 8673,
      "##oře": 8674,
      "brt": 8675,
      "martinka": 8676,
      "##ředvída": 8677,
      "##vědom": 8678,
      "##bergerová": 8679,
      "audio": 8680,
      "jaromir": 8681,
      "##stantin": 8682,
      "living": 8683,
      "císa": 8684,
      "das": 8685,
      "mist": 8686,
      "n7": 8687,
      "nrá": 8688,
      "sád": 8689,
      "zou": 8690,
      "zlata": 8691,
      "##oro": 8692,
      "##che": 8693,
      "npof": 8694,
      "nsvit": 8695,
      "nnina": 8696,
      "##skot": 8697,
      "nkola": 8698,
      "nhad": 8699,
      "##opust": 8700,
      "##upl": 8701,
      "nger": 8702,
      "nrý": 8703,
      "##artová": 8704,
      "investice": 8705,
      "nivona": 8706,
      "nikča": 8707,
      "hasič": 8708,
      "natalia": 8709,
      "nvis": 8710,
      "kund": 8711,
      "concept": 8712,
      "##lických": 8713,
      "nmychal": 8714,
      "havlíčkův": 8715,
      "cti": 8716,
      "mim": 8717,
      "pv": 8718,
      "tup": 8719,
      "vrt": 8720,
      "šlap": 8721,
      "мар": 8722,
      "##ds": 8723,
      "##kovali": 8724,
      "##šeno": 8725,
      "##ívaly": 8726,
      "##shop": 8727,
      "##enek": 8728,
      "##roun": 8729,
      "##uto": 8730,
      "##osh": 8731,
      "##kávejte": 8732,
      "##váz": 8733,
      "##ingu": 8734,
      "nrozmaz": 8735,
      "##uměl": 8736,
      "oblast": 8737,
      "nzdrav": 8738,
      "nwe": 8739,
      "##čováno": 8740,
      "nsimon": 8741,
      "nplz": 8742,
      "##rimin": 8743,
      "##cejme": 8744,
      "veronyka": 8745,
      "kratochvílová": 8746,
      "soukromý": 8747,
      "nželez": 8748,
      "campus": 8749,
      "brych": 8750,
      "hir": 8751,
      "ib": 8752,
      "mp": 8753,
      "mej": 8754,
      "plí": 8755,
      "sanace": 8756,
      "veh": 8757,
      "úsek": 8758,
      "ší": 8759,
      "##vila": 8760,
      "##obrat": 8761,
      "nbyst": 8762,
      "##utova": 8763,
      "ntab": 8764,
      "ntěž": 8765,
      "nvyčí": 8766,
      "stříte": 8767,
      "stříb": 8768,
      "##lících": 8769,
      "nejsk": 8770,
      "berg": 8771,
      "odborná": 8772,
      "evangel": 8773,
      "zeman": 8774,
      "šebest": 8775,
      "##film": 8776,
      "##rezent": 8777,
      "honzík": 8778,
      "are": 8779,
      "noj": 8780,
      "uš": 8781,
      "říč": 8782,
      "štern": 8783,
      "##xová": 8784,
      "##elov": 8785,
      "##avějšímu": 8786,
      "nbas": 8787,
      "nkras": 8788,
      "##říská": 8789,
      "nhy": 8790,
      "nháj": 8791,
      "nfk": 8792,
      "nkard": 8793,
      "nodma": 8794,
      "##věž": 8795,
      "##bauerová": 8796,
      "podles": 8797,
      "##ology": 8798,
      "##tována": 8799,
      "karl": 8800,
      "konečná": 8801,
      "cong": 8802,
      "johana": 8803,
      "kutná": 8804,
      "bystř": 8805,
      "fialová": 8806,
      "fried": 8807,
      "##řítom": 8808,
      "##nervóz": 8809,
      "stadion": 8810,
      "gala": 8811,
      "hete": 8812,
      "jord": 8813,
      "peč": 8814,
      "set": 8815,
      "tráv": 8816,
      "##zly": 8817,
      "##vír": 8818,
      "##oo": 8819,
      "##kur": 8820,
      "##anům": 8821,
      "##erni": 8822,
      "##eje": 8823,
      "##lih": 8824,
      "ndif": 8825,
      "##meš": 8826,
      "nhem": 8827,
      "marc": 8828,
      "strom": 8829,
      "##ivějšímu": 8830,
      "nun": 8831,
      "##kyň": 8832,
      "ivča": 8833,
      "ivanka": 8834,
      "nchal": 8835,
      "nangel": 8836,
      "##ardová": 8837,
      "sara": 8838,
      "oksana": 8839,
      "valerie": 8840,
      "provaz": 8841,
      "##řely": 8842,
      "nvojtech": 8843,
      "nprv": 8844,
      "ludvík": 8845,
      "##mídová": 8846,
      "vinoh": 8847,
      "build": 8848,
      "nstřední": 8849,
      "bruntál": 8850,
      "civilizačními": 8851,
      "doz": 8852,
      "hoc": 8853,
      "moc": 8854,
      "myl": 8855,
      "měch": 8856,
      "úřad": 8857,
      "čih": 8858,
      "##yta": 8859,
      "##bet": 8860,
      "##ual": 8861,
      "##anem": 8862,
      "##lal": 8863,
      "nprim": 8864,
      "##cient": 8865,
      "##vate": 8866,
      "##uss": 8867,
      "ncor": 8868,
      "##manice": 8869,
      "##tován": 8870,
      "brez": 8871,
      "npodv": 8872,
      "barbara": 8873,
      "##ítková": 8874,
      "lea": 8875,
      "regional": 8876,
      "##nických": 8877,
      "##jednod": 8878,
      "díl": 8879,
      "nika": 8880,
      "svě": 8881,
      "syk": 8882,
      "čaj": 8883,
      "##kují": 8884,
      "##íjí": 8885,
      "##úst": 8886,
      "##oves": 8887,
      "##instal": 8888,
      "nsop": 8889,
      "##illi": 8890,
      "nbru": 8891,
      "##luky": 8892,
      "ntenis": 8893,
      "##ráně": 8894,
      "npřic": 8895,
      "##reo": 8896,
      "##tig": 8897,
      "rozb": 8898,
      "##řiš": 8899,
      "##álnějšímu": 8900,
      "nmast": 8901,
      "nprakt": 8902,
      "spr": 8903,
      "nlaura": 8904,
      "sportů": 8905,
      "##rubová": 8906,
      "makro": 8907,
      "##znam": 8908,
      "mega": 8909,
      "pražský": 8910,
      "##hostice": 8911,
      "##skupení": 8912,
      "oliver": 8913,
      "hý": 8914,
      "hat": 8915,
      "nion": 8916,
      "serg": 8917,
      "tv": 8918,
      "vest": 8919,
      "šab": 8920,
      "##zí": 8921,
      "##ále": 8922,
      "##lková": 8923,
      "##řinová": 8924,
      "##íno": 8925,
      "##íly": 8926,
      "##írat": 8927,
      "##jo": 8928,
      "##juk": 8929,
      "##fond": 8930,
      "##wel": 8931,
      "##ňou": 8932,
      "##rata": 8933,
      "##iklinika": 8934,
      "nnan": 8935,
      "nzám": 8936,
      "ndud": 8937,
      "##rušová": 8938,
      "nhum": 8939,
      "##opy": 8940,
      "##ština": 8941,
      "nfc": 8942,
      "##eber": 8943,
      "##ojat": 8944,
      "chab": 8945,
      "nadv": 8946,
      "peta": 8947,
      "orlických": 8948,
      "##ehrad": 8949,
      "nchlad": 8950,
      "##ářům": 8951,
      "poláková": 8952,
      "##ejšímu": 8953,
      "nruda": 8954,
      "##ěšice": 8955,
      "npozd": 8956,
      "##límová": 8957,
      "hrubá": 8958,
      "##trpč": 8959,
      "nezávislý": 8960,
      "40": 8961,
      "dup": 8962,
      "jet": 8963,
      "nní": 8964,
      "nřeh": 8965,
      "sap": 8966,
      "žen": 8967,
      "##árov": 8968,
      "##dom": 8969,
      "##ěrová": 8970,
      "##tar": 8971,
      "##trade": 8972,
      "##čky": 8973,
      "##stin": 8974,
      "nsu": 8975,
      "nvrch": 8976,
      "nnata": 8977,
      "##skovec": 8978,
      "ndoč": 8979,
      "##objedná": 8980,
      "njab": 8981,
      "##esl": 8982,
      "nkl": 8983,
      "nhud": 8984,
      "##tage": 8985,
      "nmarika": 8986,
      "##okon": 8987,
      "##amond": 8988,
      "##hai": 8989,
      "kast": 8990,
      "##kovského": 8991,
      "nobh": 8992,
      "##igo": 8993,
      "nink": 8994,
      "nnejnek": 8995,
      "kolářová": 8996,
      "##itelná": 8997,
      "##oubková": 8998,
      "nzbož": 8999,
      "vanč": 9000,
      "systémy": 9001,
      "nozd": 9002,
      "##lupy": 9003,
      "npošk": 9004,
      "křížová": 9005,
      "doležalová": 9006,
      "##zkum": 9007,
      "cafe": 9008,
      "##otéka": 9009,
      "litvínov": 9010,
      "junior": 9011,
      "ax": 9012,
      "brav": 9013,
      "ef": 9014,
      "fan": 9015,
      "hoch": 9016,
      "rc": 9017,
      "tony": 9018,
      "voš": 9019,
      "šiš": 9020,
      "##zena": 9021,
      "##nej": 9022,
      "##tus": 9023,
      "##ius": 9024,
      "##uerova": 9025,
      "##ел": 9026,
      "##enovice": 9027,
      "npola": 9028,
      "nnové": 9029,
      "ndrob": 9030,
      "##obchod": 9031,
      "njen": 9032,
      "nair": 9033,
      "##říc": 9034,
      "##ráme": 9035,
      "##ubová": 9036,
      "##oha": 9037,
      "nejna": 9038,
      "chy": 9039,
      "nrd": 9040,
      "##istu": 9041,
      "##štěna": 9042,
      "##álnějšími": 9043,
      "##děme": 9044,
      "drž": 9045,
      "##ocha": 9046,
      "##plod": 9047,
      "##noub": 9048,
      "##íkovice": 9049,
      "##ykla": 9050,
      "olb": 9051,
      "olina": 9052,
      "##růjezd": 9053,
      "##hodnot": 9054,
      "profes": 9055,
      "boris": 9056,
      "##icate": 9057,
      "kučera": 9058,
      "publishing": 9059,
      "procházka": 9060,
      "pospíšilová": 9061,
      "brněnský": 9062,
      "nemocnice": 9063,
      "cup": 9064,
      "doš": 9065,
      "hajd": 9066,
      "nájem": 9067,
      "šnaj": 9068,
      "žit": 9069,
      "##áry": 9070,
      "##kv": 9071,
      "##orem": 9072,
      "##ators": 9073,
      "njud": 9074,
      "##naž": 9075,
      "marešová": 9076,
      "stat": 9077,
      "##línová": 9078,
      "##rant": 9079,
      "nfe": 9080,
      "chleb": 9081,
      "chrast": 9082,
      "neo": 9083,
      "##álnějšího": 9084,
      "nchod": 9085,
      "správ": 9086,
      "##rována": 9087,
      "##itelné": 9088,
      "technika": 9089,
      "##rojekt": 9090,
      "nvladka": 9091,
      "geo": 9092,
      "nrůžena": 9093,
      "squad": 9094,
      "##offee": 9095,
      "cid": 9096,
      "kis": 9097,
      "klus": 9098,
      "lav": 9099,
      "líš": 9100,
      "mend": 9101,
      "mája": 9102,
      "pak": 9103,
      "soud": 9104,
      "ús": 9105,
      "##tý": 9106,
      "##sur": 9107,
      "##stech": 9108,
      "##inům": 9109,
      "##illa": 9110,
      "nděd": 9111,
      "sti": 9112,
      "##udie": 9113,
      "nfre": 9114,
      "##ervice": 9115,
      "alp": 9116,
      "##víd": 9117,
      "##oused": 9118,
      "mikro": 9119,
      "havlíčková": 9120,
      "npolit": 9121,
      "strach": 9122,
      "obecní": 9123,
      "njindřiška": 9124,
      "táňa": 9125,
      "husit": 9126,
      "music": 9127,
      "fryd": 9128,
      "nodborová": 9129,
      "gabriel": 9130,
      "týnec": 9131,
      "apartments": 9132,
      "bd": 9133,
      "boš": 9134,
      "cip": 9135,
      "mrá": 9136,
      "nť": 9137,
      "n9": 9138,
      "nani": 9139,
      "nib": 9140,
      "sic": 9141,
      "vali": 9142,
      "##iya": 9143,
      "##řilová": 9144,
      "##sty": 9145,
      "##raty": 9146,
      "##arád": 9147,
      "nská": 9148,
      "nsud": 9149,
      "ndů": 9150,
      "ndyna": 9151,
      "nač": 9152,
      "##nami": 9153,
      "nky": 9154,
      "##opluk": 9155,
      "##ado": 9156,
      "nuč": 9157,
      "nstráž": 9158,
      "nlucye": 9159,
      "##loch": 9160,
      "##erozp": 9161,
      "##myl": 9162,
      "##scen": 9163,
      "schmid": 9164,
      "vlk": 9165,
      "nraj": 9166,
      "popl": 9167,
      "klok": 9168,
      "zaměstnan": 9169,
      "nnejnevy": 9170,
      "nstepan": 9171,
      "njunák": 9172,
      "vinohrady": 9173,
      "gut": 9174,
      "hoš": 9175,
      "kyt": 9176,
      "klep": 9177,
      "lek": 9178,
      "ušk": 9179,
      "vráb": 9180,
      "##zz": 9181,
      "##zim": 9182,
      "##acek": 9183,
      "##íky": 9184,
      "nnáb": 9185,
      "##odp": 9186,
      "##edly": 9187,
      "##ave": 9188,
      "##ecí": 9189,
      "##řínková": 9190,
      "instalace": 9191,
      "##urková": 9192,
      "nejú": 9193,
      "##ieg": 9194,
      "##kovska": 9195,
      "##rodej": 9196,
      "horvá": 9197,
      "##víc": 9198,
      "nwa": 9199,
      "##itelném": 9200,
      "##ábek": 9201,
      "##írali": 9202,
      "##ije": 9203,
      "mono": 9204,
      "olomou": 9205,
      "kadl": 9206,
      "děti": 9207,
      "lykvydaci": 9208,
      "cosmet": 9209,
      "cleaning": 9210,
      "přemysl": 9211,
      "oddělení": 9212,
      "any": 9213,
      "hust": 9214,
      "hroz": 9215,
      "uskupení": 9216,
      "you": 9217,
      "##zlová": 9218,
      "##zdělá": 9219,
      "##nava": 9220,
      "##řád": 9221,
      "##mata": 9222,
      "##ple": 9223,
      "##elič": 9224,
      "nvd": 9225,
      "##ils": 9226,
      "nzvět": 9227,
      "nbě": 9228,
      "njes": 9229,
      "ntal": 9230,
      "##rátor": 9231,
      "##evýhod": 9232,
      "nnejsk": 9233,
      "##usa": 9234,
      "nrozhod": 9235,
      "janovice": 9236,
      "nanti": 9237,
      "smrž": 9238,
      "vaší": 9239,
      "štol": 9240,
      "lubomir": 9241,
      "turnov": 9242,
      "##skočil": 9243,
      "urbanová": 9244,
      "čechy": 9245,
      "smetanova": 9246,
      "rodinný": 9247,
      "dance": 9248,
      "lena": 9249,
      "vu": 9250,
      "vé": 9251,
      "znes": 9252,
      "##zkova": 9253,
      "##šta": 9254,
      "##mům": 9255,
      "##pros": 9256,
      "##uň": 9257,
      "##far": 9258,
      "##stroj": 9259,
      "npik": 9260,
      "nmp": 9261,
      "nseh": 9262,
      "##ouchová": 9263,
      "ndup": 9264,
      "nkel": 9265,
      "##uti": 9266,
      "##uby": 9267,
      "##ube": 9268,
      "nspolup": 9269,
      "nnejos": 9270,
      "inf": 9271,
      "nkas": 9272,
      "##ident": 9273,
      "tomaš": 9274,
      "##kém": 9275,
      "##mance": 9276,
      "podv": 9277,
      "analy": 9278,
      "petrž": 9279,
      "##hodová": 9280,
      "techno": 9281,
      "šimková": 9282,
      "zbras": 9283,
      "developers": 9284,
      "nprofi": 9285,
      "##owski": 9286,
      "zemanová": 9287,
      "hamry": 9288,
      "svatava": 9289,
      "zelená": 9290,
      "hájek": 9291,
      "šmej": 9292,
      "zábřeh": 9293,
      "rataj": 9294,
      "juraj": 9295,
      "účetní": 9296,
      "##ите": 9297,
      "gymnázium": 9298,
      "cam": 9299,
      "klin": 9300,
      "mun": 9301,
      "ou": 9302,
      "sant": 9303,
      "vog": 9304,
      "věž": 9305,
      "##íval": 9306,
      "##sel": 9307,
      "##uky": 9308,
      "nplan": 9309,
      "nmol": 9310,
      "##šímu": 9311,
      "##avějšími": 9312,
      "nkm": 9313,
      "##riv": 9314,
      "ntýna": 9315,
      "##něla": 9316,
      "##ters": 9317,
      "##cíková": 9318,
      "ncv": 9319,
      "jeh": 9320,
      "##artice": 9321,
      "npřiš": 9322,
      "npodm": 9323,
      "##exu": 9324,
      "##rdová": 9325,
      "nwal": 9326,
      "niki": 9327,
      "##oupil": 9328,
      "výroba": 9329,
      "##šťany": 9330,
      "monyka": 9331,
      "##metika": 9332,
      "vítězslav": 9333,
      "products": 9334,
      "360": 9335,
      "kočí": 9336,
      "##enclová": 9337,
      "audit": 9338,
      "chrono": 9339,
      "syndicate": 9340,
      "fen": 9341,
      "gros": 9342,
      "nková": 9343,
      "pud": 9344,
      "rut": 9345,
      "viš": 9346,
      "šper": 9347,
      "##hs": 9348,
      "##iy": 9349,
      "##ус": 9350,
      "##ак": 9351,
      "##úspěš": 9352,
      "##onů": 9353,
      "nmen": 9354,
      "nsvi": 9355,
      "nbíl": 9356,
      "njust": 9357,
      "##ecnost": 9358,
      "ntáňa": 9359,
      "##urč": 9360,
      "mašková": 9361,
      "nodf": 9362,
      "nrozj": 9363,
      "odh": 9364,
      "nčel": 9365,
      "anetka": 9366,
      "alt": 9367,
      "##uchy": 9368,
      "nchro": 9369,
      "jara": 9370,
      "##víti": 9371,
      "##ářem": 9372,
      "##táž": 9373,
      "ples": 9374,
      "hair": 9375,
      "simča": 9376,
      "##ácha": 9377,
      "křep": 9378,
      "##imira": 9379,
      "otto": 9380,
      "##oňovice": 9381,
      "homo": 9382,
      "nvítězslav": 9383,
      "##urance": 9384,
      "mariana": 9385,
      "nmaxim": 9386,
      "chain": 9387,
      "nkostel": 9388,
      "zemědělské": 9389,
      "těšín": 9390,
      "photo": 9391,
      "##irurg": 9392,
      "ninstitut": 9393,
      "hop": 9394,
      "krt": 9395,
      "ný": 9396,
      "pers": 9397,
      "več": 9398,
      "##oví": 9399,
      "##anska": 9400,
      "##alkova": 9401,
      "nmuž": 9402,
      "nvrt": 9403,
      "##vaj": 9404,
      "nrož": 9405,
      "nmartyna": 9406,
      "##kovala": 9407,
      "##ínský": 9408,
      "##yslová": 9409,
      "##kým": 9410,
      "obh": 9411,
      "##cován": 9412,
      "##erate": 9413,
      "nneoh": 9414,
      "nlaj": 9415,
      "##gey": 9416,
      "ultra": 9417,
      "cargo": 9418,
      "##ufová": 9419,
      "lhotka": 9420,
      "nveru": 9421,
      "chemo": 9422,
      "zahradní": 9423,
      "centre": 9424,
      "yveta": 9425,
      "uherský": 9426,
      "krásná": 9427,
      "##ásobování": 9428,
      "retro": 9429,
      "residence": 9430,
      "##myšlen": 9431,
      "video": 9432,
      "##ные": 9433,
      "duna": 9434,
      "mrz": 9435,
      "site": 9436,
      "tol": 9437,
      "toš": 9438,
      "ča": 9439,
      "část": 9440,
      "šel": 9441,
      "##kult": 9442,
      "##bat": 9443,
      "##pu": 9444,
      "##50": 9445,
      "##lalo": 9446,
      "npá": 9447,
      "nplat": 9448,
      "##olupy": 9449,
      "nslez": 9450,
      "nvláďa": 9451,
      "##hoče": 9452,
      "nhynek": 9453,
      "nvydě": 9454,
      "nnejná": 9455,
      "##maza": 9456,
      "nkaro": 9457,
      "##tinová": 9458,
      "jižní": 9459,
      "nobk": 9460,
      "toman": 9461,
      "##igur": 9462,
      "##ynova": 9463,
      "##íchov": 9464,
      "##marová": 9465,
      "##grova": 9466,
      "##ufal": 9467,
      "##ounek": 9468,
      "majka": 9469,
      "jurá": 9470,
      "nmotor": 9471,
      "viro": 9472,
      "novotna": 9473,
      "garáží": 9474,
      "interier": 9475,
      "šťastná": 9476,
      "olešnice": 9477,
      "sýkorová": 9478,
      "destin": 9479,
      "strategists": 9480,
      "analysts": 9481,
      "big": 9482,
      "cir": 9483,
      "cvr": 9484,
      "fik": 9485,
      "frid": 9486,
      "gur": 9487,
      "jal": 9488,
      "jim": 9489,
      "mika": 9490,
      "nezd": 9491,
      "tam": 9492,
      "##yerová": 9493,
      "##tvar": 9494,
      "##fika": 9495,
      "##čto": 9496,
      "npě": 9497,
      "nzkop": 9498,
      "njenda": 9499,
      "##osy": 9500,
      "##otova": 9501,
      "##očet": 9502,
      "##ešková": 9503,
      "petru": 9504,
      "nprokop": 9505,
      "odma": 9506,
      "nšik": 9507,
      "##ází": 9508,
      "##ávání": 9509,
      "##livějších": 9510,
      "nlich": 9511,
      "##zdor": 9512,
      "##pach": 9513,
      "nprch": 9514,
      "##vaný": 9515,
      "klement": 9516,
      "skalice": 9517,
      "##íváno": 9518,
      "medico": 9519,
      "nejneod": 9520,
[...]
