{
  "version": "1.0",
  "truncation": null,
  "padding": null,
  "added_tokens": [
    {
      "id": 0,
      "content": "[UNK]",
      "single_word": false,
      "lstrip": false,
      "rstrip": false,
      "normalized": false,
      "special": true
    },
    {
      "id": 1,
      "content": "[PAD]",
      "single_word": false,
      "lstrip": false,
      "rstrip": false,
      "normalized": false,
      "special": true
    }
  ],
  "normalizer": {
    "type": "Sequence",
    "normalizers": [
      {
        "type": "NFKC"
      },
      {
        "type": "Lowercase"
      }
    ]
  },
  "pre_tokenizer": {
    "type": "BertPreTokenizer"
  },
  "post_processor": null,
  "decoder": null,
  "model": {
    "type": "BPE",
    "dropout": null,
    "unk_token": "[UNK]",
    "continuing_subword_prefix": "##",
    "end_of_word_suffix": null,
    "fuse_unk": false,
    "byte_fallback": false,
    "ignore_merges": false,
    "vocab": {
      "[UNK]": 0,
      "[PAD]": 1,
      "!": 2,
      "\"": 3,
      "#": 4,
      "$": 5,
      "%": 6,
      "&": 7,
      "'": 8,
      "(": 9,
      ")": 10,
      "*": 11,
      "+": 12,
      ",": 13,
      "-": 14,
      ".": 15,
      "/": 16,
      "0": 17,
      "1": 18,
      "2": 19,
      "3": 20,
      "4": 21,
      "5": 22,
      "6": 23,
      "7": 24,
      "8": 25,
      "9": 26,
      ":": 27,
      ";": 28,
      "<": 29,
      "=": 30,
      ">": 31,
      "?": 32,
      "@": 33,
      "[": 34,
      "\\": 35,
      "]": 36,
      "^": 37,
      "_": 38,
      "`": 39,
      "a": 40,
      "b": 41,
      "c": 42,
      "d": 43,
      "e": 44,
      "f": 45,
      "g": 46,
      "h": 47,
      "i": 48,
      "j": 49,
      "k": 50,
      "l": 51,
      "m": 52,
      "n": 53,
      "o": 54,
      "p": 55,
      "q": 56,
      "r": 57,
      "s": 58,
      "t": 59,
      "u": 60,
      "v": 61,
      "w": 62,
      "x": 63,
      "y": 64,
      "z": 65,
      "{": 66,
      "|": 67,
      "}": 68,
      "~": 69,
      "§": 70,
      "©": 71,
      "«": 72,
      "­": 73,
      "®": 74,
      "°": 75,
      "»": 76,
      "à": 77,
      "á": 78,
      "â": 79,
      "ã": 80,
      "ä": 81,
      "å": 82,
      "æ": 83,
      "ç": 84,
      "è": 85,
      "é": 86,
      "ê": 87,
      "ë": 88,
      "ì": 89,
      "í": 90,
      "î": 91,
      "ï": 92,
      "ð": 93,
      "ñ": 94,
      "ò": 95,
      "ó": 96,
      "ô": 97,
      "õ": 98,
      "ö": 99,
      "÷": 100,
      "ø": 101,
      "ù": 102,
      "ú": 103,
      "û": 104,
      "ü": 105,
      "ý": 106,
      "þ": 107,
      "ÿ": 108,
      "ā": 109,
      "ă": 110,
      "ą": 111,
      "ć": 112,
      "ĉ": 113,
      "ċ": 114,
      "č": 115,
      "ď": 116,
      "đ": 117,
      "ē": 118,
      "ĕ": 119,
      "ė": 120,
      "ę": 121,
      "ě": 122,
      "ĝ": 123,
      "ğ": 124,
      "ġ": 125,
      "ģ": 126,
      "ĥ": 127,
      "ħ": 128,
      "ĩ": 129,
      "ī": 130,
      "ĭ": 131,
      "į": 132,
      "ı": 133,
      "ĵ": 134,
      "ķ": 135,
      "ĸ": 136,
      "ĺ": 137,
      "ļ": 138,
      "ľ": 139,
      "ł": 140,
      "ń": 141,
      "ņ": 142,
      "ň": 143,
      "ŋ": 144,
      "ō": 145,
      "ŏ": 146,
      "ő": 147,
      "œ": 148,
      "ŕ": 149,
      "ŗ": 150,
      "ř": 151,
      "ś": 152,
      "ŝ": 153,
      "ş": 154,
      "š": 155,
      "ţ": 156,
      "ť": 157,
      "ŧ": 158,
      "ũ": 159,
      "ū": 160,
      "ŭ": 161,
      "ů": 162,
      "ű": 163,
      "ų": 164,
      "ŷ": 165,
      "ź": 166,
      "ż": 167,
      "ž": 168,
      "ƀ": 169,
      "ƚ": 170,
      "ƛ": 171,
      "ƞ": 172,
      "ơ": 173,
      "ƥ": 174,
      "ƨ": 175,
      "ƭ": 176,
      "ư": 177,
      "ƴ": 178,
      "ƽ": 179,
      "ǎ": 180,
      "ǐ": 181,
      "ǔ": 182,
      "ǜ": 183,
      "ǝ": 184,
      "ǧ": 185,
      "ǹ": 186,
      "ǽ": 187,
      "ǿ": 188,
      "ȅ": 189,
      "ȉ": 190,
      "ȋ": 191,
      "ȕ": 192,
      "ȗ": 193,
      "ș": 194,
      "ț": 195,
      "ȝ": 196,
      "ȟ": 197,
      "ȧ": 198,
      "ȯ": 199,
      "ȶ": 200,
      "ɀ": 201,
      "ɇ": 202,
      "ɐ": 203,
      "ɓ": 204,
      "ɗ": 205,
      "ɘ": 206,
      "ə": 207,
      "ɛ": 208,
      "ɞ": 209,
      "ɣ": 210,
      "ɥ": 211,
      "ɩ": 212,
      "ɭ": 213,
      "ɯ": 214,
      "ɱ": 215,
      "ɲ": 216,
      "ɴ": 217,
      "ɹ": 218,
      "ɽ": 219,
      "ʀ": 220,
      "ʅ": 221,
      "ʆ": 222,
      "ʇ": 223,
      "ʊ": 224,
      "ʋ": 225,
      "ʌ": 226,
      "ʎ": 227,
      "ʑ": 228,
      "ʚ": 229,
      "ʞ": 230,
      "ʠ": 231,
      "ˇ": 232,
      "́": 233,
      "̇": 234,
      "̈": 235,
      "̋": 236,
      "̶": 237,
      "ΐ": 238,
      "ά": 239,
      "έ": 240,
      "ή": 241,
      "ί": 242,
      "α": 243,
      "β": 244,
      "γ": 245,
      "δ": 246,
      "ε": 247,
      "ζ": 248,
      "η": 249,
      "θ": 250,
      "ι": 251,
      "κ": 252,
      "λ": 253,
      "μ": 254,
      "ν": 255,
      "ξ": 256,
      "ο": 257,
      "π": 258,
      "ρ": 259,
      "σ": 260,
      "τ": 261,
      "υ": 262,
      "φ": 263,
      "χ": 264,
      "ψ": 265,
      "ω": 266,
      "ϊ": 267,
      "ϋ": 268,
      "ό": 269,
      "ύ": 270,
      "ώ": 271,
      "а": 272,
      "б": 273,
      "в": 274,
      "г": 275,
      "д": 276,
      "е": 277,
      "ж": 278,
      "з": 279,
      "и": 280,
      "й": 281,
      "к": 282,
      "л": 283,
      "м": 284,
      "н": 285,
      "о": 286,
      "п": 287,
      "р": 288,
      "с": 289,
      "т": 290,
      "у": 291,
      "ф": 292,
      "х": 293,
      "ц": 294,
      "ч": 295,
      "ш": 296,
      "щ": 297,
      "ъ": 298,
      "ы": 299,
      "ь": 300,
      "э": 301,
      "ю": 302,
      "я": 303,
      "ё": 304,
      "ђ": 305,
      "ѓ": 306,
      "є": 307,
      "ѕ": 308,
      "і": 309,
      "ї": 310,
      "ј": 311,
      "љ": 312,
      "њ": 313,
      "ћ": 314,
      "ў": 315,
      "џ": 316,
      "ѣ": 317,
      "ҋ": 318,
      "ґ": 319,
      "ғ": 320,
      "ҙ": 321,
      "қ": 322,
      "ҡ": 323,
      "ң": 324,
      "ҭ": 325,
      "ү": 326,
      "ұ": 327,
      "ҳ": 328,
      "ҷ": 329,
      "һ": 330,
      "ҽ": 331,
      "ә": 332,
      "ӣ": 333,
      "ө": 334,
      "ա": 335,
      "բ": 336,
      "գ": 337,
      "դ": 338,
      "ե": 339,
      "զ": 340,
      "է": 341,
      "ը": 342,
      "թ": 343,
      "ժ": 344,
      "ի": 345,
      "լ": 346,
      "խ": 347,
      "ծ": 348,
      "կ": 349,
      "հ": 350,
      "ձ": 351,
      "ղ": 352,
      "մ": 353,
      "յ": 354,
      "ն": 355,
      "շ": 356,
      "ո": 357,
      "չ": 358,
      "պ": 359,
      "ջ": 360,
      "ռ": 361,
      "ս": 362,
      "վ": 363,
      "տ": 364,
      "ր": 365,
      "ց": 366,
      "ւ": 367,
      "փ": 368,
      "ք": 369,
      "օ": 370,
      "ֆ": 371,
      "ֶ": 372,
      "ַ": 373,
      "ֹ": 374,
      "ּ": 375,
      "ׁ": 376,
      "ׂ": 377,
      "א": 378,
      "ב": 379,
      "ג": 380,
      "ד": 381,
      "ה": 382,
      "ו": 383,
      "ז": 384,
      "ח": 385,
      "ט": 386,
      "י": 387,
      "ך": 388,
      "כ": 389,
      "ל": 390,
      "ם": 391,
      "מ": 392,
      "ן": 393,
      "נ": 394,
      "ס": 395,
      "ע": 396,
      "ף": 397,
      "פ": 398,
      "צ": 399,
      "ק": 400,
      "ר": 401,
      "ש": 402,
      "ת": 403,
      "،": 404,
      "ء": 405,
      "آ": 406,
      "أ": 407,
      "ؤ": 408,
      "إ": 409,
      "ئ": 410,
      "ا": 411,
      "ب": 412,
      "ة": 413,
      "ت": 414,
      "ث": 415,
      "ج": 416,
      "ح": 417,
      "خ": 418,
      "د": 419,
      "ذ": 420,
      "ر": 421,
      "ز": 422,
      "س": 423,
      "ش": 424,
      "ص": 425,
      "ض": 426,
      "ط": 427,
      "ظ": 428,
      "ع": 429,
      "غ": 430,
      "ـ": 431,
      "ف": 432,
      "ق": 433,
      "ك": 434,
      "ل": 435,
      "م": 436,
      "ن": 437,
      "ه": 438,
      "و": 439,
      "ى": 440,
      "ي": 441,
      "ٍ": 442,
      "ِ": 443,
      "ّ": 444,
      "ٖ": 445,
      "ٛ": 446,
      "٭": 447,
      "ٰ": 448,
      "ٱ": 449,
      "ٲ": 450,
      "پ": 451,
      "ٿ": 452,
      "ځ": 453,
      "چ": 454,
      "ڈ": 455,
      "ڑ": 456,
      "ڕ": 457,
      "ژ": 458,
      "ښ": 459,
      "ڛ": 460,
      "ڤ": 461,
      "ڦ": 462,
      "ک": 463,
      "ڪ": 464,
      "ګ": 465,
      "گ": 466,
      "ڰ": 467,
      "ڵ": 468,
      "ڹ": 469,
      "ں": 470,
      "ڻ": 471,
      "ڼ": 472,
      "ھ": 473,
      "ہ": 474,
      "ۂ": 475,
      "ۃ": 476,
      "ۅ": 477,
      "ۆ": 478,
      "ۈ": 479,
      "ی": 480,
      "ێ": 481,
      "ې": 482,
      "ے": 483,
      "ە": 484,
      "ۗ": 485,
      "ۙ": 486,
      "ۚ": 487,
      "ۣ": 488,
      "ۦ": 489,
      "ۧ": 490,
      "ۨ": 491,
      "۪": 492,
      "۫": 493,
      "۬": 494,
      "ܐ": 495,
      "ܑ": 496,
      "ܒ": 497,
      "ܕ": 498,
      "ܘ": 499,
      "ܚ": 500,
      "ܛ": 501,
      "ܝ": 502,
      "ܟ": 503,
      "ܠ": 504,
      "ܡ": 505,
      "ܢ": 506,
      "ܪ": 507,
      "ܫ": 508,
      "ܬ": 509,
      "ܵ": 510,
      "ँ": 511,
      "ं": 512,
      "अ": 513,
      "आ": 514,
      "इ": 515,
      "ई": 516,
      "ए": 517,
      "औ": 518,
      "क": 519,
      "ख": 520,
      "ग": 521,
      "च": 522,
      "छ": 523,
      "ज": 524,
      "झ": 525,
      "ञ": 526,
      "ट": 527,
      "ठ": 528,
      "ड": 529,
      "ढ": 530,
      "ण": 531,
      "त": 532,
      "थ": 533,
      "द": 534,
      "न": 535,
      "प": 536,
      "फ": 537,
      "ब": 538,
      "भ": 539,
      "म": 540,
      "य": 541,
      "र": 542,
      "ल": 543,
      "व": 544,
      "श": 545,
      "स": 546,
      "ह": 547,
      "़": 548,
      "ा": 549,
      "ि": 550,
      "ी": 551,
      "ु": 552,
      "ू": 553,
      "े": 554,
      "ै": 555,
      "ो": 556,
      "ौ": 557,
      "्": 558,
      "ঁ": 559,
      "ং": 560,
      "ঃ": 561,
      "অ": 562,
      "ই": 563,
      "এ": 564,
      "ক": 565,
      "খ": 566,
      "জ": 567,
      "ট": 568,
      "ড": 569,
      "ণ": 570,
      "ত": 571,
      "দ": 572,
      "ধ": 573,
      "ন": 574,
      "প": 575,
      "ফ": 576,
      "ব": 577,
      "ভ": 578,
      "ম": 579,
      "য": 580,
      "র": 581,
      "ল": 582,
      "শ": 583,
      "ষ": 584,
      "স": 585,
      "হ": 586,
      "়": 587,
      "া": 588,
      "ি": 589,
      "ী": 590,
      "ু": 591,
      "ূ": 592,
      "ে": 593,
      "ৈ": 594,
      "ো": 595,
      "্": 596,
      "ৰ": 597,
      "ৱ": 598,
      "ਂ": 599,
      "ਊ": 600,
      "ਏ": 601,
      "ਔ": 602,
      "ਕ": 603,
      "ਖ": 604,
      "ਗ": 605,
      "ਘ": 606,
      "ਚ": 607,
      "ਜ": 608,
      "ਟ": 609,
      "ਤ": 610,
      "ਦ": 611,
      "ਨ": 612,
      "ਪ": 613,
      "ਫ": 614,
      "ਬ": 615,
      "ਮ": 616,
      "ਰ": 617,
      "ਲ": 618,
      "ਵ": 619,
      "ਸ": 620,
      "ਹ": 621,
      "ਾ": 622,
      "ਿ": 623,
      "ੀ": 624,
      "ੁ": 625,
      "ੂ": 626,
      "ੇ": 627,
      "ੈ": 628,
      "ੋ": 629,
      "੍": 630,
      "ੰ": 631,
      "ੱ": 632,
      "અ": 633,
      "ઉ": 634,
      "ક": 635,
      "ગ": 636,
      "છ": 637,
      "ડ": 638,
      "ન": 639,
      "પ": 640,
      "મ": 641,
      "ય": 642,
      "લ": 643,
      "સ": 644,
      "ા": 645,
      "િ": 646,
      "ી": 647,
      "ૂ": 648,
      "ો": 649,
      "્": 650,
      "அ": 651,
      "க": 652,
      "ச": 653,
      "ஜ": 654,
      "ட": 655,
      "ண": 656,
      "த": 657,
      "ந": 658,
      "ன": 659,
      "ப": 660,
      "ம": 661,
      "ய": 662,
      "ர": 663,
      "ல": 664,
      "ள": 665,
      "ழ": 666,
      "வ": 667,
      "ஸ": 668,
      "ா": 669,
      "ி": 670,
      "ீ": 671,
      "ு": 672,
      "ூ": 673,
      "ெ": 674,
      "ே": 675,
      "ை": 676,
      "ௌ": 677,
      "்": 678,
      "క": 679,
      "త": 680,
      "ప": 681,
      "ఫ": 682,
      "భ": 683,
      "మ": 684,
      "ర": 685,
      "స": 686,
      "ా": 687,
      "ొ": 688,
      "్": 689,
      "ಂ": 690,
      "ಕ": 691,
      "ಜ": 692,
      "ಥ": 693,
      "ದ": 694,
      "ಧ": 695,
      "ಪ": 696,
      "ಯ": 697,
      "ರ": 698,
      "ವ": 699,
      "ಸ": 700,
      "ಾ": 701,
      "ಿ": 702,
      "ೂ": 703,
      "ೇ": 704,
      "್": 705,
      "ം": 706,
      "ക": 707,
      "ഗ": 708,
      "ങ": 709,
      "ച": 710,
      "ജ": 711,
      "ഞ": 712,
      "ത": 713,
      "ന": 714,
      "ഭ": 715,
      "യ": 716,
      "ര": 717,
      "റ": 718,
      "ല": 719,
      "ള": 720,
      "വ": 721,
      "ഷ": 722,
      "ാ": 723,
      "ി": 724,
      "ു": 725,
      "െ": 726,
      "്": 727,
      "ൽ": 728,
      "ං": 729,
      "අ": 730,
      "ඌ": 731,
      "ඕ": 732,
      "ඖ": 733,
      "ච": 734,
      "ඣ": 735,
      "ඩ": 736,
      "ථ": 737,
      "ප": 738,
      "ෞ": 739,
      "ก": 740,
      "ข": 741,
      "ค": 742,
      "ฆ": 743,
      "ง": 744,
      "จ": 745,
      "ฉ": 746,
      "ช": 747,
      "ซ": 748,
      "ญ": 749,
      "ฎ": 750,
      "ฏ": 751,
      "ฐ": 752,
      "ฑ": 753,
      "ฒ": 754,
      "ณ": 755,
      "ด": 756,
      "ต": 757,
      "ถ": 758,
      "ท": 759,
      "ธ": 760,
      "น": 761,
      "บ": 762,
      "ป": 763,
      "ผ": 764,
      "ฝ": 765,
      "พ": 766,
      "ฟ": 767,
      "ภ": 768,
      "ม": 769,
      "ย": 770,
      "ร": 771,
      "ฤ": 772,
      "ล": 773,
      "ว": 774,
      "ศ": 775,
      "ษ": 776,
      "ส": 777,
      "ห": 778,
      "ฬ": 779,
      "อ": 780,
      "ฮ": 781,
      "ะ": 782,
      "ั": 783,
      "า": 784,
      "ิ": 785,
      "ี": 786,
      "ึ": 787,
      "ื": 788,
      "ุ": 789,
      "ู": 790,
      "ฺ": 791,
      "เ": 792,
      "แ": 793,
      "โ": 794,
      "ใ": 795,
      "ไ": 796,
      "ๆ": 797,
      "็": 798,
      "่": 799,
      "้": 800,
      "๊": 801,
      "๋": 802,
      "์": 803,
      "ํ": 804,
      "ກ": 805,
      "ງ": 806,
      "ຊ": 807,
      "ຍ": 808,
      "ດ": 809,
      "ຕ": 810,
      "ທ": 811,
      "ນ": 812,
      "ບ": 813,
      "ພ": 814,
      "ມ": 815,
      "ລ": 816,
      "ວ": 817,
      "ສ": 818,
      "ຫ": 819,
      "ອ": 820,
      "ະ": 821,
      "ັ": 822,
      "າ": 823,
      "ິ": 824,
      "ີ": 825,
      "ຸ": 826,
      "ົ": 827,
      "ເ": 828,
      "ແ": 829,
      "ໄ": 830,
      "່": 831,
      "້": 832,
      "་": 833,
      "ག": 834,
      "ང": 835,
      "ད": 836,
      "ན": 837,
      "བ": 838,
      "ཞ": 839,
      "ཟ": 840,
      "ར": 841,
      "ལ": 842,
      "ས": 843,
      "ི": 844,
      "ེ": 845,
      "ོ": 846,
      "ྐ": 847,
      "ྒ": 848,
      "ྨ": 849,
      "ྱ": 850,
      "ྲ": 851,
      "က": 852,
      "င": 853,
      "စ": 854,
      "တ": 855,
      "ဒ": 856,
      "န": 857,
      "ပ": 858,
      "ဗ": 859,
      "မ": 860,
      "ယ": 861,
      "ရ": 862,
      "လ": 863,
      "အ": 864,
      "ါ": 865,
      "ာ": 866,
      "ိ": 867,
      "ီ": 868,
      "ေ": 869,
      "့": 870,
      "္": 871,
      "ျ": 872,
      "ြ": 873,
      "ွ": 874,
      "။": 875,
      "ၧ": 876,
      "ა": 877,
      "ბ": 878,
      "გ": 879,
      "დ": 880,
      "ე": 881,
      "ვ": 882,
      "ზ": 883,
      "თ": 884,
      "ი": 885,
      "კ": 886,
      "ლ": 887,
      "მ": 888,
      "ნ": 889,
      "ო": 890,
      "პ": 891,
      "ჟ": 892,
      "რ": 893,
      "ს": 894,
      "ტ": 895,
      "უ": 896,
      "ფ": 897,
      "ქ": 898,
      "ღ": 899,
      "ყ": 900,
      "შ": 901,
      "ჩ": 902,
      "ც": 903,
      "ძ": 904,
      "წ": 905,
      "ჭ": 906,
      "ხ": 907,
      "ჯ": 908,
      "ሁ": 909,
      "ሂ": 910,
      "ሃ": 911,
      "ሄ": 912,
      "ህ": 913,
      "ለ": 914,
      "ሉ": 915,
      "ሊ": 916,
      "ላ": 917,
      "ሌ": 918,
      "ል": 919,
      "ሎ": 920,
      "ሓ": 921,
      "ሔ": 922,
      "ሕ": 923,
      "መ": 924,
      "ሙ": 925,
      "ሚ": 926,
      "ማ": 927,
      "ሜ": 928,
      "ም": 929,
      "ሞ": 930,
      "ረ": 931,
      "ሪ": 932,
      "ራ": 933,
      "ሬ": 934,
      "ር": 935,
      "ሮ": 936,
      "ሰ": 937,
      "ሱ": 938,
      "ሲ": 939,
      "ሳ": 940,
      "ሴ": 941,
      "ስ": 942,
      "ሶ": 943,
      "ቀ": 944,
      "ቁ": 945,
      "ቂ": 946,
      "ቃ": 947,
      "ቅ": 948,
      "ቑ": 949,
      "ቕ": 950,
      "በ": 951,
      "ቡ": 952,
      "ባ": 953,
      "ቤ": 954,
      "ብ": 955,
      "ቨ": 956,
      "ተ": 957,
      "ቱ": 958,
      "ቲ": 959,
      "ታ": 960,
      "ት": 961,
      "ቶ": 962,
      "ቻ": 963,
      "ነ": 964,
      "ኑ": 965,
      "ኒ": 966,
      "ና": 967,
      "ን": 968,
      "ኛ": 969,
      "ኝ": 970,
      "አ": 971,
      "ኢ": 972,
      "ኣ": 973,
      "ኤ": 974,
      "እ": 975,
      "ኦ": 976,
      "ከ": 977,
      "ኪ": 978,
      "ካ": 979,
      "ክ": 980,
      "ኮ": 981,
      "ኸ": 982,
      "ኹ": 983,
      "ኻ": 984,
      "ኽ": 985,
      "ወ": 986,
      "ዉ": 987,
      "ዊ": 988,
      "ዋ": 989,
      "ው": 990,
      "ዎ": 991,
      "ዑ": 992,
      "ዓ": 993,
      "ዕ": 994,
      "ዘ": 995,
      "ዚ": 996,
      "ዛ": 997,
      "ዝ": 998,
      "የ": 999,
      "ዩ": 1000,
      "ያ": 1001,
      "ይ": 1002,
      "ዮ": 1003,
      "ደ": 1004,
      "ዱ": 1005,
      "ዲ": 1006,
      "ድ": 1007,
      "ጀ": 1008,
      "ጁ": 1009,
      "ጄ": 1010,
      "ጅ": 1011,
      "ጆ": 1012,
      "ገ": 1013,
      "ጊ": 1014,
      "ጋ": 1015,
      "ግ": 1016,
      "ጎ": 1017,
      "ጠ": 1018,
      "ጥ": 1019,
      "ጨ": 1020,
      "ጫ": 1021,
      "ጴ": 1022,
      "ጸ": 1023,
      "ጹ": 1024,
      "ጽ": 1025,
      "ፈ": 1026,
      "ፉ": 1027,
      "ፋ": 1028,
      "ፍ": 1029,
      "፡": 1030,
      "።": 1031,
      "ᏸ": 1032,
      "ᐸ": 1033,
      "ᑌ": 1034,
      "ᒺ": 1035,
      "ᓬ": 1036,
      "ᓰ": 1037,
      "ᓱ": 1038,
      "ᔕ": 1039,
      "ᔡ": 1040,
      "ᔤ": 1041,
      "ᕢ": 1042,
      "ᕧ": 1043,
      "ᖆ": 1044,
      "ᖇ": 1045,
      "ᖰ": 1046,
      "ᖱ": 1047,
      "ᖴ": 1048,
      "ᖶ": 1049,
      "ᖻ": 1050,
      "ᖽ": 1051,
      "ᗂ": 1052,
      "ᗗ": 1053,
      "ᗩ": 1054,
      "ᗪ": 1055,
      "ᗴ": 1056,
      "ᘉ": 1057,
      "ᘎ": 1058,
      "ᘘ": 1059,
      "ᘜ": 1060,
      "ᘮ": 1061,
      "ᘹ": 1062,
      "ᙡ": 1063,
      "ᙢ": 1064,
      "᙭": 1065,
      "ᚠ": 1066,
      "ᚢ": 1067,
      "ᚤ": 1068,
      "ᚨ": 1069,
      "ᚪ": 1070,
      "ᚱ": 1071,
      "ᚳ": 1072,
      "ᚺ": 1073,
      "ᚻ": 1074,
      "ᚾ": 1075,
      "ᛁ": 1076,
      "ᛈ": 1077,
      "ᛋ": 1078,
      "ᛏ": 1079,
      "ᛖ": 1080,
      "ᛗ": 1081,
      "ᛘ": 1082,
      "ᛚ": 1083,
      "ᛞ": 1084,
      "ᛟ": 1085,
      "ក": 1086,
      "ខ": 1087,
      "ង": 1088,
      "ច": 1089,
      "ឆ": 1090,
      "ញ": 1091,
      "ដ": 1092,
      "ឋ": 1093,
      "ណ": 1094,
      "ត": 1095,
      "ទ": 1096,
      "ធ": 1097,
      "ន": 1098,
      "ប": 1099,
      "ផ": 1100,
      "ព": 1101,
      "ម": 1102,
      "យ": 1103,
      "រ": 1104,
      "ល": 1105,
      "វ": 1106,
      "ស": 1107,
      "ឡ": 1108,
      "អ": 1109,
      "ា": 1110,
      "ិ": 1111,
      "ី": 1112,
      "ុ": 1113,
      "ូ": 1114,
      "ួ": 1115,
      "ើ": 1116,
      "ៅ": 1117,
      "ំ": 1118,
      "៉": 1119,
      "់": 1120,
      "្": 1121,
      "។": 1122,
      "ᠠ": 1123,
      "ᠡ": 1124,
      "ᠣ": 1125,
      "ᠦ": 1126,
      "ᠨ": 1127,
      "ᠪ": 1128,
      "ᠫ": 1129,
      "ᠬ": 1130,
      "ᠭ": 1131,
      "ᠯ": 1132,
      "ᠰ": 1133,
      "ᠳ": 1134,
      "ᠷ": 1135,
      "ḍ": 1136,
      "ḛ": 1137,
      "ḣ": 1138,
      "ḿ": 1139,
      "ṁ": 1140,
      "ṃ": 1141,
      "ṅ": 1142,
      "ṇ": 1143,
      "ṏ": 1144,
      "ṟ": 1145,
      "ṡ": 1146,
      "ṣ": 1147,
      "ṧ": 1148,
      "ṭ": 1149,
      "ẑ": 1150,
      "ạ": 1151,
      "ả": 1152,
      "ấ": 1153,
      "ầ": 1154,
      "ẩ": 1155,
      "ẫ": 1156,
      "ậ": 1157,
      "ắ": 1158,
      "ằ": 1159,
      "ẵ": 1160,
      "ặ": 1161,
      "ẹ": 1162,
      "ẻ": 1163,
      "ẽ": 1164,
      "ế": 1165,
      "ề": 1166,
      "ể": 1167,
      "ễ": 1168,
      "ệ": 1169,
      "ỉ": 1170,
      "ị": 1171,
      "ọ": 1172,
      "ỏ": 1173,
      "ố": 1174,
      "ồ": 1175,
      "ổ": 1176,
      "ỗ": 1177,
      "ộ": 1178,
      "ớ": 1179,
      "ờ": 1180,
      "ở": 1181,
      "ỡ": 1182,
      "ợ": 1183,
      "ụ": 1184,
      "ủ": 1185,
      "ứ": 1186,
      "ừ": 1187,
      "ử": 1188,
      "ữ": 1189,
      "ự": 1190,
      "ỳ": 1191,
      "ỵ": 1192,
      "ỷ": 1193,
      "ỹ": 1194,
      "ἀ": 1195,
      "ἰ": 1196,
      "–": 1197,
      "—": 1198,
      "‘": 1199,
      "’": 1200,
      "“": 1201,
      "”": 1202,
      "„": 1203,
      "€": 1204,
      "⎝": 1205,
      "⎠": 1206,
      "⏝": 1207,
      "╯": 1208,
      "╰": 1209,
      "◪": 1210,
      "✫": 1211,
      "✯": 1212,
      "ⱦ": 1213,
      "ⴰ": 1214,
      "ⴷ": 1215,
      "ⴼ": 1216,
      "ⵉ": 1217,
      "ⵎ": 1218,
      "ⵕ": 1219,
      "々": 1220,
      "ぁ": 1221,
      "あ": 1222,
      "い": 1223,
      "う": 1224,
      "え": 1225,
      "お": 1226,
      "か": 1227,
      "が": 1228,
      "き": 1229,
      "ぎ": 1230,
      "く": 1231,
      "け": 1232,
      "げ": 1233,
      "こ": 1234,
      "さ": 1235,
      "し": 1236,
      "じ": 1237,
      "す": 1238,
      "ず": 1239,
      "そ": 1240,
      "た": 1241,
      "だ": 1242,
      "ち": 1243,
      "つ": 1244,
      "て": 1245,
      "で": 1246,
      "と": 1247,
      "ど": 1248,
      "な": 1249,
      "に": 1250,
      "ね": 1251,
      "の": 1252,
      "は": 1253,
      "ば": 1254,
      "ひ": 1255,
      "び": 1256,
      "ふ": 1257,
      "ぷ": 1258,
      "へ": 1259,
      "べ": 1260,
      "ほ": 1261,
      "ま": 1262,
      "み": 1263,
      "も": 1264,
      "や": 1265,
      "ゅ": 1266,
      "ゆ": 1267,
      "よ": 1268,
      "ら": 1269,
      "り": 1270,
      "る": 1271,
      "れ": 1272,
      "ろ": 1273,
      "わ": 1274,
      "を": 1275,
      "ん": 1276,
      "ァ": 1277,
      "ア": 1278,
      "ィ": 1279,
      "イ": 1280,
      "ゥ": 1281,
      "ウ": 1282,
      "ェ": 1283,
      "エ": 1284,
      "ォ": 1285,
      "オ": 1286,
      "カ": 1287,
      "ガ": 1288,
      "キ": 1289,
      "ギ": 1290,
      "ク": 1291,
      "グ": 1292,
      "ケ": 1293,
      "ゲ": 1294,
      "コ": 1295,
      "ゴ": 1296,
      "サ": 1297,
      "ザ": 1298,
      "シ": 1299,
      "ジ": 1300,
      "ス": 1301,
      "ズ": 1302,
      "セ": 1303,
      "ゼ": 1304,
      "ソ": 1305,
      "ゾ": 1306,
      "タ": 1307,
      "ダ": 1308,
      "チ": 1309,
      "ッ": 1310,
      "ツ": 1311,
      "ヅ": 1312,
      "テ": 1313,
      "デ": 1314,
      "ト": 1315,
      "ド": 1316,
      "ナ": 1317,
      "ニ": 1318,
      "ネ": 1319,
      "ノ": 1320,
      "ハ": 1321,
      "バ": 1322,
      "パ": 1323,
      "ヒ": 1324,
      "ビ": 1325,
      "ピ": 1326,
      "フ": 1327,
      "ブ": 1328,
      "プ": 1329,
      "ヘ": 1330,
      "ベ": 1331,
      "ペ": 1332,
      "ホ": 1333,
      "ポ": 1334,
      "マ": 1335,
      "ミ": 1336,
      "ム": 1337,
      "メ": 1338,
      "モ": 1339,
      "ャ": 1340,
      "ヤ": 1341,
      "ュ": 1342,
      "ユ": 1343,
      "ヨ": 1344,
      "ラ": 1345,
      "リ": 1346,
      "ル": 1347,
      "レ": 1348,
      "ロ": 1349,
      "ワ": 1350,
      "ン": 1351,
      "ヴ": 1352,
      "ヵ": 1353,
      "ヶ": 1354,
      "・": 1355,
      "ー": 1356,
      "一": 1357,
      "三": 1358,
      "上": 1359,
      "世": 1360,
      "东": 1361,
      "中": 1362,
      "之": 1363,
      "也": 1364,
      "二": 1365,
      "井": 1366,
      "亚": 1367,
      "亜": 1368,
      "亠": 1369,
      "京": 1370,
      "人": 1371,
      "今": 1372,
      "介": 1373,
      "仲": 1374,
      "位": 1375,
      "佐": 1376,
      "作": 1377,
      "侍": 1378,
      "俊": 1379,
      "保": 1380,
      "信": 1381,
      "偉": 1382,
      "優": 1383,
      "元": 1384,
      "兆": 1385,
      "全": 1386,
      "兹": 1387,
      "内": 1388,
      "再": 1389,
      "冰": 1390,
      "刃": 1391,
      "利": 1392,
      "則": 1393,
      "前": 1394,
      "力": 1395,
      "加": 1396,
      "勒": 1397,
      "十": 1398,
      "千": 1399,
      "単": 1400,
      "博": 1401,
      "原": 1402,
      "友": 1403,
      "口": 1404,
      "叫": 1405,
      "台": 1406,
      "右": 1407,
      "司": 1408,
      "吉": 1409,
      "名": 1410,
      "向": 1411,
      "呂": 1412,
      "和": 1413,
      "哉": 1414,
      "啓": 1415,
      "善": 1416,
      "喜": 1417,
      "喬": 1418,
      "國": 1419,
      "土": 1420,
      "在": 1421,
      "坂": 1422,
      "坦": 1423,
      "城": 1424,
      "域": 1425,
      "塔": 1426,
      "塵": 1427,
      "増": 1428,
      "壱": 1429,
      "夏": 1430,
      "多": 1431,
      "大": 1432,
      "太": 1433,
      "失": 1434,
      "奧": 1435,
      "女": 1436,
      "好": 1437,
      "妃": 1438,
      "妮": 1439,
      "姚": 1440,
      "威": 1441,
      "嫌": 1442,
      "子": 1443,
      "季": 1444,
      "安": 1445,
      "宏": 1446,
      "宝": 1447,
      "宮": 1448,
      "対": 1449,
      "小": 1450,
      "尔": 1451,
      "就": 1452,
      "尻": 1453,
      "山": 1454,
      "岡": 1455,
      "岩": 1456,
      "島": 1457,
      "崎": 1458,
      "川": 1459,
      "州": 1460,
      "左": 1461,
      "巨": 1462,
      "市": 1463,
      "布": 1464,
      "帝": 1465,
      "常": 1466,
      "平": 1467,
      "幹": 1468,
      "広": 1469,
      "弥": 1470,
      "当": 1471,
      "彦": 1472,
      "彰": 1473,
      "後": 1474,
      "怠": 1475,
      "性": 1476,
      "恋": 1477,
      "恵": 1478,
      "悲": 1479,
      "惰": 1480,
      "愛": 1481,
      "戸": 1482,
      "手": 1483,
      "拉": 1484,
      "持": 1485,
      "捷": 1486,
      "敬": 1487,
      "斗": 1488,
      "斯": 1489,
      "日": 1490,
      "普": 1491,
      "更": 1492,
      "最": 1493,
      "月": 1494,
      "有": 1495,
      "木": 1496,
      "未": 1497,
      "末": 1498,
      "本": 1499,
      "杉": 1500,
      "李": 1501,
      "村": 1502,
      "来": 1503,
      "東": 1504,
      "松": 1505,
      "林": 1506,
      "枝": 1507,
      "柴": 1508,
      "栄": 1509,
      "栗": 1510,
      "桐": 1511,
      "桜": 1512,
      "棠": 1513,
      "森": 1514,
      "植": 1515,
      "橋": 1516,
      "欲": 1517,
      "歌": 1518,
      "气": 1519,
      "水": 1520,
      "永": 1521,
      "沃": 1522,
      "沙": 1523,
      "沢": 1524,
      "治": 1525,
      "波": 1526,
      "泽": 1527,
      "浄": 1528,
      "浅": 1529,
      "海": 1530,
      "清": 1531,
      "湯": 1532,
      "溝": 1533,
      "漢": 1534,
      "澤": 1535,
      "澹": 1536,
      "瀧": 1537,
      "灰": 1538,
      "為": 1539,
      "熊": 1540,
      "独": 1541,
      "率": 1542,
      "王": 1543,
      "玫": 1544,
      "珊": 1545,
      "理": 1546,
      "琴": 1547,
      "瑰": 1548,
      "生": 1549,
      "田": 1550,
      "男": 1551,
      "畑": 1552,
      "白": 1553,
      "百": 1554,
      "目": 1555,
      "真": 1556,
      "眠": 1557,
      "知": 1558,
      "石": 1559,
      "私": 1560,
      "純": 1561,
      "维": 1562,
      "罗": 1563,
      "羅": 1564,
      "美": 1565,
      "翔": 1566,
      "耕": 1567,
      "聖": 1568,
      "良": 1569,
      "花": 1570,
      "苏": 1571,
      "苕": 1572,
      "若": 1573,
      "莉": 1574,
      "菜": 1575,
      "菲": 1576,
      "萨": 1577,
      "葉": 1578,
      "蒻": 1579,
      "蕾": 1580,
      "藤": 1581,
      "蘭": 1582,
      "虎": 1583,
      "衛": 1584,
      "裕": 1585,
      "覀": 1586,
      "覇": 1587,
      "見": 1588,
      "覚": 1589,
      "角": 1590,
      "記": 1591,
      "語": 1592,
      "謙": 1593,
      "谷": 1594,
      "貴": 1595,
      "賀": 1596,
      "資": 1597,
      "賢": 1598,
      "赤": 1599,
      "輪": 1600,
      "近": 1601,
      "遠": 1602,
      "遲": 1603,
      "那": 1604,
      "邦": 1605,
      "郑": 1606,
      "里": 1607,
      "野": 1608,
      "金": 1609,
      "鈴": 1610,
      "鋆": 1611,
      "鎮": 1612,
      "門": 1613,
      "関": 1614,
      "阪": 1615,
      "阳": 1616,
      "阴": 1617,
      "阿": 1618,
      "陰": 1619,
      "陽": 1620,
      "雄": 1621,
      "雅": 1622,
      "雷": 1623,
      "静": 1624,
      "須": 1625,
      "頼": 1626,
      "風": 1627,
      "食": 1628,
      "飼": 1629,
      "馬": 1630,
      "騏": 1631,
      "體": 1632,
      "高": 1633,
      "髙": 1634,
      "魚": 1635,
      "鵜": 1636,
      "麗": 1637,
      "ꧾ": 1638,
      "ꭰ": 1639,
      "ꭱ": 1640,
      "ꭵ": 1641,
      "ꭷ": 1642,
      "ꭹ": 1643,
      "ꭺ": 1644,
      "ꭿ": 1645,
      "ꮀ": 1646,
      "ꮆ": 1647,
      "ꮇ": 1648,
      "ꮋ": 1649,
      "ꮑ": 1650,
      "ꮒ": 1651,
      "ꮓ": 1652,
      "ꮛ": 1653,
      "ꮜ": 1654,
      "ꮥ": 1655,
      "ꮧ": 1656,
      "ꮭ": 1657,
      "ꮮ": 1658,
      "ꮶ": 1659,
      "ꮻ": 1660,
      "ꮼ": 1661,
      "가": 1662,
      "강": 1663,
      "거": 1664,
      "계": 1665,
      "그": 1666,
      "긴": 1667,
      "꽃": 1668,
      "년": 1669,
      "닉": 1670,
      "렉": 1671,
      "르": 1672,
      "리": 1673,
      "마": 1674,
      "못": 1675,
      "민": 1676,
      "밀": 1677,
      "보": 1678,
      "분": 1679,
      "생": 1680,
      "세": 1681,
      "소": 1682,
      "스": 1683,
      "승": 1684,
      "업": 1685,
      "에": 1686,
      "연": 1687,
      "영": 1688,
      "예": 1689,
      "웃": 1690,
      "유": 1691,
      "자": 1692,
      "제": 1693,
      "주": 1694,
      "지": 1695,
      "친": 1696,
      "태": 1697,
      "황": 1698,
      "효": 1699,
      "�": 1700,
      "##r": 1701,
      "##o": 1702,
      "##k": 1703,
      "##š": 1704,
      "##a": 1705,
      "##n": 1706,
      "##d": 1707,
      "##y": 1708,
      "##2": 1709,
      "##4": 1710,
      "##h": 1711,
      "##u": 1712,
      "##p": 1713,
      "##i": 1714,
      "##v": 1715,
      "##t": 1716,
      "##e": 1717,
      "##s": 1718,
      "##l": 1719,
      "##c": 1720,
      "##w": 1721,
      "##m": 1722,
      "##3": 1723,
      "##g": 1724,
      "##b": 1725,
      "##z": 1726,
      "##x": 1727,
      "##1": 1728,
      "##0": 1729,
      "##5": 1730,
      "##f": 1731,
      "##6": 1732,
      "##q": 1733,
      "##j": 1734,
      "##9": 1735,
      "##7": 1736,
      "##á": 1737,
      "##ń": 1738,
      "##и": 1739,
      "##м": 1740,
      "##о": 1741,
      "##н": 1742,
      "##а": 1743,
      "##ř": 1744,
      "##í": 1745,
      "##à": 1746,
      "##č": 1747,
      "##ш": 1748,
      "##б": 1749,
      "##в": 1750,
      "##é": 1751,
      "##8": 1752,
      "##х": 1753,
      "##р": 1754,
      "##у": 1755,
      "##з": 1756,
      "##к": 1757,
      "##ğ": 1758,
      "##д": 1759,
      "##ó": 1760,
      "##ж": 1761,
      "##т": 1762,
      "##п": 1763,
      "##ч": 1764,
      "##е": 1765,
      "##г": 1766,
      "##л": 1767,
      "##с": 1768,
      "##й": 1769,
      "##ą": 1770,
      "##ц": 1771,
      "##ü": 1772,
      "##ы": 1773,
      "##ь": 1774,
      "##ł": 1775,
      "##ю": 1776,
      "##я": 1777,
      "##ě": 1778,
      "##ã": 1779,
      "##ň": 1780,
      "##ä": 1781,
      "##э": 1782,
      "##و": 1783,
      "##ی": 1784,
      "##ا": 1785,
      "##ل": 1786,
      "##م": 1787,
      "##ت": 1788,
      "##ر": 1789,
      "##د": 1790,
      "##ö": 1791,
      "##ż": 1792,
      "##ž": 1793,
      "##ę": 1794,
      "##ф": 1795,
      "##ý": 1796,
      "##ű": 1797,
      "##ď": 1798,
      "##щ": 1799,
      "##ş": 1800,
      "##ć": 1801,
      "##า": 1802,
      "##ถ": 1803,
      "##ต": 1804,
      "##ิ": 1805,
      "##ญ": 1806,
      "##ů": 1807,
      "##ቤ": 1808,
      "##ል": 1809,
      "##่": 1810,
      "##อ": 1811,
      "##น": 1812,
      "##ศ": 1813,
      "##ร": 1814,
      "##ี": 1815,
      "##ป": 1816,
      "##ท": 1817,
      "##ุ": 1818,
      "##ม": 1819,
      "##і": 1820,
      "##ё": 1821,
      "##ĺ": 1822,
      "##ي": 1823,
      "##̇": 1824,
      "##ə": 1825,
      "##ض": 1826,
      "##ة": 1827,
      "##ይ": 1828,
      "##ነ": 1829,
      "##ø": 1830,
      "##è": 1831,
      "##ب": 1832,
      "##ô": 1833,
      "##є": 1834,
      "##æ": 1835,
      "##ı": 1836,
      "##ź": 1837,
      "##ف": 1838,
      "##ك": 1839,
      "##â": 1840,
      "##ľ": 1841,
      "##œ": 1842,
      "##ő": 1843,
      "##ç": 1844,
      "##ค": 1845,
      "##ว": 1846,
      "##ś": 1847,
      "##ť": 1848,
      "##đ": 1849,
      "##ș": 1850,
      "##ح": 1851,
      "##ص": 1852,
      "##غ": 1853,
      "##ج": 1854,
      "##ن": 1855,
      "##ë": 1856,
      "##ه": 1857,
      "##ò": 1858,
      "##ì": 1859,
      "##ე": 1860,
      "##ხ": 1861,
      "##ვ": 1862,
      "##ი": 1863,
      "##ა": 1864,
      "##შ": 1865,
      "##ლ": 1866,
      "##î": 1867,
      "##ê": 1868,
      "##ú": 1869,
      "##ش": 1870,
      "##ز": 1871,
      "##ï": 1872,
      "##ช": 1873,
      "##ั": 1874,
      "##ย": 1875,
      "##ñ": 1876,
      "##ማ": 1877,
      "##ኒ": 1878,
      "##ኤ": 1879,
      "##ă": 1880,
      "##ذ": 1881,
      "##ա": 1882,
      "##յ": 1883,
      "##س": 1884,
      "##ķ": 1885,
      "##خ": 1886,
      "##ى": 1887,
      "##ყ": 1888,
      "##უ": 1889,
      "##ო": 1890,
      "##ε": 1891,
      "##ι": 1892,
      "##ρ": 1893,
      "##α": 1894,
      "##τ": 1895,
      "##ή": 1896,
      "##σ": 1897,
      "##ئ": 1898,
      "##ʠ": 1899,
      "##γ": 1900,
      "##λ": 1901,
      "##η": 1902,
      "##ү": 1903,
      "##ђ": 1904,
      "##ด": 1905,
      "##้": 1906,
      "##ง": 1907,
      "##δ": 1908,
      "##μ": 1909,
      "##ο": 1910,
      "##י": 1911,
      "##ב": 1912,
      "##א": 1913,
      "##ル": 1914,
      "##カ": 1915,
      "##デ": 1916,
      "##ィ": 1917,
      "##ウ": 1918,
      "##ス": 1919,
      "##ά": 1920,
      "##ّ": 1921,
      "##し": 1922,
      "##て": 1923,
      "##い": 1924,
      "##ま": 1925,
      "##す": 1926,
      "##φ": 1927,
      "##ί": 1928,
      "##ī": 1929,
      "##ŷ": 1930,
      "##ĕ": 1931,
      "##ث": 1932,
      "##ţ": 1933,
      "##õ": 1934,
      "##ė": 1935,
      "##ъ": 1936,
      "##ā": 1937,
      "##å": 1938,
      "##ع": 1939,
      "##ظ": 1940,
      "##ล": 1941,
      "##เ": 1942,
      "##თ": 1943,
      "##ん": 1944,
      "##ω": 1945,
      "##ؤ": 1946,
      "##ط": 1947,
      "##گ": 1948,
      "##イ": 1949,
      "##ナ": 1950,
      "##ー": 1951,
      "##ת": 1952,
      "##ה": 1953,
      "##ን": 1954,
      "##ለ": 1955,
      "##መ": 1956,
      "##ゼ": 1957,
      "##ہ": 1958,
      "##ۣ": 1959,
      "##ۗ": 1960,
      "##ق": 1961,
      "##ি": 1962,
      "##ধ": 1963,
      "##া": 1964,
      "##ন": 1965,
      "##ț": 1966,
      "##ไ": 1967,
      "##ห": 1968,
      "##ộ": 1969,
      "##ื": 1970,
      "##ษ": 1971,
      "##資": 1972,
      "##ほ": 1973,
      "##κ": 1974,
      "##ΐ": 1975,
      "##į": 1976,
      "##ģ": 1977,
      "##ζ": 1978,
      "##β": 1979,
      "##ν": 1980,
      "##ū": 1981,
      "##υ": 1982,
      "##أ": 1983,
      "##έ": 1984,
      "##χ": 1985,
      "##ủ": 1986,
      "##ә": 1987,
      "##ጅ": 1988,
      "##フ": 1989,
      "##ォ": 1990,
      "##ト": 1991,
      "##ک": 1992,
      "##ս": 1993,
      "##ն": 1994,
      "##ի": 1995,
      "##կ": 1996,
      "##ņ": 1997,
      "##์": 1998,
      "##ð": 1999,
      "##ự": 2000,
      "##ї": 2001,
      "##ų": 2002,
      "##ɐ": 2003,
      "##ɯ": 2004,
      "##ɥ": 2005,
      "##ʇ": 2006,
      "##ế": 2007,
      "##จ": 2008,
      "##持": 2009,
      "##ち": 2010,
      "##ù": 2011,
      "##ء": 2012,
      "##ћ": 2013,
      "##π": 2014,
      "##û": 2015,
      "##ό": 2016,
      "##ে": 2017,
      "##র": 2018,
      "##ξ": 2019,
      "##瀧": 2020,
      "##ۆ": 2021,
      "##ە": 2022,
      "##ψ": 2023,
      "##和": 2024,
      "##口": 2025,
      "##ภ": 2026,
      "##พ": 2027,
      "##ज": 2028,
      "##्": 2029,
      "##ञ": 2030,
      "##ा": 2031,
      "##त": 2032,
      "##ө": 2033,
      "##ỏ": 2034,
      "##べ": 2035,
      "##ฟ": 2036,
      "##リ": 2037,
      "##ヤ": 2038,
      "##ե": 2039,
      "##ր": 2040,
      "##ժ": 2041,
      "##一": 2042,
      "##տ": 2043,
      "##ნ": 2044,
      "##ĩ": 2045,
      "##ু": 2046,
      "##খ": 2047,
      "##ŕ": 2048,
      "##კ": 2049,
      "##რ": 2050,
      "##ณ": 2051,
      "##צ": 2052,
      "##ק": 2053,
      "##ס": 2054,
      "##ו": 2055,
      "##ะ": 2056,
      "##ậ": 2057,
      "##ÿ": 2058,
      "##ז": 2059,
      "##ש": 2060,
      "##נ": 2061,
      "##ầ": 2062,
      "##ு": 2063,
      "##த": 2064,
      "##ன": 2065,
      "##்": 2066,
      "##作": 2067,
      "##þ": 2068,
      "##ก": 2069,
      "##ূ": 2070,
      "##ঁ": 2071,
      "##ই": 2072,
      "##য": 2073,
      "##়": 2074,
      "##қ": 2075,
      "##ề": 2076,
      "##ጥ": 2077,
      "##ሮ": 2078,
      "##ስ": 2079,
      "##ュ": 2080,
      "##ラ": 2081,
      "##ッ": 2082,
      "##ク": 2083,
      "##ێ": 2084,
      "##ሚ": 2085,
      "##چ": 2086,
      "##แ": 2087,
      "##ύ": 2088,
      "##ส": 2089,
      "##ዘ": 2090,
      "##ር": 2091,
      "##ē": 2092,
      "##布": 2093,
      "##ắ": 2094,
      "##ẻ": 2095,
      "##だ": 2096,
      "##្": 2097,
      "##ញ": 2098,
      "##ុ": 2099,
      "##ំ": 2100,
      "##グ": 2101,
      "##ニ": 2102,
      "##ո": 2103,
      "##ւ": 2104,
      "##լ": 2105,
      "##հ": 2106,
      "##ằ": 2107,
      "##マ": 2108,
      "##ン": 2109,
      "##হ": 2110,
      "##ল": 2111,
      "##্": 2112,
      "##ো": 2113,
      "##ত": 2114,
      "##๋": 2115,
      "##ị": 2116,
      "##ố": 2117,
      "##ڤ": 2118,
      "##遠": 2119,
      "##ャ": 2120,
      "##ู": 2121,
      "##�": 2122,
      "##ệ": 2123,
      "##מ": 2124,
      "##ụ": 2125,
      "##ሱ": 2126,
      "##็": 2127,
      "##セ": 2128,
      "##ド": 2129,
      "##ớ": 2130,
      "##ና": 2131,
      "##ሰ": 2132,
      "##ヵ": 2133,
      "##ạ": 2134,
      "##ს": 2135,
      "##ฺ": 2136,
      "##љ": 2137,
      "##ቁ": 2138,
      "##ờ": 2139,
      "##ք": 2140,
      "##ứ": 2141,
      "##ธ": 2142,
      "##田": 2143,
      "##ダ": 2144,
      "##ム": 2145,
      "##ҳ": 2146,
      "##シ": 2147,
      "##द": 2148,
      "##भ": 2149,
      "##ढ": 2150,
      "##छ": 2151,
      "##ข": 2152,
      "##ฤ": 2153,
      "##ј": 2154,
      "##๊": 2155,
      "##野": 2156,
      "##ư": 2157,
      "##ợ": 2158,
      "##ễ": 2159,
      "##ཟ": 2160,
      "##ང": 2161,
      "##ተ": 2162,
      "##ซ": 2163,
      "##ਿ": 2164,
      "##ੰ": 2165,
      "##ਘ": 2166,
      "##โ": 2167,
      "##ٰ": 2168,
      "##۫": 2169,
      "##ۚ": 2170,
      "##ے": 2171,
      "##ـ": 2172,
      "##ِ": 2173,
      "##អ": 2174,
      "##ង": 2175,
      "##ٱ": 2176,
      "##ۦ": 2177,
      "##۬": 2178,
      "##ۨ": 2179,
      "##ڈ": 2180,
      "##ۈ": 2181,
      "##ۃ": 2182,
      "##웃": 2183,
      "##ấ": 2184,
      "##ᐸ": 2185,
      "##ᖆ": 2186,
      "##ᘮ": 2187,
      "##ᔡ": 2188,
      "##ᖶ": 2189,
      "##ᖻ": 2190,
      "##ব": 2191,
      "##স": 2192,
      "##ូ": 2193,
      "##ប": 2194,
      "##រ": 2195,
      "##ា": 2196,
      "##ቱ": 2197,
      "##บ": 2198,
      "##إ": 2199,
      "##ơ": 2200,
      "##ở": 2201,
      "##プ": 2202,
      "##բ": 2203,
      "##ǝ": 2204,
      "##ƞ": 2205,
      "##さ": 2206,
      "##ல": 2207,
      "##ை": 2208,
      "##ப": 2209,
      "##ி": 2210,
      "##ர": 2211,
      "##ட": 2212,
      "##ჟ": 2213,
      "##ძ": 2214,
      "##آ": 2215,
      "##ר": 2216,
      "##井": 2217,
      "##ừ": 2218,
      "##ジ": 2219,
      "##ェ": 2220,
      "##ि": 2221,
      "##क": 2222,
      "##ो": 2223,
      "##ल": 2224,
      "##り": 2225,
      "##ಿ": 2226,
      "##ಂ": 2227,
      "##ಥ": 2228,
      "##ಯ": 2229,
      "##ಾ": 2230,
      "##렉": 2231,
      "##ฒ": 2232,
      "##ữ": 2233,
      "##ག": 2234,
      "##ས": 2235,
      "##פ": 2236,
      "##ל": 2237,
      "##ミ": 2238,
      "##レ": 2239,
      "##コ": 2240,
      "##դ": 2241,
      "##ỗ": 2242,
      "##ד": 2243,
      "##ም": 2244,
      "##ቲ": 2245,
      "##ዎ": 2246,
      "##美": 2247,
      "##ỉ": 2248,
      "##ბ": 2249,
      "##ワ": 2250,
      "##ꮆ": 2251,
      "##ꮀ": 2252,
      "##ꭰ": 2253,
      "##ỳ": 2254,
      "##上": 2255,
      "##大": 2256,
      "##ۧ": 2257,
      "##ន": 2258,
      "##់": 2259,
      "##勒": 2260,
      "##ᛟ": 2261,
      "##ᚱ": 2262,
      "##ᛗ": 2263,
      "##ᚨ": 2264,
      "##ᚾ": 2265,
      "##ѕ": 2266,
      "##њ": 2267,
      "##ۙ": 2268,
      "##ẹ": 2269,
      "##ҷ": 2270,
      "##ベ": 2271,
      "##エ": 2272,
      "##藤": 2273,
      "##ម": 2274,
      "##ច": 2275,
      "##ฐ": 2276,
      "##გ": 2277,
      "##र": 2278,
      "##े": 2279,
      "##분": 2280,
      "##업": 2281,
      "##자": 2282,
      "##ղ": 2283,
      "##ջ": 2284,
      "##ȟ": 2285,
      "##ŋ": 2286,
      "##ử": 2287,
      "##名": 2288,
      "##ם": 2289,
      "##ן": 2290,
      "##მ": 2291,
      "##վ": 2292,
      "##պ": 2293,
      "##մ": 2294,
      "##サ": 2295,
      "##ĭ": 2296,
      "##ອ": 2297,
      "##້": 2298,
      "##ຍ": 2299,
      "##ቀ": 2300,
      "##ী": 2301,
      "##ね": 2302,
      "##き": 2303,
      "##ெ": 2304,
      "##ச": 2305,
      "##ڼ": 2306,
      "##ア": 2307,
      "##ⵉ": 2308,
      "##ⴰ": 2309,
      "##ⴼ": 2310,
      "##գ": 2311,
      "##ষ": 2312,
      "##ট": 2313,
      "##な": 2314,
      "##보": 2315,
      "##本": 2316,
      "##پ": 2317,
      "##്": 2318,
      "##വ": 2319,
      "##ത": 2320,
      "##न": 2321,
      "##ी": 2322,
      "##ښ": 2323,
      "##ធ": 2324,
      "##វ": 2325,
      "##ើ": 2326,
      "##ិ": 2327,
      "##ਰ": 2328,
      "##ਦ": 2329,
      "##ਾ": 2330,
      "##ả": 2331,
      "##ম": 2332,
      "##ꭿ": 2333,
      "##ꭵ": 2334,
      "##ʞ": 2335,
      "##ע": 2336,
      "##ט": 2337,
      "##ח": 2338,
      "##ỹ": 2339,
      "##ǎ": 2340,
      "##ϊ": 2341,
      "##ट": 2342,
      "##ए": 2343,
      "##स": 2344,
      "##ꮧ": 2345,
      "##ꮇ": 2346,
      "##ꮭ": 2347,
      "##့": 2348,
      "##ጹ": 2349,
      "##ѓ": 2350,
      "##ĸ": 2351,
      "##ா": 2352,
      "##ϋ": 2353,
      "##ᠠ": 2354,
      "##ᠷ": 2355,
      "##ᠨ": 2356,
      "##ᠪ": 2357,
      "##ᠣ": 2358,
      "##ᠯ": 2359,
      "##ᠳ": 2360,
      "##ํ": 2361,
      "##ỷ": 2362,
      "##ĉ": 2363,
      "##ሉ": 2364,
      "##ዋ": 2365,
      "##জ": 2366,
      "##လ": 2367,
      "##ျ": 2368,
      "##ပ": 2369,
      "##ြ": 2370,
      "##န": 2371,
      "##္": 2372,
      "##အ": 2373,
      "##ိ": 2374,
      "##ロ": 2375,
      "##ブ": 2376,
      "##三": 2377,
      "##스": 2378,
      "##ǿ": 2379,
      "##ኦ": 2380,
      "##ɞ": 2381,
      "##꽃": 2382,
      "##ु": 2383,
      "##च": 2384,
      "##ठ": 2385,
      "##य": 2386,
      "##ै": 2387,
      "##ツ": 2388,
      "##ڵ": 2389,
      "##€": 2390,
      "##向": 2391,
      "##ẫ": 2392,
      "##ख": 2393,
      "##ƨ": 2394,
      "##զ": 2395,
      "##ৰ": 2396,
      "##ণ": 2397,
      "##ড": 2398,
      "##ọ": 2399,
      "##ኣ": 2400,
      "##ያ": 2401,
      "##ビ": 2402,
      "##チ": 2403,
      "##东": 2404,
      "##ặ": 2405,
      "##松": 2406,
      "##θ": 2407,
      "##ʀ": 2408,
      "##阿": 2409,
      "##弥": 2410,
      "##ቅ": 2411,
      "##ካ": 2412,
      "##メ": 2413,
      "##ሴ": 2414,
      "##வ": 2415,
      "##ம": 2416,
      "##ள": 2417,
      "##ȕ": 2418,
      "##ō": 2419,
      "##ノ": 2420,
      "##փ": 2421,
      "##生": 2422,
      "##か": 2423,
      "##ぎ": 2424,
      "##ᚻ": 2425,
      "##ລ": 2426,
      "##າ": 2427,
      "##ɩ": 2428,
      "##म": 2429,
      "##子": 2430,
      "##ƛ": 2431,
      "##የ": 2432,
      "##ෞ": 2433,
      "##ඌ": 2434,
      "##ච": 2435,
      "##ඣ": 2436,
      "##ɛ": 2437,
      "##ந": 2438,
      "##க": 2439,
      "##ኻ": 2440,
      "##ฆ": 2441,
      "##ғ": 2442,
      "##原": 2443,
      "##െ": 2444,
      "##ല": 2445,
      "##ി": 2446,
      "##ക": 2447,
      "##ൽ": 2448,
      "##ゾ": 2449,
      "##バ": 2450,
      "##ტ": 2451,
      "##ደ": 2452,
      "##ቂ": 2453,
      "##パ": 2454,
      "##オ": 2455,
      "##ǽ": 2456,
      "##多": 2457,
      "##ồ": 2458,
      "##ゥ": 2459,
      "##栄": 2460,
      "##ổ": 2461,
      "##季": 2462,
      "##畑": 2463,
      "##ホ": 2464,
      "##ズ": 2465,
      "##ギ": 2466,
      "##ガ": 2467,
      "##ɹ": 2468,
      "##ג": 2469,
      "##ể": 2470,
      "##ሲ": 2471,
      "##ላ": 2472,
      "##ጄ": 2473,
      "##タ": 2474,
      "##ẵ": 2475,
      "##ṣ": 2476,
      "##ᠦ": 2477,
      "##ᠡ": 2478,
      "##み": 2479,
      "##ڻ": 2480,
      "##ҋ": 2481,
      "##帝": 2482,
      "##አ": 2483,
      "##ብ": 2484,
      "##ራ": 2485,
      "##恵": 2486,
      "##ʌ": 2487,
      "##ʆ": 2488,
      "##水": 2489,
      "##ռ": 2490,
      "##խ": 2491,
      "##が": 2492,
      "##好": 2493,
      "##პ": 2494,
      "##人": 2495,
      "##ღ": 2496,
      "##ผ": 2497,
      "##ڛ": 2498,
      "##蘭": 2499,
      "##ฮ": 2500,
      "##ᖇ": 2501,
      "##ᕢ": 2502,
      "##ᘘ": 2503,
      "##ᖽ": 2504,
      "##ਜ": 2505,
      "##დ": 2506,
      "##ٛ": 2507,
      "##ַ": 2508,
      "##ੇ": 2509,
      "##ਵ": 2510,
      "##治": 2511,
      "##ܐ": 2512,
      "##ܡ": 2513,
      "##ܠ": 2514,
      "##ƽ": 2515,
      "##頼": 2516,
      "##キ": 2517,
      "##ⵎ": 2518,
      "##ⵕ": 2519,
      "##ヘ": 2520,
      "##お": 2521,
      "##台": 2522,
      "##菜": 2523,
      "##ũ": 2524,
      "##ァ": 2525,
      "##わ": 2526,
      "##け": 2527,
      "##በ": 2528,
      "##ኪ": 2529,
      "##ન": 2530,
      "##્": 2531,
      "##ા": 2532,
      "##当": 2533,
      "##ฉ": 2534,
      "##介": 2535,
      "##王": 2536,
      "##位": 2537,
      "##に": 2538,
      "##ং": 2539,
      "##び": 2540,
      "##ώ": 2541,
      "##ඖ": 2542,
      "##අ": 2543,
      "##ං": 2544,
      "##ඕ": 2545,
      "##ථ": 2546,
      "##ඩ": 2547,
      "##ප": 2548,
      "##÷": 2549,
      "##ു": 2550,
      "##ള": 2551,
      "##ങ": 2552,
      "##ჭ": 2553,
      "##ஸ": 2554,
      "##ᔕ": 2555,
      "##ᓰ": 2556,
      "##က": 2557,
      "##ஜ": 2558,
      "##山": 2559,
      "##ኹ": 2560,
      "##ǔ": 2561,
      "##్": 2562,
      "##ర": 2563,
      "##భ": 2564,
      "##ా": 2565,
      "##క": 2566,
      "##మ": 2567,
      "##ొ": 2568,
      "##స": 2569,
      "##త": 2570,
      "##ఫ": 2571,
      "##ネ": 2572,
      "##里": 2573,
      "##花": 2574,
      "##じ": 2575,
      "##ჯ": 2576,
      "##ह": 2577,
      "##ں": 2578,
      "##ȝ": 2579,
      "##全": 2580,
      "##ึ": 2581,
      "##ฬ": 2582,
      "##ረ": 2583,
      "##ገ": 2584,
      "##ወ": 2585,
      "##阳": 2586,
      "##റ": 2587,
      "##ന": 2588,
      "##생": 2589,
      "##ቨ": 2590,
      "##ヴ": 2591,
      "##塔": 2592,
      "##ዱ": 2593,
      "##ḣ": 2594,
      "##ḛ": 2595,
      "##°": 2596,
      "##ீ": 2597,
      "##ᘎ": 2598,
      "##ᗩ": 2599,
      "##須": 2600,
      "##賀": 2601,
      "##ጁ": 2602,
      "##ꧾ": 2603,
      "##ŏ": 2604,
      "##ू": 2605,
      "##輪": 2606,
      "##ใ": 2607,
      "##ड": 2608,
      "##़": 2609,
      "##彦": 2610,
      "##ʅ": 2611,
      "##歌": 2612,
      "##テ": 2613,
      "##目": 2614,
      "##ാ": 2615,
      "##ഗ": 2616,
      "##യ": 2617,
      "##ഞ": 2618,
      "##ജ": 2619,
      "##ӣ": 2620,
      "##蒻": 2621,
      "##ṏ": 2622,
      "##ṅ": 2623,
      "##沙": 2624,
      "##ზ": 2625,
      "##島": 2626,
      "##ң": 2627,
      "##ṃ": 2628,
      "##率": 2629,
      "##ў": 2630,
      "##օ": 2631,
      "##ļ": 2632,
      "##թ": 2633,
      "##ژ": 2634,
      "##ਨ": 2635,
      "##ੀ": 2636,
      "##ਪ": 2637,
      "##ĝ": 2638,
      "##葉": 2639,
      "##ጠ": 2640,
      "##ው": 2641,
      "##ც": 2642,
      "##木": 2643,
      "##友": 2644,
      "##理": 2645,
      "##ត": 2646,
      "##ꭺ": 2647,
      "##ꮓ": 2648,
      "##ꮋ": 2649,
      "##ௌ": 2650,
      "##ૂ": 2651,
      "##પ": 2652,
      "##ば": 2653,
      "##ら": 2654,
      "##太": 2655,
      "##ฑ": 2656,
      "##ာ": 2657,
      "##ဒ": 2658,
      "##ီ": 2659,
      "##မ": 2660,
      "##萨": 2661,
      "##ց": 2662,
      "##ூ": 2663,
      "##প": 2664,
      "##ŝ": 2665,
      "##ჩ": 2666,
      "##ሳ": 2667,
      "##ग": 2668,
      "##ኑ": 2669,
      "##ವ": 2670,
      "##ೇ": 2671,
      "##ಕ": 2672,
      "##್": 2673,
      "##շ": 2674,
      "##ŭ": 2675,
      "##ກ": 2676,
      "##ວ": 2677,
      "##ມ": 2678,
      "##ະ": 2679,
      "##ນ": 2680,
      "##ີ": 2681,
      "##ັ": 2682,
      "##연": 2683,
      "##ब": 2684,
      "##ቕ": 2685,
      "##た": 2686,
      "##इ": 2687,
      "##橋": 2688,
      "##ǧ": 2689,
      "##ዛ": 2690,
      "##ქ": 2691,
      "##ֆ": 2692,
      "##ሎ": 2693,
      "##ף": 2694,
      "##そ": 2695,
      "##ը": 2696,
      "##כ": 2697,
      "##ピ": 2698,
      "##ौ": 2699,
      "##ሪ": 2700,
      "##ዩ": 2701,
      "##ድ": 2702,
      "##ĥ": 2703,
      "##ひ": 2704,
      "##と": 2705,
      "##つ": 2706,
      "##ৈ": 2707,
      "##ক": 2708,
      "##ๆ": 2709,
      "##չ": 2710,
      "##ּ": 2711,
      "##ׂ": 2712,
      "##ڪ": 2713,
      "##ದ": 2714,
      "##ಧ": 2715,
      "##ಪ": 2716,
      "##ಜ": 2717,
      "##ታ": 2718,
      "##ሃ": 2719,
      "##ई": 2720,
      "##̶": 2721,
      "##थ": 2722,
      "##ڰ": 2723,
      "##ᚤ": 2724,
      "##ᚺ": 2725,
      "##ዊ": 2726,
      "##ۂ": 2727,
      "##ھ": 2728,
      "##ɘ": 2729,
      "##ɭ": 2730,
      "##や": 2731,
      "##騏": 2732,
      "##ᗗ": 2733,
      "##ᖱ": 2734,
      "##ᗂ": 2735,
      "##ħ": 2736,
      "##친": 2737,
      "##ヒ": 2738,
      "##ួ": 2739,
      "##ʚ": 2740,
      "##う": 2741,
      "##兹": 2742,
      "##ǜ": 2743,
      "##ٲ": 2744,
      "##ٖ": 2745,
      "##प": 2746,
      "##ザ": 2747,
      "##ঃ": 2748,
      "##ګ": 2749,
      "##見": 2750,
      "##こ": 2751,
      "##ভ": 2752,
      "##ハ": 2753,
      "##ᏸ": 2754,
      "##ꭷ": 2755,
      "##熊": 2756,
      "##দ": 2757,
      "##ய": 2758,
      "##ċ": 2759,
      "##ܝ": 2760,
      "##ܫ": 2761,
      "##ܘ": 2762,
      "##ỡ": 2763,
      "##ĵ": 2764,
      "##侍": 2765,
      "##枝": 2766,
      "##飼": 2767,
      "##ڦ": 2768,
      "##記": 2769,
      "##の": 2770,
      "##ฏ": 2771,
      "##也": 2772,
      "##那": 2773,
      "##覇": 2774,
      "##ფ": 2775,
      "##在": 2776,
      "##ず": 2777,
      "##え": 2778,
      "##ፍ": 2779,
      "##ҭ": 2780,
      "##遲": 2781,
      "##ण": 2782,
      "##塵": 2783,
      "##風": 2784,
      "##中": 2785,
      "##ŗ": 2786,
      "##ਊ": 2787,
      "##ਬ": 2788,
      "##ግ": 2789,
      "##ዚ": 2790,
      "##ሔ": 2791,
      "##气": 2792,
      "##覀": 2793,
      "##ڑ": 2794,
      "##ົ": 2795,
      "##ງ": 2796,
      "##ໄ": 2797,
      "##ຊ": 2798,
      "##斯": 2799,
      "##ឆ": 2800,
      "##ក": 2801,
      "##ዲ": 2802,
      "##ሂ": 2803,
      "##ី": 2804,
      "##ྨ": 2805,
      "##ི": 2806,
      "##ལ": 2807,
      "##ེ": 2808,
      "##ヶ": 2809,
      "##谷": 2810,
      "##ጋ": 2811,
      "##ἰ": 2812,
      "##女": 2813,
      "##性": 2814,
      "##ゲ": 2815,
      "##十": 2816,
      "##ˇ": 2817,
      "##지": 2818,
      "##ሓ": 2819,
      "##ੂ": 2820,
      "##ਤ": 2821,
      "##ṇ": 2822,
      "##ṭ": 2823,
      "##ೂ": 2824,
      "##ರ": 2825,
      "##良": 2826,
      "##拉": 2827,
      "##ਲ": 2828,
      "##ਖ": 2829,
      "##ਮ": 2830,
      "##ڕ": 2831,
      "##雅": 2832,
      "##ǹ": 2833,
      "##ɱ": 2834,
      "##林": 2835,
      "##来": 2836,
      "##છ": 2837,
      "##લ": 2838,
      "##ી": 2839,
      "##ꮑ": 2840,
      "##ባ": 2841,
      "##ິ": 2842,
      "##শ": 2843,
      "##ઉ": 2844,
      "##ડ": 2845,
      "##િ": 2846,
      "##ય": 2847,
      "##ұ": 2848,
      "##ろ": 2849,
      "##ɇ": 2850,
      "##ɽ": 2851,
      "##ᘜ": 2852,
      "##ᑌ": 2853,
      "##ᗴ": 2854,
      "##ᘉ": 2855,
      "##ጽ": 2856,
      "##ዕ": 2857,
      "##ฝ": 2858,
      "##ẩ": 2859,
      "##ぁ": 2860,
      "##ど": 2861,
      "##金": 2862,
      "##沢": 2863,
      "##ክ": 2864,
      "##ሊ": 2865,
      "##ȉ": 2866,
      "##ȅ": 2867,
      "##ʑ": 2868,
      "##利": 2869,
      "##ኸ": 2870,
      "##ት": 2871,
      "##່": 2872,
      "##ɓ": 2873,
      "##ƴ": 2874,
      "##ዉ": 2875,
      "##ṁ": 2876,
      "##ɀ": 2877,
      "##ሜ": 2878,
      "##ੱ": 2879,
      "##ܒ": 2880,
      "##ܚ": 2881,
      "##ܕ": 2882,
      "##ỵ": 2883,
      "##©": 2884,
      "##੍": 2885,
      "##妃": 2886,
      "##呂": 2887,
      "##崎": 2888,
      "##ŧ": 2889,
      "##ទ": 2890,
      "##®": 2891,
      "##右": 2892,
      "##衛": 2893,
      "##門": 2894,
      "##է": 2895,
      "##စ": 2896,
      "##ၧ": 2897,
      "##ရ": 2898,
      "##ယ": 2899,
      "##独": 2900,
      "##で": 2901,
      "##男": 2902,
      "##ᛖ": 2903,
      "##ᚢ": 2904,
      "##陽": 2905,
      "##尔": 2906,
      "##ܪ": 2907,
      "##ܢ": 2908,
      "##ꮼ": 2909,
      "##ꮥ": 2910,
      "##ꮛ": 2911,
      "##ੈ": 2912,
      "##ਂ": 2913,
      "##ਟ": 2914,
      "##ペ": 2915,
      "##雄": 2916,
      "##元": 2917,
      "##џ": 2918,
      "##ዝ": 2919,
      "##ጊ": 2920,
      "##ቡ": 2921,
      "##۪": 2922,
      "##瑰": 2923,
      "##雷": 2924,
      "##ே": 2925,
      "##州": 2926,
      "##ੁ": 2927,
      "##ᛏ": 2928,
      "##ᚪ": 2929,
      "##冰": 2930,
      "##ស": 2931,
      "##ដ": 2932,
      "##ឋ": 2933,
      "##ါ": 2934,
      "##တ": 2935,
      "##ွ": 2936,
      "##င": 2937,
      "##月": 2938,
      "##近": 2939,
      "##く": 2940,
      "##व": 2941,
      "##ँ": 2942,
      "##域": 2943,
      "##兆": 2944,
      "##莉": 2945,
      "##市": 2946,
      "##を": 2947,
      "##覚": 2948,
      "##ƭ": 2949,
      "##ህ": 2950,
      "##ព": 2951,
      "##ៅ": 2952,
      "##ẑ": 2953,
      "##계": 2954,
      "##司": 2955,
      "##ฎ": 2956,
      "##城": 2957,
      "##ẽ": 2958,
      "##ທ": 2959,
      "##ສ": 2960,
      "##ྒ": 2961,
      "##ྲ": 2962,
      "##ོ": 2963,
      "##ዑ": 2964,
      "##手": 2965,
      "##る": 2966,
      "##ᠭ": 2967,
      "##ᠬ": 2968,
      "##亠": 2969,
      "##태": 2970,
      "##리": 2971,
      "##예": 2972,
      "##주": 2973,
      "##澤": 2974,
      "##ྐ": 2975,
      "##ྱ": 2976,
      "##ད": 2977,
      "##ծ": 2978,
      "##ं": 2979,
      "##ፋ": 2980,
      "##體": 2981,
      "##ቃ": 2982,
      "##ṟ": 2983,
      "##ȶ": 2984,
      "##ኝ": 2985,
      "##ቑ": 2986,
      "##も": 2987,
      "##르": 2988,
      "##ҡ": 2989,
      "##ʎ": 2990,
      "##ሄ": 2991,
      "##捷": 2992,
      "##へ": 2993,
      "##高": 2994,
      "##영": 2995,
      "##ណ": 2996,
      "##ខ": 2997,
      "##ゆ": 2998,
      "##ꮻ": 2999,
      "##々": 3000,
      "##წ": 3001,
      "##ੋ": 3002,
      "##ʋ": 3003,
      "##浅": 3004,
      "##ኛ": 3005,
      "##更": 3006,
      "##ġ": 3007,
      "##ਸ": 3008,
      "##岡": 3009,
      "##ો": 3010,
      "##ꭱ": 3011,
      "##惰": 3012,
      "##ເ": 3013,
      "##ພ": 3014,
      "##ດ": 3015,
      "##ᚳ": 3016,
      "##ᛚ": 3017,
      "##ᚠ": 3018,
      "##һ": 3019,
      "##ផ": 3020,
      "##យ": 3021,
      "##ȧ": 3022,
      "##ᓱ": 3023,
      "##ഷ": 3024,
      "##ര": 3025,
      "##ം": 3026,
      "##之": 3027,
      "##保": 3028,
      "##እ": 3029,
      "##년": 3030,
      "##れ": 3031,
      "##៉": 3032,
      "##モ": 3033,
      "##ሞ": 3034,
      "##ֹ": 3035,
      "##ֶ": 3036,
      "##ׁ": 3037,
      "##ך": 3038,
      "##ਏ": 3039,
      "##ᛞ": 3040,
      "##ᛁ": 3041,
      "##ᛋ": 3042,
      "##ܛ": 3043,
      "##ຸ": 3044,
      "##ሕ": 3045,
      "##静": 3046,
      "##虎": 3047,
      "##­": 3048,
      "##ƚ": 3049,
      "##ȋ": 3050,
      "##ې": 3051,
      "##ሌ": 3052,
      "##밀": 3053,
      "##ሬ": 3054,
      "##╰": 3055,
      "##⏝": 3056,
      "##╯": 3057,
      "##⎠": 3058,
      "##ኽ": 3059,
      "##ゅ": 3060,
      "##ȗ": 3061,
      "##珊": 3062,
      "##尻": 3063,
      "##ځ": 3064,
      "##蕾": 3065,
      "##ᛈ": 3066,
      "##ǐ": 3067,
      "##斗": 3068,
      "##ᙡ": 3069,
      "##ᕧ": 3070,
      "##ꭹ": 3071,
      "##ḍ": 3072,
      "##ѣ": 3073,
      "##ҙ": 3074,
      "##ጫ": 3075,
      "##ᓬ": 3076,
      "##ᒺ": 3077,
      "##ᘹ": 3078,
      "##श": 3079,
      "##ண": 3080,
      "##ҽ": 3081,
      "##ۅ": 3082,
      "##ケ": 3083,
      "##ձ": 3084,
      "##ܬ": 3085,
      "##ܵ": 3086,
      "##ગ": 3087,
      "##翔": 3088,
      "##鋆": 3089,
      "##ਗ": 3090,
      "##語": 3091,
      "##ར": 3092,
      "##ܑ": 3093,
      "##ܟ": 3094,
      "##海": 3095,
      "##an": 3096,
      "##er": 3097,
      "##ar": 3098,
      "##ov": 3099,
      "##in": 3100,
      "##en": 3101,
      "##la": 3102,
      "##st": 3103,
      "##ová": 3104,
      "##ch": 3105,
      "##ka": 3106,
      "##on": 3107,
      "##el": 3108,
      "##ol": 3109,
      "##or": 3110,
      "##al": 3111,
      "##at": 3112,
      "##ra": 3113,
      "##ek": 3114,
      "##ic": 3115,
      "##il": 3116,
      "##am": 3117,
      "##om": 3118,
      "##ik": 3119,
      "##ie": 3120,
      "##et": 3121,
      "##is": 3122,
      "##sk": 3123,
      "##ro": 3124,
      "mar": 3125,
      "##it": 3126,
      "##as": 3127,
      "##es": 3128,
      "##ac": 3129,
      "##id": 3130,
      "##ad": 3131,
      "##os": 3132,
      "##us": 3133,
      "##re": 3134,
      "##ia": 3135,
      "##le": 3136,
      "an": 3137,
      "##ková": 3138,
      "##ot": 3139,
      "##im": 3140,
      "sp": 3141,
      "st": 3142,
      "##ed": 3143,
      "in": 3144,
      "##na": 3145,
      "##av": 3146,
      "##ur": 3147,
      "##ina": 3148,
      "##ow": 3149,
      "##ní": 3150,
      "##ub": 3151,
      "##ri": 3152,
      "##ak": 3153,
      "mi": 3154,
      "##ing": 3155,
      "##ul": 3156,
      "##em": 3157,
      "##ud": 3158,
      "##ab": 3159,
      "##un": 3160,
      "spol": 3161,
      "##ova": 3162,
      "##ов": 3163,
      "##od": 3164,
      "##ana": 3165,
      "##ec": 3166,
      "##and": 3167,
      "##ob": 3168,
      "th": 3169,
      "ing": 3170,
      "ma": 3171,
      "##lav": 3172,
      "##ir": 3173,
      "##ut": 3174,
      "ch": 3175,
      "##ska": 3176,
      "##zy": 3177,
      "##ig": 3178,
      "##00": 3179,
      "al": 3180,
      "vla": 3181,
      "##ta": 3182,
      "##man": 3183,
      "##на": 3184,
      "##eč": 3185,
      "##op": 3186,
      "##ev": 3187,
      "##aci": 3188,
      "##ski": 3189,
      "##stv": 3190,
      "##vid": 3191,
      "lik": 3192,
      "lu": 3193,
      "##ep": 3194,
      "##ok": 3195,
      "likvid": 3196,
      "likvidaci": 3197,
      "pet": 3198,
      "##eb": 3199,
      "##ou": 3200,
      "##ck": 3201,
      "##aw": 3202,
      "##li": 3203,
      "##12": 3204,
      "##ry": 3205,
      "společ": 3206,
      "##ze": 3207,
      "##og": 3208,
      "##ru": 3209,
      "##ap": 3210,
      "##ena": 3211,
      "##ník": 3212,
      "##ko": 3213,
      "##ag": 3214,
      "##ika": 3215,
      "##th": 3216,
      "##ian": 3217,
      "vlast": 3218,
      "mich": 3219,
      "jan": 3220,
      "##enstv": 3221,
      "##ef": 3222,
      "společenstv": 3223,
      "ad": 3224,
      "##ys": 3225,
      "##gr": 3226,
      "##ert": 3227,
      "##ick": 3228,
      "##up": 3229,
      "##ter": 3230,
      "společenství": 3231,
      "##án": 3232,
      "kar": 3233,
      "##níků": 3234,
      "##oh": 3235,
      "##eg": 3236,
      "##ez": 3237,
      "vlastníků": 3238,
      "mart": 3239,
      "##ent": 3240,
      "##um": 3241,
      "and": 3242,
      "##ha": 3243,
      "##ler": 3244,
      "tom": 3245,
      "##ran": 3246,
      "mat": 3247,
      "##ip": 3248,
      "##va": 3249,
      "dan": 3250,
      "##ey": 3251,
      "##sz": 3252,
      "##ej": 3253,
      "bar": 3254,
      "sch": 3255,
      "##ан": 3256,
      "mgr": 3257,
      "##ast": 3258,
      "##ев": 3259,
      "##iz": 3260,
      "ar": 3261,
      "##ова": 3262,
      "##of": 3263,
      "##ard": 3264,
      "kat": 3265,
      "##ich": 3266,
      "##ib": 3267,
      "##ská": 3268,
      "##áš": 3269,
      "pro": 3270,
      "##ří": 3271,
      "##oc": 3272,
      "##ja": 3273,
      "##uk": 3274,
      "sh": 3275,
      "##est": 3276,
      "##ner": 3277,
      "##ина": 3278,
      "##yt": 3279,
      "##ela": 3280,
      "##ice": 3281,
      "##oj": 3282,
      "dom": 3283,
      "##aj": 3284,
      "pav": 3285,
      "##gam": 3286,
      "kr": 3287,
      "##ар": 3288,
      "##da": 3289,
      "##ost": 3290,
      "##iel": 3291,
      "el": 3292,
      "##ion": 3293,
      "jar": 3294,
      "##ák": 3295,
      "kl": 3296,
      "##xx": 3297,
      "##ay": 3298,
      "##10": 3299,
      "##iv": 3300,
      "mil": 3301,
      "rad": 3302,
      "##ah": 3303,
      "sz": 3304,
      "##cz": 3305,
      "##nd": 3306,
      "##az": 3307,
      "##lo": 3308,
      "ale": 3309,
      "##ly": 3310,
      "##ár": 3311,
      "##ach": 3312,
      "##ič": 3313,
      "iv": 3314,
      "##onika": 3315,
      "br": 3316,
      "##eh": 3317,
      "##uz": 3318,
      "##icz": 3319,
      "##ský": 3320,
      "##rist": 3321,
      "##oz": 3322,
      "##ew": 3323,
      "##ros": 3324,
      "petr": 3325,
      "##ier": 3326,
      "##io": 3327,
      "##ata": 3328,
      "sk": 3329,
      "##raf": 3330,
      "##af": 3331,
      "##ен": 3332,
      "##ин": 3333,
      "micha": 3334,
      "ji": 3335,
      "##ust": 3336,
      "marc": 3337,
      "##end": 3338,
      "##yn": 3339,
      "##sh": 3340,
      "##ex": 3341,
      "martin": 3342,
      "xx": 3343,
      "##usz": 3344,
      "##ík": 3345,
      "##ny": 3346,
      "##ess": 3347,
      "##erg": 3348,
      "##ine": 3349,
      "mr": 3350,
      "##200": 3351,
      "##edn": 3352,
      "##ал": 3353,
      "##mann": 3354,
      "##ark": 3355,
      "##oy": 3356,
      "##11": 3357,
      "##ер": 3358,
      "##lu": 3359,
      "##ech": 3360,
      "##art": 3361,
      "##123": 3362,
      "##ix": 3363,
      "luc": 3364,
      "##át": 3365,
      "##ат": 3366,
      "##ers": 3367,
      "##yl": 3368,
      "##ke": 3369,
      "##ola": 3370,
      "jedn": 3371,
      "##ma": 3372,
      "##ox": 3373,
      "##ila": 3374,
      "pr": 3375,
      "jednot": 3376,
      "zd": 3377,
      "##bor": 3378,
      "##ang": 3379,
      "ol": 3380,
      "##lová": 3381,
      "##owska": 3382,
      "or": 3383,
      "andre": 3384,
      "ag": 3385,
      "le": 3386,
      "##rad": 3387,
      "alex": 3388,
      "##ho": 3389,
      "##eck": 3390,
      "##islav": 3391,
      "rom": 3392,
      "anna": 3393,
      "cz": 3394,
      "##vp": 3395,
      "gr": 3396,
      "##ona": 3397,
      "##ик": 3398,
      "##oslav": 3399,
      "##au": 3400,
      "fran": 3401,
      "##ster": 3402,
      "##ant": 3403,
      "##ala": 3404,
      "jednotek": 3405,
      "##olf": 3406,
      "##eta": 3407,
      "##owski": 3408,
      "##ce": 3409,
      "##99": 3410,
      "##oš": 3411,
      "##13": 3412,
      "jana": 3413,
      "##ла": 3414,
      "##ír": 3415,
      "pat": 3416,
      "##ya": 3417,
      "##ín": 3418,
      "re": 3419,
      "##ort": 3420,
      "##ug": 3421,
      "##ind": 3422,
      "##czy": 3423,
      "pra": 3424,
      "##tor": 3425,
      "##ack": 3426,
      "##ara": 3427,
      "##ле": 3428,
      "dav": 3429,
      "bc": 3430,
      "mag": 3431,
      "##sch": 3432,
      "##iš": 3433,
      "jak": 3434,
      "nat": 3435,
      "##lad": 3436,
      "##qu": 3437,
      "##old": 3438,
      "##if": 3439,
      "##íková": 3440,
      "##ne": 3441,
      "kam": 3442,
      "pavel": 3443,
      "##ond": 3444,
      "##ill": 3445,
      "##raft": 3446,
      "ver": 3447,
      "##lay": 3448,
      "##enka": 3449,
      "##ál": 3450,
      "##eř": 3451,
      "##gor": 3452,
      "ren": 3453,
      "##ор": 3454,
      "ter": 3455,
      "jiří": 3456,
      "it": 3457,
      "michal": 3458,
      "##20": 3459,
      "##itt": 3460,
      "the": 3461,
      "##ace": 3462,
      "##iew": 3463,
      "jos": 3464,
      "##ii": 3465,
      "ph": 3466,
      "han": 3467,
      "##ruž": 3468,
      "be": 3469,
      "##uch": 3470,
      "##ern": 3471,
      "##ord": 3472,
      "##ss": 3473,
      "##uš": 3474,
      "nik": 3475,
      "jo": 3476,
      "rob": 3477,
      "##udr": 3478,
      "##ga": 3479,
      "tomáš": 3480,
      "sv": 3481,
      "##gu": 3482,
      "##ия": 3483,
      "gam": 3484,
      "mark": 3485,
      "##sp": 3486,
      "##ské": 3487,
      "##ль": 3488,
      "er": 3489,
      "##ht": 3490,
      "##ева": 3491,
      "gab": 3492,
      "##áč": 3493,
      "##iak": 3494,
      "ob": 3495,
      "##ław": 3496,
      "##yna": 3497,
      "##tě": 3498,
      "miros": 3499,
      "##yb": 3500,
      "david": 3501,
      "em": 3502,
      "##ita": 3503,
      "petra": 3504,
      "daniel": 3505,
      "##gamer": 3506,
      "vlad": 3507,
      "monika": 3508,
      "ser": 3509,
      "##ym": 3510,
      "##ett": 3511,
      "##ий": 3512,
      "##ist": 3513,
      "##och": 3514,
      "pa": 3515,
      "sm": 3516,
      "ben": 3517,
      "##ńska": 3518,
      "##им": 3519,
      "ir": 3520,
      "am": 3521,
      "ant": 3522,
      "##ěk": 3523,
      "##22": 3524,
      "##ell": 3525,
      "man": 3526,
      "nad": 3527,
      "he": 3528,
      "##za": 3529,
      "mik": 3530,
      "##áková": 3531,
      "ed": 3532,
      "tr": 3533,
      "min": 3534,
      "mal": 3535,
      "ka": 3536,
      "jaroslav": 3537,
      "##gan": 3538,
      "##mar": 3539,
      "luk": 3540,
      "##iss": 3541,
      "##ire": 3542,
      "##ass": 3543,
      "jakub": 3544,
      "##ies": 3545,
      "##orn": 3546,
      "##23": 3547,
      "##per": 3548,
      "adam": 3549,
      "##andra": 3550,
      "##han": 3551,
      "roman": 3552,
      "##mer": 3553,
      "##ff": 3554,
      "##all": 3555,
      "##14": 3556,
      "##co": 3557,
      "##ink": 3558,
      "miroslav": 3559,
      "den": 3560,
      "pl": 3561,
      "dra": 3562,
      "car": 3563,
      "ab": 3564,
      "marek": 3565,
      "##yd": 3566,
      "christ": 3567,
      "dar": 3568,
      "##yk": 3569,
      "##ger": 3570,
      "sim": 3571,
      "jul": 3572,
      "##кс": 3573,
      "im": 3574,
      "fr": 3575,
      "##asz": 3576,
      "bla": 3577,
      "hel": 3578,
      "gro": 3579,
      "##ка": 3580,
      "eva": 3581,
      "domu": 3582,
      "##ann": 3583,
      "##ир": 3584,
      "pi": 3585,
      "##ba": 3586,
      "##ula": 3587,
      "##wa": 3588,
      "##ald": 3589,
      "stan": 3590,
      "##ight": 3591,
      "##kov": 3592,
      "##ко": 3593,
      "##15": 3594,
      "##iela": 3595,
      "##irl": 3596,
      "il": 3597,
      "##ee": 3598,
      "lenka": 3599,
      "če": 3600,
      "bo": 3601,
      "##ур": 3602,
      "##ná": 3603,
      "##он": 3604,
      "ko": 3605,
      "##ný": 3606,
      "ond": 3607,
      "##ura": 3608,
      "hor": 3609,
      "##ас": 3610,
      "##77": 3611,
      "kub": 3612,
      "##mc": 3613,
      "de": 3614,
      "josef": 3615,
      "fil": 3616,
      "##lan": 3617,
      "domin": 3618,
      "##ам": 3619,
      "martina": 3620,
      "val": 3621,
      "##ил": 3622,
      "##no": 3623,
      "##me": 3624,
      "kra": 3625,
      "##ác": 3626,
      "##21": 3627,
      "##oo": 3628,
      "##ong": 3629,
      "karol": 3630,
      "##yp": 3631,
      "lucie": 3632,
      "##erová": 3633,
      "##czyk": 3634,
      "##uc": 3635,
      "##ей": 3636,
      "##ář": 3637,
      "bart": 3638,
      "##her": 3639,
      "organ": 3640,
      "her": 3641,
      "sam": 3642,
      "##eš": 3643,
      "##kova": 3644,
      "##ński": 3645,
      "##24": 3646,
      "##der": 3647,
      "max": 3648,
      "organiz": 3649,
      "##ení": 3650,
      "pol": 3651,
      "##anna": 3652,
      "hol": 3653,
      "##eks": 3654,
      "##ové": 3655,
      "##dr": 3656,
      "spolek": 3657,
      "kon": 3658,
      "kateř": 3659,
      "##né": 3660,
      "##ien": 3661,
      "con": 3662,
      "##oss": 3663,
      "kateřina": 3664,
      "sup": 3665,
      "mudr": 3666,
      "zuz": 3667,
      "##45": 3668,
      "stef": 3669,
      "##03": 3670,
      "##01": 3671,
      "krist": 3672,
      "dr": 3673,
      "co": 3674,
      "ан": 3675,
      "##gorz": 3676,
      "##iller": 3677,
      "en": 3678,
      "##ens": 3679,
      "zden": 3680,
      "##nie": 3681,
      "vladim": 3682,
      "ra": 3683,
      "veronika": 3684,
      "mon": 3685,
      "##iewicz": 3686,
      "##ол": 3687,
      "cs": 3688,
      "##lov": 3689,
      "hana": 3690,
      "nic": 3691,
      "##čková": 3692,
      "##33": 3693,
      "##ash": 3694,
      "ul": 3695,
      "ber": 3696,
      "fl": 3697,
      "##ис": 3698,
      "robert": 3699,
      "mor": 3700,
      "ev": 3701,
      "##any": 3702,
      "michaela": 3703,
      "dor": 3704,
      "##sa": 3705,
      "##tt": 3706,
      "##gel": 3707,
      "mel": 3708,
      "lukáš": 3709,
      "adv": 3710,
      "milan": 3711,
      "##anda": 3712,
      "praha": 3713,
      "##ein": 3714,
      "##itz": 3715,
      "##ish": 3716,
      "lib": 3717,
      "##ит": 3718,
      "##zi": 3719,
      "př": 3720,
      "andrea": 3721,
      "##ath": 3722,
      "di": 3723,
      "##olt": 3724,
      "andr": 3725,
      "bor": 3726,
      "##gon": 3727,
      "pod": 3728,
      "as": 3729,
      "##др": 3730,
      "##04": 3731,
      "##ock": 3732,
      "sil": 3733,
      "##ber": 3734,
      "##ás": 3735,
      "##ity": 3736,
      "##anc": 3737,
      "gra": 3738,
      "##dal": 3739,
      "##ör": 3740,
      "kol": 3741,
      "##19": 3742,
      "##05": 3743,
      "serv": 3744,
      "##yr": 3745,
      "mari": 3746,
      "kla": 3747,
      "##min": 3748,
      "##vest": 3749,
      "lad": 3750,
      "##ge": 3751,
      "group": 3752,
      "##mon": 3753,
      "##zz": 3754,
      "##ад": 3755,
      "boh": 3756,
      "organizace": 3757,
      "##ům": 3758,
      "##enc": 3759,
      "##otr": 3760,
      "marie": 3761,
      "king": 3762,
      "art": 3763,
      "##kola": 3764,
      "але": 3765,
      "just": 3766,
      "##25": 3767,
      "##be": 3768,
      "##by": 3769,
      "dark": 3770,
      "klub": 3771,
      "##ver": 3772,
      "paw": 3773,
      "##ky": 3774,
      "bal": 3775,
      "ba": 3776,
      "##isa": 3777,
      "dob": 3778,
      "##one": 3779,
      "ha": 3780,
      "##uh": 3781,
      "sw": 3782,
      "##ád": 3783,
      "sab": 3784,
      "un": 3785,
      "##iktor": 3786,
      "##alová": 3787,
      "kry": 3788,
      "##si": 3789,
      "natal": 3790,
      "##ult": 3791,
      "##ет": 3792,
      "##bo": 3793,
      "##ček": 3794,
      "##17": 3795,
      "com": 3796,
      "anton": 3797,
      "##rik": 3798,
      "##he": 3799,
      "hon": 3800,
      "##nik": 3801,
      "##16": 3802,
      "##ied": 3803,
      "filip": 3804,
      "##boy": 3805,
      "terez": 3806,
      "##pa": 3807,
      "##hd": 3808,
      "##tr": 3809,
      "##gy": 3810,
      "##ij": 3811,
      "##sky": 3812,
      "##red": 3813,
      "na": 3814,
      "##ous": 3815,
      "##ул": 3816,
      "##bert": 3817,
      "##ica": 3818,
      "lud": 3819,
      "zák": 3820,
      "ivan": 3821,
      "krzy": 3822,
      "##ych": 3823,
      "##pvp": 3824,
      "##ander": 3825,
      "##ína": 3826,
      "##uka": 3827,
      "##zew": 3828,
      "seb": 3829,
      "druž": 3830,
      "michael": 3831,
      "dům": 3832,
      "##ья": 3833,
      "##18": 3834,
      "gre": 3835,
      "se": 3836,
      "radek": 3837,
      "la": 3838,
      "##ladní": 3839,
      "##okát": 3840,
      "advokát": 3841,
      "kal": 3842,
      "##07": 3843,
      "sd": 3844,
      "základní": 3845,
      "invest": 3846,
      "ne": 3847,
      "##te": 3848,
      "##02": 3849,
      "##eva": 3850,
      "zdeněk": 3851,
      "har": 3852,
      "vác": 3853,
      "van": 3854,
      "##zs": 3855,
      "václav": 3856,
      "št": 3857,
      "mc": 3858,
      "byt": 3859,
      "##reep": 3860,
      "kor": 3861,
      "##ota": 3862,
      "##stvo": 3863,
      "maria": 3864,
      "##amer": 3865,
      "##int": 3866,
      "##owicz": 3867,
      "is": 3868,
      "##ст": 3869,
      "##enko": 3870,
      "##ická": 3871,
      "družstvo": 3872,
      "##und": 3873,
      "paul": 3874,
      "stav": 3875,
      "lub": 3876,
      "##06": 3877,
      "ex": 3878,
      "voj": 3879,
      "##inc": 3880,
      "karel": 3881,
      "qu": 3882,
      "##row": 3883,
      "алекс": 3884,
      "##berg": 3885,
      "tim": 3886,
      "joh": 3887,
      "##55": 3888,
      "itz": 3889,
      "##ood": 3890,
      "##itka": 3891,
      "##guy": 3892,
      "alena": 3893,
      "##řej": 3894,
      "peter": 3895,
      "##eth": 3896,
      "##ias": 3897,
      "piotr": 3898,
      "sdruž": 3899,
      "##88": 3900,
      "hal": 3901,
      "škola": 3902,
      "eli": 3903,
      "##our": 3904,
      "##enn": 3905,
      "##66": 3906,
      "kas": 3907,
      "##isz": 3908,
      "ok": 3909,
      "wil": 3910,
      "##tof": 3911,
      "yt": 3912,
      "##27": 3913,
      "##rum": 3914,
      "##br": 3915,
      "sdružení": 3916,
      "ak": 3917,
      "od": 3918,
      "##szka": 3919,
      "мар": 3920,
      "sl": 3921,
      "thom": 3922,
      "mac": 3923,
      "##ára": 3924,
      "zs": 3925,
      "##gaming": 3926,
      "##yan": 3927,
      "##yc": 3928,
      "real": 3929,
      "##aster": 3930,
      "frant": 3931,
      "woj": 3932,
      "##rich": 3933,
      "wolf": 3934,
      "magdal": 3935,
      "ros": 3936,
      "##ła": 3937,
      "ма": 3938,
      "os": 3939,
      "##oll": 3940,
      "##zyna": 3941,
      "trad": 3942,
      "pvp": 3943,
      "adri": 3944,
      "##09": 3945,
      "aleks": 3946,
      "##енко": 3947,
      "bu": 3948,
      "ondřej": 3949,
      "##ков": 3950,
      "##di": 3951,
      "ge": 3952,
      "ger": 3953,
      "zuzana": 3954,
      "##ci": 3955,
      "mir": 3956,
      "tereza": 3957,
      "mad": 3958,
      "agnie": 3959,
      "##ate": 3960,
      "agnieszka": 3961,
      "ku": 3962,
      "##ole": 3963,
      "marta": 3964,
      "katar": 3965,
      "##rav": 3966,
      "##omír": 3967,
      "sa": 3968,
      "##les": 3969,
      "##ел": 3970,
      "##ung": 3971,
      "ur": 3972,
      "bur": 3973,
      "##ino": 3974,
      "##ki": 3975,
      "##cová": 3976,
      "syl": 3977,
      "dis": 3978,
      "bog": 3979,
      "stefan": 3980,
      "##ris": 3981,
      "##08": 3982,
      "op": 3983,
      "##mila": 3984,
      "bro": 3985,
      "##áv": 3986,
      "##pe": 3987,
      "raf": 3988,
      "##ca": 3989,
      "##son": 3990,
      "has": 3991,
      "sol": 3992,
      "##gen": 3993,
      "far": 3994,
      "ivana": 3995,
      "##rov": 3996,
      "barb": 3997,
      "##adow": 3998,
      "jitka": 3999,
      "##44": 4000,
      "##go": 4001,
      "super": 4002,
      "##ella": 4003,
      "##ph": 4004,
      "##eusz": 4005,
      "##ms": 4006,
      "##ět": 4007,
      "renata": 4008,
      "red": 4009,
      "sva": 4010,
      "marké": 4011,
      "##ation": 4012,
      "##cha": 4013,
      "##ом": 4014,
      "##nost": 4015,
      "pavl": 4016,
      "##iy": 4017,
      "čp": 4018,
      "so": 4019,
      "mo": 4020,
      "##78": 4021,
      "##ora": 4022,
      "šk": 4023,
      "##bie": 4024,
      "hr": 4025,
      "##osz": 4026,
      "gu": 4027,
      "františ": 4028,
      "##inger": 4029,
      "stanislav": 4030,
      "##ča": 4031,
      "##ment": 4032,
      "##ira": 4033,
      "vladimír": 4034,
      "##cs": 4035,
      "kn": 4036,
      "##000": 4037,
      "der": 4038,
      "##кова": 4039,
      "##hm": 4040,
      "rich": 4041,
      "cap": 4042,
      "##98": 4043,
      "##uck": 4044,
      "marcin": 4045,
      "##zej": 4046,
      "##ěj": 4047,
      "jac": 4048,
      "no": 4049,
      "kamil": 4050,
      "oli": 4051,
      "magdalena": 4052,
      "zb": 4053,
      "##ян": 4054,
      "markéta": 4055,
      "##ator": 4056,
      "da": 4057,
      "##iet": 4058,
      "bl": 4059,
      "str": 4060,
      "viktor": 4061,
      "##pp": 4062,
      "svaz": 4063,
      "gamer": 4064,
      "##ав": 4065,
      "##iej": 4066,
      "##26": 4067,
      "##my": 4068,
      "##lays": 4069,
      "dag": 4070,
      "end": 4071,
      "##we": 4072,
      "fer": 4073,
      "ví": 4074,
      "vol": 4075,
      "##ih": 4076,
      "##ovská": 4077,
      "dominik": 4078,
      "##ilová": 4079,
      "##play": 4080,
      "##аш": 4081,
      "star": 4082,
      "mał": 4083,
      "we": 4084,
      "lil": 4085,
      "##craft": 4086,
      "kop": 4087,
      "sal": 4088,
      "##ott": 4089,
      "sar": 4090,
      "med": 4091,
      "##czak": 4092,
      "nikola": 4093,
      "maj": 4094,
      "##off": 4095,
      "##kowska": 4096,
      "františek": 4097,
      "thomas": 4098,
      "##69": 4099,
      "mak": 4100,
      "##ram": 4101,
      "##de": 4102,
      "angel": 4103,
      "ladislav": 4104,
      "##gorzata": 4105,
      "katarzyna": 4106,
      "##oth": 4107,
      "##ška": 4108,
      "ham": 4109,
      "##28": 4110,
      "dam": 4111,
      "ал": 4112,
      "##ush": 4113,
      "barbara": 4114,
      "ště": 4115,
      "sc": 4116,
      "kom": 4117,
      "##ax": 4118,
      "##ičů": 4119,
      "krzysz": 4120,
      "arch": 4121,
      "##eł": 4122,
      "tur": 4123,
      "##astian": 4124,
      "ewa": 4125,
      "##kiewicz": 4126,
      "##zech": 4127,
      "olga": 4128,
      "##war": 4129,
      "##zer": 4130,
      "sn": 4131,
      "##se": 4132,
      "vě": 4133,
      "##ker": 4134,
      "wal": 4135,
      "##ür": 4136,
      "kur": 4137,
      "rod": 4138,
      "krzysztof": 4139,
      "ro": 4140,
      "at": 4141,
      "##29": 4142,
      "##bora": 4143,
      "##ecký": 4144,
      "te": 4145,
      "my": 4146,
      "##ics": 4147,
      "##kas": 4148,
      "##py": 4149,
      "##iec": 4150,
      "##ич": 4151,
      "vr": 4152,
      "##ith": 4153,
      "##girl": 4154,
      "##101": 4155,
      "##ай": 4156,
      "aut": 4157,
      "##řich": 4158,
      "me": 4159,
      "##dy": 4160,
      "##isch": 4161,
      "sport": 4162,
      "for": 4163,
      "cl": 4164,
      "##ovice": 4165,
      "##tová": 4166,
      "helena": 4167,
      "rud": 4168,
      "##ид": 4169,
      "gabr": 4170,
      "##ám": 4171,
      "##ovský": 4172,
      "##reeper": 4173,
      "jon": 4174,
      "##law": 4175,
      "barbora": 4176,
      "##ni": 4177,
      "ram": 4178,
      "hen": 4179,
      "tam": 4180,
      "pří": 4181,
      "dana": 4182,
      "dem": 4183,
      "##uro": 4184,
      "##icka": 4185,
      "##ike": 4186,
      "bud": 4187,
      "ho": 4188,
      "##uss": 4189,
      "##ał": 4190,
      "kre": 4191,
      "jir": 4192,
      "##pl": 4193,
      "bab": 4194,
      "fre": 4195,
      "aneta": 4196,
      "##arová": 4197,
      "##kowski": 4198,
      "##ül": 4199,
      "per": 4200,
      "gabriela": 4201,
      "ар": 4202,
      "##áb": 4203,
      "##pro": 4204,
      "tomasz": 4205,
      "cra": 4206,
      "kh": 4207,
      "##dan": 4208,
      "##era": 4209,
      "##árka": 4210,
      "##zek": 4211,
      "##att": 4212,
      "##ct": 4213,
      "joanna": 4214,
      "irena": 4215,
      "les": 4216,
      "sebastian": 4217,
      "kle": 4218,
      "##га": 4219,
      "czech": 4220,
      "do": 4221,
      "tech": 4222,
      "##lam": 4223,
      "##ull": 4224,
      "paweł": 4225,
      "##inka": 4226,
      "pavla": 4227,
      "blu": 4228,
      "michał": 4229,
      "gl": 4230,
      "patry": 4231,
      "##udia": 4232,
      "##ron": 4233,
      "##sen": 4234,
      "##hard": 4235,
      "łuka": 4236,
      "karolina": 4237,
      "##osh": 4238,
      "szy": 4239,
      "##šková": 4240,
      "##mo": 4241,
      "pal": 4242,
      "##ční": 4243,
      "##ius": 4244,
      "ju": 4245,
      "##ińska": 4246,
      "##ome": 4247,
      "kv": 4248,
      "vas": 4249,
      "##97": 4250,
      "va": 4251,
      "marcel": 4252,
      "cla": 4253,
      "bytové": 4254,
      "##56": 4255,
      "##uf": 4256,
      "mer": 4257,
      "nov": 4258,
      "##ekt": 4259,
      "tran": 4260,
      "kot": 4261,
      "hav": 4262,
      "comp": 4263,
      "iw": 4264,
      "##ých": 4265,
      "##je": 4266,
      "koz": 4267,
      "##34": 4268,
      "##ider": 4269,
      "##oda": 4270,
      "andrzej": 4271,
      "##sko": 4272,
      "bob": 4273,
      "marcela": 4274,
      "nor": 4275,
      "daniela": 4276,
      "##lik": 4277,
      "emil": 4278,
      "christian": 4279,
      "##anová": 4280,
      "##ед": 4281,
      "po": 4282,
      "kryst": 4283,
      "##ital": 4284,
      "##ského": 4285,
      "jas": 4286,
      "##36": 4287,
      "ja": 4288,
      "##inja": 4289,
      "##ýna": 4290,
      "##šová": 4291,
      "wer": 4292,
      "lin": 4293,
      "##hl": 4294,
      "jind": 4295,
      "##ička": 4296,
      "##áček": 4297,
      "##las": 4298,
      "##andr": 4299,
      "сер": 4300,
      "##ěl": 4301,
      "gal": 4302,
      "jer": 4303,
      "tob": 4304,
      "##ito": 4305,
      "##кая": 4306,
      "štěp": 4307,
      "black": 4308,
      "##sten": 4309,
      "pop": 4310,
      "kap": 4311,
      "gy": 4312,
      "par": 4313,
      "##ign": 4314,
      "##ite": 4315,
      "lá": 4316,
      "łukasz": 4317,
      "małgorzata": 4318,
      "##olog": 4319,
      "##esa": 4320,
      "##rin": 4321,
      "##андр": 4322,
      "##ус": 4323,
      "az": 4324,
      "##kat": 4325,
      "##fe": 4326,
      "kamila": 4327,
      "##áčková": 4328,
      "##enz": 4329,
      "grze": 4330,
      "leg": 4331,
      "##kal": 4332,
      "tan": 4333,
      "bra": 4334,
      "##yst": 4335,
      "julia": 4336,
      "trade": 4337,
      "kir": 4338,
      "iz": 4339,
      "##mi": 4340,
      "son": 4341,
      "##ild": 4342,
      "step": 4343,
      "ta": 4344,
      "fin": 4345,
      "##uta": 4346,
      "natalia": 4347,
      "mach": 4348,
      "##ude": 4349,
      "pe": 4350,
      "##ах": 4351,
      "##omb": 4352,
      "##mel": 4353,
      "##šek": 4354,
      "##аб": 4355,
      "##org": 4356,
      "##ty": 4357,
      "нат": 4358,
      "vel": 4359,
      "##fer": 4360,
      "##ск": 4361,
      "##sc": 4362,
      "dev": 4363,
      "ker": 4364,
      "cor": 4365,
      "fab": 4366,
      "aleš": 4367,
      "##liv": 4368,
      "##ecraft": 4369,
      "lo": 4370,
      "##ti": 4371,
      "##ем": 4372,
      "beata": 4373,
      "##pr": 4374,
      "##ele": 4375,
      "mas": 4376,
      "dagmar": 4377,
      "##ary": 4378,
      "александр": 4379,
      "šárka": 4380,
      "nguy": 4381,
      "inter": 4382,
      "ilona": 4383,
      "fel": 4384,
      "##rová": 4385,
      "sandra": 4386,
      "##esh": 4387,
      "##wia": 4388,
      "##54": 4389,
      "pap": 4390,
      "mateusz": 4391,
      "##ato": 4392,
      "##ňa": 4393,
      "jur": 4394,
      "##од": 4395,
      "jam": 4396,
      "om": 4397,
      "hu": 4398,
      "##games": 4399,
      "##ební": 4400,
      "##fr": 4401,
      "dj": 4402,
      "##100": 4403,
      "##ony": 4404,
      "##ower": 4405,
      "##amond": 4406,
      "kos": 4407,
      "##ect": 4408,
      "fire": 4409,
      "##key": 4410,
      "##rig": 4411,
      "##illa": 4412,
      "##ari": 4413,
      "##uel": 4414,
      "##3r": 4415,
      "sbor": 4416,
      "kristýna": 4417,
      "##zem": 4418,
      "##chová": 4419,
      "##ban": 4420,
      "##bel": 4421,
      "##wolf": 4422,
      "štěpán": 4423,
      "##ime": 4424,
      "##iner": 4425,
      "##ake": 4426,
      "its": 4427,
      "##tek": 4428,
      "gold": 4429,
      "andreas": 4430,
      "roz": 4431,
      "frank": 4432,
      "##eň": 4433,
      "servis": 4434,
      "ann": 4435,
      "blan": 4436,
      "patr": 4437,
      "##po": 4438,
      "klára": 4439,
      "cent": 4440,
      "společnost": 4441,
      "##iech": 4442,
      "gar": 4443,
      "##ure": 4444,
      "daw": 4445,
      "marian": 4446,
      "tat": 4447,
      "věra": 4448,
      "judr": 4449,
      "##inová": 4450,
      "aw": 4451,
      "jol": 4452,
      "##их": 4453,
      "šim": 4454,
      "master": 4455,
      "iveta": 4456,
      "bern": 4457,
      "##ün": 4458,
      "pan": 4459,
      "##57": 4460,
      "rep": 4461,
      "##64": 4462,
      "ep": 4463,
      "mí": 4464,
      "##37": 4465,
      "##ore": 4466,
      "war": 4467,
      "##do": 4468,
      "##ial": 4469,
      "patrik": 4470,
      "char": 4471,
      "##ins": 4472,
      "zah": 4473,
      "##layer": 4474,
      "##ана": 4475,
      "##master": 4476,
      "av": 4477,
      "ac": 4478,
      "shadow": 4479,
      "grzegorz": 4480,
      "du": 4481,
      "dobrov": 4482,
      "##iger": 4483,
      "##elina": 4484,
      "cons": 4485,
      "nguyen": 4486,
      "##its": 4487,
      "##ický": 4488,
      "##ánek": 4489,
      "##king": 4490,
      "##ima": 4491,
      "##lin": 4492,
      "libor": 4493,
      "##ani": 4494,
      "vojtě": 4495,
      "##een": 4496,
      "##lat": 4497,
      "##кина": 4498,
      "##pt": 4499,
      "dragon": 4500,
      "##anta": 4501,
      "##via": 4502,
      "##acz": 4503,
      "##ló": 4504,
      "##ont": 4505,
      "reg": 4506,
      "##men": 4507,
      "ot": 4508,
      "##ava": 4509,
      "##iol": 4510,
      "##59": 4511,
      "radka": 4512,
      "ко": 4513,
      "##ft": 4514,
      "flor": 4515,
      "##ěv": 4516,
      "##2000": 4517,
      "##ných": 4518,
      "##star": 4519,
      "aleksandra": 4520,
      "gabri": 4521,
      "##анов": 4522,
      "serg": 4523,
      "company": 4524,
      "##oł": 4525,
      "bas": 4526,
      "##oph": 4527,
      "richard": 4528,
      "mys": 4529,
      "##yy": 4530,
      "jack": 4531,
      "##erv": 4532,
      "##elová": 4533,
      "##rob": 4534,
      "alexander": 4535,
      "mario": 4536,
      "##аз": 4537,
      "##67": 4538,
      "dobrovol": 4539,
      "dominika": 4540,
      "ml": 4541,
      "##orm": 4542,
      "moh": 4543,
      "##out": 4544,
      "kost": 4545,
      "ost": 4546,
      "vojtěch": 4547,
      "már": 4548,
      "##fi": 4549,
      "##ovic": 4550,
      "##lock": 4551,
      "##ánková": 4552,
      "##unt": 4553,
      "##leg": 4554,
      "##uše": 4555,
      "##ская": 4556,
      "##car": 4557,
      "dorota": 4558,
      "##rafter": 4559,
      "##iusz": 4560,
      "ap": 4561,
      "##eng": 4562,
      "tor": 4563,
      "thi": 4564,
      "kad": 4565,
      "##čka": 4566,
      "##ai": 4567,
      "##ibor": 4568,
      "##ior": 4569,
      "iva": 4570,
      "on": 4571,
      "consult": 4572,
      "dv": 4573,
      "##ets": 4574,
      "pavlína": 4575,
      "wh": 4576,
      "##nerová": 4577,
      "##ragon": 4578,
      "##čan": 4579,
      "##лад": 4580,
      "##ini": 4581,
      "##кин": 4582,
      "brno": 4583,
      "##čík": 4584,
      "##007": 4585,
      "matěj": 4586,
      "ew": 4587,
      "ban": 4588,
      "##oci": 4589,
      "šv": 4590,
      "sr": 4591,
      "##iro": 4592,
      "натал": 4593,
      "##sková": 4594,
      "##ley": 4595,
      "je": 4596,
      "kev": 4597,
      "cat": 4598,
      "simona": 4599,
      "##ipp": 4600,
      "pot": 4601,
      "mariusz": 4602,
      "big": 4603,
      "##öl": 4604,
      "##eld": 4605,
      "hasičů": 4606,
      "##unter": 4607,
      "##eman": 4608,
      "bre": 4609,
      "met": 4610,
      "tra": 4611,
      "dre": 4612,
      "zo": 4613,
      "lau": 4614,
      "lar": 4615,
      "##iya": 4616,
      "tar": 4617,
      "dol": 4618,
      "don": 4619,
      "##len": 4620,
      "серг": 4621,
      "hub": 4622,
      "##etta": 4623,
      "##bach": 4624,
      "ry": 4625,
      "kasia": 4626,
      "die": 4627,
      "fa": 4628,
      "justyna": 4629,
      "кр": 4630,
      "čms": 4631,
      "##amp": 4632,
      "lab": 4633,
      "##bieta": 4634,
      "##gh": 4635,
      "##ön": 4636,
      "sok": 4637,
      "dobrovolných": 4638,
      "##jan": 4639,
      "jaroslava": 4640,
      "##35": 4641,
      "cool": 4642,
      "bel": 4643,
      "jen": 4644,
      "dal": 4645,
      "pé": 4646,
      "вал": 4647,
      "schm": 4648,
      "alexandra": 4649,
      "jó": 4650,
      "kun": 4651,
      "##zewska": 4652,
      "##ever": 4653,
      "san": 4654,
      "to": 4655,
      "##ábor": 4656,
      "ender": 4657,
      "##38": 4658,
      "##iński": 4659,
      "mateř": 4660,
      "li": 4661,
      "mus": 4662,
      "##ěst": 4663,
      "##iko": 4664,
      "ник": 4665,
      "##fa": 4666,
      "св": 4667,
      "ic": 4668,
      "##31": 4669,
      "##éla": 4670,
      "##íl": 4671,
      "##ette": 4672,
      "sen": 4673,
      "sus": 4674,
      "##ling": 4675,
      "paulina": 4676,
      "##ун": 4677,
      "##lík": 4678,
      "bir": 4679,
      "český": 4680,
      "##ico": 4681,
      "artur": 4682,
      "kul": 4683,
      "ев": 4684,
      "iwona": 4685,
      "##zel": 4686,
      "##hal": 4687,
      "##imil": 4688,
      "##аг": 4689,
      "kř": 4690,
      "##ple": 4691,
      "tw": 4692,
      "влад": 4693,
      "##xd": 4694,
      "kaz": 4695,
      "##res": 4696,
      "john": 4697,
      "adrian": 4698,
      "##unk": 4699,
      "##auer": 4700,
      "ola": 4701,
      "denis": 4702,
      "##bur": 4703,
      "##аев": 4704,
      "##aa": 4705,
      "sob": 4706,
      "stř": 4707,
      "##áz": 4708,
      "del": 4709,
      "##bro": 4710,
      "sas": 4711,
      "##ide": 4712,
      "kov": 4713,
      "sky": 4714,
      "lord": 4715,
      "##лена": 4716,
      "pok": 4717,
      "##ade": 4718,
      "eliška": 4719,
      "phil": 4720,
      "##okie": 4721,
      "tre": 4722,
      "##ек": 4723,
      "tro": 4724,
      "ст": 4725,
      "kro": 4726,
      "##uff": 4727,
      "##áta": 4728,
      "##dog": 4729,
      "##iw": 4730,
      "##ts": 4731,
      "##age": 4732,
      "##30": 4733,
      "##vin": 4734,
      "kuba": 4735,
      "ир": 4736,
      "matth": 4737,
      "##ační": 4738,
      "mot": 4739,
      "##št": 4740,
      "ján": 4741,
      "##har": 4742,
      "koc": 4743,
      "##ecká": 4744,
      "##rab": 4745,
      "haj": 4746,
      "##zen": 4747,
      "dawid": 4748,
      "leon": 4749,
      "magda": 4750,
      "dm": 4751,
      "##ps": 4752,
      "##fire": 4753,
      "##íček": 4754,
      "##ork": 4755,
      "honza": 4756,
      "##ei": 4757,
      "##ух": 4758,
      "##inh": 4759,
      "var": 4760,
      "##cat": 4761,
      "miloslav": 4762,
      "crazy": 4763,
      "##ive": 4764,
      "##ical": 4765,
      "##рий": 4766,
      "cr": 4767,
      "##yi": 4768,
      "##ак": 4769,
      "pre": 4770,
      "андр": 4771,
      "obec": 4772,
      "top": 4773,
      "vic": 4774,
      "##oř": 4775,
      "##76": 4776,
      "##urt": 4777,
      "##icki": 4778,
      "##inz": 4779,
      "##2003": 4780,
      "gaming": 4781,
      "radim": 4782,
      "nikol": 4783,
      "gh": 4784,
      "ryb": 4785,
      "##ben": 4786,
      "##bl": 4787,
      "sem": 4788,
      "##nov": 4789,
      "##ór": 4790,
      "##ton": 4791,
      "za": 4792,
      "##nar": 4793,
      "##гор": 4794,
      "##95": 4795,
      "##ysz": 4796,
      "##ve": 4797,
      "ана": 4798,
      "fro": 4799,
      "##cher": 4800,
      "##ecka": 4801,
      "ania": 4802,
      "##dor": 4803,
      "##plays": 4804,
      "maciej": 4805,
      "centrum": 4806,
      "rafał": 4807,
      "сергей": 4808,
      "##jam": 4809,
      "##lak": 4810,
      "лю": 4811,
      "##čová": 4812,
      "euro": 4813,
      "елена": 4814,
      "##nes": 4815,
      "stud": 4816,
      "stra": 4817,
      "##ille": 4818,
      "##иев": 4819,
      "jess": 4820,
      "kitt": 4821,
      "##uy": 4822,
      "##inb": 4823,
      "szab": 4824,
      "przem": 4825,
      "meg": 4826,
      "##анова": 4827,
      "##andy": 4828,
      "sir": 4829,
      "blanka": 4830,
      "##74": 4831,
      "##ada": 4832,
      "sylwia": 4833,
      "zdeň": 4834,
      "denisa": 4835,
      "jud": 4836,
      "##ule": 4837,
      "##ňová": 4838,
      "##лав": 4839,
      "damian": 4840,
      "##oun": 4841,
      "sed": 4842,
      "##řová": 4843,
      "mateřská": 4844,
      "hans": 4845,
      "ib": 4846,
      "antonín": 4847,
      "ax": 4848,
      "##inski": 4849,
      "##lerová": 4850,
      "##ender": 4851,
      "##ген": 4852,
      "##níková": 4853,
      "abd": 4854,
      "go": 4855,
      "##ně": 4856,
      "romana": 4857,
      "##tv": 4858,
      "##32": 4859,
      "##hn": 4860,
      "ang": 4861,
      "rol": 4862,
      "##ник": 4863,
      "fal": 4864,
      "вик": 4865,
      "plus": 4866,
      "##číková": 4867,
      "##89": 4868,
      "##íčková": 4869,
      "##killer": 4870,
      "##ution": 4871,
      "ther": 4872,
      "simon": 4873,
      "log": 4874,
      "pep": 4875,
      "##iga": 4876,
      "jacek": 4877,
      "igor": 4878,
      "zdeňka": 4879,
      "pas": 4880,
      "rem": 4881,
      "techn": 4882,
      "тат": 4883,
      "des": 4884,
      "##из": 4885,
      "killer": 4886,
      "rus": 4887,
      "##rom": 4888,
      "##ux": 4889,
      "##oup": 4890,
      "gor": 4891,
      "##iana": 4892,
      "nicole": 4893,
      "##elle": 4894,
      "sie": 4895,
      "thed": 4896,
      "##zewski": 4897,
      "lukas": 4898,
      "##amm": 4899,
      "ahm": 4900,
      "vl": 4901,
      "přísp": 4902,
      "příspěv": 4903,
      "##2002": 4904,
      "consulting": 4905,
      "nag": 4906,
      "##ский": 4907,
      "theb": 4908,
      "##din": 4909,
      "morav": 4910,
      "##dz": 4911,
      "юл": 4912,
      "dz": 4913,
      "##ро": 4914,
      "příspěvková": 4915,
      "##aba": 4916,
      "##ear": 4917,
      "##ida": 4918,
      "zolt": 4919,
      "diamond": 4920,
      "##2004": 4921,
      "nick": 4922,
      "##199": 4923,
      "mysliv": 4924,
      "duš": 4925,
      "##ičková": 4926,
      "аб": 4927,
      "mol": 4928,
      "##íra": 4929,
      "kob": 4930,
      "##ук": 4931,
      "zel": 4932,
      "##lana": 4933,
      "##ater": 4934,
      "ky": 4935,
      "ali": 4936,
      "lov": 4937,
      "ru": 4938,
      "##manová": 4939,
      "nem": 4940,
      "len": 4941,
      "##ša": 4942,
      "##ут": 4943,
      "##aff": 4944,
      "občan": 4945,
      "##arz": 4946,
      "markus": 4947,
      "##iek": 4948,
      "свет": 4949,
      "##yg": 4950,
      "kru": 4951,
      "wies": 4952,
      "dud": 4953,
      "šp": 4954,
      "ga": 4955,
      "lol": 4956,
      "##kn": 4957,
      "##ikova": 4958,
      "sokol": 4959,
      "##lem": 4960,
      "nová": 4961,
      "sof": 4962,
      "vít": 4963,
      "vy": 4964,
      "##ano": 4965,
      "##to": 4966,
      "lip": 4967,
      "wojc": 4968,
      "lász": 4969,
      "att": 4970,
      "##kin": 4971,
      "miroslava": 4972,
      "##ance": 4973,
      "kac": 4974,
      "ve": 4975,
      "old": 4976,
      "##zd": 4977,
      "agata": 4978,
      "elena": 4979,
      "##nic": 4980,
      "##osp": 4981,
      "hrad": 4982,
      "mis": 4983,
      "##иш": 4984,
      "##átel": 4985,
      "jiř": 4986,
      "lev": 4987,
      "##ovní": 4988,
      "##esz": 4989,
      "##ero": 4990,
      "##ér": 4991,
      "přátel": 4992,
      "ron": 4993,
      "dub": 4994,
      "lou": 4995,
      "pla": 4996,
      "##rix": 4997,
      "##rika": 4998,
      "slav": 4999,
      "ral": 5000,
      "##тор": 5001,
      "##usch": 5002,
      "ludmila": 5003,
      "##met": 5004,
      "bub": 5005,
      "##mat": 5006,
      "##que": 5007,
      "##rid": 5008,
      "##ile": 5009,
      "repub": 5010,
      "craft": 5011,
      "евген": 5012,
      "##rat": 5013,
      "adéla": 5014,
      "part": 5015,
      "##ane": 5016,
      "##gar": 5017,
      "##líková": 5018,
      "tomas": 5019,
      "anita": 5020,
      "##1234": 5021,
      "gen": 5022,
      "##niak": 5023,
      "##yta": 5024,
      "rost": 5025,
      "##ьяна": 5026,
      "bat": 5027,
      "krystyna": 5028,
      "##jo": 5029,
      "ass": 5030,
      "##ons": 5031,
      "ele": 5032,
      "bad": 5033,
      "tru": 5034,
      "##ím": 5035,
      "luboš": 5036,
      "ener": 5037,
      "##nis": 5038,
      "them": 5039,
      "##áj": 5040,
      "sven": 5041,
      "jaromír": 5042,
      "оль": 5043,
      "##bla": 5044,
      "lászló": 5045,
      "dir": 5046,
      "marz": 5047,
      "##els": 5048,
      "##gl": 5049,
      "diana": 5050,
      "##gi": 5051,
      "##unny": 5052,
      "##pert": 5053,
      "##68": 5054,
      "krisz": 5055,
      "odbor": 5056,
      "math": 5057,
      "##nt": 5058,
      "##bal": 5059,
      "##uer": 5060,
      "##уд": 5061,
      "vend": 5062,
      "rub": 5063,
      "lor": 5064,
      "##for": 5065,
      "miloš": 5066,
      "##ras": 5067,
      "alic": 5068,
      "jarmila": 5069,
      "##zef": 5070,
      "ke": 5071,
      "##oni": 5072,
      "istv": 5073,
      "##enberg": 5074,
      "jindřich": 5075,
      "sel": 5076,
      "ves": 5077,
      "lid": 5078,
      "col": 5079,
      "##ešová": 5080,
      "est": 5081,
      "fox": 5082,
      "vil": 5083,
      "stev": 5084,
      "su": 5085,
      "##playz": 5086,
      "##ovan": 5087,
      "татьяна": 5088,
      "##rod": 5089,
      "ty": 5090,
      "bil": 5091,
      "##íd": 5092,
      "kevin": 5093,
      "vin": 5094,
      "##аева": 5095,
      "rudolf": 5096,
      "##94": 5097,
      "teresa": 5098,
      "hold": 5099,
      "jad": 5100,
      "##uth": 5101,
      "chris": 5102,
      "##oly": 5103,
      "ps": 5104,
      "mv": 5105,
      "milena": 5106,
      "##cja": 5107,
      "bř": 5108,
      "##ther": 5109,
      "izab": 5110,
      "ste": 5111,
      "##ks": 5112,
      "elż": 5113,
      "##ise": 5114,
      "##mp": 5115,
      "karolína": 5116,
      "##nice": 5117,
      "##iev": 5118,
      "fla": 5119,
      "##75": 5120,
      "klaudia": 5121,
      "##ices": 5122,
      "##лана": 5123,
      "litt": 5124,
      "capta": 5125,
      "sad": 5126,
      "hanna": 5127,
      "##уб": 5128,
      "wojciech": 5129,
      "elżbieta": 5130,
      "##isk": 5131,
      "14": 5132,
      "epic": 5133,
      "##fl": 5134,
      "##от": 5135,
      "##уш": 5136,
      "ivo": 5137,
      "creeper": 5138,
      "ольга": 5139,
      "dariusz": 5140,
      "jolanta": 5141,
      "hd": 5142,
      "##ans": 5143,
      "zem": 5144,
      "##iny": 5145,
      "##ham": 5146,
      "##uba": 5147,
      "##hr": 5148,
      "##ový": 5149,
      "danuta": 5150,
      "10": 5151,
      "наталья": 5152,
      "mod": 5153,
      "patrycja": 5154,
      "awes": 5155,
      "кар": 5156,
      "##czuk": 5157,
      "##win": 5158,
      "##rock": 5159,
      "##lic": 5160,
      "##ely": 5161,
      "##izz": 5162,
      "por": 5163,
      "ewelina": 5164,
      "##ea": 5165,
      "now": 5166,
      "##ewska": 5167,
      "##ес": 5168,
      "cal": 5169,
      "erika": 5170,
      "rap": 5171,
      "anast": 5172,
      "##ап": 5173,
      "##sm": 5174,
      "laura": 5175,
      "##ečková": 5176,
      "андрей": 5177,
      "##eed": 5178,
      "##igh": 5179,
      "intern": 5180,
      "##osia": 5181,
      "##du": 5182,
      "mur": 5183,
      "hab": 5184,
      "sou": 5185,
      "##yer": 5186,
      "##con": 5187,
      "##ovič": 5188,
      "oliver": 5189,
      "norbert": 5190,
      "##sw": 5191,
      "bon": 5192,
      "ková": 5193,
      "##ame": 5194,
      "13": 5195,
      "theg": 5196,
      "lang": 5197,
      "kut": 5198,
      "##ława": 5199,
      "##vá": 5200,
      "##iper": 5201,
      "yv": 5202,
      "angelika": 5203,
      "ирина": 5204,
      "sha": 5205,
      "české": 5206,
      "fat": 5207,
      "jirka": 5208,
      "виктор": 5209,
      "##fox": 5210,
      "##inj": 5211,
      "##tz": 5212,
      "pel": 5213,
      "patrick": 5214,
      "net": 5215,
      "club": 5216,
      "##enk": 5217,
      "maz": 5218,
      "valent": 5219,
      "##ble": 5220,
      "bry": 5221,
      "česká": 5222,
      "kim": 5223,
      "##let": 5224,
      "von": 5225,
      "##ické": 5226,
      "##emon": 5227,
      "mu": 5228,
      "##omir": 5229,
      "##rior": 5230,
      "##sová": 5231,
      "##zo": 5232,
      "##2005": 5233,
      "čern": 5234,
      "##87": 5235,
      "##elář": 5236,
      "##ama": 5237,
      "арт": 5238,
      "##žka": 5239,
      "god": 5240,
      "##ld": 5241,
      "tř": 5242,
      "##osław": 5243,
      "##ester": 5244,
      "services": 5245,
      "klaus": 5246,
      "wiktor": 5247,
      "kaw": 5248,
      "alina": 5249,
      "such": 5250,
      "ts": 5251,
      "##cht": 5252,
      "vit": 5253,
      "##emann": 5254,
      "patryk": 5255,
      "##bek": 5256,
      "gábor": 5257,
      "win": 5258,
      "georg": 5259,
      "mister": 5260,
      "vlastimil": 5261,
      "##об": 5262,
      "##hu": 5263,
      "cam": 5264,
      "##rz": 5265,
      "xd": 5266,
      "ив": 5267,
      "##ump": 5268,
      "jel": 5269,
      "##can": 5270,
      "##own": 5271,
      "bod": 5272,
      "kan": 5273,
      "vý": 5274,
      "stephan": 5275,
      "##kid": 5276,
      "##тина": 5277,
      "phdr": 5278,
      "##zyn": 5279,
      "##oul": 5280,
      "##96": 5281,
      "##che": 5282,
      "stanis": 5283,
      "fir": 5284,
      "##lova": 5285,
      "##ерина": 5286,
      "##elia": 5287,
      "##olo": 5288,
      "pie": 5289,
      "silv": 5290,
      "wald": 5291,
      "claudia": 5292,
      "gi": 5293,
      "##ewski": 5294,
      "marco": 5295,
      "renáta": 5296,
      "макс": 5297,
      "pand": 5298,
      "wit": 5299,
      "##ken": 5300,
      "##tion": 5301,
      "bak": 5302,
      "##the": 5303,
      "##42": 5304,
      "##chod": 5305,
      "kel": 5306,
      "##kan": 5307,
      "dog": 5308,
      "##мит": 5309,
      "sportovní": 5310,
      "prod": 5311,
      "##elop": 5312,
      "pur": 5313,
      "##аша": 5314,
      "##cki": 5315,
      "##ieb": 5316,
      "ly": 5317,
      "klim": 5318,
      "zoltán": 5319,
      "but": 5320,
      "bez": 5321,
      "jür": 5322,
      "##wi": 5323,
      "##ierz": 5324,
      "měst": 5325,
      "mit": 5326,
      "##cer": 5327,
      "##уз": 5328,
      "##rava": 5329,
      "slu": 5330,
      "vac": 5331,
      "gol": 5332,
      "fed": 5333,
      "matt": 5334,
      "pil": 5335,
      "##ational": 5336,
      "holding": 5337,
      "##hor": 5338,
      "##chen": 5339,
      "##akova": 5340,
      "##inska": 5341,
      "##47": 5342,
      "##tra": 5343,
      "bol": 5344,
      "tu": 5345,
      "##ос": 5346,
      "##nová": 5347,
      "##ůž": 5348,
      "##ecki": 5349,
      "оле": 5350,
      "##2001": 5351,
      "алексей": 5352,
      "bohum": 5353,
      "alicja": 5354,
      "дмит": 5355,
      "lit": 5356,
      "##emar": 5357,
      "##val": 5358,
      "fur": 5359,
      "lubomír": 5360,
      "král": 5361,
      "##dová": 5362,
      "##git": 5363,
      "fond": 5364,
      "kay": 5365,
      "##атерина": 5366,
      "##yz": 5367,
      "sław": 5368,
      "ek": 5369,
      "sav": 5370,
      "##ilo": 5371,
      "proj": 5372,
      "kinga": 5373,
      "##rt": 5374,
      "rené": 5375,
      "##uj": 5376,
      "##fin": 5377,
      "##lez": 5378,
      "##lex": 5379,
      "jens": 5380,
      "##anov": 5381,
      "##ený": 5382,
      "vod": 5383,
      "##iem": 5384,
      "##max": 5385,
      "ner": 5386,
      "##ić": 5387,
      "schw": 5388,
      "sabine": 5389,
      "international": 5390,
      "##92": 5391,
      "solution": 5392,
      "jiřina": 5393,
      "svazu": 5394,
      "tri": 5395,
      "##ło": 5396,
      "dim": 5397,
      "sur": 5398,
      "##90": 5399,
      "brand": 5400,
      "##fred": 5401,
      "tamás": 5402,
      "##elka": 5403,
      "##ose": 5404,
      "marzena": 5405,
      "##stav": 5406,
      "občanské": 5407,
      "светлана": 5408,
      "rock": 5409,
      "##bre": 5410,
      "sarah": 5411,
      "mvdr": 5412,
      "ró": 5413,
      "péter": 5414,
      "při": 5415,
      "res": 5416,
      "##sn": 5417,
      "##ель": 5418,
      "raj": 5419,
      "karl": 5420,
      "sabina": 5421,
      "ze": 5422,
      "##over": 5423,
      "##aming": 5424,
      "div": 5425,
      "vo": 5426,
      "izabela": 5427,
      "##cal": 5428,
      "společenstvo": 5429,
      "##ťa": 5430,
      "jürgen": 5431,
      "##uda": 5432,
      "##čí": 5433,
      "dušan": 5434,
      "##hel": 5435,
      "##ios": 5436,
      "гал": 5437,
      "tomek": 5438,
      "zsuz": 5439,
      "##iková": 5440,
      "anastas": 5441,
      "##321": 5442,
      "kow": 5443,
      "čr": 5444,
      "janusz": 5445,
      "##are": 5446,
      "minecraft": 5447,
      "ast": 5448,
      "pt": 5449,
      "meh": 5450,
      "##65": 5451,
      "lé": 5452,
      "##gg": 5453,
      "istván": 5454,
      "vladislav": 5455,
      "green": 5456,
      "##85": 5457,
      "гр": 5458,
      "develop": 5459,
      "##ube": 5460,
      "nina": 5461,
      "jun": 5462,
      "анаст": 5463,
      "thes": 5464,
      "stein": 5465,
      "##anie": 5466,
      "marina": 5467,
      "honební": 5468,
      "ром": 5469,
      "luka": 5470,
      "##lou": 5471,
      "##alin": 5472,
      "##oč": 5473,
      "victor": 5474,
      "dead": 5475,
      "zá": 5476,
      "attila": 5477,
      "reality": 5478,
      "##ém": 5479,
      "franc": 5480,
      "szymon": 5481,
      "##inbow": 5482,
      "ven": 5483,
      "reb": 5484,
      "##iuk": 5485,
      "##ství": 5486,
      "анастас": 5487,
      "bac": 5488,
      "##icorn": 5489,
      "cre": 5490,
      "##ум": 5491,
      "##ence": 5492,
      "##layz": 5493,
      "##řík": 5494,
      "of": 5495,
      "иль": 5496,
      "jag": 5497,
      "##lew": 5498,
      "##anova": 5499,
      "tobias": 5500,
      "lam": 5501,
      "##bar": 5502,
      "investment": 5503,
      "##ích": 5504,
      "##kl": 5505,
      "##cka": 5506,
      "vital": 5507,
      "##ила": 5508,
      "##lich": 5509,
      "ash": 5510,
      "rez": 5511,
      "hot": 5512,
      "hus": 5513,
      "vik": 5514,
      "##anne": 5515,
      "##port": 5516,
      "##tre": 5517,
      "gala": 5518,
      "##bi": 5519,
      "##дин": 5520,
      "zach": 5521,
      "##zyk": 5522,
      "анастасия": 5523,
      "##имир": 5524,
      "jay": 5525,
      "##91": 5526,
      "zbyn": 5527,
      "##eček": 5528,
      "valer": 5529,
      "tj": 5530,
      "дмитрий": 5531,
      "id": 5532,
      "rog": 5533,
      "okres": 5534,
      "юлия": 5535,
      "##rád": 5536,
      "##sek": 5537,
      "robin": 5538,
      "##ese": 5539,
      "##arda": 5540,
      "štef": 5541,
      "zap": 5542,
      "girl": 5543,
      "fe": 5544,
      "pix": 5545,
      "##elt": 5546,
      "halina": 5547,
      "rodičů": 5548,
      "fra": 5549,
      "##use": 5550,
      "by": 5551,
      "##zeň": 5552,
      "##84": 5553,
      "##ats": 5554,
      "##říková": 5555,
      "##иль": 5556,
      "##60": 5557,
      "poh": 5558,
      "service": 5559,
      "hod": 5560,
      "##stein": 5561,
      "ay": 5562,
      "henry": 5563,
      "yur": 5564,
      "linda": 5565,
      "florian": 5566,
      "squ": 5567,
      "##ог": 5568,
      "##ecz": 5569,
      "##uška": 5570,
      "soňa": 5571,
      "julian": 5572,
      "##ита": 5573,
      "##zis": 5574,
      "##ánová": 5575,
      "kristina": 5576,
      "boż": 5577,
      "kanc": 5578,
      "matthias": 5579,
      "##bear": 5580,
      "##да": 5581,
      "##rop": 5582,
      "##cool": 5583,
      "vasyl": 5584,
      "15": 5585,
      "lena": 5586,
      "hart": 5587,
      "##álková": 5588,
      "koh": 5589,
      "##den": 5590,
      "##leb": 5591,
      "ig": 5592,
      "17": 5593,
      "manu": 5594,
      "##ра": 5595,
      "maty": 5596,
      "luděk": 5597,
      "baj": 5598,
      "can": 5599,
      "##iž": 5600,
      "анна": 5601,
      "pig": 5602,
      "si": 5603,
      "##fre": 5604,
      "##üller": 5605,
      "##kow": 5606,
      "myslivecký": 5607,
      "oleks": 5608,
      "hey": 5609,
      "##93": 5610,
      "bartek": 5611,
      "##etz": 5612,
      "brig": 5613,
      "tit": 5614,
      "um": 5615,
      "вас": 5616,
      "kraj": 5617,
      "hej": 5618,
      "jör": 5619,
      "##iia": 5620,
      "zh": 5621,
      "##igniew": 5622,
      "ек": 5623,
      "##ikó": 5624,
      "zsolt": 5625,
      "##dragon": 5626,
      "##arek": 5627,
      "team": 5628,
      "zbigniew": 5629,
      "erik": 5630,
      "##еж": 5631,
      "##ene": 5632,
      "##ýn": 5633,
      "szcz": 5634,
      "edyta": 5635,
      "##idt": 5636,
      "bed": 5637,
      "ca": 5638,
      "jab": 5639,
      "trading": 5640,
      "##12345": 5641,
      "myk": 5642,
      "##иева": 5643,
      "##83": 5644,
      "daria": 5645,
      "##lord": 5646,
      "##oman": 5647,
      "sand": 5648,
      "##uu": 5649,
      "##fan": 5650,
      "##ious": 5651,
      "##álek": 5652,
      "rostislav": 5653,
      "boz": 5654,
      "ela": 5655,
      "kö": 5656,
      "##por": 5657,
      "##eyer": 5658,
      "##eph": 5659,
      "plzeň": 5660,
      "##ewicz": 5661,
      "##chuk": 5662,
      "##ďa": 5663,
      "hlav": 5664,
      "hap": 5665,
      "##żyna": 5666,
      "syst": 5667,
      "##gue": 5668,
      "ton": 5669,
      "##ici": 5670,
      "##aneta": 5671,
      "##xxx": 5672,
      "bus": 5673,
      "##atel": 5674,
      "##oco": 5675,
      "марина": 5676,
      "##ness": 5677,
      "prof": 5678,
      "death": 5679,
      "##63": 5680,
      "szil": 5681,
      "##rah": 5682,
      "мих": 5683,
      "##cu": 5684,
      "korn": 5685,
      "kil": 5686,
      "zl": 5687,
      "uwe": 5688,
      "sta": 5689,
      "hug": 5690,
      "som": 5691,
      "šm": 5692,
      "##egamer": 5693,
      "##lp": 5694,
      "lucas": 5695,
      "##ndr": 5696,
      "karin": 5697,
      "##inn": 5698,
      "střed": 5699,
      "##иб": 5700,
      "##under": 5701,
      "##enix": 5702,
      "##gang": 5703,
      "dennis": 5704,
      "anja": 5705,
      "night": 5706,
      "bartosz": 5707,
      "vlasta": 5708,
      "zbyněk": 5709,
      "dirk": 5710,
      "wol": 5711,
      "natál": 5712,
      "##com": 5713,
      "rok": 5714,
      "##áž": 5715,
      "irina": 5716,
      "12": 5717,
      "##idi": 5718,
      "spr": 5719,
      "##ale": 5720,
      "mam": 5721,
      "екатерина": 5722,
      "maks": 5723,
      "##ku": 5724,
      "##ářová": 5725,
      "agent": 5726,
      "##ija": 5727,
      "es": 5728,
      "дан": 5729,
      "mike": 5730,
      "bron": 5731,
      "záv": 5732,
      "edu": 5733,
      "vladimir": 5734,
      "gö": 5735,
      "##ross": 5736,
      "che": 5737,
      "##ifer": 5738,
      "grażyna": 5739,
      "brun": 5740,
      "will": 5741,
      "##ily": 5742,
      "##act": 5743,
      "##land": 5744,
      "maci": 5745,
      "##aco": 5746,
      "ska": 5747,
      "lan": 5748,
      "##erm": 5749,
      "thec": 5750,
      "##ола": 5751,
      "kancelář": 5752,
      "##xy": 5753,
      "kab": 5754,
      "##ball": 5755,
      "200": 5756,
      "thep": 5757,
      "dur": 5758,
      "##engu": 5759,
      "##sana": 5760,
      "sun": 5761,
      "hy": 5762,
      "tad": 5763,
      "lis": 5764,
      "bul": 5765,
      "svat": 5766,
      "##kop": 5767,
      "##panda": 5768,
      "cel": 5769,
      "had": 5770,
      "kuch": 5771,
      "##rot": 5772,
      "chr": 5773,
      "svob": 5774,
      "ray": 5775,
      "bö": 5776,
      "##usová": 5777,
      "##ali": 5778,
      "jerzy": 5779,
      "##íč": 5780,
      "владимир": 5781,
      "##stin": 5782,
      "##ory": 5783,
      "nar": 5784,
      "krej": 5785,
      "##ody": 5786,
      "kath": 5787,
      "ott": 5788,
      "not": 5789,
      "##50": 5790,
      "et": 5791,
      "thef": 5792,
      "mirek": 5793,
      "kok": 5794,
      "alexandr": 5795,
      "roland": 5796,
      "ped": 5797,
      "##sl": 5798,
      "wo": 5799,
      "ondra": 5800,
      "##777": 5801,
      "sy": 5802,
      "ferenc": 5803,
      "miss": 5804,
      "xxx": 5805,
      "jános": 5806,
      "nicola": 5807,
      "##íř": 5808,
      "##essa": 5809,
      "##óra": 5810,
      "##ип": 5811,
      "pom": 5812,
      "ghost": 5813,
      "##iu": 5814,
      "##eter": 5815,
      "над": 5816,
      "advokátka": 5817,
      "##night": 5818,
      "bożena": 5819,
      "jes": 5820,
      "##62": 5821,
      "rysz": 5822,
      "##лан": 5823,
      "tv": 5824,
      "##lon": 5825,
      "ralf": 5826,
      "dět": 5827,
      "##80": 5828,
      "##fen": 5829,
      "##icken": 5830,
      "##ete": 5831,
      "bogdan": 5832,
      "drah": 5833,
      "дж": 5834,
      "ле": 5835,
      "##los": 5836,
      "oldřich": 5837,
      "##ок": 5838,
      "rndr": 5839,
      "##112": 5840,
      "##eli": 5841,
      "alt": 5842,
      "ken": 5843,
      "ned": 5844,
      "##czyńska": 5845,
      "bernd": 5846,
      "##gem": 5847,
      "##rina": 5848,
      "##ěd": 5849,
      "hud": 5850,
      "růž": 5851,
      "##lip": 5852,
      "##arczyk": 5853,
      "ii": 5854,
      "##vi": 5855,
      "##72": 5856,
      "##иц": 5857,
      "##tw": 5858,
      "zim": 5859,
      "##ěž": 5860,
      "##ng": 5861,
      "##999": 5862,
      "melanie": 5863,
      "##yle": 5864,
      "nagy": 5865,
      "viv": 5866,
      "zar": 5867,
      "asoci": 5868,
      "vav": 5869,
      "rak": 5870,
      "development": 5871,
      "##jon": 5872,
      "boy": 5873,
      "##utz": 5874,
      "ole": 5875,
      "##eko": 5876,
      "lí": 5877,
      "sev": 5878,
      "##creeper": 5879,
      "martyna": 5880,
      "##nal": 5881,
      "let": 5882,
      "##áčová": 5883,
      "weronika": 5884,
      "asociace": 5885,
      "ny": 5886,
      "##ша": 5887,
      "##tim": 5888,
      "služ": 5889,
      "luck": 5890,
      "nadační": 5891,
      "stavební": 5892,
      "kup": 5893,
      "pink": 5894,
      "##odz": 5895,
      "##ils": 5896,
      "##ulka": 5897,
      "##ouc": 5898,
      "##uke": 5899,
      "##ado": 5900,
      "##lava": 5901,
      "pí": 5902,
      "##аф": 5903,
      "mila": 5904,
      "##ysh": 5905,
      "##kt": 5906,
      "##estro": 5907,
      "ala": 5908,
      "ari": 5909,
      "vendula": 5910,
      "vir": 5911,
      "24": 5912,
      "raz": 5913,
      "##mb": 5914,
      "hom": 5915,
      "gaj": 5916,
      "new": 5917,
      "mga": 5918,
      "##ftw": 5919,
      "dmit": 5920,
      "##emp": 5921,
      "gerg": 5922,
      "dro": 5923,
      "koš": 5924,
      "wiol": 5925,
      "##arm": 5926,
      "##cl": 5927,
      "##haus": 5928,
      "gry": 5929,
      "##arova": 5930,
      "all": 5931,
      "kacper": 5932,
      "maxim": 5933,
      "##ames": 5934,
      "##ombie": 5935,
      "##czek": 5936,
      "##eur": 5937,
      "##álová": 5938,
      "arka": 5939,
      "jed": 5940,
      "##zová": 5941,
      "мария": 5942,
      "lisa": 5943,
      "bohem": 5944,
      "rab": 5945,
      "zen": 5946,
      "light": 5947,
      "##ец": 5948,
      "##luff": 5949,
      "##alex": 5950,
      "thor": 5951,
      "иван": 5952,
      "technolog": 5953,
      "123": 5954,
      "berg": 5955,
      "##oon": 5956,
      "##szula": 5957,
      "##pig": 5958,
      "tal": 5959,
      "##ega": 5960,
      "mária": 5961,
      "##ůr": 5962,
      "lim": 5963,
      "##уль": 5964,
      "##0n": 5965,
      "##orová": 5966,
      "swag": 5967,
      "ind": 5968,
      "pac": 5969,
      "doc": 5970,
      "евгений": 5971,
      "blo": 5972,
      "men": 5973,
      "##berger": 5974,
      "##itty": 5975,
      "obchod": 5976,
      "albert": 5977,
      "that": 5978,
      "##аил": 5979,
      "##orld": 5980,
      "##san": 5981,
      "panda": 5982,
      "18": 5983,
      "ná": 5984,
      "##cr": 5985,
      "mikul": 5986,
      "captain": 5987,
      "jörg": 5988,
      "##feld": 5989,
      "##ili": 5990,
      "##shadow": 5991,
      "gün": 5992,
      "zahrád": 5993,
      "##van": 5994,
      "zdenka": 5995,
      "ow": 5996,
      "roh": 5997,
      "urszula": 5998,
      "hubert": 5999,
      "##kář": 6000,
      "##aker": 6001,
      "##angel": 6002,
      "dvoř": 6003,
      "sla": 6004,
      "##čák": 6005,
      "##sta": 6006,
      "##ля": 6007,
      "##oto": 6008,
      "##eff": 6009,
      "alice": 6010,
      "##ogamer": 6011,
      "20": 6012,
      "konrad": 6013,
      "##wal": 6014,
      "##uber": 6015,
      "##iter": 6016,
      "ně": 6017,
      "##itch": 6018,
      "##just": 6019,
      "jez": 6020,
      "##rd": 6021,
      "##eal": 6022,
      "##oot": 6023,
      "##afa": 6024,
      "tanja": 6025,
      "europe": 6026,
      "zv": 6027,
      "вит": 6028,
      "##ouš": 6029,
      "sán": 6030,
      "валер": 6031,
      "zaj": 6032,
      "heinz": 6033,
      "##43": 6034,
      "johann": 6035,
      "##сен": 6036,
      "кир": 6037,
      "kud": 6038,
      "nico": 6039,
      "system": 6040,
      "regina": 6041,
      "##ká": 6042,
      "tibor": 6043,
      "##73": 6044,
      "mana": 6045,
      "kowal": 6046,
      "nev": 6047,
      "##ido": 6048,
      "##zsef": 6049,
      "##bu": 6050,
      "felix": 6051,
      "ryszard": 6052,
      "bru": 6053,
      "##ysław": 6054,
      "wolfgang": 6055,
      "květ": 6056,
      "must": 6057,
      "##led": 6058,
      "вер": 6059,
      "snow": 6060,
      "bian": 6061,
      "##onne": 6062,
      "aj": 6063,
      "##ven": 6064,
      "cry": 6065,
      "максим": 6066,
      "ras": 6067,
      "##ream": 6068,
      "##sy": 6069,
      "##ův": 6070,
      "gabriel": 6071,
      "ninja": 6072,
      "stavby": 6073,
      "##boss": 6074,
      "app": 6075,
      "##cra": 6076,
      "##ěta": 6077,
      "jav": 6078,
      "##еп": 6079,
      "wojtek": 6080,
      "##ister": 6081,
      "buch": 6082,
      "##ální": 6083,
      "og": 6084,
      "##atz": 6085,
      "pawel": 6086,
      "soph": 6087,
      "prague": 6088,
      "##ště": 6089,
      "auto": 6090,
      "##aro": 6091,
      "jednota": 6092,
      "józsef": 6093,
      "katalin": 6094,
      "##ínová": 6095,
      "svet": 6096,
      "nav": 6097,
      "##има": 6098,
      "##иса": 6099,
      "абд": 6100,
      "##ings": 6101,
      "##skaya": 6102,
      "##oud": 6103,
      "##lie": 6104,
      "janina": 6105,
      "awesom": 6106,
      "éva": 6107,
      "bett": 6108,
      "##sport": 6109,
      "##zh": 6110,
      "vor": 6111,
      "##lah": 6112,
      "##erson": 6113,
      "16": 6114,
      "##ošová": 6115,
      "olom": 6116,
      "willi": 6117,
      "kuk": 6118,
      "py": 6119,
      "tě": 6120,
      "nie": 6121,
      "flam": 6122,
      "##pot": 6123,
      "jim": 6124,
      "##ченко": 6125,
      "##111": 6126,
      "##ward": 6127,
      "mykha": 6128,
      "##osa": 6129,
      "##aki": 6130,
      "gri": 6131,
      "tel": 6132,
      "sant": 6133,
      "stro": 6134,
      "boss": 6135,
      "vá": 6136,
      "heike": 6137,
      "##itta": 6138,
      "laz": 6139,
      "##dude": 6140,
      "bou": 6141,
      "hl": 6142,
      "bogus": 6143,
      "ден": 6144,
      "##ázs": 6145,
      "##kel": 6146,
      "##улл": 6147,
      "##ns": 6148,
      "##iki": 6149,
      "##ňková": 6150,
      "cle": 6151,
      "##miner": 6152,
      "##ив": 6153,
      "ай": 6154,
      "##аст": 6155,
      "##fla": 6156,
      "jozef": 6157,
      "gul": 6158,
      "nadine": 6159,
      "fabian": 6160,
      "bet": 6161,
      "sala": 6162,
      "##árová": 6163,
      "##bas": 6164,
      "##ird": 6165,
      "öz": 6166,
      "din": 6167,
      "##2006": 6168,
      "rö": 6169,
      "eduard": 6170,
      "rainbow": 6171,
      "post": 6172,
      "##zik": 6173,
      "ال": 6174,
      "##game": 6175,
      "##lover": 6176,
      "dieter": 6177,
      "##аров": 6178,
      "ант": 6179,
      "##ász": 6180,
      "rat": 6181,
      "##crafter": 6182,
      "##ning": 6183,
      "##una": 6184,
      "tó": 6185,
      "hof": 6186,
      "jiri": 6187,
      "rein": 6188,
      "##itte": 6189,
      "##ury": 6190,
      "##tina": 6191,
      "pier": 6192,
      "vladimíra": 6193,
      "##icová": 6194,
      "kw": 6195,
      "susanne": 6196,
      "solutions": 6197,
      "bay": 6198,
      "zer": 6199,
      "fry": 6200,
      "šimon": 6201,
      "никола": 6202,
      "##ičová": 6203,
      "cas": 6204,
      "dig": 6205,
      "##ána": 6206,
      "kater": 6207,
      "urban": 6208,
      "natálie": 6209,
      "##51": 6210,
      "kü": 6211,
      "produc": 6212,
      "przy": 6213,
      "##pie": 6214,
      "##ehr": 6215,
      "kerstin": 6216,
      "##zyńska": 6217,
      "krystian": 6218,
      "##iška": 6219,
      "hü": 6220,
      "##str": 6221,
      "##86": 6222,
      "##ife": 6223,
      "kai": 6224,
      "liber": 6225,
      "кон": 6226,
      "libuše": 6227,
      "wi": 6228,
      "##ami": 6229,
      "trans": 6230,
      "cut": 6231,
      "fred": 6232,
      "##říž": 6233,
      "lem": 6234,
      "judit": 6235,
      "jadw": 6236,
      "##rej": 6237,
      "##52": 6238,
      "hanka": 6239,
      "balázs": 6240,
      "little": 6241,
      "##ofia": 6242,
      "svět": 6243,
      "partner": 6244,
      "##life": 6245,
      "mirka": 6246,
      "dá": 6247,
      "gon": 6248,
      "mariola": 6249,
      "##kó": 6250,
      "kri": 6251,
      "katka": 6252,
      "roy": 6253,
      "##оз": 6254,
      "rych": 6255,
      "##nat": 6256,
      "naz": 6257,
      "##get": 6258,
      "moj": 6259,
      "čech": 6260,
      "mont": 6261,
      "červ": 6262,
      "lav": 6263,
      "##par": 6264,
      "##оп": 6265,
      "##юк": 6266,
      "philipp": 6267,
      "bi": 6268,
      "##bs": 6269,
      "##360": 6270,
      "power": 6271,
      "vesel": 6272,
      "vinc": 6273,
      "jadwiga": 6274,
      "jura": 6275,
      "##ue": 6276,
      "sascha": 6277,
      "dat": 6278,
      "##nn": 6279,
      "andri": 6280,
      "gast": 6281,
      "11": 6282,
      "bag": 6283,
      "##lice": 6284,
      "wa": 6285,
      "##izard": 6286,
      "##eda": 6287,
      "benjam": 6288,
      "ms": 6289,
      "##kh": 6290,
      "##оч": 6291,
      "##enská": 6292,
      "ild": 6293,
      "blue": 6294,
      "##átová": 6295,
      "ninj": 6296,
      "##imi": 6297,
      "##cker": 6298,
      "af": 6299,
      "##иг": 6300,
      "##mut": 6301,
      "rev": 6302,
      "##skova": 6303,
      "arkadi": 6304,
      "off": 6305,
      "ис": 6306,
      "block": 6307,
      "jord": 6308,
      "##dem": 6309,
      "inst": 6310,
      "park": 6311,
      "##ju": 6312,
      "##еев": 6313,
      "českého": 6314,
      "och": 6315,
      "hein": 6316,
      "##chenko": 6317,
      "##79": 6318,
      "##ll": 6319,
      "##arska": 6320,
      "##jr": 6321,
      "vad": 6322,
      "sabrina": 6323,
      "lew": 6324,
      "das": 6325,
      "##bet": 6326,
      "##hová": 6327,
      "fried": 6328,
      "##assin": 6329,
      "pard": 6330,
      "##49": 6331,
      "##anh": 6332,
      "las": 6333,
      "pob": 6334,
      "mos": 6335,
      "bj": 6336,
      "##eber": 6337,
      "##666": 6338,
      "##adi": 6339,
      "best": 6340,
      "ká": 6341,
      "##cia": 6342,
      "andy": 6343,
      "bala": 6344,
      "inf": 6345,
      "hay": 6346,
      "##mm": 6347,
      "окс": 6348,
      "evgen": 6349,
      "jarek": 6350,
      "ple": 6351,
      "derp": 6352,
      "##ох": 6353,
      "##odová": 6354,
      "zi": 6355,
      "##48": 6356,
      "##еева": 6357,
      "arn": 6358,
      "##oma": 6359,
      "##ého": 6360,
      "##ových": 6361,
      "##opp": 6362,
      "liv": 6363,
      "saf": 6364,
      "##ninja": 6365,
      "##zia": 6366,
      "bohemia": 6367,
      "##awk": 6368,
      "##meier": 6369,
      "##hardt": 6370,
      "pech": 6371,
      "##ňák": 6372,
      "##fel": 6373,
      "cha": 6374,
      "yul": 6375,
      "zak": 6376,
      "##mag": 6377,
      "jarosław": 6378,
      "novot": 6379,
      "zdrav": 6380,
      "alb": 6381,
      "zam": 6382,
      "was": 6383,
      "##ieg": 6384,
      "chl": 6385,
      "lep": 6386,
      "led": 6387,
      "##czyński": 6388,
      "##ilova": 6389,
      "##utt": 6390,
      "sedl": 6391,
      "noh": 6392,
      "karina": 6393,
      "##ral": 6394,
      "##iser": 6395,
      "christoph": 6396,
      "игор": 6397,
      "##eep": 6398,
      "zahrádkář": 6399,
      "##orp": 6400,
      "wiktoria": 6401,
      "rac": 6402,
      "werner": 6403,
      "##ser": 6404,
      "katrin": 6405,
      "buk": 6406,
      "##53": 6407,
      "land": 6408,
      "anne": 6409,
      "дар": 6410,
      "##imov": 6411,
      "princ": 6412,
      "##ray": 6413,
      "##há": 6414,
      "dalibor": 6415,
      "manuela": 6416,
      "##ank": 6417,
      "emilia": 6418,
      "tet": 6419,
      "##niew": 6420,
      "pon": 6421,
      "marl": 6422,
      "csaba": 6423,
      "jessica": 6424,
      "jenn": 6425,
      "dzi": 6426,
      "past": 6427,
      "alp": 6428,
      "ten": 6429,
      "пав": 6430,
      "kiss": 6431,
      "##mannová": 6432,
      "csc": 6433,
      "pau": 6434,
      "arkadiusz": 6435,
      "propert": 6436,
      "рус": 6437,
      "pit": 6438,
      "##acka": 6439,
      "##iva": 6440,
      "sor": 6441,
      "bran": 6442,
      "##ovec": 6443,
      "##тин": 6444,
      "neu": 6445,
      "fly": 6446,
      "##58": 6447,
      "##išová": 6448,
      "leh": 6449,
      "isab": 6450,
      "mez": 6451,
      "chal": 6452,
      "kis": 6453,
      "##бек": 6454,
      "games": 6455,
      "golden": 6456,
      "##enguin": 6457,
      "##med": 6458,
      "andrás": 6459,
      "##70": 6460,
      "stefanie": 6461,
      "maja": 6462,
      "##40": 6463,
      "zdenek": 6464,
      "tep": 6465,
      "##oń": 6466,
      "##ouse": 6467,
      "abdul": 6468,
      "##hunter": 6469,
      "оксана": 6470,
      "bot": 6471,
      "##дм": 6472,
      "slo": 6473,
      "##obal": 6474,
      "##lade": 6475,
      "nur": 6476,
      "##аня": 6477,
      "sig": 6478,
      "##ович": 6479,
      "asia": 6480,
      "##aman": 6481,
      "bohus": 6482,
      "györ": 6483,
      "##ren": 6484,
      "##lar": 6485,
      "cer": 6486,
      "##inova": 6487,
      "##ulová": 6488,
      "const": 6489,
      "##upp": 6490,
      "##ира": 6491,
      "rita": 6492,
      "##hy": 6493,
      "##sel": 6494,
      "##ач": 6495,
      "tak": 6496,
      "##nár": 6497,
      "##ysl": 6498,
      "##theb": 6499,
      "##orf": 6500,
      "leo": 6501,
      "##less": 6502,
      "kill": 6503,
      "##atr": 6504,
      "leszek": 6505,
      "##46": 6506,
      "##kos": 6507,
      "##hen": 6508,
      "kid": 6509,
      "koch": 6510,
      "mát": 6511,
      "##ium": 6512,
      "sara": 6513,
      "wł": 6514,
      "кор": 6515,
      "ng": 6516,
      "ág": 6517,
      "19": 6518,
      "aka": 6519,
      "роман": 6520,
      "##ret": 6521,
      "##td": 6522,
      "det": 6523,
      "пол": 6524,
      "##odym": 6525,
      "przemek": 6526,
      "závod": 6527,
      "##ой": 6528,
      "vu": 6529,
      "vera": 6530,
      "energy": 6531,
      "smol": 6532,
      "##71": 6533,
      "##orge": 6534,
      "##ecker": 6535,
      "bož": 6536,
      "eng": 6537,
      "##rag": 6538,
      "lind": 6539,
      "ас": 6540,
      "##achim": 6541,
      "manuel": 6542,
      "##maz": 6543,
      "##rak": 6544,
      "cookie": 6545,
      "tóth": 6546,
      "##ež": 6547,
      "zofia": 6548,
      "hell": 6549,
      "oh": 6550,
      "##nek": 6551,
      "fac": 6552,
      "pala": 6553,
      "##god": 6554,
      "benjamin": 6555,
      "##rike": 6556,
      "виктория": 6557,
      "zab": 6558,
      "##ader": 6559,
      "birgit": 6560,
      "mó": 6561,
      "gosia": 6562,
      "lap": 6563,
      "úst": 6564,
      "##sol": 6565,
      "řím": 6566,
      "pola": 6567,
      "syn": 6568,
      "creep": 6569,
      "##ních": 6570,
      "люб": 6571,
      "денис": 6572,
      "игорь": 6573,
      "rek": 6574,
      "ostrava": 6575,
      "elekt": 6576,
      "##ыр": 6577,
      "vaš": 6578,
      "##mal": 6579,
      "##iri": 6580,
      "##ман": 6581,
      "антон": 6582,
      "nek": 6583,
      "##iné": 6584,
      "swe": 6585,
      "##awes": 6586,
      "людм": 6587,
      "advokátní": 6588,
      "monkey": 6589,
      "vond": 6590,
      "##amed": 6591,
      "darek": 6592,
      "eug": 6593,
      "lars": 6594,
      "##var": 6595,
      "##bob": 6596,
      "##ergirl": 6597,
      "yas": 6598,
      "##blu": 6599,
      "##ег": 6600,
      "##rox": 6601,
      "gur": 6602,
      "##300": 6603,
      "##dl": 6604,
      "##zes": 6605,
      "kuz": 6606,
      "##bit": 6607,
      "##iness": 6608,
      "##olická": 6609,
      "adriana": 6610,
      "vítě": 6611,
      "james": 6612,
      "christina": 6613,
      "mary": 6614,
      "##skar": 6615,
      "##eco": 6616,
      "soc": 6617,
      "vojta": 6618,
      "przemysław": 6619,
      "gun": 6620,
      "studio": 6621,
      "николай": 6622,
      "##zak": 6623,
      "##gement": 6624,
      "##ohn": 6625,
      "sek": 6626,
      "##imp": 6627,
      "waldemar": 6628,
      "витал": 6629,
      "##ách": 6630,
      "zahrádkářského": 6631,
      "##eno": 6632,
      "##stal": 6633,
      "silver": 6634,
      "людмила": 6635,
      "ric": 6636,
      "tot": 6637,
      "##mad": 6638,
      "##ика": 6639,
      "eth": 6640,
      "sna": 6641,
      "sándor": 6642,
      "fun": 6643,
      "tadeusz": 6644,
      "gla": 6645,
      "##rian": 6646,
      "św": 6647,
      "rene": 6648,
      "elis": 6649,
      "stanisław": 6650,
      "##wald": 6651,
      "##fal": 6652,
      "##wh": 6653,
      "marion": 6654,
      "ré": 6655,
      "pham": 6656,
      "media": 6657,
      "##ош": 6658,
      "##utch": 6659,
      "##rex": 6660,
      "##ske": 6661,
      "müller": 6662,
      "aug": 6663,
      "vanessa": 6664,
      "##ášová": 6665,
      "svit": 6666,
      "21": 6667,
      "marcus": 6668,
      "design": 6669,
      "##cova": 6670,
      "##ode": 6671,
      "##39": 6672,
      "svetlana": 6673,
      "shar": 6674,
      "miner": 6675,
      "##váth": 6676,
      "kav": 6677,
      "##имов": 6678,
      "михаил": 6679,
      "leb": 6680,
      "##kina": 6681,
      "ez": 6682,
      "škol": 6683,
      "##cy": 6684,
      "##eking": 6685,
      "bohumil": 6686,
      "##anka": 6687,
      "##rus": 6688,
      "##net": 6689,
      "##ый": 6690,
      "konst": 6691,
      "jacob": 6692,
      "szabó": 6693,
      "maciek": 6694,
      "hunter": 6695,
      "##skill": 6696,
      "##iza": 6697,
      "andrej": 6698,
      "lada": 6699,
      "hil": 6700,
      "tb": 6701,
      "##iley": 6702,
      "dy": 6703,
      "##odor": 6704,
      "štěpánka": 6705,
      "rej": 6706,
      "thel": 6707,
      "##ati": 6708,
      "##fish": 6709,
      "##уп": 6710,
      "##oli": 6711,
      "##esch": 6712,
      "##hoenix": 6713,
      "##nika": 6714,
      "##pai": 6715,
      "##kill": 6716,
      "##uma": 6717,
      "steffen": 6718,
      "##fro": 6719,
      "##urová": 6720,
      "stanislava": 6721,
      "esz": 6722,
      "dani": 6723,
      "##ardo": 6724,
      "tem": 6725,
      "krisztina": 6726,
      "obchodní": 6727,
      "dia": 6728,
      "##kalová": 6729,
      "крис": 6730,
      "олег": 6731,
      "yo": 6732,
      "legend": 6733,
      "management": 6734,
      "labem": 6735,
      "simone": 6736,
      "samuel": 6737,
      "##dar": 6738,
      "ах": 6739,
      "##никова": 6740,
      "iron": 6741,
      "kovács": 6742,
      "tina": 6743,
      "maik": 6744,
      "fle": 6745,
      "##cel": 6746,
      "capital": 6747,
      "brod": 6748,
      "bah": 6749,
      "##ínek": 6750,
      "##iště": 6751,
      "nel": 6752,
      "##kr": 6753,
      "basia": 6754,
      "##su": 6755,
      "кат": 6756,
      "rand": 6757,
      "play": 6758,
      "proch": 6759,
      "pardub": 6760,
      "hak": 6761,
      "ин": 6762,
      "oksana": 6763,
      "##umi": 6764,
      "třeb": 6765,
      "olomouc": 6766,
      "##igg": 6767,
      "##gyi": 6768,
      "kou": 6769,
      "rü": 6770,
      "##cik": 6771,
      "##cake": 6772,
      "##mas": 6773,
      "##stic": 6774,
      "carol": 6775,
      "##tví": 6776,
      "gaw": 6777,
      "havl": 6778,
      "##bová": 6779,
      "##110": 6780,
      "##jana": 6781,
      "patric": 6782,
      "##čáková": 6783,
      "hrab": 6784,
      "ern": 6785,
      "sławomir": 6786,
      "horváth": 6787,
      "##ově": 6788,
      "jung": 6789,
      "sul": 6790,
      "laj": 6791,
      "sin": 6792,
      "karlov": 6793,
      "##ového": 6794,
      "silvie": 6795,
      "gü": 6796,
      "vys": 6797,
      "пет": 6798,
      "dávid": 6799,
      "muh": 6800,
      "##ori": 6801,
      "zsuzs": 6802,
      "lat": 6803,
      "##wag": 6804,
      "kazim": 6805,
      "rav": 6806,
      "christine": 6807,
      "##ency": 6808,
      "lex": 6809,
      "##оф": 6810,
      "##imo": 6811,
      "##rap": 6812,
      "##ique": 6813,
      "ам": 6814,
      "boris": 6815,
      "##warrior": 6816,
      "production": 6817,
      "rot": 6818,
      "##alova": 6819,
      "beast": 6820,
      "kaš": 6821,
      "##fried": 6822,
      "iam": 6823,
      "##uska": 6824,
      "##head": 6825,
      "axel": 6826,
      "##łom": 6827,
      "##issa": 6828,
      "##mír": 6829,
      "##jak": 6830,
      "oz": 6831,
      "wie": 6832,
      "##ison": 6833,
      "##esp": 6834,
      "##player": 6835,
      "peš": 6836,
      "##én": 6837,
      "##katolická": 6838,
      "##icky": 6839,
      "##unch": 6840,
      "надеж": 6841,
      "dyl": 6842,
      "oleksandr": 6843,
      "pf": 6844,
      "##hi": 6845,
      "##ynek": 6846,
      "farnost": 6847,
      "##erd": 6848,
      "mand": 6849,
      "zub": 6850,
      "tox": 6851,
      "##jack": 6852,
      "##zyński": 6853,
      "##eny": 6854,
      "##esi": 6855,
      "zlín": 6856,
      "pin": 6857,
      "hala": 6858,
      "aqu": 6859,
      "##arski": 6860,
      "sap": 6861,
      "##onka": 6862,
      "lidia": 6863,
      "silvia": 6864,
      "##001": 6865,
      "##атов": 6866,
      "##itel": 6867,
      "##иков": 6868,
      "zn": 6869,
      "##olová": 6870,
      "##ovi": 6871,
      "dad": 6872,
      "yvonne": 6873,
      "cos": 6874,
      "kna": 6875,
      "link": 6876,
      "##loud": 6877,
      "##икова": 6878,
      "piet": 6879,
      "##ering": 6880,
      "##cho": 6881,
      "vítězs": 6882,
      "římsko": 6883,
      "sec": 6884,
      "галина": 6885,
      "pika": 6886,
      "gabi": 6887,
      "##owa": 6888,
      "##so": 6889,
      "bach": 6890,
      "bau": 6891,
      "надежда": 6892,
      "kathar": 6893,
      "jih": 6894,
      "nas": 6895,
      "bug": 6896,
      "sid": 6897,
      "školy": 6898,
      "římskokatolická": 6899,
      "oleg": 6900,
      "luca": 6901,
      "zsuzsanna": 6902,
      "anastasia": 6903,
      "##bat": 6904,
      "##raz": 6905,
      "##don": 6906,
      "##iola": 6907,
      "organizační": 6908,
      "kuč": 6909,
      "sergey": 6910,
      "tab": 6911,
      "##enková": 6912,
      "volodym": 6913,
      "živ": 6914,
      "##orek": 6915,
      "rag": 6916,
      "eg": 6917,
      "kaj": 6918,
      "кол": 6919,
      "вален": 6920,
      "ik": 6921,
      "##ián": 6922,
      "##erz": 6923,
      "##eme": 6924,
      "##fly": 6925,
      "dop": 6926,
      "pab": 6927,
      "míša": 6928,
      "hed": 6929,
      "arm": 6930,
      "##olz": 6931,
      "##itsch": 6932,
      "pál": 6933,
      "##iba": 6934,
      "##nická": 6935,
      "jonas": 6936,
      "##elková": 6937,
      "frost": 6938,
      "poz": 6939,
      "##gie": 6940,
      "walter": 6941,
      "julie": 6942,
      "bast": 6943,
      "##iii": 6944,
      "##wer": 6945,
      "##dark": 6946,
      "estate": 6947,
      "katharina": 6948,
      "hö": 6949,
      "##oper": 6950,
      "složka": 6951,
      "andrew": 6952,
      "joachim": 6953,
      "##yx": 6954,
      "rec": 6955,
      "##štof": 6956,
      "##ovatel": 6957,
      "##ášek": 6958,
      "##rowska": 6959,
      "##41": 6960,
      "##цева": 6961,
      "hradec": 6962,
      "vis": 6963,
      "##uster": 6964,
      "manfred": 6965,
      "sah": 6966,
      "##ovy": 6967,
      "кур": 6968,
      "##omo": 6969,
      "##ji": 6970,
      "finance": 6971,
      "lü": 6972,
      "vej": 6973,
      "laur": 6974,
      "pad": 6975,
      "##cká": 6976,
      "katerina": 6977,
      "##ited": 6978,
      "mirosław": 6979,
      "wild": 6980,
      "posp": 6981,
      "volodymyr": 6982,
      "##ief": 6983,
      "danny": 6984,
      "##ois": 6985,
      "##ston": 6986,
      "##ęb": 6987,
      "##árna": 6988,
      "##él": 6989,
      "##eslav": 6990,
      "most": 6991,
      "mba": 6992,
      "##enda": 6993,
      "##emy": 6994,
      "drag": 6995,
      "##azz": 6996,
      "mid": 6997,
      "air": 6998,
      "##ase": 6999,
      "speed": 7000,
      "mira": 7001,
      "cy": 7002,
      "km": 7003,
      "##81": 7004,
      "mohamm": 7005,
      "ústí": 7006,
      "илья": 7007,
      "kod": 7008,
      "##rys": 7009,
      "doub": 7010,
      "und": 7011,
      "##antin": 7012,
      "sat": 7013,
      "##ye": 7014,
      "ryan": 7015,
      "##ыш": 7016,
      "cup": 7017,
      "##ept": 7018,
      "andrey": 7019,
      "##mil": 7020,
      "bernad": 7021,
      "##ars": 7022,
      "##ave": 7023,
      "ec": 7024,
      "##dek": 7025,
      "##hart": 7026,
      "schul": 7027,
      "##456": 7028,
      "##chi": 7029,
      "##itter": 7030,
      "##ente": 7031,
      "##die": 7032,
      "boj": 7033,
      "##ěř": 7034,
      "23": 7035,
      "##ric": 7036,
      "mic": 7037,
      "tatiana": 7038,
      "nez": 7039,
      "##ołaj": 7040,
      "aur": 7041,
      "ulice": 7042,
      "gas": 7043,
      "alan": 7044,
      "diet": 7045,
      "rex": 7046,
      "jenny": 7047,
      "##oglu": 7048,
      "##unka": 7049,
      "##ute": 7050,
      "gregor": 7051,
      "01": 7052,
      "##rr": 7053,
      "##žek": 7054,
      "angela": 7055,
      "ip": 7056,
      "##rych": 7057,
      "rainer": 7058,
      "nes": 7059,
      "business": 7060,
      "jj": 7061,
      "##žková": 7062,
      "##bon": 7063,
      "##ез": 7064,
      "miri": 7065,
      "natalie": 7066,
      "##ift": 7067,
      "##zl": 7068,
      "corn": 7069,
      "nex": 7070,
      "##inda": 7071,
      "##iman": 7072,
      "pixel": 7073,
      "##kon": 7074,
      "radovan": 7075,
      "vítězslav": 7076,
      "##del": 7077,
      "reich": 7078,
      "##ёв": 7079,
      "malgorzata": 7080,
      "králové": 7081,
      "##mr": 7082,
      "##ema": 7083,
      "##3000": 7084,
      "žaneta": 7085,
      "мал": 7086,
      "krat": 7087,
      "fri": 7088,
      "tiger": 7089,
      "##chu": 7090,
      "##ásek": 7091,
      "##monkey": 7092,
      "##inec": 7093,
      "eric": 7094,
      "##ány": 7095,
      "mikołaj": 7096,
      "ble": 7097,
      "аль": 7098,
      "##wig": 7099,
      "##еб": 7100,
      "##amb": 7101,
      "##uper": 7102,
      "wojt": 7103,
      "jarda": 7104,
      "##arov": 7105,
      "katja": 7106,
      "property": 7107,
      "##light": 7108,
      "may": 7109,
      "##евич": 7110,
      "míst": 7111,
      "bä": 7112,
      "sak": 7113,
      "##ors": 7114,
      "neb": 7115,
      "##82": 7116,
      "krzysi": 7117,
      "artem": 7118,
      "wood": 7119,
      "##ops": 7120,
      "##inder": 7121,
      "stre": 7122,
      "##estroyer": 7123,
      "fan": 7124,
      "noah": 7125,
      "##bac": 7126,
      "##abeth": 7127,
      "##czyn": 7128,
      "ci": 7129,
      "agro": 7130,
      "##ínková": 7131,
      "##1000": 7132,
      "štefan": 7133,
      "##чук": 7134,
      "##ányi": 7135,
      "bert": 7136,
      "##otová": 7137,
      "##akov": 7138,
      "jok": 7139,
      "##kater": 7140,
      "kus": 7141,
      "ildikó": 7142,
      "##ove": 7143,
      "##tel": 7144,
      "##ošt": 7145,
      "tay": 7146,
      "##power": 7147,
      "lucka": 7148,
      "zor": 7149,
      "##нов": 7150,
      "##aper": 7151,
      "fut": 7152,
      "##mund": 7153,
      "##ieva": 7154,
      "##obr": 7155,
      "md": 7156,
      "mie": 7157,
      "yan": 7158,
      "yar": 7159,
      "##iał": 7160,
      "##iden": 7161,
      "bedn": 7162,
      "logist": 7163,
      "sos": 7164,
      "maur": 7165,
      "##ahn": 7166,
      "##ács": 7167,
      "tamara": 7168,
      "stas": 7169,
      "##če": 7170,
      "flo": 7171,
      "##eo": 7172,
      "##pi": 7173,
      "##ów": 7174,
      "##ňáková": 7175,
      "schne": 7176,
      "one": 7177,
      "gł": 7178,
      "fluff": 7179,
      "služby": 7180,
      "nej": 7181,
      "něm": 7182,
      "skal": 7183,
      "pos": 7184,
      "jean": 7185,
      "republic": 7186,
      "bek": 7187,
      "hass": 7188,
      "sára": 7189,
      "##lol": 7190,
      "##omíra": 7191,
      "##ervis": 7192,
      "##rem": 7193,
      "kitty": 7194,
      "běl": 7195,
      "sonja": 7196,
      "##inská": 7197,
      "##ášková": 7198,
      "##iff": 7199,
      "kač": 7200,
      "pek": 7201,
      "zlat": 7202,
      "paj": 7203,
      "пр": 7204,
      "##ichová": 7205,
      "wioletta": 7206,
      "eugen": 7207,
      "zš": 7208,
      "šeb": 7209,
      "бор": 7210,
      "##lya": 7211,
      "agency": 7212,
      "##ислав": 7213,
      "piv": 7214,
      "zw": 7215,
      "##acker": 7216,
      "##aron": 7217,
      "##kay": 7218,
      "##ouch": 7219,
      "##rzy": 7220,
      "ágnes": 7221,
      "##уст": 7222,
      "ki": 7223,
      "##еч": 7224,
      "##umb": 7225,
      "bos": 7226,
      "arth": 7227,
      "##luk": 7228,
      "schmidt": 7229,
      "##une": 7230,
      "tok": 7231,
      "try": 7232,
      "саша": 7233,
      "##way": 7234,
      "##rowski": 7235,
      "##ásková": 7236,
      "build": 7237,
      "turt": 7238,
      "##urtle": 7239,
      "##asová": 7240,
      "miha": 7241,
      "hat": 7242,
      "ox": 7243,
      "##inov": 7244,
      "##ký": 7245,
      "##eline": 7246,
      "дарья": 7247,
      "trav": 7248,
      "us": 7249,
      "##inková": 7250,
      "##agle": 7251,
      "lac": 7252,
      "##cak": 7253,
      "юрий": 7254,
      "milada": 7255,
      "eszter": 7256,
      "smart": 7257,
      "hend": 7258,
      "ov": 7259,
      "##арова": 7260,
      "duck": 7261,
      "tol": 7262,
      "##árková": 7263,
      "маг": 7264,
      "brad": 7265,
      "##kar": 7266,
      "ach": 7267,
      "мур": 7268,
      "projekt": 7269,
      "liberec": 7270,
      "serh": 7271,
      "##pel": 7272,
      "##ená": 7273,
      "bend": 7274,
      "##anek": 7275,
      "choc": 7276,
      "lp": 7277,
      "##ít": 7278,
      "spark": 7279,
      "franz": 7280,
      "eu": 7281,
      "gav": 7282,
      "gian": 7283,
      "gut": 7284,
      "má": 7285,
      "эль": 7286,
      "##ney": 7287,
      "##nictví": 7288,
      "gust": 7289,
      "ád": 7290,
      "##онов": 7291,
      "transport": 7292,
      "klad": 7293,
      "##cookie": 7294,
      "##nor": 7295,
      "lucyna": 7296,
      "magic": 7297,
      "dita": 7298,
      "##isová": 7299,
      "mist": 7300,
      "##beast": 7301,
      "fi": 7302,
      "heg": 7303,
      "viol": 7304,
      "кристина": 7305,
      "silke": 7306,
      "ксен": 7307,
      "##hoff": 7308,
      "##minecraft": 7309,
      "##ников": 7310,
      "##ewolf": 7311,
      "pik": 7312,
      "##илл": 7313,
      "##blo": 7314,
      "kala": 7315,
      "##gre": 7316,
      "biel": 7317,
      "наст": 7318,
      "##yana": 7319,
      "global": 7320,
      "##ruct": 7321,
      "miluše": 7322,
      "nam": 7323,
      "##789": 7324,
      "##hon": 7325,
      "##žb": 7326,
      "hard": 7327,
      "west": 7328,
      "##ead": 7329,
      "##cek": 7330,
      "róbert": 7331,
      "jr": 7332,
      "##árek": 7333,
      "##oň": 7334,
      "##0r": 7335,
      "stach": 7336,
      "ahmed": 7337,
      "павел": 7338,
      "dil": 7339,
      "fo": 7340,
      "##та": 7341,
      "bohuslav": 7342,
      "мир": 7343,
      "mig": 7344,
      "25": 7345,
      "deb": 7346,
      "pri": 7347,
      "jennifer": 7348,
      "##nl": 7349,
      "##anni": 7350,
      "justin": 7351,
      "crist": 7352,
      "fam": 7353,
      "чер": 7354,
      "##lef": 7355,
      "hum": 7356,
      "##ilder": 7357,
      "jasmin": 7358,
      "město": 7359,
      "horn": 7360,
      "lh": 7361,
      "##pal": 7362,
      "henryk": 7363,
      "##utter": 7364,
      "##ара": 7365,
      "bü": 7366,
      "##uty": 7367,
      "##czi": 7368,
      "ingrid": 7369,
      "domě": 7370,
      "##333": 7371,
      "johannes": 7372,
      "##wan": 7373,
      "##ustin": 7374,
      "gym": 7375,
      "##lyn": 7376,
      "erzs": 7377,
      "fu": 7378,
      "hur": 7379,
      "moon": 7380,
      "##katerina": 7381,
      "##ší": 7382,
      "##čení": 7383,
      "zav": 7384,
      "##esta": 7385,
      "##knight": 7386,
      "krzysiek": 7387,
      "hä": 7388,
      "##ací": 7389,
      "##mos": 7390,
      "prokop": 7391,
      "sum": 7392,
      "zahrad": 7393,
      "rie": 7394,
      "elz": 7395,
      "##нова": 7396,
      "lö": 7397,
      "zaw": 7398,
      "##nick": 7399,
      "schl": 7400,
      "alf": 7401,
      "ádám": 7402,
      "jand": 7403,
      "kond": 7404,
      "wag": 7405,
      "##tech": 7406,
      "##ců": 7407,
      "cher": 7408,
      "##mus": 7409,
      "##gs": 7410,
      "stol": 7411,
      "cyb": 7412,
      "##uter": 7413,
      "mok": 7414,
      "##enský": 7415,
      "hop": 7416,
      "##ylo": 7417,
      "##ény": 7418,
      "##ikov": 7419,
      "thet": 7420,
      "##ady": 7421,
      "##ael": 7422,
      "##nr": 7423,
      "##uan": 7424,
      "##íš": 7425,
      "buděj": 7426,
      "pardubice": 7427,
      "nela": 7428,
      "##lej": 7429,
      "heiko": 7430,
      "##kovice": 7431,
      "balog": 7432,
      "##skyi": 7433,
      "torsten": 7434,
      "ret": 7435,
      "##arn": 7436,
      "##ste": 7437,
      "ludv": 7438,
      "coc": 7439,
      "gabriella": 7440,
      "elektro": 7441,
      "geb": 7442,
      "kem": 7443,
      "##ojo": 7444,
      "elke": 7445,
      "mykola": 7446,
      "břez": 7447,
      "bettina": 7448,
      "baz": 7449,
      "гор": 7450,
      "##ocha": 7451,
      "##ighter": 7452,
      "##ušková": 7453,
      "##инов": 7454,
      "reh": 7455,
      "nám": 7456,
      "##ilov": 7457,
      "##ahl": 7458,
      "koł": 7459,
      "holub": 7460,
      "holger": 7461,
      "##imer": 7462,
      "mah": 7463,
      "cook": 7464,
      "pir": 7465,
      "lea": 7466,
      "##tom": 7467,
      "khal": 7468,
      "gil": 7469,
      "тим": 7470,
      "##bauer": 7471,
      "olaf": 7472,
      "nos": 7473,
      "##pan": 7474,
      "##ся": 7475,
      "urb": 7476,
      "hoff": 7477,
      "lun": 7478,
      "haz": 7479,
      "kathrin": 7480,
      "storm": 7481,
      "fol": 7482,
      "##ants": 7483,
      "##ovatelů": 7484,
      "22": 7485,
      "naj": 7486,
      "zal": 7487,
      "##kař": 7488,
      "##uto": 7489,
      "##eyt": 7490,
      "ahmad": 7491,
      "you": 7492,
      "přem": 7493,
      "matej": 7494,
      "##ocka": 7495,
      "bíl": 7496,
      "##кий": 7497,
      "gastro": 7498,
      "##you": 7499,
      "##uła": 7500,
      "##ęd": 7501,
      "vč": 7502,
      "##mach": 7503,
      "##inský": 7504,
      "market": 7505,
      "kriszti": 7506,
      "аз": 7507,
      "##inator": 7508,
      "nast": 7509,
      "chm": 7510,
      "ah": 7511,
      "oskar": 7512,
      "tich": 7513,
      "##slayer": 7514,
      "##may": 7515,
      "##isko": 7516,
      "monster": 7517,
      "никита": 7518,
      "mem": 7519,
      "marika": 7520,
      "##ibi": 7521,
      "schwar": 7522,
      "##уг": 7523,
      "ll": 7524,
      "##lep": 7525,
      "pá": 7526,
      "lok": 7527,
      "руслан": 7528,
      "##hof": 7529,
      "thorsten": 7530,
      "##nicka": 7531,
      "##mine": 7532,
      "soul": 7533,
      "##black": 7534,
      "tábor": 7535,
      "##iber": 7536,
      "##face": 7537,
      "vasil": 7538,
      "##4r": 7539,
      "naděž": 7540,
      "ксения": 7541,
      "cv": 7542,
      "##ml": 7543,
      "pascal": 7544,
      "waw": 7545,
      "##aga": 7546,
      "naděžda": 7547,
      "hand": 7548,
      "paz": 7549,
      "##cov": 7550,
      "##zal": 7551,
      "rh": 7552,
      "anth": 7553,
      "kult": 7554,
      "##иана": 7555,
      "háj": 7556,
      "port": 7557,
      "bára": 7558,
      "lul": 7559,
      "fot": 7560,
      "tc": 7561,
      "##bab": 7562,
      "##eboy": 7563,
      "leona": 7564,
      "kras": 7565,
      "##eným": 7566,
      "##voj": 7567,
      "alžb": 7568,
      "##974": 7569,
      "##oušková": 7570,
      "tobi": 7571,
      "ekaterina": 7572,
      "dost": 7573,
      "##opher": 7574,
      "евгения": 7575,
      "thanh": 7576,
      "##oka": 7577,
      "lux": 7578,
      "bianca": 7579,
      "##oušek": 7580,
      "weiss": 7581,
      "##idence": 7582,
      "##iera": 7583,
      "##lá": 7584,
      "radomír": 7585,
      "oliwia": 7586,
      "zombie": 7587,
      "##oba": 7588,
      "##ucha": 7589,
      "pen": 7590,
      "##iler": 7591,
      "bě": 7592,
      "gran": 7593,
      "##žová": 7594,
      "mlad": 7595,
      "ruslan": 7596,
      "##pek": 7597,
      "##500": 7598,
      "bár": 7599,
      "isa": 7600,
      "##čín": 7601,
      "##last": 7602,
      "##icht": 7603,
      "##sche": 7604,
      "hir": 7605,
      "rent": 7606,
      "sub": 7607,
      "györgy": 7608,
      "tony": 7609,
      "##illi": 7610,
      "klein": 7611,
      "##štěp": 7612,
      "sik": 7613,
      "##dol": 7614,
      "bened": 7615,
      "kryštof": 7616,
      "##pol": 7617,
      "##gun": 7618,
      "vaj": 7619,
      "xen": 7620,
      "mika": 7621,
      "##uki": 7622,
      "##ischer": 7623,
      "cab": 7624,
      "eb": 7625,
      "odštěp": 7626,
      "dok": 7627,
      "hag": 7628,
      "##ds": 7629,
      "odštěpný": 7630,
      "##line": 7631,
      "sche": 7632,
      "mü": 7633,
      "xs": 7634,
      "##ror": 7635,
      "##1999": 7636,
      "paula": 7637,
      "##mac": 7638,
      "##555": 7639,
      "omez": 7640,
      "food": 7641,
      "iza": 7642,
      "aga": 7643,
      "rafal": 7644,
      "hrub": 7645,
      "karla": 7646,
      "marlena": 7647,
      "lion": 7648,
      "šum": 7649,
      "timo": 7650,
      "pu": 7651,
      "##ků": 7652,
      "##eke": 7653,
      "steffi": 7654,
      "krup": 7655,
      "gener": 7656,
      "##idis": 7657,
      "##burg": 7658,
      "ross": 7659,
      "##lash": 7660,
      "##iecka": 7661,
      "алина": 7662,
      "demon": 7663,
      "pip": 7664,
      "zdzis": 7665,
      "##ohl": 7666,
      "william": 7667,
      "##ocz": 7668,
      "kyn": 7669,
      "vid": 7670,
      "witt": 7671,
      "šť": 7672,
      "нур": 7673,
      "сал": 7674,
      "marianna": 7675,
      "##bot": 7676,
      "лар": 7677,
      "cie": 7678,
      "lop": 7679,
      "##akar": 7680,
      "##unicorn": 7681,
      "josh": 7682,
      "ručení": 7683,
      "##wo": 7684,
      "##éna": 7685,
      "leoš": 7686,
      "praž": 7687,
      "horní": 7688,
      "##оль": 7689,
      "##óf": 7690,
      "##emi": 7691,
      "szilvia": 7692,
      "ručením": 7693,
      "bea": 7694,
      "omezeným": 7695,
      "luke": 7696,
      "ад": 7697,
      "schön": 7698,
      "dimit": 7699,
      "27": 7700,
      "##ochová": 7701,
      "##kus": 7702,
      "česk": 7703,
      "##tha": 7704,
      "marián": 7705,
      "jola": 7706,
      "##uv": 7707,
      "##ict": 7708,
      "metal": 7709,
      "mert": 7710,
      "васил": 7711,
      "frý": 7712,
      "say": 7713,
      "##łowska": 7714,
      "bella": 7715,
      "tü": 7716,
      "vi": 7717,
      "chud": 7718,
      "lach": 7719,
      "##цев": 7720,
      "henn": 7721,
      "jp": 7722,
      "sł": 7723,
      "дима": 7724,
      "##gt": 7725,
      "##acki": 7726,
      "##not": 7727,
      "##eder": 7728,
      "mou": 7729,
      "zám": 7730,
      "##kowiak": 7731,
      "мух": 7732,
      "##nková": 7733,
      "##ui": 7734,
      "int": 7735,
      "##nikova": 7736,
      "##reat": 7737,
      "##shot": 7738,
      "kříž": 7739,
      "rz": 7740,
      "prom": 7741,
      "виталий": 7742,
      "mob": 7743,
      "uh": 7744,
      "vog": 7745,
      "##mir": 7746,
      "##stone": 7747,
      "##ando": 7748,
      "psych": 7749,
      "##rew": 7750,
      "ni": 7751,
      "rach": 7752,
      "##vis": 7753,
      "##řiška": 7754,
      "##illy": 7755,
      "varga": 7756,
      "##oke": 7757,
      "##121": 7758,
      "matyáš": 7759,
      "arek": 7760,
      "##61": 7761,
      "##awa": 7762,
      "lak": 7763,
      "mk": 7764,
      "mast": 7765,
      "##yboy": 7766,
      "mia": 7767,
      "##storm": 7768,
      "horst": 7769,
      "артем": 7770,
      "gum": 7771,
      "##oslava": 7772,
      "butter": 7773,
      "kár": 7774,
      "kin": 7775,
      "##isen": 7776,
      "non": 7777,
      "28": 7778,
      "mathias": 7779,
      "řeh": 7780,
      "##edi": 7781,
      "##овь": 7782,
      "rum": 7783,
      "##uzz": 7784,
      "##rahim": 7785,
      "dun": 7786,
      "edit": 7787,
      "vary": 7788,
      "##ery": 7789,
      "bartłom": 7790,
      "##imm": 7791,
      "kamen": 7792,
      "carmen": 7793,
      "harry": 7794,
      "chom": 7795,
      "kola": 7796,
      "ку": 7797,
      "schn": 7798,
      "piotrek": 7799,
      "gül": 7800,
      "prost": 7801,
      "grab": 7802,
      "##anská": 7803,
      "bartłomiej": 7804,
      "dab": 7805,
      "gog": 7806,
      "nap": 7807,
      "rah": 7808,
      "thek": 7809,
      "##gin": 7810,
      "bronislav": 7811,
      "##hh": 7812,
      "##bra": 7813,
      "bear": 7814,
      "kacz": 7815,
      "##3n": 7816,
      "radosław": 7817,
      "andré": 7818,
      "queen": 7819,
      "kie": 7820,
      "##queen": 7821,
      "##иров": 7822,
      "hoang": 7823,
      "hul": 7824,
      "partners": 7825,
      "##awesome": 7826,
      "ill": 7827,
      "unicorn": 7828,
      "валентина": 7829,
      "##zar": 7830,
      "awesome": 7831,
      "##epvp": 7832,
      "karp": 7833,
      "józef": 7834,
      "gaz": 7835,
      "кам": 7836,
      "##eni": 7837,
      "##evil": 7838,
      "wr": 7839,
      "##iska": 7840,
      "knight": 7841,
      "pach": 7842,
      "##лов": 7843,
      "good": 7844,
      "pec": 7845,
      "marko": 7846,
      "##gal": 7847,
      "noob": 7848,
      "dej": 7849,
      "gru": 7850,
      "dent": 7851,
      "hn": 7852,
      "žel": 7853,
      "##örn": 7854,
      "александра": 7855,
      "##oub": 7856,
      "project": 7857,
      "сам": 7858,
      "##oro": 7859,
      "lech": 7860,
      "##upa": 7861,
      "##lec": 7862,
      "carsten": 7863,
      "tes": 7864,
      "##kai": 7865,
      "steven": 7866,
      "##адж": 7867,
      "fish": 7868,
      "mend": 7869,
      "##rá": 7870,
      "##hat": 7871,
      "thew": 7872,
      "aleksander": 7873,
      "láz": 7874,
      "sü": 7875,
      "##box": 7876,
      "ří": 7877,
      "##eková": 7878,
      "##uts": 7879,
      "sweet": 7880,
      "са": 7881,
      "##stev": 7882,
      "##alt": 7883,
      "##lein": 7884,
      "eliz": 7885,
      "hob": 7886,
      "hyp": 7887,
      "alžběta": 7888,
      "##rit": 7889,
      "##antom": 7890,
      "kum": 7891,
      "ksen": 7892,
      "technology": 7893,
      "luis": 7894,
      "##ма": 7895,
      "##sam": 7896,
      "##asa": 7897,
      "then": 7898,
      "miloslava": 7899,
      "juan": 7900,
      "elzbieta": 7901,
      "##mová": 7902,
      "##3d": 7903,
      "michelle": 7904,
      "##ров": 7905,
      "skup": 7906,
      "bytových": 7907,
      "nowak": 7908,
      "##ож": 7909,
      "mlg": 7910,
      "happy": 7911,
      "miriam": 7912,
      "grazyna": 7913,
      "dream": 7914,
      "pul": 7915,
      "##eon": 7916,
      "brigitte": 7917,
      "viktoria": 7918,
      "souk": 7919,
      "purple": 7920,
      "##420": 7921,
      "pup": 7922,
      "##rac": 7923,
      "##kovská": 7924,
      "##iová": 7925,
      "winter": 7926,
      "sag": 7927,
      "##ovičová": 7928,
      "chan": 7929,
      "eck": 7930,
      "##asy": 7931,
      "cod": 7932,
      "##еш": 7933,
      "střední": 7934,
      "host": 7935,
      "##erova": 7936,
      "##kev": 7937,
      "##оев": 7938,
      "anh": 7939,
      "alfa": 7940,
      "##cow": 7941,
      "dole": 7942,
      "##áva": 7943,
      "##2015": 7944,
      "nit": 7945,
      "ted": 7946,
      "##zka": 7947,
      "##elli": 7948,
      "bence": 7949,
      "edward": 7950,
      "ute": 7951,
      "##mes": 7952,
      "##стан": 7953,
      "engel": 7954,
      "fit": 7955,
      "brz": 7956,
      "##2007": 7957,
      "vrat": 7958,
      "get": 7959,
      "ахм": 7960,
      "nova": 7961,
      "##tm": 7962,
      "##raw": 7963,
      "##ард": 7964,
      "##ioł": 7965,
      "baum": 7966,
      "##ecké": 7967,
      "##lach": 7968,
      "##elo": 7969,
      "band": 7970,
      "кал": 7971,
      "##řů": 7972,
      "plays": 7973,
      "##rey": 7974,
      "ana": 7975,
      "##olas": 7976,
      "##anger": 7977,
      "##010": 7978,
      "##epic": 7979,
      "dán": 7980,
      "jut": 7981,
      "sylw": 7982,
      "stephanie": 7983,
      "otto": 7984,
      "jezd": 7985,
      "##vo": 7986,
      "##fo": 7987,
      "christopher": 7988,
      "##imon": 7989,
      "margar": 7990,
      "thunder": 7991,
      "##opvp": 7992,
      "krisztián": 7993,
      "##lor": 7994,
      "##anský": 7995,
      "##117": 7996,
      "##uga": 7997,
      "##lot": 7998,
      "##lub": 7999
    },
    "merges": [
      [
        "##a",
        "##n"
      ],
      [
        "##e",
        "##r"
      ],
      [
        "##a",
        "##r"
      ],
      [
        "##o",
        "##v"
      ],
      [
        "##i",
        "##n"
      ],
      [
        "##e",
        "##n"
      ],
      [
        "##l",
        "##a"
      ],
      [
        "##s",
        "##t"
      ],
      [
        "##ov",
        "##á"
      ],
      [
        "##c",
        "##h"
      ],
      [
        "##k",
        "##a"
      ],
      [
        "##o",
        "##n"
      ],
      [
        "##e",
        "##l"
      ],
      [
        "##o",
        "##l"
      ],
      [
        "##o",
        "##r"
      ],
      [
        "##a",
        "##l"
      ],
      [
        "##a",
        "##t"
      ],
      [
        "##r",
        "##a"
      ],
      [
        "##e",
        "##k"
      ],
      [
        "##i",
        "##c"
      ],
      [
        "##i",
        "##l"
      ],
      [
        "##a",
        "##m"
      ],
      [
        "##o",
        "##m"
      ],
      [
        "##i",
        "##k"
      ],
      [
        "##i",
        "##e"
      ],
      [
        "##e",
        "##t"
      ],
      [
        "##i",
        "##s"
      ],
      [
        "##s",
        "##k"
      ],
      [
        "##r",
        "##o"
      ],
      [
        "m",
        "##ar"
      ],
      [
        "##i",
        "##t"
      ],
      [
        "##a",
        "##s"
      ],
      [
        "##e",
        "##s"
      ],
      [
        "##a",
        "##c"
      ],
      [
        "##i",
        "##d"
      ],
      [
        "##a",
        "##d"
      ],
      [
        "##o",
        "##s"
      ],
      [
        "##u",
        "##s"
      ],
      [
        "##r",
        "##e"
      ],
      [
        "##i",
        "##a"
      ],
      [
        "##l",
        "##e"
      ],
      [
        "a",
        "##n"
      ],
      [
        "##k",
        "##ová"
      ],
      [
        "##o",
        "##t"
      ],
      [
        "##i",
        "##m"
      ],
      [
        "s",
        "##p"
      ],
      [
        "s",
        "##t"
      ],
      [
        "##e",
        "##d"
      ],
      [
        "i",
        "##n"
      ],
      [
        "##n",
        "##a"
      ],
      [
        "##a",
        "##v"
      ],
      [
        "##u",
        "##r"
      ],
      [
        "##in",
        "##a"
      ],
      [
        "##o",
        "##w"
      ],
      [
        "##n",
        "##í"
      ],
      [
        "##u",
        "##b"
      ],
      [
        "##r",
        "##i"
      ],
      [
        "##a",
        "##k"
      ],
      [
        "m",
        "##i"
      ],
      [
        "##in",
        "##g"
      ],
      [
        "##u",
        "##l"
      ],
      [
        "##e",
        "##m"
      ],
      [
        "##u",
        "##d"
      ],
      [
        "##a",
        "##b"
      ],
      [
        "##u",
        "##n"
      ],
      [
        "sp",
        "##ol"
      ],
      [
        "##ov",
        "##a"
      ],
      [
        "##о",
        "##в"
      ],
      [
        "##o",
        "##d"
      ],
      [
        "##an",
        "##a"
      ],
      [
        "##e",
        "##c"
      ],
      [
        "##an",
        "##d"
      ],
      [
        "##o",
        "##b"
      ],
      [
        "t",
        "##h"
      ],
      [
        "in",
        "##g"
      ],
      [
        "m",
        "##a"
      ],
      [
        "##la",
        "##v"
      ],
      [
        "##i",
        "##r"
      ],
      [
        "##u",
        "##t"
      ],
      [
        "c",
        "##h"
      ],
      [
        "##s",
        "##ka"
      ],
      [
        "##z",
        "##y"
      ],
      [
        "##i",
        "##g"
      ],
      [
        "##0",
        "##0"
      ],
      [
        "a",
        "##l"
      ],
      [
        "v",
        "##la"
      ],
      [
        "##t",
        "##a"
      ],
      [
        "##m",
        "##an"
      ],
      [
        "##н",
        "##а"
      ],
      [
        "##e",
        "##č"
      ],
      [
        "##o",
        "##p"
      ],
      [
        "##e",
        "##v"
      ],
      [
        "##ac",
        "##i"
      ],
      [
        "##sk",
        "##i"
      ],
      [
        "##st",
        "##v"
      ],
      [
        "##v",
        "##id"
      ],
      [
        "l",
        "##ik"
      ],
      [
        "l",
        "##u"
      ],
      [
        "##e",
        "##p"
      ],
      [
        "##o",
        "##k"
      ],
      [
        "lik",
        "##vid"
      ],
      [
        "likvid",
        "##aci"
      ],
      [
        "p",
        "##et"
      ],
      [
        "##e",
        "##b"
      ],
      [
        "##o",
        "##u"
      ],
      [
        "##c",
        "##k"
      ],
      [
        "##a",
        "##w"
      ],
      [
        "##l",
        "##i"
      ],
      [
        "##1",
        "##2"
      ],
      [
        "##r",
        "##y"
      ],
      [
        "spol",
        "##eč"
      ],
      [
        "##z",
        "##e"
      ],
      [
        "##o",
        "##g"
      ],
      [
        "##r",
        "##u"
      ],
      [
        "##a",
        "##p"
      ],
      [
        "##en",
        "##a"
      ],
      [
        "##ní",
        "##k"
      ],
      [
        "##k",
        "##o"
      ],
      [
        "##a",
        "##g"
      ],
      [
        "##i",
        "##ka"
      ],
      [
        "##t",
        "##h"
      ],
      [
        "##i",
        "##an"
      ],
      [
        "vla",
        "##st"
      ],
      [
        "mi",
        "##ch"
      ],
      [
        "j",
        "##an"
      ],
      [
        "##en",
        "##stv"
      ],
      [
        "##e",
        "##f"
      ],
      [
        "společ",
        "##enstv"
      ],
      [
        "a",
        "##d"
      ],
      [
        "##y",
        "##s"
      ],
      [
        "##g",
        "##r"
      ],
      [
        "##er",
        "##t"
      ],
      [
        "##ic",
        "##k"
      ],
      [
        "##u",
        "##p"
      ],
      [
        "##t",
        "##er"
      ],
      [
        "společenstv",
        "##í"
      ],
      [
        "##á",
        "##n"
      ],
      [
        "k",
        "##ar"
      ],
      [
        "##ník",
        "##ů"
      ],
      [
        "##o",
        "##h"
      ],
      [
        "##e",
        "##g"
      ],
      [
        "##e",
        "##z"
      ],
      [
        "vlast",
        "##níků"
      ],
      [
        "mar",
        "##t"
      ],
      [
        "##en",
        "##t"
      ],
      [
        "##u",
        "##m"
      ],
      [
        "an",
        "##d"
      ],
      [
        "##h",
        "##a"
      ],
      [
        "##l",
        "##er"
      ],
      [
        "t",
        "##om"
      ],
      [
        "##r",
        "##an"
      ],
      [
        "m",
        "##at"
      ],
      [
        "##i",
        "##p"
      ],
      [
        "##v",
        "##a"
      ],
      [
        "d",
        "##an"
      ],
      [
        "##e",
        "##y"
      ],
      [
        "##s",
        "##z"
      ],
      [
        "##e",
        "##j"
      ],
      [
        "b",
        "##ar"
      ],
      [
        "s",
        "##ch"
      ],
      [
        "##а",
        "##н"
      ],
      [
        "m",
        "##gr"
      ],
      [
        "##a",
        "##st"
      ],
      [
        "##е",
        "##в"
      ],
      [
        "##i",
        "##z"
      ],
      [
        "a",
        "##r"
      ],
      [
        "##ов",
        "##а"
      ],
      [
        "##o",
        "##f"
      ],
      [
        "##ar",
        "##d"
      ],
      [
        "k",
        "##at"
      ],
      [
        "##i",
        "##ch"
      ],
      [
        "##i",
        "##b"
      ],
      [
        "##sk",
        "##á"
      ],
      [
        "##á",
        "##š"
      ],
      [
        "p",
        "##ro"
      ],
      [
        "##ř",
        "##í"
      ],
      [
        "##o",
        "##c"
      ],
      [
        "##j",
        "##a"
      ],
      [
        "##u",
        "##k"
      ],
      [
        "s",
        "##h"
      ],
      [
        "##e",
        "##st"
      ],
      [
        "##n",
        "##er"
      ],
      [
        "##и",
        "##на"
      ],
      [
        "##y",
        "##t"
      ],
      [
        "##e",
        "##la"
      ],
      [
        "##ic",
        "##e"
      ],
      [
        "##o",
        "##j"
      ],
      [
        "d",
        "##om"
      ],
      [
        "##a",
        "##j"
      ],
      [
        "p",
        "##av"
      ],
      [
        "##g",
        "##am"
      ],
      [
        "k",
        "##r"
      ],
      [
        "##а",
        "##р"
      ],
      [
        "##d",
        "##a"
      ],
      [
        "##o",
        "##st"
      ],
      [
        "##i",
        "##el"
      ],
      [
        "e",
        "##l"
      ],
      [
        "##i",
        "##on"
      ],
      [
        "j",
        "##ar"
      ],
      [
        "##á",
        "##k"
      ],
      [
        "k",
        "##l"
      ],
      [
        "##x",
        "##x"
      ],
      [
        "##a",
        "##y"
      ],
      [
        "##1",
        "##0"
      ],
      [
        "##i",
        "##v"
      ],
      [
        "m",
        "##il"
      ],
      [
        "r",
        "##ad"
      ],
      [
        "##a",
        "##h"
      ],
      [
        "s",
        "##z"
      ],
      [
        "##c",
        "##z"
      ],
      [
        "##n",
        "##d"
      ],
      [
        "##a",
        "##z"
      ],
      [
        "##l",
        "##o"
      ],
      [
        "a",
        "##le"
      ],
      [
        "##l",
        "##y"
      ],
      [
        "##á",
        "##r"
      ],
      [
        "##a",
        "##ch"
      ],
      [
        "##i",
        "##č"
      ],
      [
        "i",
        "##v"
      ],
      [
        "##on",
        "##ika"
      ],
      [
        "b",
        "##r"
      ],
      [
        "##e",
        "##h"
      ],
      [
        "##u",
        "##z"
      ],
      [
        "##ic",
        "##z"
      ],
      [
        "##sk",
        "##ý"
      ],
      [
        "##ri",
        "##st"
      ],
      [
        "##o",
        "##z"
      ],
      [
        "##e",
        "##w"
      ],
      [
        "##ro",
        "##s"
      ],
      [
        "pet",
        "##r"
      ],
      [
        "##i",
        "##er"
      ],
      [
        "##i",
        "##o"
      ],
      [
        "##at",
        "##a"
      ],
      [
        "s",
        "##k"
      ],
      [
        "##ra",
        "##f"
      ],
      [
        "##a",
        "##f"
      ],
      [
        "##е",
        "##н"
      ],
      [
        "##и",
        "##н"
      ],
      [
        "mich",
        "##a"
      ],
      [
        "j",
        "##i"
      ],
      [
        "##u",
        "##st"
      ],
      [
        "mar",
        "##c"
      ],
      [
        "##en",
        "##d"
      ],
      [
        "##y",
        "##n"
      ],
      [
        "##s",
        "##h"
      ],
      [
        "##e",
        "##x"
      ],
      [
        "mart",
        "##in"
      ],
      [
        "x",
        "##x"
      ],
      [
        "##us",
        "##z"
      ],
      [
        "##í",
        "##k"
      ],
      [
        "##n",
        "##y"
      ],
      [
        "##es",
        "##s"
      ],
      [
        "##er",
        "##g"
      ],
      [
        "##in",
        "##e"
      ],
      [
        "m",
        "##r"
      ],
      [
        "##2",
        "##00"
      ],
      [
        "##ed",
        "##n"
      ],
      [
        "##а",
        "##л"
      ],
      [
        "##man",
        "##n"
      ],
      [
        "##ar",
        "##k"
      ],
      [
        "##o",
        "##y"
      ],
      [
        "##1",
        "##1"
      ],
      [
        "##е",
        "##р"
      ],
      [
        "##l",
        "##u"
      ],
      [
        "##e",
        "##ch"
      ],
      [
        "##ar",
        "##t"
      ],
      [
        "##12",
        "##3"
      ],
      [
        "##i",
        "##x"
      ],
      [
        "lu",
        "##c"
      ],
      [
        "##á",
        "##t"
      ],
      [
        "##а",
        "##т"
      ],
      [
        "##er",
        "##s"
      ],
      [
        "##y",
        "##l"
      ],
      [
        "##k",
        "##e"
      ],
      [
        "##o",
        "##la"
      ],
      [
        "j",
        "##edn"
      ],
      [
        "##m",
        "##a"
      ],
      [
        "##o",
        "##x"
      ],
      [
        "##i",
        "##la"
      ],
      [
        "p",
        "##r"
      ],
      [
        "jedn",
        "##ot"
      ],
      [
        "z",
        "##d"
      ],
      [
        "##b",
        "##or"
      ],
      [
        "##an",
        "##g"
      ],
      [
        "o",
        "##l"
      ],
      [
        "##l",
        "##ová"
      ],
      [
        "##ow",
        "##ska"
      ],
      [
        "o",
        "##r"
      ],
      [
        "and",
        "##re"
      ],
      [
        "a",
        "##g"
      ],
      [
        "l",
        "##e"
      ],
      [
        "##ra",
        "##d"
      ],
      [
        "ale",
        "##x"
      ],
      [
        "##h",
        "##o"
      ],
      [
        "##ec",
        "##k"
      ],
      [
        "##is",
        "##lav"
      ],
      [
        "r",
        "##om"
      ],
      [
        "an",
        "##na"
      ],
      [
        "c",
        "##z"
      ],
      [
        "##v",
        "##p"
      ],
      [
        "g",
        "##r"
      ],
      [
        "##on",
        "##a"
      ],
      [
        "##и",
        "##к"
      ],
      [
        "##os",
        "##lav"
      ],
      [
        "##a",
        "##u"
      ],
      [
        "f",
        "##ran"
      ],
      [
        "##st",
        "##er"
      ],
      [
        "##an",
        "##t"
      ],
      [
        "##a",
        "##la"
      ],
      [
        "jednot",
        "##ek"
      ],
      [
        "##ol",
        "##f"
      ],
      [
        "##et",
        "##a"
      ],
      [
        "##ow",
        "##ski"
      ],
      [
        "##c",
        "##e"
      ],
      [
        "##9",
        "##9"
      ],
      [
        "##o",
        "##š"
      ],
      [
        "##1",
        "##3"
      ],
      [
        "j",
        "##ana"
      ],
      [
        "##л",
        "##а"
      ],
      [
        "##í",
        "##r"
      ],
      [
        "p",
        "##at"
      ],
      [
        "##y",
        "##a"
      ],
      [
        "##í",
        "##n"
      ],
      [
        "r",
        "##e"
      ],
      [
        "##or",
        "##t"
      ],
      [
        "##u",
        "##g"
      ],
      [
        "##in",
        "##d"
      ],
      [
        "##c",
        "##zy"
      ],
      [
        "p",
        "##ra"
      ],
      [
        "##t",
        "##or"
      ],
      [
        "##ac",
        "##k"
      ],
      [
        "##ar",
        "##a"
      ],
      [
        "##л",
        "##е"
      ],
      [
        "d",
        "##av"
      ],
      [
        "b",
        "##c"
      ],
      [
        "ma",
        "##g"
      ],
      [
        "##s",
        "##ch"
      ],
      [
        "##i",
        "##š"
      ],
      [
        "j",
        "##ak"
      ],
      [
        "n",
        "##at"
      ],
      [
        "##la",
        "##d"
      ],
      [
        "##q",
        "##u"
      ],
      [
        "##ol",
        "##d"
      ],
      [
        "##i",
        "##f"
      ],
      [
        "##í",
        "##ková"
      ],
      [
        "##n",
        "##e"
      ],
      [
        "k",
        "##am"
      ],
      [
        "pav",
        "##el"
      ],
      [
        "##on",
        "##d"
      ],
      [
        "##il",
        "##l"
      ],
      [
        "##raf",
        "##t"
      ],
      [
        "v",
        "##er"
      ],
      [
        "##la",
        "##y"
      ],
      [
        "##en",
        "##ka"
      ],
      [
        "##á",
        "##l"
      ],
      [
        "##e",
        "##ř"
      ],
      [
        "##g",
        "##or"
      ],
      [
        "r",
        "##en"
      ],
      [
        "##о",
        "##р"
      ],
      [
        "t",
        "##er"
      ],
      [
        "ji",
        "##ří"
      ],
      [
        "i",
        "##t"
      ],
      [
        "mich",
        "##al"
      ],
      [
        "##2",
        "##0"
      ],
      [
        "##it",
        "##t"
      ],
      [
        "th",
        "##e"
      ],
      [
        "##ac",
        "##e"
      ],
      [
        "##ie",
        "##w"
      ],
      [
        "j",
        "##os"
      ],
      [
        "##i",
        "##i"
      ],
      [
        "p",
        "##h"
      ],
      [
        "h",
        "##an"
      ],
      [
        "##ru",
        "##ž"
      ],
      [
        "b",
        "##e"
      ],
      [
        "##u",
        "##ch"
      ],
      [
        "##er",
        "##n"
      ],
      [
        "##or",
        "##d"
      ],
      [
        "##s",
        "##s"
      ],
      [
        "##u",
        "##š"
      ],
      [
        "n",
        "##ik"
      ],
      [
        "j",
        "##o"
      ],
      [
        "r",
        "##ob"
      ],
      [
        "##ud",
        "##r"
      ],
      [
        "##g",
        "##a"
      ],
      [
        "tom",
        "##áš"
      ],
      [
        "s",
        "##v"
      ],
      [
        "##g",
        "##u"
      ],
      [
        "##и",
        "##я"
      ],
      [
        "g",
        "##am"
      ],
      [
        "mar",
        "##k"
      ],
      [
        "##s",
        "##p"
      ],
      [
        "##sk",
        "##é"
      ],
      [
        "##л",
        "##ь"
      ],
      [
        "e",
        "##r"
      ],
      [
        "##h",
        "##t"
      ],
      [
        "##ев",
        "##а"
      ],
      [
        "g",
        "##ab"
      ],
      [
        "##á",
        "##č"
      ],
      [
        "##ia",
        "##k"
      ],
      [
        "o",
        "##b"
      ],
      [
        "##ł",
        "##aw"
      ],
      [
        "##y",
        "##na"
      ],
      [
        "##t",
        "##ě"
      ],
      [
        "mi",
        "##ros"
      ],
      [
        "##y",
        "##b"
      ],
      [
        "dav",
        "##id"
      ],
      [
        "e",
        "##m"
      ],
      [
        "##it",
        "##a"
      ],
      [
        "pet",
        "##ra"
      ],
      [
        "dan",
        "##iel"
      ],
      [
        "##gam",
        "##er"
      ],
      [
        "vla",
        "##d"
      ],
      [
        "m",
        "##onika"
      ],
      [
        "s",
        "##er"
      ],
      [
        "##y",
        "##m"
      ],
      [
        "##et",
        "##t"
      ],
      [
        "##и",
        "##й"
      ],
      [
        "##i",
        "##st"
      ],
      [
        "##o",
        "##ch"
      ],
      [
        "p",
        "##a"
      ],
      [
        "s",
        "##m"
      ],
      [
        "b",
        "##en"
      ],
      [
        "##ń",
        "##ska"
      ],
      [
        "##и",
        "##м"
      ],
      [
        "i",
        "##r"
      ],
      [
        "a",
        "##m"
      ],
      [
        "an",
        "##t"
      ],
      [
        "##ě",
        "##k"
      ],
      [
        "##2",
        "##2"
      ],
      [
        "##el",
        "##l"
      ],
      [
        "m",
        "##an"
      ],
      [
        "n",
        "##ad"
      ],
      [
        "h",
        "##e"
      ],
      [
        "##z",
        "##a"
      ],
      [
        "m",
        "##ik"
      ],
      [
        "##á",
        "##ková"
      ],
      [
        "e",
        "##d"
      ],
      [
        "t",
        "##r"
      ],
      [
        "m",
        "##in"
      ],
      [
        "m",
        "##al"
      ],
      [
        "k",
        "##a"
      ],
      [
        "jar",
        "##oslav"
      ],
      [
        "##g",
        "##an"
      ],
      [
        "##m",
        "##ar"
      ],
      [
        "lu",
        "##k"
      ],
      [
        "##is",
        "##s"
      ],
      [
        "##i",
        "##re"
      ],
      [
        "##as",
        "##s"
      ],
      [
        "jak",
        "##ub"
      ],
      [
        "##ie",
        "##s"
      ],
      [
        "##or",
        "##n"
      ],
      [
        "##2",
        "##3"
      ],
      [
        "##p",
        "##er"
      ],
      [
        "ad",
        "##am"
      ],
      [
        "##and",
        "##ra"
      ],
      [
        "##h",
        "##an"
      ],
      [
        "rom",
        "##an"
      ],
      [
        "##m",
        "##er"
      ],
      [
        "##f",
        "##f"
      ],
      [
        "##al",
        "##l"
      ],
      [
        "##1",
        "##4"
      ],
      [
        "##c",
        "##o"
      ],
      [
        "##in",
        "##k"
      ],
      [
        "miros",
        "##lav"
      ],
      [
        "d",
        "##en"
      ],
      [
        "p",
        "##l"
      ],
      [
        "d",
        "##ra"
      ],
      [
        "c",
        "##ar"
      ],
      [
        "a",
        "##b"
      ],
      [
        "mar",
        "##ek"
      ],
      [
        "##y",
        "##d"
      ],
      [
        "ch",
        "##rist"
      ],
      [
        "d",
        "##ar"
      ],
      [
        "##y",
        "##k"
      ],
      [
        "##g",
        "##er"
      ],
      [
        "s",
        "##im"
      ],
      [
        "j",
        "##ul"
      ],
      [
        "##к",
        "##с"
      ],
      [
        "i",
        "##m"
      ],
      [
        "f",
        "##r"
      ],
      [
        "##as",
        "##z"
      ],
      [
        "b",
        "##la"
      ],
      [
        "h",
        "##el"
      ],
      [
        "g",
        "##ro"
      ],
      [
        "##к",
        "##а"
      ],
      [
        "e",
        "##va"
      ],
      [
        "dom",
        "##u"
      ],
      [
        "##an",
        "##n"
      ],
      [
        "##и",
        "##р"
      ],
      [
        "p",
        "##i"
      ],
      [
        "##b",
        "##a"
      ],
      [
        "##u",
        "##la"
      ],
      [
        "##w",
        "##a"
      ],
      [
        "##al",
        "##d"
      ],
      [
        "st",
        "##an"
      ],
      [
        "##ig",
        "##ht"
      ],
      [
        "##k",
        "##ov"
      ],
      [
        "##к",
        "##о"
      ],
      [
        "##1",
        "##5"
      ],
      [
        "##ie",
        "##la"
      ],
      [
        "##ir",
        "##l"
      ],
      [
        "i",
        "##l"
      ],
      [
        "##e",
        "##e"
      ],
      [
        "l",
        "##enka"
      ],
      [
        "č",
        "##e"
      ],
      [
        "b",
        "##o"
      ],
      [
        "##у",
        "##р"
      ],
      [
        "##n",
        "##á"
      ],
      [
        "##о",
        "##н"
      ],
      [
        "k",
        "##o"
      ],
      [
        "##n",
        "##ý"
      ],
      [
        "o",
        "##nd"
      ],
      [
        "##u",
        "##ra"
      ],
      [
        "h",
        "##or"
      ],
      [
        "##а",
        "##с"
      ],
      [
        "##7",
        "##7"
      ],
      [
        "k",
        "##ub"
      ],
      [
        "##m",
        "##c"
      ],
      [
        "d",
        "##e"
      ],
      [
        "jos",
        "##ef"
      ],
      [
        "f",
        "##il"
      ],
      [
        "##l",
        "##an"
      ],
      [
        "dom",
        "##in"
      ],
      [
        "##а",
        "##м"
      ],
      [
        "mart",
        "##ina"
      ],
      [
        "v",
        "##al"
      ],
      [
        "##и",
        "##л"
      ],
      [
        "##n",
        "##o"
      ],
      [
        "##m",
        "##e"
      ],
      [
        "k",
        "##ra"
      ],
      [
        "##á",
        "##c"
      ],
      [
        "##2",
        "##1"
      ],
      [
        "##o",
        "##o"
      ],
      [
        "##on",
        "##g"
      ],
      [
        "kar",
        "##ol"
      ],
      [
        "##y",
        "##p"
      ],
      [
        "luc",
        "##ie"
      ],
      [
        "##er",
        "##ová"
      ],
      [
        "##czy",
        "##k"
      ],
      [
        "##u",
        "##c"
      ],
      [
        "##е",
        "##й"
      ],
      [
        "##á",
        "##ř"
      ],
      [
        "bar",
        "##t"
      ],
      [
        "##h",
        "##er"
      ],
      [
        "or",
        "##gan"
      ],
      [
        "h",
        "##er"
      ],
      [
        "s",
        "##am"
      ],
      [
        "##e",
        "##š"
      ],
      [
        "##k",
        "##ova"
      ],
      [
        "##ń",
        "##ski"
      ],
      [
        "##2",
        "##4"
      ],
      [
        "##d",
        "##er"
      ],
      [
        "ma",
        "##x"
      ],
      [
        "organ",
        "##iz"
      ],
      [
        "##en",
        "##í"
      ],
      [
        "p",
        "##ol"
      ],
      [
        "##an",
        "##na"
      ],
      [
        "h",
        "##ol"
      ],
      [
        "##ek",
        "##s"
      ],
      [
        "##ov",
        "##é"
      ],
      [
        "##d",
        "##r"
      ],
      [
        "spol",
        "##ek"
      ],
      [
        "k",
        "##on"
      ],
      [
        "kat",
        "##eř"
      ],
      [
        "##n",
        "##é"
      ],
      [
        "##i",
        "##en"
      ],
      [
        "c",
        "##on"
      ],
      [
        "##os",
        "##s"
      ],
      [
        "kateř",
        "##ina"
      ],
      [
        "s",
        "##up"
      ],
      [
        "m",
        "##udr"
      ],
      [
        "z",
        "##uz"
      ],
      [
        "##4",
        "##5"
      ],
      [
        "st",
        "##ef"
      ],
      [
        "##0",
        "##3"
      ],
      [
        "##0",
        "##1"
      ],
      [
        "k",
        "##rist"
      ],
      [
        "d",
        "##r"
      ],
      [
        "c",
        "##o"
      ],
      [
        "а",
        "##н"
      ],
      [
        "##gor",
        "##z"
      ],
      [
        "##il",
        "##ler"
      ],
      [
        "e",
        "##n"
      ],
      [
        "##en",
        "##s"
      ],
      [
        "zd",
        "##en"
      ],
      [
        "##n",
        "##ie"
      ],
      [
        "vlad",
        "##im"
      ],
      [
        "r",
        "##a"
      ],
      [
        "ver",
        "##onika"
      ],
      [
        "m",
        "##on"
      ],
      [
        "##iew",
        "##icz"
      ],
      [
        "##о",
        "##л"
      ],
      [
        "c",
        "##s"
      ],
      [
        "##l",
        "##ov"
      ],
      [
        "h",
        "##ana"
      ],
      [
        "n",
        "##ic"
      ],
      [
        "##č",
        "##ková"
      ],
      [
        "##3",
        "##3"
      ],
      [
        "##as",
        "##h"
      ],
      [
        "u",
        "##l"
      ],
      [
        "b",
        "##er"
      ],
      [
        "f",
        "##l"
      ],
      [
        "##и",
        "##с"
      ],
      [
        "rob",
        "##ert"
      ],
      [
        "m",
        "##or"
      ],
      [
        "e",
        "##v"
      ],
      [
        "##an",
        "##y"
      ],
      [
        "micha",
        "##ela"
      ],
      [
        "d",
        "##or"
      ],
      [
        "##s",
        "##a"
      ],
      [
        "##t",
        "##t"
      ],
      [
        "##g",
        "##el"
      ],
      [
        "m",
        "##el"
      ],
      [
        "luk",
        "##áš"
      ],
      [
        "ad",
        "##v"
      ],
      [
        "mil",
        "##an"
      ],
      [
        "##and",
        "##a"
      ],
      [
        "pra",
        "##ha"
      ],
      [
        "##e",
        "##in"
      ],
      [
        "##it",
        "##z"
      ],
      [
        "##is",
        "##h"
      ],
      [
        "l",
        "##ib"
      ],
      [
        "##и",
        "##т"
      ],
      [
        "##z",
        "##i"
      ],
      [
        "p",
        "##ř"
      ],
      [
        "andre",
        "##a"
      ],
      [
        "##at",
        "##h"
      ],
      [
        "d",
        "##i"
      ],
      [
        "##ol",
        "##t"
      ],
      [
        "and",
        "##r"
      ],
      [
        "b",
        "##or"
      ],
      [
        "##g",
        "##on"
      ],
      [
        "p",
        "##od"
      ],
      [
        "a",
        "##s"
      ],
      [
        "##д",
        "##р"
      ],
      [
        "##0",
        "##4"
      ],
      [
        "##o",
        "##ck"
      ],
      [
        "s",
        "##il"
      ],
      [
        "##b",
        "##er"
      ],
      [
        "##á",
        "##s"
      ],
      [
        "##it",
        "##y"
      ],
      [
        "##an",
        "##c"
      ],
      [
        "g",
        "##ra"
      ],
      [
        "##d",
        "##al"
      ],
      [
        "##ö",
        "##r"
      ],
      [
        "k",
        "##ol"
      ],
      [
        "##1",
        "##9"
      ],
      [
        "##0",
        "##5"
      ],
      [
        "ser",
        "##v"
      ],
      [
        "##y",
        "##r"
      ],
      [
        "mar",
        "##i"
      ],
      [
        "k",
        "##la"
      ],
      [
        "##m",
        "##in"
      ],
      [
        "##v",
        "##est"
      ],
      [
        "l",
        "##ad"
      ],
      [
        "##g",
        "##e"
      ],
      [
        "gro",
        "##up"
      ],
      [
        "##m",
        "##on"
      ],
      [
        "##z",
        "##z"
      ],
      [
        "##а",
        "##д"
      ],
      [
        "b",
        "##oh"
      ],
      [
        "organiz",
        "##ace"
      ],
      [
        "##ů",
        "##m"
      ],
      [
        "##en",
        "##c"
      ],
      [
        "##ot",
        "##r"
      ],
      [
        "mar",
        "##ie"
      ],
      [
        "k",
        "##ing"
      ],
      [
        "ar",
        "##t"
      ],
      [
        "##ko",
        "##la"
      ],
      [
        "а",
        "##ле"
      ],
      [
        "j",
        "##ust"
      ],
      [
        "##2",
        "##5"
      ],
      [
        "##b",
        "##e"
      ],
      [
        "##b",
        "##y"
      ],
      [
        "d",
        "##ark"
      ],
      [
        "kl",
        "##ub"
      ],
      [
        "##v",
        "##er"
      ],
      [
        "p",
        "##aw"
      ],
      [
        "##k",
        "##y"
      ],
      [
        "b",
        "##al"
      ],
      [
        "b",
        "##a"
      ],
      [
        "##is",
        "##a"
      ],
      [
        "d",
        "##ob"
      ],
      [
        "##on",
        "##e"
      ],
      [
        "h",
        "##a"
      ],
      [
        "##u",
        "##h"
      ],
      [
        "s",
        "##w"
      ],
      [
        "##á",
        "##d"
      ],
      [
        "s",
        "##ab"
      ],
      [
        "u",
        "##n"
      ],
      [
        "##ik",
        "##tor"
      ],
      [
        "##al",
        "##ová"
      ],
      [
        "k",
        "##ry"
      ],
      [
        "##s",
        "##i"
      ],
      [
        "nat",
        "##al"
      ],
      [
        "##ul",
        "##t"
      ],
      [
        "##е",
        "##т"
      ],
      [
        "##b",
        "##o"
      ],
      [
        "##č",
        "##ek"
      ],
      [
        "##1",
        "##7"
      ],
      [
        "c",
        "##om"
      ],
      [
        "ant",
        "##on"
      ],
      [
        "##r",
        "##ik"
      ],
      [
        "##h",
        "##e"
      ],
      [
        "h",
        "##on"
      ],
      [
        "##n",
        "##ik"
      ],
      [
        "##1",
        "##6"
      ],
      [
        "##ie",
        "##d"
      ],
      [
        "fil",
        "##ip"
      ],
      [
        "##b",
        "##oy"
      ],
      [
        "ter",
        "##ez"
      ],
      [
        "##p",
        "##a"
      ],
      [
        "##h",
        "##d"
      ],
      [
        "##t",
        "##r"
      ],
      [
        "##g",
        "##y"
      ],
      [
        "##i",
        "##j"
      ],
      [
        "##sk",
        "##y"
      ],
      [
        "##re",
        "##d"
      ],
      [
        "n",
        "##a"
      ],
      [
        "##o",
        "##us"
      ],
      [
        "##у",
        "##л"
      ],
      [
        "##b",
        "##ert"
      ],
      [
        "##ic",
        "##a"
      ],
      [
        "l",
        "##ud"
      ],
      [
        "z",
        "##ák"
      ],
      [
        "iv",
        "##an"
      ],
      [
        "kr",
        "##zy"
      ],
      [
        "##y",
        "##ch"
      ],
      [
        "##p",
        "##vp"
      ],
      [
        "##and",
        "##er"
      ],
      [
        "##í",
        "##na"
      ],
      [
        "##u",
        "##ka"
      ],
      [
        "##ze",
        "##w"
      ],
      [
        "s",
        "##eb"
      ],
      [
        "d",
        "##ruž"
      ],
      [
        "micha",
        "##el"
      ],
      [
        "d",
        "##ům"
      ],
      [
        "##ь",
        "##я"
      ],
      [
        "##1",
        "##8"
      ],
      [
        "g",
        "##re"
      ],
      [
        "s",
        "##e"
      ],
      [
        "rad",
        "##ek"
      ],
      [
        "l",
        "##a"
      ],
      [
        "##lad",
        "##ní"
      ],
      [
        "##ok",
        "##át"
      ],
      [
        "adv",
        "##okát"
      ],
      [
        "k",
        "##al"
      ],
      [
        "##0",
        "##7"
      ],
      [
        "s",
        "##d"
      ],
      [
        "zák",
        "##ladní"
      ],
      [
        "in",
        "##vest"
      ],
      [
        "n",
        "##e"
      ],
      [
        "##t",
        "##e"
      ],
      [
        "##0",
        "##2"
      ],
      [
        "##ev",
        "##a"
      ],
      [
        "zden",
        "##ěk"
      ],
      [
        "h",
        "##ar"
      ],
      [
        "v",
        "##ác"
      ],
      [
        "v",
        "##an"
      ],
      [
        "##z",
        "##s"
      ],
      [
        "vác",
        "##lav"
      ],
      [
        "š",
        "##t"
      ],
      [
        "m",
        "##c"
      ],
      [
        "b",
        "##yt"
      ],
      [
        "##re",
        "##ep"
      ],
      [
        "k",
        "##or"
      ],
      [
        "##ot",
        "##a"
      ],
      [
        "##stv",
        "##o"
      ],
      [
        "mar",
        "##ia"
      ],
      [
        "##am",
        "##er"
      ],
      [
        "##in",
        "##t"
      ],
      [
        "##ow",
        "##icz"
      ],
      [
        "i",
        "##s"
      ],
      [
        "##с",
        "##т"
      ],
      [
        "##en",
        "##ko"
      ],
      [
        "##ick",
        "##á"
      ],
      [
        "druž",
        "##stvo"
      ],
      [
        "##un",
        "##d"
      ],
      [
        "pa",
        "##ul"
      ],
      [
        "st",
        "##av"
      ],
      [
        "l",
        "##ub"
      ],
      [
        "##0",
        "##6"
      ],
      [
        "e",
        "##x"
      ],
      [
        "v",
        "##oj"
      ],
      [
        "##in",
        "##c"
      ],
      [
        "kar",
        "##el"
      ],
      [
        "q",
        "##u"
      ],
      [
        "##ro",
        "##w"
      ],
      [
        "але",
        "##кс"
      ],
      [
        "##b",
        "##erg"
      ],
      [
        "t",
        "##im"
      ],
      [
        "j",
        "##oh"
      ],
      [
        "##5",
        "##5"
      ],
      [
        "it",
        "##z"
      ],
      [
        "##o",
        "##od"
      ],
      [
        "##it",
        "##ka"
      ],
      [
        "##gu",
        "##y"
      ],
      [
        "al",
        "##ena"
      ],
      [
        "##ř",
        "##ej"
      ],
      [
        "pet",
        "##er"
      ],
      [
        "##et",
        "##h"
      ],
      [
        "##i",
        "##as"
      ],
      [
        "pi",
        "##otr"
      ],
      [
        "sd",
        "##ruž"
      ],
      [
        "##8",
        "##8"
      ],
      [
        "h",
        "##al"
      ],
      [
        "š",
        "##kola"
      ],
      [
        "e",
        "##li"
      ],
      [
        "##o",
        "##ur"
      ],
      [
        "##en",
        "##n"
      ],
      [
        "##6",
        "##6"
      ],
      [
        "k",
        "##as"
      ],
      [
        "##is",
        "##z"
      ],
      [
        "o",
        "##k"
      ],
      [
        "w",
        "##il"
      ],
      [
        "##t",
        "##of"
      ],
      [
        "y",
        "##t"
      ],
      [
        "##2",
        "##7"
      ],
      [
        "##ru",
        "##m"
      ],
      [
        "##b",
        "##r"
      ],
      [
        "sdruž",
        "##ení"
      ],
      [
        "a",
        "##k"
      ],
      [
        "o",
        "##d"
      ],
      [
        "##sz",
        "##ka"
      ],
      [
        "м",
        "##ар"
      ],
      [
        "s",
        "##l"
      ],
      [
        "th",
        "##om"
      ],
      [
        "m",
        "##ac"
      ],
      [
        "##á",
        "##ra"
      ],
      [
        "z",
        "##s"
      ],
      [
        "##gam",
        "##ing"
      ],
      [
        "##y",
        "##an"
      ],
      [
        "##y",
        "##c"
      ],
      [
        "re",
        "##al"
      ],
      [
        "##ast",
        "##er"
      ],
      [
        "fran",
        "##t"
      ],
      [
        "w",
        "##oj"
      ],
      [
        "##ri",
        "##ch"
      ],
      [
        "w",
        "##olf"
      ],
      [
        "mag",
        "##dal"
      ],
      [
        "r",
        "##os"
      ],
      [
        "##ł",
        "##a"
      ],
      [
        "м",
        "##а"
      ],
      [
        "o",
        "##s"
      ],
      [
        "##ol",
        "##l"
      ],
      [
        "##zy",
        "##na"
      ],
      [
        "t",
        "##rad"
      ],
      [
        "p",
        "##vp"
      ],
      [
        "ad",
        "##ri"
      ],
      [
        "##0",
        "##9"
      ],
      [
        "al",
        "##eks"
      ],
      [
        "##ен",
        "##ко"
      ],
      [
        "b",
        "##u"
      ],
      [
        "ond",
        "##řej"
      ],
      [
        "##к",
        "##ов"
      ],
      [
        "##d",
        "##i"
      ],
      [
        "g",
        "##e"
      ],
      [
        "g",
        "##er"
      ],
      [
        "zuz",
        "##ana"
      ],
      [
        "##c",
        "##i"
      ],
      [
        "mi",
        "##r"
      ],
      [
        "terez",
        "##a"
      ],
      [
        "m",
        "##ad"
      ],
      [
        "ag",
        "##nie"
      ],
      [
        "##at",
        "##e"
      ],
      [
        "agnie",
        "##szka"
      ],
      [
        "k",
        "##u"
      ],
      [
        "##ol",
        "##e"
      ],
      [
        "mar",
        "##ta"
      ],
      [
        "kat",
        "##ar"
      ],
      [
        "##ra",
        "##v"
      ],
      [
        "##om",
        "##ír"
      ],
      [
        "s",
        "##a"
      ],
      [
        "##l",
        "##es"
      ],
      [
        "##е",
        "##л"
      ],
      [
        "##un",
        "##g"
      ],
      [
        "u",
        "##r"
      ],
      [
        "b",
        "##ur"
      ],
      [
        "##in",
        "##o"
      ],
      [
        "##k",
        "##i"
      ],
      [
        "##c",
        "##ová"
      ],
      [
        "s",
        "##yl"
      ],
      [
        "d",
        "##is"
      ],
      [
        "b",
        "##og"
      ],
      [
        "stef",
        "##an"
      ],
      [
        "##r",
        "##is"
      ],
      [
        "##0",
        "##8"
      ],
      [
        "o",
        "##p"
      ],
      [
        "##m",
        "##ila"
      ],
      [
        "b",
        "##ro"
      ],
      [
        "##á",
        "##v"
      ],
      [
        "##p",
        "##e"
      ],
      [
        "r",
        "##af"
      ],
      [
        "##c",
        "##a"
      ],
      [
        "##s",
        "##on"
      ],
      [
        "h",
        "##as"
      ],
      [
        "s",
        "##ol"
      ],
      [
        "##g",
        "##en"
      ],
      [
        "f",
        "##ar"
      ],
      [
        "iv",
        "##ana"
      ],
      [
        "##r",
        "##ov"
      ],
      [
        "bar",
        "##b"
      ],
      [
        "##ad",
        "##ow"
      ],
      [
        "j",
        "##itka"
      ],
      [
        "##4",
        "##4"
      ],
      [
        "##g",
        "##o"
      ],
      [
        "sup",
        "##er"
      ],
      [
        "##el",
        "##la"
      ],
      [
        "##p",
        "##h"
      ],
      [
        "##e",
        "##usz"
      ],
      [
        "##m",
        "##s"
      ],
      [
        "##ě",
        "##t"
      ],
      [
        "ren",
        "##ata"
      ],
      [
        "r",
        "##ed"
      ],
      [
        "s",
        "##va"
      ],
      [
        "mark",
        "##é"
      ],
      [
        "##at",
        "##ion"
      ],
      [
        "##ch",
        "##a"
      ],
      [
        "##о",
        "##м"
      ],
      [
        "##n",
        "##ost"
      ],
      [
        "pav",
        "##l"
      ],
      [
        "##i",
        "##y"
      ],
      [
        "č",
        "##p"
      ],
      [
        "s",
        "##o"
      ],
      [
        "m",
        "##o"
      ],
      [
        "##7",
        "##8"
      ],
      [
        "##or",
        "##a"
      ],
      [
        "š",
        "##k"
      ],
      [
        "##b",
        "##ie"
      ],
      [
        "h",
        "##r"
      ],
      [
        "##os",
        "##z"
      ],
      [
        "g",
        "##u"
      ],
      [
        "frant",
        "##iš"
      ],
      [
        "##ing",
        "##er"
      ],
      [
        "stan",
        "##islav"
      ],
      [
        "##č",
        "##a"
      ],
      [
        "##m",
        "##ent"
      ],
      [
        "##i",
        "##ra"
      ],
      [
        "vladim",
        "##ír"
      ],
      [
        "##c",
        "##s"
      ],
      [
        "k",
        "##n"
      ],
      [
        "##00",
        "##0"
      ],
      [
        "d",
        "##er"
      ],
      [
        "##к",
        "##ова"
      ],
      [
        "##h",
        "##m"
      ],
      [
        "r",
        "##ich"
      ],
      [
[...]
